3E59C8C9
BCB25922
3E2D664B
BE5D9171
BDF61BFE
BE8AACD2
3E121655
3DCB3707
3E3524BD
BD81FE15
BE42EA4C
BDC97343
3DB4F28E
BD339848
3B48C01B
BE5F30AC
BC7A185A
BE3DF64B
BE59FA97
BCF33CC8
3DC3E439
BCF0498D
3E106D88
BD09E381
BE73F83D
3CF74702
BE0DB9A3
3DF20BC2
3E978190
BE0C9C48
BDC9BF02
3DB91C39
BCEF4C03
3E466490
3E1A1D2F
BE57817A
BEB33517
3D0B301A
BE57A49F
BEA25C84
3DCDB4A8
3EF4B8C0
BF0857CD
3C9B1631
3BC58188
BE2A79E3
3EF544AA
3EDDF7E1
BE96FDA9
3E2EF295
3D022B38
BE012F55
3E23912D
3F351C55

