BE8E64B3
BEEAC98D
BF168F55
BEE43075
BD4EE05C
BE202C9E
BE12D3F5
BE2BF8D9
BE254E3C
BC3A801F
3EA967F1
3EDE65C2
BE93243C
BD9AA6CB
3D76CA8A
BE7029DB
BDE51B7B
3E841636
3E03F52B
3D0429DE
BDDDFF39
3D94E018
3D50A285
BCBDC36F
BD4F4CBE
BC9028F9
BE49FA3F
3C7A0D73
3DB4BC09
BEA4C2F2
BEAF8AE8
BDAB5D10
BE88F641
3E06D198
3EC48334
BCD6A1A3
BE86CC17
3D71AE7B
3E408FBD
3D8A84CE
3D06F159
3DAD3BCC
BDF41B79
BDB2F84C
3DA5CD6A
3E22D33F
3E5D49E7
BE2B48E0
BDB91056
3DD1D956
3E06D07F
3E8864BE
3E3D0A85
3C6CA768

