3E5CCDA3
3E2E629C
BDAB4519
BCED1584
3D105964
3E0E27BA
3D0A8027
3D720F5B
3E030DDD
3C6A1079
BECD2549
BE8CB3D2
3C8845D4
3E652F05
3E4A7565
3D955564
BE1CCBD3
BE9A07B1
3E84DB44
BC618ACB
BE1CE0C8
BE0FC50A
BE3A3ABA
3D6C57CA
3E602C65
BBE99B01
3E6A582C
3D2E4AAD
BE06AFA0
BF10C93E
BEBB8CA6
3D722E03
3E4F18FB
BCF57551
3EC0B9D0
BECDA789
BB2976AE
BEA69516
BEDADF4A
BECB4B0F
BEB21F04
3CE8B6DF
BB6FD777
BC338F03
BCBA1139
3D9663E8
BDCEF462
BE628954
BEA7C912
BBA7C33C
3E51DA6A
BD0A4DFF
3EE4713F
BE8E4AB8

