3D3E7B79
BD1C1E47
3CC173AD
BDB40D77
BE02A563
3E905586
3E528724
BDE65AA9
BDEEEEF3
3D2CEF63
3D6E98C2
BE430211
3EAD4492
BD24D210
3D13D152
BBF1A01F
BE21D7AC
BDC643D3
BDC0DC22
3DE8568D
BC141F20
BDBAAD8B
3E34DD86
BD1BD486
3D0B3A83
BD717033
3E0A2B83
BE0CB082
BD49B77A
3EA81C72
BE673578
BE28EFDB
3C6DABA9
3D307048
BD8E95B3
3F0D6FB6
BE69116E
BE26ABDB
3D267CFA
3D7B1588
BDD6B45E
3ECED824
BE110C36
BE04B018
3AF88FF1
3D6D4830
3DB33763
3C0A63E8
BD80CA81
BDC5F94F
3C6EB3BF
3D78C40D
3F2346AC
BEAA6773

