3D2E34AC
3E08845F
3ED213D7
3E9D254F
BE3CF564
BE3571C2
BD80D0FF
BDE17E69
BD47EA1E
3CD84EC0
BE796D2C
BE50A7C0
3DE020FD
BEBF405E
BEB76BEC
BEB65DBB
BEC25B0D
BEC68E24
BDEE376D
3DB912B7
3E1FCECC
3B1D7518
BE8F6CE7
3C83E9A7
3DED51F1
BE86A358
3BFC668A
BD83D575
BE865009
BE089A9D
BC6E892A
3CB0AB65
BD844ED1
3E451F2A
BED13967
BE8B67DA
3E8FD785
BE382514
BDD40DE4
BE3E0228
BE9B0FF5
3C1D61EB
3E9EB54F
3DA6ECEF
BD06202D
BE0542C3
BE604F3D
BEE19A05
3E318836
3E589DF1
3E8422EA
BDB34043
BE402ECA
BE2A0D14

