3E9CEE56
BC42B256
BD20B208
3E06FF3C
BE3EFE7E
BE56258C
3DAFD32B
3EADD415
3BA25C22
3DD7C3A0
BD373630
BE006781
BE0C4B5D
BDEE8EAB
3CB33574
BD354DAC
BDBBFA71
BC54E154
3D83E317
3E4FC284
3DC4AF72
BDB34DDD
3D61ACE8
BE809F38
3EAD866C
3E4E362E
3E11395A
3E53597F
BE271F8B
BC4E8E35
BCDC51ED
BECC33ED
BDDECB65
BEA510E7
BE804724
BEA63B96
BE6F6672
3D61131E
3E5828EC
BCE5F3B4
BF0C3EA5
3E25C75A
BE81805E
3C88BAB9
BE53938C
BE5048B7
BF2F28D9
BD3BFE3F
3ED8F81E
BD8D7FEB
BEBD10B4
BA26A2DA
BE66FA19
BE60DF2A

