BEAA0E01
BDBECA96
BF1D6825
BED0D50B
3D40C6DF
3D3CAC01
BDC70A31
BD4FECA7
BE03CCD1
BD6072AB
3DCE719C
3DDD944C
3E21D13B
3DB00DA5
3E26FA8B
3EA873B6
BF260823
3EA0C7DB
BE12CAA5
BE6E3D3D
BE3CF9EB
3CA767BC
3E9D9A05
BD24BF58
BED796D4
BC6DF7ED
BDDE209F
BE219069
3ECCBC36
BE13D870
BEEC6733
BDBF246B
BE7D58D7
BD84D7BB
3EB9BFCF
3D367782
3DD572D3
BDC9A2CE
3E5FB114
3E5213BC
3E0233BE
BD4415C9
BD62E653
BE0D42E5
3BA655CE
3DD8CAC0
3E504CDE
BE3C394A
BD06ED52
BDDB555A
BC9711C8
3E2CAA25
3ED94397
BE8662F9

