BE62E0BF
BDB77E2E
BE5ED76D
BE700566
BDF85281
3F0AEBD5
3E312061
BE14D056
BDB468FB
3DE3E10B
3B2D6943
BD621A6B
3EAFD18C
3E1E6C9A
3D8988E7
BE0005DB
BECAF164
BD8F9C1D
3EA75D8A
3E7B5FBA
3D5F3CFF
BDAB20ED
BE3DCDAF
BD52E0F0
3E62B52D
3E54B091
3E35E2C0
3DFC415C
BF11BAEB
BCD62E8D
3E027A57
3D1E3ACD
BCA31E0C
BDDBE508
BF0E9520
BDF8AA2B
3DB89C47
3D96C8FD
3E8275B2
3E17C39B
BE47A837
3DAF4189
BC6273C2
BC9EF245
3D83BB16
BE22AF05
BEA68FAB
BDBEA730
BDFCE8F7
BC8A759C
BCC406D8
3DB10B7A
3E969025
3D9CF7A4

