BE6C7150
BE16FB09
3D753719
3E0C8473
BDFC4A84
3EC69FF1
BE8D4131
3E67C2CA
3DB632C2
3EAC8649
3E6FE868
BD926BF8
BE6B3919
3E062175
BE0F3344
3B998D04
BDCE8640
3E17403E
BD6D490E
BEE114F5
BDDC5932
BDEAE4B0
3DB9A416
3E9D0269
3DE39DE5
3E0131EC
3E9DDF44
BE2AE579
BD35CD0C
BD44B2B7

