BC4C4695
BDF04BC2
3E44901D
3D54940C
3DA5D313
3E0E0008
3E1B71B9
BD171F36
BE0CAAB9
BD511383
BB25DF22
3E399418
BCC8DE2B
BDFC7E6B
BD80A7C6
3D884C6A
3E5BB342
BE15BD51
BE4DCC21
BE221EA3
BE65A188
BE8475E6
BCAB5808
3E8714FD
3C7D08D5
BE6C5BD1
3DF55CD9
BE2261BF
3D76A50D
3E1DFACA

