BE41DD1A
3E279EE0
3D82773E
BEEC2EDC
3D940571
3EDB7E4E
3DFD4A5E
3F0991DE
3E134EFD
BD050481
3E52D98C
BE4B1034
3E16006D
3D1D755C
3D8F1887
BE1EFBB1
BB9CFDD2
3E46F007
BE20B7C3
3D1B5C7D
3E60029F
BE2BD48D
3E349D39
3E90A58B
BF1BE133
BDC3D2D8
3DC8DA7F
BA62C12B
3E9D5D3E
BDDBDAD7

