3DDC9A35
3EBF15A5
BDF28416
3E4895D1
BE843676
3DE4039B
3E4DD2AF
BEA4447C
3D4065B6
BEF05EE5
BD396D09
BE8C6994
3EE94C01
BC93F4AA
BE44FA48
BDBE97D0
3E75C811
3F0690DE
3E9A1D32
3D3A0B5F
3E903A97
BDBD1B2E
BE798A65
BD33604A
BE81F70E
BDFE414E
3EB2A0A9
3E759253
3BAEC8D6
3D8EBEE0

