3CDAF07C
3F074FB5
3CDF394B
3E6C35CE
3B7483CB
3E491AFC
BCD5D1C4
3EA933E3
3E5057D1
3D8C1A05
3DDAE4F3
BCDC5F7C
3CA2F8BE
3E0EFBF4
BEB7FB48
3E90027E
BE0552A0
BD63F35A
3EA6616B
3DD3482C
BD6D1D04
3EB4853C
BD2C1D2A
BE7DA33C
BDBF47FA
BE859BA2
3D07820A
BD99FA98
3E4F4CF5
3E9335D2

