BD966BE8
3E4DADFB
3D298351
3E1D2ED8
BD7CE421
3EA4A516
3DF67019
3E975E42
BF215193
BE5DF762
BD139863
BED543AF
3EAA671F
3E8166E0
BF505F39
BD79E27A
3E2D5992
3D214AD3
3F0F3E9A
3E129414
3EB36B2B
BE0521DE
BD06F7A1
BD58D478
BF28F627
BE8817DB
3E177964
BEFEDD05
3CFE6927
BEDD5A5C

