3E08DC98
3DEEBD4D
3E3A4591
BE4537A0
3E0B8280
BE272086
BE3C2331
BE84430B
3E2E8965
BDEE4A7B
BC68C8AC
3E4C1F86
BD064BA9
BD27913F
3E712E84
BE6E93E2
BE55FD48
BCC23960
BE84A07F
BE7AF3E4
BD82730C
BE73C537
3E544F1A
3C981388
3E435D68
3D530CED
3DAC8366
3D0D716D
BAB34E77
BDD26D05

