3E15592E
3D5A6A44
3E397A25
3E8B27CC
BE183DBC
BD97824D
3E37164C
3E8E1911
3D1A6E76
3E025FA6
BD8A3A4B
3EA16AAD
3E06FB8F
3E23443D
BCB3F20A
3EB00A5B
3DC43676
3E8815E4
BD5D53CE
3EF4DB16
3E352008
3C1B77C0
BD39181A
3E6BD1AB
BE01908E
BF09525D
3D551F82
3E958666
3E8526D9
3C84F6E0

