3ECCAB1D
3E985B18
BC48B439
3DF52114
BEB83B60
3EDA73F7
3ECD4E09
3DA0431C
3E0DDEBE
BEB46F37
3C8B9991
3E370B4A
3DFD3911
3DD157AC
3D09B952
3EEC58EF
BE014CA9
BD80D456
3D289332
BCCA01AC
BB7C0D2C
3E890FD8
3EA9CE29
3C781A58
BE4DB164
BED9A0CF
3DD3F291
3EB7CDEE
3D49E01E
3DC9E2BD

