3E863822
BD2AE297
BD5DB014
3E891B1E
BE74BFD3
3C372C52
BE923E5C
BCC8D3AE
3CAF8594
BE0DC1A4
BCB7CFE6
BE05F245
3D48EFFE
BE79AE0C
BE9849ED
3E0A059A
3E120C07
BE7D9F90
3DD227D0
3DFE18F0
3D12CF10
BDA81CB4
BD85DB77
3E8A28DD
3E439B89
BE61BC12
3DC489D2
BE38FA37
BE0D23D5
BDF607C4

