3E411FD6
BE264990
BD98DCDB
BE2DEB96
BE6409E5
BD783DFF
BEEF8EE3
3D912125
BCED97B3
3EC15E18
3E6F7985
BEECF377
BE5B0F6B
39D349BF
BDD77857
BE28DD1E
BE49578A
3DADFCE3
3EF2AF9B
BE295AF3
BCD54541
BD7C408E
BDD64389
3F083DEE
BE814B7B
3E90E5A3
BE34C09C
BED09204
3E9601BD
BE0FEA81

