3E7009F6
3E6D8384
BE050332
3EAFCFA2
BDA46738
BF0C6013
BE634CA1
BE1DD4C7
BE6748A1
BE4C9214
BC9F72F7
3ECE3CDA
BC62CDC0
BD877143
BEF46089
3C772713
3F1A24AB
3E9F720D
3E0F53C5
BA202B84
3D57F844
BE8562E1
B926B93D
BE1A1D75
3E69014B
3EA3DFD2
3EE2DB40
3E98B60F
BE472FBA
BF00AAB9

