3DD05D96
3C8D477C
BDA5692B
3E2DEF41
BDA3E964
BD73F317
BE0155D6
3CA55F35
3DEF4278
3EC5972D
BCF39086
3D58E432
BE1A8E71
3DA3D35F
3DB44E51
3DA19546
3EBC2F1F
3E9EF955
BDFD50A9
3E24E593
BDDA49C3
3E2E596D
BE46B980
3E4FF477
BEFFD34E
BE86A2D3
BDA83E42
BCF1D81F
3EBDD5B2
3ED154A8

