3D731D2E
3D1DBEC2
3E091B3F
3DBB4917
3DF46D40
3D99D55E
BED52D45
BE99ABB0
3E46F8F0
3D80E6B0
3DE9FCF4
3DD6848C
3E54CCAB
BE1513B6
BE2D5CFB
3D7EBAF1
3E85BCED
3DE17870
3E75A145
3DB252CE
3E16EEFA
3E530CED
BE602A78
BE44B5DD
BE9304AB
3E8F5169
3C0244E9
3E8B293D
3EABC255
3C7F5C6C
BE999653
3D9E9EA1
BE93DD33
BEE15AD1
3E39E3C9
3E984F09
3E4CA255
3E03C07F
BDDADEA9
3E1ECB32
3E0E8CCE
BE8DD207
3DC5D9E4
BE22502F
3E88EB89
3DEB51BD
3EAFC632
3C9CEF24

