3D4409E5
3DF8ED1C
BC801F75
BED24C40
3D80C0F0
BEA7CAC9
BE55803D
3E14ECA7
3E6331E4
3DC86F8B
BCB382E4
3DC2E98A
3EABD35F
3D005A2D
BDBD6F97
BEF838C1
3E51EFB7
BE69A3D3
3D304BC2
BF06583F
BC91904B
BE41E68A
BE819829
3DDC371E
3EC2109D
3EBB4B73
3D3B2DD3
BD408B76
3D9BC44C
3E68FBCA
3CE0913A
3E89FC8F
3DD1EA79
BD9FF36B
BF1365BA
3D22E3C5
3D6D9DFE
BB64DA0A
3DCA3593
BE45EB31
3EA1C77A
3E904CCF
3DD8FE69
3E0B36BD
3E0168F9
BB6F1349
BEB869C6
3E45F6FD

