3D067AD9
3CB20536
3E0EB181
3D91105E
BE697B31
3E7A9D1F
BE6455A8
BD8F5A10
BE33608D
3D80CB6C
3E1B8349
3C87E9D9
BDBAB863
3D47CA64
3E830510
3D463498
BE2E20CD
3D908BB9
BDBE0F80
3D145B6C
BD3A3EC0
BED16F87
3A3FA094
BD57F844
BE1AB863
BE79CB68
BBD4CB9F
3DE67275
BDC2E0A0
BB1FC6DA
BC57ECBB
BE94B03A
3C430D30
3E4DE97D
3D39FBA4
BCE64F55
BE42DCF4
BD38316A
3D7D8277
3D9DB552
BDA851A8
3D0D130E
BE6B8F15
BCBE3194
BC6F9DB2
3E16466B
3D9BD838
3D2C41DD

