3DA8B008
BC2A087D
3E90420F
BE9EECE1
BD3A82E8
BEBC3223
BE8509E1
3E00C5A8
BD807F67
BD396D09
3E3F2A17
3E91B62C
BDFD7BA6
3B69C454
3E50E12F
BEAEB7CC
BD791F71
BE2100E7
BE311E43
3D721709
BD126C7F
BEB769CB
BC434C1B
3E24F6E0
3E9CA0E4
BD51F81A
3E279EE0
3D0BAF96
BD07FDC6
BE8D8EEB
3D59C9D6
3E032CE9
3E13AB00
3DD0BF1A
BEEDD0FA
3C7AEBC4
3D697AEE
3DCB039F
3DD8D3F2
BDDA8AC6
3E67357E
3E5C2E34
3D0DAB19
3DBD933E
BE2BA909
BE9C1312
BE5CC682
3E1E0AC8

