BBEC1D0C
BDECBBF4
BCE85A94
3D2EC871
BD61A11B
BE3D925C
3DD711B8
3C613B75
BC151D44
BD0C1F38
BDD21653
3CEDF7BF
BC486B38
3D77A1FC
BE202B22
BC4EA462
3E986AA2
BE3875DE
BE3F0C7D
BE571514
BE0938A6
3CB9A017
3E55B69B
BDB0DD3C
BE229795
3C899E31
3E461A9A
BD962FAC
BD05F6DF
3CAC9A5C
BD3982EE
BE62A5EC
3DAA85BB
3DD47D64
3D5A47C2
BDC523C5
BDEAA427
BC8958C5
BDD7FFD5
BD9AA861
3CAE03A8
BD2957A8
BE23A41E
BD5EC895
BE470B3F
BD9D5009
3E90267A
BC8B2206
3C62D84E
BDA809EC
BE002665
3C119E5B
3E479BF0
3D8933C9
BE070A8B
BEDEB14D
3D473DD5
3E1BFFDA
BE4AC8F4
BD099250
BE4BE02B
3DCE9A34
BE8D9709
3E236AD2
3D4A7D60
3ACFA606
3CE697E6
3D63DF5D
3D3A0418
BEA894BE
3DCDF0F4
3C29C0D7
BC87D6FE
BBC6D2DF
BD45BDF3
BDA98A1D
BE3C7FE6
3DC0767C
3D1725A1
3D44D68A
BD94F4DD
3D9F137D
3C8EA522
BCBE2711
3BA5182B
3C6BF483
3CA316C8
3D61C141
BDD2F59B
BD8DE1A8
BDCA1350
BD0CEEC9
BD552419
3E18A2C5
BD92D604
BE1C4779
BC49BE46
3E3958DD
BE785E06
BDFD10BE
3D48F13E
BD322733
3E1FB93D
3DCEBAB7
BE00CF40
BD909E92
BDC8A50B
BE7F0A74
BD8068C1
3D179E83
BE2E2ED9
BD92E0A9
3D80599B
3E0E3126
BE1AFC27
BE76268A
3DC04458
3CD010E7
BE5DB692
BE82AFB9
BE81BBEF
3E227201
BD98D5E1
3D746637
3E07EC7C
3D35ABCD
3E4002A7
BC295F50
BDBE2854
BEB84816
BDF78373
BD8378EB
BE2D2E70
BC9C46F6
BE101B78
BDA5FD36
3E4E4D1D
BC8276A6
3E1796C3
BE3A5389
BE290037
BDBD01EF
3C608C4F
BD35B4D0
3D1761FB
BC5B3D88
BC2A880D
3D03E002
3D3E81E8
BE06DADC
BE4C3A33
BE25DC76
BD3F9492
3C512117
BC66026E
BDC8CBEE
3E2B22FA
BC1DE9F3
3CB69ED5
BCA9E9FA
BCA5201A
BDF1CA56
BB769729
3DF2D741
BE044AA1
BE5357F5
BD5B1DA3
BDB11683
3DEAC6AD
BDFB0DFA
BDA38F4F
BE1F83FD
3D6AD926
BD330B3C
3CB35440
BE474ECD
3E37083F
3D9B219B
BCE5A517
BDDAFDD9
BD5E6935
BE887BB4
BDB31AD1
3DE4530C
BB8208B2
BD68C9FD
3E2089DD
BE397886
3DDF0917
BE744FD8
3BB4BCBA
3DF02B71
BE414C37
3C8650EC
3E1AF891
3DAA38D2
3E50750B
BE1852E9
BD54EACD
BE200C5A
3DC73C85
3E097151
BDE4C2E5
3D75AF7F
BE00704A
BD31815F
BE2938CA
BD28FF34
BD57C7EA
3D3B94A2
3C5FC7FE
BB06DA76
BD93B83E
3D9DF8AC
BE07CCBE
BE516480
3E9323A2
3D7D3394
3DFFD182
BD67D6F7
BD8322C0
BE1F9064
3A6B3B9C
3DA8D604
3E48BE9F
BD9A5634
3D77524B
BE0B8AD8
3DD9D7A0
BE312E4D
3DC9D2F8
BCACACC5
BE7F2A79
3CCE6949
BD60B821
3DC7981B
3E405943
BE13C093
3D49F843
BE035171
3E074EBF
3E689BD3
BE86D6C5
3D895DB8
3D96A1E6
3C3E1287
3E3E5E3F
BE37D531
BCB0D243
BE8FE1F2
BDB5CB79
3E4BA263
BD91CE85
BD8DB834
3E4DD543
3CE67586
BD917024
3DFDE158
BDEF965E
BEA314C1
BD06A294
BD11ED71
3E083D29
3E01D7CF
BDDE52F3
BE95DA9B
3C814931
BD0D65AE
BDD4AA79
BE83DC16
BCEB8292
BDB90AD1
3D8E0FB8
3B4B0373
BD42A802
BE1FB8AC
BCC9B729
3DDAD89C
3C36FBBB
3D24D5A4
BE1A7643
BCC0F387
BD847241
3DB8A602
BE1501A2
BD536952
3E65CBB5
BBE409DA
BB0C1ACF
BE17F7D5
3CC66225
BC979B10
3CA86D11
3CE7169F
BD789802
BD5ABCA8
3AA27F08
BD7DC267
3D5C6966
BC24E8EE
BE46B699
BD9A5BB3
3E3DD373
3E0274B6
BE14B42E
BE7059B6
3D97E577
BD85E3B3
BDF82B8A
BE605D03
3CCB5239
3D857052
BE150A47
3D8D894C
3E1B531B
BD6ECA3E
3C89130C
3DBADC2E
BD8A2032
BE31C19B
3C187A44
BC8C4FA6
3D829F01
BD2957F9
BD373AB5
BE0992EA
3DBBA4B9
3CCD8777
BD71CCA5
BE987BA5
3DB43E7E
3D1D519E
BD84BFC4
BC2FB8BF
3CF3B460
3D7219CE
BE38F85F
3DB94129
BC47F4CC
BDF2A3D9
3C77A1F5
BD0D89C1
3C868E14
3D6F16B8
BE0702C5
BE8C788C
3D9ED0C8
3DA0A584
BDEA2DAA
BEBB4B9D
3D55DA26
3E0B3CDA
BD41D216
BDD61B8D
3D8CF884
BDD88A54
BD3BC4FA
BDFA1008
3DD66478
BD4C71B8
BC0CF6CD
3E8A8DB8
BDA476F5
3CE21CB5
3D7EC050
BD14397D
BD185D29
3D9D7AB6
BD90E77B
BE8C635F
3D078F91
BDAE4A22
BD23006A
3C5D8D89
BD9CEE57
3D3A48E9
BDD82540
3C910F0B
3D74023D
3DAA1DE8
BADF592D
3B11F42E
BE4E3B7F
3C93A223
BC999671
3D76F61F
3E29AC2D
BD12C41B
BC41FD20
BE2C0265
BC0F0A8E
BDC15659
3D3D9B39
BCA40594
3E24ACB1
BCB20038
BDA0DBC7
3D53ADB9
BCA6DE7E
BD29EC0B
3D4445AA
BE4D05C8
BC00E66F
3D64E46C
BE2435E2
BCE074C9
BD27C7C9
BDCD3D78
3D04EF80
3D4FAB22
3C3D3C22
3CEE9210
BE613EF1
3DCDBC2D
3E3D5885
3D141FC6
BCD54675
3DDE11D2
BD1624CE
BE550DE1
3D2C5ED8
3DD5C47A
BDB1AA59
3B196C62
3D782CB5
BDC8702A
BC3F6FDA
3D6262F9
BD90F8C1
BD3B33CD
BCC40C53
BCBD956A
BE48A516
3D7652CD
3E2F68BF
BDBEF8F5
BCAA645C
3E81AADF
BD8AE7FE
BE6043EC
BE3138C3
BD249378
3CF27608
3D35722E
BDAFF24D
BD13E49F
3D8BD5E6
BAA483C6
3C9AA624
BE152B48
BD55DC32
BC797EB3
3D9D3634
3E00AC27
BDB974D9
BECD6940
BBEFDDEB
3D4A9521
BE1CCED6
BD782F05
BD853EB8
3DD4A738
BDECA358
3B0B5974
BDCB5751
BC58D112
3DA1BE18
3DD75F29
BCE0D5A2
BD03BD4F
BD85384D
BD3952B0
BD664595
3DC737A8
3DAE8DD1
BD8A2B50
3DE2CB95
3CCCAE1A
BD229A86
BE4630CD
3D58C06A
3E454354
BE581147
BD0AF9B3
3D138A4C
3A741567
3CC06390
3DFB205D
BD2A948D
BE915036
3DC29B77
3DAC4A2B
BD3F2C17
3BA11CB5
3D639EDC
BD8757BE
BDDDA4F0
3DA3367A
BCA5A85E
3C9112DB
BC8FD88D
3D8ED246
BE6B7F58
3D1B653E
3D2E0FC5
BB9F8393
3D83582C
3DAB5417
BD99D320
BE595322
3D79146D
BCD385B6
BC900B81
3CD85B3A
BD840BF9
3D973CE7
BCD1541C
BCC56B23
39A4FB1E
BB1E28E4
3D8CC45A
BCBBD2BC
BC57B449
BD137743
BD8FA10A
BD392152
3B28B376
3D2F3828
3BD5A32A
BCD721FE
3CCCE955
3B2B9411
3D2D2BDC
3DF49C65
BB1C5925
BD73E300
3BBD21AE
BE3A7924
3E1E3AEA
BDE0A3A7
BC23ABCE
BE6556EF
BD52CAC6
BCA6C3F7
BD23E6B4
3DA0D3B7
3E1CBA2E
3D604E59
3D480B18
BD0DD466
BD0DFA3F
3D4010CE
BC47241B
BDB6977F
3D582CC1
BDCDFFBD
3DEE6CD1
3DE22267
BD441EC1
BE2BB0D7
BC7D6346
BE2A7495
3DD10700
3E3CB370
BC83700A
BE232942
3C06BA87
BE1A8FED
BD426959
3CE7A672
3D5ABEC2
3CE826EE
3DA6C546
3D7283D0
BD7DFBEF
BE46FEB0
3E29A3A4
BD2CE61F
BE11EE8A
BCBC8C18
3CCC1012
BDFDF0A9
BDAC64AF
3D6D0EF5
BDC2C59B
3D173A70
3E2A3502
BD5AED36
3CDDD80E
BC91BFF4
3CE6A5FB
BD35FC84
3D3EE5FC
3DDB38CD
BE50A3D7
BE5475C0
3D55CF79
BE0A65D4
BE0DE91A
BD951789
BD0C336D
3DDF6B88
BE66E2A9
3D6B38C4
3BA582E9
BE0B6CA4
3DCF11B3
3D911EB9
3B89F436
BE88C8E1
BC36D5AD
3E40E94D
BDAE0649
3DF91970
3E15729E
BD02C5AE
3B45A2EA
3CE1778A
BE1AB8AF
BE963C7A
BE861A59
BE395A5B
3D197D80
3DDE8B9E
3E180CDC
BDDD7E49
BD9051E4
BD978B18
3D5F2CEF
BCC4A631
BDFE9C8F
BD1EB4FA
3D4775CB
3D829635
3E42640A
BDBC13C4
BD0757E8
BB92265E
BDA42A05
BD57AC58
BE304A76
BD9D8856
3C97CE98
3DCAD302
BE6E26B7
BD965B9F
BE049D87
3D3FC8C4
3DAAA56F
3D82AD33
BE3C85EA
3BC6DBAF
BE61B0C0
BE38E389
3E61FB77
BDE3797D
3EE0DEFC
BE0CB52C
BDCB58F3
BF037E7D
BE8000A5
BD0D1028
BDC4A13E
3DE778F3
3E35C8CE
BE37C788
3E6AB93D
BE165B82
3D490B7D
BF09F7A6
BDB52A33
BD00CB62
BC685BF5
3D3AC9C4
BE159362
3DCF4562
3C878A93
BC1467C8
BCF85B0B
3D9070D8
3D3DB23C
3D97A66B
3DB779D6
BE5427A0
3D1D54FD
3DE904A3
3D9D199B
BE0AC36E
BD0F2795
BE5B374D
BE25F5FB
BDC428FA
3CF479C2
3DD8FCC9
3DDF8C81
BDFDBA2A
BE18A7D2
3E2DAD75
BD7AEAF7
3DDFCF89
BE099464
3DD713F8
3D6A3F38
3D0874E7
3D1835AE
3D91728B
3D6F5892
3E105457
BDBF373D
BEE38C9A
BD49963F
BD088A5D
BA822CDE
BCEE02DC
BDB31044
3D045D3C
BDD05A20
3CEF94CD
BC02C726
3D9E3B11
BD906A5A
3DD42677
BE0B692C
3E3FA791
BE84948F
3D7146F2
BD2DC663
3D28AC46
BBCF4612
3DE5F006
BE79CA9B
3E08EC7E
BACC9093
BDD66548
BD9FD4A2
BD8F5C89
3E6610C6
3DDEE2CD
BE1DA4D5
3D0AC6CC
BE1D2853
BE715824
3E869A69
3D1D1E44
BD966623
BED29665
BCD73394
BE9DBC44
3D8635ED
3D0B25B6
BDAACE70
BE13408D
3DEFA48D
3E222FEC
3E010071
BECDC7A5
BE22958E
3DC2B446
BE0E3068
BEA5DA83
BE8584FA
3D1DFD68
BBF681ED
3CD2309B
BC683934
3D0F3D10
3D94AE0D
3E18E42E
BCDEF8C5
BE924AE2
BDFB9F4E
BD515E94
3D8A7738
BDE34AF0
BE38A950
3C508650
3E747E56
3D15BFFD
BDFF9120
BD6DB9A3
BD51A805
BCEE9196
BD400854
3DEA65D6
BEAB2049
3E69957E
3DA9CBEC
BDDB18B7
BBFFEC34
3DD5123C
BD9067FA
3DC760C1
BE349081
3DDDD8B7
BE4B594A
3D31CADB
3EA23327
BE836727
3D1549D7
BDF6E14C
BC58436B
BE543A0C
3CB679D9
3AA88FE4
BC375FA7
BD795DD5
BC2EFA74
BD868F0B
BC00EC4E
3E130ED7
BDE61B55
BD95C70A
BC9D3DBC
3D3C0A2A
3CF12274
BDD4E6A6
BE052910
3DB6162D
BD22BF22
3C09D4F2
BD3CD64B
BED3B874
3D5C958F
3D9C43A0
3DBCE579
3CCBE961
3CB5D8BE
BE16D038
BCAD8D43
3D01DF12
BD0AF92F
3D38C9F7
BC2FC5E4
3C260D44
3E4ADDDB
3CA9216E
BD9B2BF9
3CFA91AD
3D5A17F9
BDA4A04E
BDC4BD79
BE6DCED9
3D4B8232
BCB71B20
BDB2B08C
3D301D53
BE9CD525
3D9744D6
3DAA1C5F
BAADCD8E
BC3EDD17
BD1C5DA3
BD1400E1
BE3309ED
3CA00639
BD95A56C
3E547C13
BC9E6336
BDB1EBAA
3CF1B861
BD28E591
BCBB7B70
3DA1D625
3C96BEF6
BDD96B83
BD9B9B54
3D211A7B
BD8B77DA
3DBFAC82
3D80F46F
BD5A5643
3D62E814
BC982BCF
BE136DA9
3D8E9F49
3E21E6D7
3E379BF2
3C94EF02
BD273658
BE4C2DD1
3D468F88
3D10FFE0
3D1AB301
BD38547F
BCFF8384
3DA3DA46
3DBF4F33
3CA8DED3
BD3DA983
BDD0FAF6
BCF912AE
3E7ECBBC
BDEF2CEF
3D97EA69
BD3CF476
BACFC10A
3B69C15C
3E252E01
BDE830EE
BE956DAA
BDFF7571
BE0579B4
3D5A961E
3DACDADE
BE30FFF3
BDA156C3
3DCD5CDB
BABBAF41
BCBC37F4
3DC7A2DB
BCB5CE5A
BD458E24
3CFB3D1D
3D445A39
BD69473C
BC08EDA8
BE153A11
3CF1C7C2
3DCE8A8B
3C346C30
BD1A16EA
BE199045
BB488359
BDBCC77F
BD4FCCD6
BD4E1DDA
3DD708DA
BE0021C8
3DF78670
BDAE27B3
BE46A59C
BDDCD01A
3D1AA13E
3D50FFA5
3D9B7D8C
BDB3D44F
3E3E5078
BD97C6B4
3CE57668
BE402D6C
BDD54003
3D9EDEA6
3E76221F
3C8555FD
3C86BC9D
BE972684
3D67154D
3D7A031B
BE871A1C
BEA8BB4E
BD61A497
BD0D5652
3C49B094
3CA4D8F0
3C26B533
3DB0A327
BE685B78
3DA3B611
BC1D7A17
3D1A4BF5
BEB75265
3DA8FE0D
3C656EC3
3DEF001A
3D3889CF
BE4B2C76
BEA0A6C8
3E5B2788
3C5E77B7
BEB8D0BA
BDB3207E
BD8AC1C1
BCE1750B
3C6900CE
BD8682C6
3C921087
BDCFCEBB
3DA79F05
3A8FB912
3D77F974
BE6837B7
BD34AB66
3D1906BA
3CC5C587
BB086419
BD6D0AAF
BD6F4B09
3E6557EE
BE1AF52A
3CD689FF
BCA0CBE9
3E802FAC
BDE0A663
BDC53F52
BEC5A8CE
3E4C96F6
3D830BD2
BD15F784
3D06A5B7
3E511B8F
BD2D551C
3DC14D0C
3D058819
BD011258
3DD47C60
BD2C6DC7
BC96F179
3E1EC064
BDA7557C
BE812B9C
BE00C67A
BCC092EE
3B3D82C1
3C145EB1
BDB4838A
3C51CE69
3C80CADE
3D7965F7
3D59F462
3D41FB68
BBAAE959
3D978AB9
3DA2C8B9
BD3A9A87
3E1E4BAD
3D871E6A
3DA693BA
BC05A858
BDE36858
BE877E85
BCDBCCBF
3D757089
BC83550C
3D1BE33D
BE72E505
3DA805FC
BDF8F2D2
3DC83201
BDF0BF80
3DEAE71D
BBCA4751
3C0F2E97
3D0E5AE4
3CACB05D
3C694F41
BDA16A34
3C463CAE
BD6F7709
BBA16D14
3C62E960
BDD9393A
3DBA1CE2
3B1972E9
3D498982
BD86123D
BD30DD8C
BDE23A7F
BCA66546
3D2A2258
BE98E1B1
3D1A4AFA
BE44507D
3DD7E61C
3D84FD75
BE52CDC2
3E001BD1
BE0F7086
3C07FCA6
3E1E9AD3
BE6DD16E
3C796425
3C18F6CA
3D801EB9
3C5902B7
BE3A59EE
3D3CF690
BAAB47A2
3CE08063
BD7C1397
BD421C8F
BD87992E
3D9C39EF
3E62AB37
3D99150B
3CF70940
BE7DFE32
BD80E242
BC847ABF
BDCECCC1
BEC54FF1
BDB97523
BB974BDA
3D9509A2
BC52FC7E
BD4FF274
BE8EBB62
BE7C4B14
3D9102FD
BE1276A9
BD8CEA21
BDF98038
3C89F4B9
3B370B14
3E83CFA1
BD7CCA1A
BCA479BB
BD895F39
BC8ECF65
3DB0FD04
BE758615
BE6830D0
3DBBC3CE
BBC7C336
3DD7A957
3DD736C3
3DA4C0DB
BE87DB60
3E1A4A10
BD0E6433
BEFD2CC2
BD34F2DD
3DB6037E
3E4CFE1B
BBBCC010
3C8FFFC6
BCB00416
BD70970B
BDC1AEA2
BD4B97D5
BE750BA7
3B6139D4
BCC0E413
BC1B0AE8
3D1CF81C
BC5632EC
3C2DA1DF
BE2EB9A2
3D106B52
3D5793E5
3D851CAB
BD88E077
BC11BEC7
BE0C0C1C
3DA047F6
BD508BCC
3D9E41E2
3D942AF7
3D7EADD0
3D16E42C
BE807C77
BE13E9BF
3D1D41BD
BDA9E0C1
BE7303D1
BE9ED217
BDAF3017
3EE82F2F
BE1164DC
BC54F0BB
3DA2F334
3A97A957
3DB1A276
BC82BB04
3C5B3E6D
3DAA7ECE
3CE5A47B
BE31F3D5
3B404BA6
3C75EB5E
3BA7795C
BCF2D2E6
BE344BAA
3D676035
BCFBF94A
BD74A69B
BDE1DCAB
3D93D91B
BDBC243E
3D1B339D
BCA420EC
BE187508
3D6A1EA8
BE17EA5B
BD745DA5
3DED516A
3E113E10
3D1BDAD8
3E36B2E7
3CE0C36D
BE6DCCED
BD50A266
3D44E45E
3C678513
3C8A9606
3DF1F4CC
BDAFE643
BD33573D
3E0C4F78
BD6C624E
BE200966
BD5671E0
BE163A3C
3DD37212
BD3FFAE5
BDB24D51
BC193F8A
3DC322DC
BD8D3DA6
3DFE45E9
3E03576B
BDF5D55C
3DFD8C54
3D369AF2
3DD92D17
3C181190
BE482172
3BA6FBEF
BD3FB057
BD595E86
BD294646
3C4F0BF3
3DC2A066
BCAC97DC
BCED6679
3CB676A6
3D6E6F9E
3D377976
3D108E8E
BCDF9864
BC126637
BD3568C1
BE1B8FEB
3E7B6BEE
3E0D6259
BE000E36
BE949827
BD0DBD49
BE51B6BC
BC0E59DD
3D3608B4
BCAEC46E
BDEB7083
BD9C1BB6
BD698358
3E126BC4
BCB15D2D
3E004962
3D7BFB2D
BD1CA2D0
BE3CBB58
B9BC2378
3D2B5580
BE03BC68
BD3F996C
3D1F075F
3CB1E91F
BDFE813A
3E997335
BE02224E
BE95ECD4
BB12086F
BE04797A
BD357F79
3DD42BBA
BDC4B0DE
3C8BE044
BDFE7FC4
BB4B72CC
3DC7B4E0
3D22F153
BD0F9D25
BDDC60F6
3C8D24C5
3D43B744
3CB66BD2
3DD2E32C
BDA4076A
BCB92528
BD105F1E
3BC50D78
BCE5057A
BD8D0F53
BB38C551
3DD15699
BEA8B8F3
3D02A89A
BCE34677
BD38D468
3BBE2F3D
BD1B3FCC
BE0FE528
3E8B7147
BE80DC17
3CA17049
3E24C1DA
BDA81888
3DD6109A
BDD468F2
BD4414D5
BEB214B1
BDB8964F
3E4D19EB
3E3174F0
3E249A71
3E869FB3
BE840E07
3E7E4A6D
BEBAAB37
BE7D1EC2
BEDDF55E
BD186F88
BDCA26C8
BC8E0788
3DA35D80
BE927A3B
3DA28982
BE10676E
3DBFEAD2
3CB44121
3E0709BE
BCC68F90
3DC0D86A
3BA4B5A5
3D3637BE
3DBF7156
BC1F6DA9
3BD26B7F
BE3EBFC1
BCBD8376
BE45B938
3C14BD8B
3E02175D
BC303EF3
BBD027FC
BE7C611F
3E0933A7
BE38C8C0
3E118E0C
BBC963DF
BD4FCC93
3C34F5E9
3E059813
3D77DBCD
3C3B1A6F
3D753FE5
3D3FEA51
BD8C652A
3B33197F
BD637C0E
BEC5FD09
BC28A203
BCEDAF78
3C795079
BCF96907
BDBA3D86
3C9C39B5
BDC6833C
3D681EF5
BCBD93FD
3CDD4841
BDDFDDE3
3E5AB2EC
BDA743EA
3E3F2625
BE21A028
3DB900B9
3CD7CA15
3D83E707
BD233CB0
3CAD3555
BD60B321
3E0DA639
BBD18A07
BDBFA770
BE801783
3E359822
BC4E9F24
3D5264DB
BD638EC5
3D24CBB3
3D4A36A5
BD09AAA4
3DFB1975
BD41D2D5
BE68F74D
3CA00855
3D899AA3
BE93252F
3CA36625
BEA974A5
BE0D69DD
BDA389EF
3E109109
3DAF9C58
BBB7DFF0
BD8DF419
BE544F2A
3D28EB9E
3D953223
BE35D6FF
BC199E0F
3DFDD60A
3DE16B46
BCA076C8
3DE63AAB
3C707744
BE2F708A
3D7EB157
BCB46E5B
BECD96AC
BD06D176
3D819684
BE594B7C
BDFD62C3
3D7AF631
3D0251C4
3E3F4934
3DAA8A06
3C0D81EF
BE29FAE6
BDE64D0E
3C4D3E06
BD9CEAF5
3E16552F
BE721883
3DA4AACA
BDA55D3E
3D24529E
3CA410EE
3D99CA51
3D576671
3DD4EC8E
BE0826C7
BDC8B92F
3DA9FA9E
3D180E50
3E0D0E00
BE91FDC8
BD6D919C
BE410015
3CB3F86F
3C3564B3
3DD6F884
BD3BE4C4
BE8275BF
3D50DF56
BC90961B
BC335129
BCAB4827
3DC55D63
BC51558E
BDDBC5C5
3CC0852C
3D50E18C
BE8FEA24
3DACE462
BD97F5FB
3DCD7977
3C8DA38C
3D830FDA
3C9573A1
3D3640AA
3DA1709F
BE204684
3CF67760
BDE30441
BD080135
BDC4DCDC
BCC568D4
BAB40F9E
3B1CB278
BB474A42
3D3D3F1F
3D85E797
BE08FE23
BE1362BB
BE1201FA
3D1E4D34
3D468232
3D154D86
3D426CE6
BE6E8FCB
3DAFE83F
3E195107
BE08F36E
3CEA120D
BECEFF67
3B86BD60
BD958980
3E4B9A03
BCFEA005
3DCD859A
BE37FB2D
BE6884A1
3DD3C7E3
3DB23E91
3DC8FCAA
3BD5D2D0
BD3F81AE
BDE079BD
BAF0C7C6
3D782B38
3D9E2816
BD525DED
BD23D153
3CFE03A4
3D4B33E8
BE24AB0A
BB93AE80
3D938B77
BE97E8CA
3D11C14E
3E050DF7
3D327526
3E6A2E2F
3E07C647
3C179F8F
BEB2D9F8
BC921796
BE75C9E1
BDD6ADFE
3DF9F043
BDE4E830
BC390044
3DE4C279
3DE05476
BDAF4E28
3CA373A7
BC6AB0E1
BE2DE6D5
3D5BA167
3DDCD51D
3DE6F5C6
BD22687F
BCC2F571
BD9DA625
BDAF2C44
3DA7AC0F
BD1BBB29
BDA5FE3F
BDC7CA6E
BCFE32BE
BC51CD18
3D26BF49
BE5D261D
3D88415B
BE0A912E
3D4EC479
BD07BFCC
BC45579A
BBE14F7D
BC07652E
3D5BA318
3CF2DCA4
BD31A238
BD3B58E3
BA82C1D1
B8E582F4
3D02AE2E
3D29441B
3D4CA536
3DCAC13D
3D497293
BE3FEC05
3CB2C675
3C6DDA15
BC68B50B
BE0AECE2
BC2F5930
3D7E7DFF
BEAAB86C
3DA575A2
BDF29C4E
BD98AC94
3D1E8277
BE4193F8
3EBBF2E0
BEAEADF6
BE43E412
BEE5425E
BDE966CF
BE1A1E93
3D88D3B4
3E3245F8
3C5AD147
BEB5EB26
BDD43238
3DD4C510
3D648D5E
BEBFEC13
3BB72EBD
BDF59ECF
3CBAC141
3DA482C1
BE25AFAF
3D8845B3
BE29B23A
BBFFBD68
3D1630A9
3D5F140B
BE3A1E88
3D279640
3C5F58D5
3E48BC79
3CAE48B1
BEC7E476
BED72982
3E52900F
3B5172A5
BEB56657
3CF78DC6
BD075001
3D08DD49
3C080FE1
BC9C0622
3C85010A
BE15C93B
BC2AB7BA
3D78660C
3D1127FB
3D825C0E
3D6D5915
3D0B344A
BC106342
BE4B3029
3DA74C02
BE31D0A9
3C9A770C
3CB5ADDC
BDA959DD
3E4D35EF
3EC775E7
3DA44C90
BF167E79
BE895179
3DC472D4
3E321A45
3DEC67D7
BDADF33B
BE38ACC8
3D45D4A4
3D0EB69F
3E0C2536
3C806155
3D6C1086
BE133818
3C957421
3D265273
3AAE0218
BC1014BC
3D8FBDFE
3E402581
BD7511BC
BE5EC513
BD7DFE6C
BE11D65F
3E6EB003
BEB57B93
BDBE5D54
BDACFBEC
BDC74578
3E314F81
3D2FF6EF
BD73C223
3E04F0D2
3DCA1DC4
BBD1912C
BE1438A4
BD5DB39F
BE8D4A97
BD9AA483
BE157508
BD2F7E30
3DD457D9
BE83093E
BC090610
BD5FBCB6
3D8525BD
3CD098BD
3DD725DB
3D2F1D23
3D036E58
38DAE5B0
BD69B876
BD259FA6
BB7282AC
BBA2DD83
BD7E3552
BB1D77FF
3D857406
BDAF476A
BD8D9252
3E0C43C8
3D4D35E2
BE4E5A64
BE1A09AD
BCC22216
3C8E750A
3C8CB673
3DA1C725
BD8EA700
3D28BE42
BD3FB4F7
3D5248DC
BDB005D4
BBFAB6CC
BD52451F
3CA8F64E
BBCD6415
3D661F4C
BDFA766E
BE10E266
3CC151C4
3DDB9209
BE667BF8
BDC20379
BC25E447
3DA121B5
3C12421D
3E0F05CC
BDC0D2DA
BDC36C2A
3D4BA611
3DBFF156
3DD3FC89
BE47AA3D
BD756267
3DF549C8
3D688C0E
BEC6D2A7
BDADAA5E
BDDA10CA
BDA1AA50
3E431705
BC8B1847
BDFF2245
BEEDB399
3E4A6C66
BD766DD2
3A141CC0
BDA40AF1
BE4D3E9C
3D884DFD
3D7914BF
BD9F10B9
BCEF7825
BE42295E
3E3D1FB0
3C0C5A47
3E11DF33
BDCB13A0
3DDE9CAD
BCC49C51
3E31A6D3
3C67CA48
BE450913
BC6EC22E
3C92BC72
BD6B3E06
BE9F1368
3D02C97E
BD94A821
3E49B365
3D9E367E
BDCC2497
BE5B96D8
BDA22BC9
BD334972
BC5F75CD
BCF9F430
BD7036E9
BC0A75F2
BC14AF8F
3CCEE956
BDBE6B34
BC118664
BDF1E039
3D1CC6B0
BC6BD9E1
3C82D1E5
BDFC6058
3E589823
BE0A71B6
BD277AC8
3DAB1FEC
3DB5E551
BDA6F51E
3E24CAB6
BC3B522F
BE049740
BD028586
3E0D1083
BDFEA9ED
BE44DF13
BDFDEFE3
3D378747
3E6FE646
BD9DC9A0
BD96049A
BE1E0C4A
BCA2C0C2
BD474341
BD2330F9
BAAB9556
3C9CE077
3B63752C
BDEFA121
3D8BF0F2
3CA249CD
3D58C708
3AA8A6D6
BD83130B
3D3EAA00
BE373A1E
3DC2C8CC
3C6E0848
3D691676
BDEE7546
3D59868D
3D7A5518
BE48EBC3
3E8B8BAB
3BC193BC
BDC343CD
3E643EC3
3DB56A05
3E924431
BEA93D3B
BD5C805D
BE9C3EA3
3C8975B6
BBF444EB
3B8A14D2
3CDAB4E4
3D21B83C
BD4CEA2D
BE5DC580
3D6EDEC1
3D17D780
3BBBCA16
BC10B316
BD7A73CB
3D7F99B9
3D846897
BE0005C5
3D6C832D
BDE5E34F
3D09A023
BC654A5A
3E00357F
BE39D515
BD828A27
3DA56674
3BAF25A2
BD9093B9
BDBAF823
BCDA8A73
3D145810
BC9BB215
3D032011
3D3B8D8E
3D92B566
BD2CAD96
BC84902E
3DFDFAC2
3DAD9506
3CF83D22
BDFF65AD
BD44D9E2
BD9ECD89
3D156ECD
BD497D9C
3E0D020B
3DC1EF77
BE11A594
BE67C79C
BE2EEAAE
BD188FF7
BD86A9F9
3DB660C9
BE4F6113
3E0E53C7
BE385604
BEA17073
3E938779
3E0D6392
3DB4B704
3DC6A330
BC2F2A25
BECDDEA8
BCB14320
3C27B4C9
3DC35E65
3D00A32B
3D558AFD
BDBF2CA3
BDEB443E
3D8378DF
BDEA3EB4
BD30C8D0
BD97AC4F
3D1548F9
3AFDFAD3
3D72759A
BDD5488C
BD1B6729
BC85FBA5
3CC79289
3C1B3ACA
3DA7EB5C
BCDE82ED
BD1874CB
BD276F02
3D07CA1C
BE1B1C8E
BA88B7C6
BE389699
3BE5761E
BD4A835A
3C1BA98A
3D61AF03
BE959398
BD388D91
BB426C4F
BEB2224A
3CB0E4E7
3C2BB691
3D8D4675
3CE938D1
3CAEC3D6
BE2AC67E
3D3E51CD
BD189E6A
3DB023F4
3D720D3F
3AB510DC
BC27F287
3DC2FC4E
BC6A9B19
BE3C9E77
BDA7B7A0
3DEA9A76
3D6E9771
3D9D2EAC
3DDCB05C
BE7AF6D0
3D3F023A
3CC51B16
BD7B81A1
BDBFD421
3C8DA1CB
BE9EC8C2
3C5A5802
3D4D4B6E
BEA58EB3
3DA59447
BC3D1606
3DBFA340
3CBDA285
3D96A836
BD685FA7
3DD4E43D
3E206BF7
3E1EDCCD
BD612DED
3D8C451A
3CDC323F
BE5BA364
BE32E2D7
BE63FF08
BD52F3BB
3DA70B87
BD9D1C0B
BE09AC3D
BD9333C2
3E2C5D98
BD07C9A1
BDC4E7FA
BD44C55B
3CDA17BF
BB3785E0
3D841E57
3DFEB736
3C2F5535
3AFD851D
BE2ADFA7
3CC3C866
BEB53736
3DFE4C0F
BD81F8E9
BC25A8D1
BD343AF9
BC22E4DC
BC7E775F
BB7BF347
3D05F800
3C2DFD8B
3D075A6C
3CD423EB
3D932B9A
3C778FB7
3E6D7416
BCE866DF
BD042010
BD588AB5
3D5E837E
BDB35AEB
3CA5C5E0
BD6F6BBC
3C6F4A85
BE1677A2
3E0A5CEF
BD976676
BDFF4B5D
BCA3528D
3E0A1EAC
3D849933
3D0B1429
BD487406
3A0E6066
BE168434
3C3A30BF
BE1B1FF5
BE2C2EC0
BE255F55
3E5E05B3
3D18A948
BE22382C
BCE50AB6
BC4ECDC4
3DC39B6F
3B7D73FD
3DDFC77D
BD9EDC2B
BDAB5B6C
3C95CC48
BDDDF666
BE3BA580
BC1E2A63
BE03BDE1
3D8748AB
3BA9A299
3E5D2BAE
3CB7BC3F
3D2A6663
BCA19B0E
BD9BC3A8
BE48B9C9
3D6B23CF
BE63724C
BAE2DAA4
BB0EF375
BCE3DEDF
BB0B7152
BDA0B048
3DF0A8A3
3E1706D9
BE1F1A7C
BD7F6D3C
BD7678AE
BD9B3F4B
BCCF7040
3CB620B9
3CB01146
BE55BE81
3D602645
BD970A4E
3D877825
BC4A90E1
3E175C37
BD9D21CE
3D80DA9F
BDFBFBAF
3CD306B2
3E0E9E64
3DC09764
BD03B97E
BE2C7A46
3D940D2F
BE19070A
3D58ED56
3D5C56D9
3D48D7FE
BD82E679
BE13F076
3D7238DB
3DB1C4F9
BE57631C
3CC154FD
3C6178FA
3B37923C
BDBC5A27
3A20D3C0
39A64EC2
BEFB8A54
3D5B2566
3CE2A41A
3C9F4D71
3C023372
3D65FD89
3CC7D124
3DABF91D
3D53AB65
BE3FEF11
3BBACBFA
BD121243
3B7BE10C
BD98470F
BA431B67
BDA73FFA
3D2D2678
BD73BF88
3D977194
3D2E3362
BE65AB1C
BC96DA86
BCF1A3DB
BB21CD3E
3C9A1CBD
3CCD2705
BC072428
3D6D1C1C
BE0B2A16
BCA21366
BE47B484
3DA14484
BE431BB2
BC79D228
BDA89215
3E0FAB41
3D391BAC
3E0E2262
BD9E0522
BEA17515
3DF0A259
3DD92837
3C9CA847
BCD8D569
3CFB5EDC
BE77B3F8
3D32F2F9
3DA8F9A9
BE092E98
BCB8D5AC
BC284F0E
3CAA3349
3D50B128
BC26AEE3
BD8C5A2F
3BE8FD85
BD95B001
3E320474
3E00E7CD
BD0F4204
3DF01377
BF036FE6
BDB03FC6
BDAFFCD5
3C249697
BE4E7A93
3DA53AB8
3E02AC51
3DE0888E
3DB4BBEE
3E3EC6FD
BD27A14D
BDCC060A
BECCB7EC
BE13B986
BD7C9837
3DD750B3
3D50F96A
3D947E84
BD32DA36
3DCC6BB2
BE200B22
BD82BD5C
BE1B47E4
3DF141FE
BDCA0944
BD1A8F0E
3DE3F898
BC97015E
BD7A81C2
BE1B682E
3DE243C6
3C390C3E
BC651F77
3C6C1531
3DB9D646
BD36FCDC
BC8EB129
3D3515A6
BE0C531C
3D1286F1
3BF2CA95
3CD89BFF
BE3E3F53
BC398C5C
3DDCF363
3D96F7DF
3C9D02D1
BD1955FC
BDA249E5
3D678356
3D80148B
3D4C2DDA
BE24B308
3DCBA0C2
BE59CCF8
BE5AF5F7
3E5A40CF
BE037F32
3E6D2A84
3CEFD080
BE41E39E
3E0747C1
BDAD0869
BC768553
BE7A6D2A
BE0A10F1
BE9C30A0
3E61C0AB
3E254C1F
BDC5F1B8
BE261C13
BD09763D
BD92C8FA
BD94B0B6
3CE5842B
BB8293BC
BDDB6B66
3C2A2435
3CE4F743
BD7C2326
3CDDBC48
BD335D4E
BCB13F06
3D2F8F74
3D2EAC38
BDD70BA9
BDAAA547
3E034056
3E899EED
BE47D72C
BD23386E
BE08057F
BC2BEB07
BDD42DA5
3BA9E922
3CEDE890
BC92CA8E
3CB4C2D7
3D446A4A
BD6B0BD4
BCB89C4F
BC3EB9F3
3D01B464
3D1A4D3E
3D624DA9
BE04EC36
3B9D38D3
BCE4725E
3CEDBEDF
BD09E0EE
3AC648EF
3DB2C8CD
BC0BA7EE
BDE2A470
3D4675E3
3D7A4F80
3E0EAEC6
BE38A2DD
BEBEC55B
3C2AA9C9
3E304712
3E6496E6
BDB9A7B5
BE07E5DC
BE713132
3D9CFFA9
3C9F4044
3D8E3C6C
3DF0FA90
BC907159
BDC3C77E
BDFB4D2B
BD30E352
3BC04D3F
3D544EB3
BDB969DF
3E70B3D4
BEC1AA43
BDCFFEBE
3E2384C8
BD9DBF20
3E87CA03
BEE5E431
BD8833B6
BEB03407
3CCAD29A
3D313B68
3E477E96
3CC48E4A
3E36A57E
3CF22D69
BE5092E6
BE846F8F
3DBE4102
BEBB94C1
3C9359E6
BE147B83
BC360115
3D427E9E
BE702213
3DCE7B4A
BD7BBA0C
3E087FB7
3D4E79FE
3DF0D127
3C91923B
3CECF0FB
BE028794
BE202714
3D7AF411
3A902DBA
BD0DB5E1
3B937CC2
BD932810
3CDB22F5
3CEF012C
BE7D87D3
3E0A1211
3CFEAB49
BE53A3EC
BDFC5DD0
BD8237CC
BBAAB2BC
3C6F7322
3D42E2F2
3CBA448E
3D9BB0C8
BDB460BD
3E1BC7AF
BE13122D
3DCF75B3
BDA7CD87
BD82C8A9
BD0DFAFE
3D6E212F
BC2E0AFD
BE89F80B
3D5C4B79
3B37A1BB
BEB1D8F5
BCCAF58E
BE02EA21
3D82D61B
BC60D9F1
3DB6A59C
3DA322BD
BE53C540
3DF49C24
3E22697E
3DDCC11F
BDC0DAE1
BE29A453
BDC0CEA9
BE344B69
3C9FA454
BD008698
BEAE76EF
BD8722A5
3E3AB0F9
BE1F4B4B
3DF30E17
BE6D9DF7
3D2752D9
BE20DAEB
3D8D46D1
B74E26A0
BE624E07
BD7B55FF
BDCBC9DA
3D7AE546
3DC83E73
BDBC5793
3E600D5D
3E05AD3D
BE52B98E
BCCB92D5
3D60E685
BC6D97C1
3D70A638
3E3A44C5
BCF41854
3CC19AB1
BE0A0831
3C3F637D
BE1919E4
3D96AE20
BDBEFC6D
3DA955E5
3D8733EE
BE8D5B98
BDB100FF
3D03A9A8
3D924B83
3D4C4C35
BCCF86AA
BD3BD706
BC9B10C1
BD2F37DF
BD21E9A9
BD6D820B
BCB2CD3C
BCCFEEDE
BB876891
BC172693
3CFF9976
3D03E6CC
3DB5B4F2
3E00ACB2
BD94D51C
3E6049DE
3CF93BBE
BD90FD7A
BEC023C0
BDB0D763
BE723469
BE2EAC9B
3E4100A8
BE6D3AE7
BD692661
BDD637E7
3DDED0DF
3DF204C9
BE80C89E
BC8181AC
BE35BC65
BCA738F7
3D86702B
BC8A6E1A
3C156003
BD1212C2
BC1DEF51
BDAB70FE
BCABC1D5
3C4FC602
3D12B00A
3E157907
3DF4AF34
BDB4B0E6
BECA957B
3DE91955
3DEE8DBF
3E0B8265
37D182F0
BCC1DDB0
BEB5F72E
BE09AD32
3E844C9F
BDD3CA7A
3E59A86F
3E0F509D
BE87AEDE
3DBBCCAB
BDE8DE2C
BCD60534
BE4FD30A
BD2AFA63
BCCF7602
BC67D2C2
BCB7732A
BCD3BB81
BD6FB08A
BDD0715F
BC7A3E4A
3B8E82D7
3CCFA571
BDB8EB8F
3D2A2396
3E338E7E
BD80EA54
BD77A1C4
3D2186B0
3CD63949
BD56D5A6
3D3B4D19
3D430129
BC07874B
BE07DEE5
3DA2B21E
3DE67C34
BE55DEBE
BD83DBD3
BD41B169
BDC42442
3BB003E3
3D07E577
3D21ED0B
3E6DC0BB
BE77B48B
BDEE41A2
3E9D1C13
BE1EBD14
3E3C2C68
BEF8B808
BD72687F
BECCE6F7
3E0B0FEA
BE770770
3E009ADC
3BFDB80A
BE291207
BE10AAB3
3E1569DD
BE454E00
BCA91727
BD108874
BCAA510B
3BA0C620
3E1AE722
BDBD4F5B
3DE12DA1
BDB20353
3DA20CFA
BDACC20D
3D4D7253
BEA6DEB5
3D6B9419
BC0A9E6E
BC825D30
3CB89818
BD98FE32
BE2401B0
BE174662
3B8C31EC
3C9DB79A
3CE18FDF
BD020A2C
3C6B1D65
3CCB9EDC
BD45B84A
BE40EB07
3D383B69
3D493CAF
3D7486F1
3A97A2F6
3D576C3A
BD9E13BA
BD95F336
BB5BFF1F
BBAB849F
BE3910A7
3D685FE3
BDA6DB97
3DC61F33
3BC8967B
3CD9DDA3
3DC7B5C2
BDC7FA8A
BE6C4532
BE7B6B32
3E1140BE
3E222384
3D7A1AD4
BDF64D67
3D7B5E7B
BDA389D0
BE8A1EFF
3DDCE76D
BE1B87C2
3D8A8FFE
3D01F1DD
3D2BFDF0
BC8C4B59
3E03DC44
BCAE3027
BDA236C6
BE038791
3D5A8797
3CE9701B
3D2F6BCC
BD63B248
BC252C40
BD77DD96
3CB37ABA
BD4DEC17
3D3074D3
3D909EE4
BD596DE0
BD74DFDC
BE111249
BD827CC7
3DBE5125
3CF9C922
BDA96AE3
BD45EF97
3BC8280E
BD6FBB00
3DE91E44
BE161B24
3E2DF4D6
3E0F08EC
BC7E16DC
BDDA3394
BBC5F5F3
BC83463C
BDC2513A
BE8552D7
BE439851
BEB0F9E8
BEB586C9
3D8F4BCA
3E44B929
3E312E3B
BE99DAC8
3DD56D73
3DA657D5
3E069370
3D9E6062
BD327F42
3D633B20
3D9A70C5
BE0BF572
3BBB2539
BC74CE97
3DF83ABA
BE802603
BC552FC7
BCE1333E
BD2B6CF1
3BD858A2
BBCA8A5F
3DA98A03
BD8B7EA9
BC0C6FF3
3D34F69E
BC66A272
3DD3F6B6
BD8117D7
BD2D1C50
BD6ED3FA
3D27E990
3D426310
BDD2D1E7
3C03B7F1
3A87B60B
3BDD3FA0
BE08B9E2
3CEB68C2
BE502C99
BC285665
3D518B08
3D5C3660
3DE8FA7A
BD8C501F
3CE83374
BDD46AE4
BE54C9BA
3DC9BB7C
BEB856CB
BE938629
BD744F3C
3D3BC260
3E49B3B8
BE7548A8
3E03EF5D
BE3DF241
3D9F0A92
BD575426
BE659824
BECB1117
3D978D60
3E540BE7
BD170FC2
BE019D48
3DAD030D
BE732869
3D67CBC1
3DBA78E0
BD081547
3D6952D4
3B7250E6
BD2EEBC2
BCBE681C
3BE15D2E
3E2864F4
BE1EA884
3DB9C2EE
3E3425A7
BDAA554F
BE1CC6A6
3D49F791
BCF19CBB
3DD6CB02
BDD147CC
BC33F8D9
BD2CFF5C
3CF4F934
BC0DE257
BE1BDD56
BDA9B1E8
3DF53793
3E8FEFCF
BE06A73D
3E1202DA
BDCBCD90
BE80B293
3D5E8047
3DD3B11C
BD08ADCA
BD6E6B8B
BBDF2D44
BD64E3C6
3D7BECED
BDF9E0AC
3B8F5916
BD8F7DFA
3DAFE884
3E16104A
BE651325
BD3E3C95
3E2C85AA
3DE67492
3E04CA1F
BDD1120C
BD8E45DE
BE280DA0
3DC08F94
BE119E9A
BE56EE90
BDA8FCFE
BC912242
3DD4E205
3DDF4122
BE3953C1
3CC45F5A
3CF7BF37
BD68C530
3E5F006C
BE8C4853
BE005DC0
3E833537
3DC3FC6A
3BFABE3F
BD26C697
BBADE874
BE345107
3BA08E50
3D9A0F04
3DDCA624
3D103E52
BE4E3EA3
BDC96DB8
395D9624
BD614B6B
BC7383F4
3D7D9052
3D23B68C
BC952631
BE81E069
BE260BE5
BBACA5A0
3E891579
BE1467F6
3E5278C2
BD822BBE
BE5AEA47
3C7CDF0F
3DF5C13F
BEC49AFE
BE64D334
3DC9AB4B
3E1A1C42
BDAE5D73
BBA0EFF7
3E161F7F
BE2E332D
3D696F07
3D396999
BE09E926
BDA020C0
3DC03C1C
3D4D8E09
3D320CEC
BC3E804A
BCAA62CF
BDC0EDD3
3DE979CE
BDACB870
3E0F99B4
BE05E7DA
3E01AF9A
BEA634CE
BE9F3553
3D895ED1
3CBE5BD6
BE96F5AE
BDA8C037
3D90DAE1
BB9D35C0
3D72E8ED
3DC3D6EB
BDB44B92
3CC15B91
BE07F4EC
3DCCFC65
BDA6964E
3E52E63E
BDE96262
BCA2E8D3
3D3C951C
3CCAA63E
BE7CA5C1
BB878F7F
BD79FC78
BD722AFF
BD718EE9
BDB8A58E
3D076D28
BEEB77AD
BE102A27
3D0C5B07
3E42E154
3E14F3FC
BDA35AF5
3D98F7E2
3C93B1F8
3B8289FF
3D0060A6
BED4D5F6
BE74EBB4
3EC28B8F
3E121C1F
3D7DC070
BE0C190C
BCD1733E
BEA486F3
BD67CC2C
3E368896
BD8E7DBA
BDA588F0
BC7C1FAB
3D867234
3D6846E3
3CAF0A25
BD38DF40
BDAB95FB
BE490CB7
3DAA30E1
BD5D5F6C
3E026ADA
BD42A2AF
3DA88FF8
3CCC5450
BB8957A6
BD7B0FE7
BE12595A
BBD05BAC
BE000BCD
BE6CD64F
3D5C98BC
3C6E28F3
3BA1E694
3DE750FB
3D7C3AD1
BD52613D
BE58CF01
BD8958FD
BDAAABF6
3C372997
3D8F0709
BD11C94E
3B51F941
BD2326E2
BD98DE43
BC37EF0A
3C3D12F2
3CAB54E0
3DA4B169
BE0CDD5D
BDB178A6
BE64139C
3DF26A09
3C519C0F
BC46B21A
3DBEFDD9
BE0148CF
3CC8B46F
BA85445B
BC68473C
3B0B62B8
3C9780F8
BD278C11
BD5C5C5D
3D3BE520
BA59CAD8
3D7EB271
3DA85CB3
BD6F0D1B
BE0ADB71
BE29B2B8
3DD7CF0D
3DB23A5D
3D8EAC9A
BE0EAD20
3E589691
BDE6DAE2
BDE008B2
3D8F971C
BE4E292B
BE4D3291
BDEF109F
3E5D0CC5
3E0ECD5D
BE084429
BDDE9A43
3D4FBC03
BA9D60CE
BD0EFFB4
BC6793D1
3D3367FA
BE072054
BDFB855E
BCC6865E
39216793
3BC7E016
BC56D519
BE7A882F
3E16ACBB
BDEDCE9B
3E112E1F
BC944598
3E3CDFE9
3DAD58EE
3D0C1DA1
BE102A39
BE7AE29A
3DA55F03
BC445AAC
BDA3151E
3D4E10C9
3DBAADBD
BDB5EACD
BDB9451F
3DF776F1
3CB58FB7
BE9B223D
3D8F3F3E
BCB0026B
BD2BF38B
3CA9AB5C
BDDD0DE9
3DA2C457
BD8CF52F
3D027988
3BD6C654
3D2B3AFC
BD31081C
3DE0B1E0
BEA395CD
BEA83BE5
3E02FC7D
3E1B22B7
3C8301CB
3D992737
3CAD4C59
BE7263EC
3E06D96B
BDFDBE4C
BD2FBA01
3E0674B3
BE4055E3
BEBDCE38
3DA8B311
BCDD5F14
3E20BD7C
3D0F9ADD
3D8F3B7D
3D48A20E
3D0C0D46
3D2CDA8C
BDBD2DE1
BD8B4D7A
3E00A490
3DE26DFD
BE0D8F48
3DBDEB8D
3D62C2D9
BE8E26D6
3D589896
BC8CA6FA
BEAA2A13
BE1BAACB
3C9CFDF2
3CAFB03A
3D31237D
3CE6236D
BC083A92
BDBE2813
BDD94F49
3D0B78C6
3CCF73ED
BE19D73C
BD1EE88E
BCDAD112
3CFA79FA
3D80F5F3
3DFD6673
BE30B556
BEA6D09D
BE1709E2
BDBE490F
3D8776E3
BD8B7C22
3E10514A
3A985179
BE02D129
3E409F21
BE4F7CB6
3E1B33FB
BE04AB80
3E343E7E
3E114103
BE61A999
3D3B4C78
BD7B7276
BEA6CE33
3E1DE0A9
3CB060CA
BE61A0AC
3DC886F4
BDF04CA0
BE30174C
BDAB55CD
3E193F13
3E84E722
BDDEEDF9
3E2E8B9E
BE54FBF9
3D8AB747
3E035E5F
3DBF82C0
BEA15D49
3D3A4634
BEA86F03
BD99C86B
3BA73810
3CE459E0
BD11E998
BE0E8DA3
BB49A7CB
3DC9CD48
3D1D0A5B
3A32F0FA
3CC7C32E
3C811BBE
BBB77CAA
3D54A291
BBDD3F8A
BE007E04
BD3C9497
3BAE8201
BD9206D3
BD0F10A8
3DC4F18B
3E8279AD
BE880129
BE41B30E
3DF5981E
BE11AAE4
BC9E76F4
BE0C7D8C
3E0BD7FB
3E2DBE43
BDA88FAB
BC833751
BDE93DEC
BCB47FD9
BD467C8A
BCE51D73
3D1271D9
3D1513AB
3CD0BD31
BDBA00ED
3D3FA973
3D28DA80
3B95B4EA
BE8DF558
3E2832EE
BE8F50F4
BE8D20A8
3E26980D
3E1D92C9
3E496DE3
BDAB572B
3D0DF250
BEB51E0F
BE199D91
3D2484CC
BCAA1136
3E0409E6
BD896DD8
BD71A9DA
BCC21C33
3D3D05CB
3D4CEC3F
BE03D4B6
3C22E6D4
BCDE6FA8
BBC13B5F
3B1CFCF2
3C98FB37
3C8B14D2
BD77D7A6
BBAFFA79
3D025511
3CAC0A25
BDD8F762
BCC81F07
BE441746
BDE94139
3CEC68EA
3E0D1E48
3E08D108
3C5398C9
BDE61D82
BE007DC8
3DA64B20
BE782D3B
3E798474
3D8A01E0
BD92FEF4
BD85CF25
3C40B661
BE8A2111
BBED7097
BE2E100E
BE3E8C8E
3E072194
BE3BBC0F
BD5A1CA3
3E69E526
3DB14079
BDDE2154
BDA08B07
3D986662
BF058C97
BC934DDD
BE8809E6
BD846618
BE2FDD16
3DAE3C0E
3DEADB94
3E4E18D9
BE06554C
BD8BE649
BE4C7739
BE6F0AC9
3DA92153
BE4EB242
BD40646B
3E47CD64
BB6A30DC
3D810E97
BE184252
3E91E7B5
BE8CF940
3E07DAAE
3B4D29F4
3D4DAFCA
3CC0826A
BE125CF6
BE9883EB
3CE3409E
BCA91BAB
3DD4C447
3DBC27A1
3D859BD8
3BBF4FAA
BE54CFC0
BE014333
3E5A07EC
3E229A57
BD676501
BCD7465A
BDF64F2E
BE0E72EC
3C520F3C
39599F61
BD6D662E
BD0E9945
BCBB480B
3D4EB81B
BB539978
3CC7DB83
3D5ABC18
B72898E3
3D375F32
BD612A03
3C3C9442
3C1903C1
BE1AE962
BC8B7E48
BE72131F
3D081C7D
BB47D08A
BDD24FB8
BE6D0099
3DB6770F
BE295CD2
3CD659A1
3E2244A6
3AC45D96
3E34CE1F
BE40D075
BBE3ADB9
BE160535
BE5F2D02
3DEFBAAA
BE3B2367
3DB17FFC
BD16891D
3BBB691B
3E195F0A
BE32276C
BE6E719A
BE56E9A6
BCAD6AD9
BD34D4CB
BD551736
3D59A503
BD4AD405
BDAD7983
BDD51B76
3E4FD73E
3E3BACBF
BB421A4D
3B96D5A7
3C87FF9A
BE4CA614
3CE58356
BD6B6D66
3D18AEBB
3E03E30F
BD2FDDB1
3D69636D
BD12D42E
BD531C0A
BBC05489
3DCE7141
3D87B51E
BE66D259
BE6BB345
BDC0C375
3DD28F50
BDEBA403
BE29BCA2
3DAC297A
3E20DA4B
BE3ACCA4
BE764B81
3D1C3E82
3D21C66C
BC7D428A
3D0961B0
3CB29895
BCFA1356
3CDBA72F
BD674340
BD500796
BDD77DCF
3DC80293
BE6E8C9B
3CA5B567
3DAA3543
BCC4C8AA
3DB83BD4
BBF77AC0
3CC672E1
3DC23B53
BE062913
BCD2AFC7
BDAA7B90
3E80BEF2
3E35DA0B
BE254585
BDCF893A
BDD9F5C9
3CB9CB47
BD2949AD
3DE2BF54
BDC987C2
BDA8D26D
BE0AD902
3E39D55D
3CCAD6BD
BE06EE6A
BE218FA1
BE5AD684
3E1A9759
3D8BFC18
BE07E5D1
BEE80694
3D943721
3DD26CAE
BD7FBF89
BE427B07
BE3845A6
BC263D58
BC91098C
3D697153
BC49A772
BCDCEDB0
3C220F8D
3D503F17
3D6D8A3D
BE5A6A7E
3D6EE30C
BDC291ED
BE307580
BDD6E873
3AE2891E
3CF1D9FB
3E1062F8
BCDDDAA5
BD78FAC0
3D0E83E9
3D30C665
3B1AB966
BDE112A3
BDE0D72B
BD963844
3CBE5378
3DA1A514
BE1D8C63
BCACB0BA
3DB01863
BDF01444
3D968315
BE1A3359
BCE74CCF
BE2354F2
3C8C1054
3DAB36EC
3A279100
3DC0E918
3D94DFB5
3BFFE0B4
BDC20EAF
BC3CCB84
3C693CAE
BB8DB8E2
BD6049FD
3E1A8C0C
BE7670E5
3D563107
3D104AB4
BDFDB186
BE221F08
3D6BC236
3DF444B9
BEA91479
BD5CC09A
BE67C0BD
3C99E20C
3DDA9497
3D550049
BB8C3A97
BDAF7EC3
3C59D251
3D8F45A2
BD88ACE0
BD64B40E
BE6F2F8C
3D55E539
3C2064F4
3CC3AC30
BD452CF7
BEA81A35
3DDF47A2
3C8C4289
BE05EDAB
BD53A861
3DC28C0D
BD3EA329
3D068336
3D90EA21
BBC6DE3C
3DC7F3A9
BE0169CD
BB600E39
3E03FBE0
3CBCDD6F
BE717B54
3DD8949B
BD916371
3BFC3A04
BD288022
BE426C0E
3E0A8FD8
3D7B507C
BD6D6643
BF04BCBD
BD25DF66
3D3A8359
BE3430C2
BE7A1A77
3CD32584
BDB9DF53
BDC975DA
BE51EDFF
BDA4EC50
BC9F0C6E
3DB1510A
3D41EEEC
3D048618
BD076E82
3D71DDFB
BE141CCD
3CFE7B4D
BD596939
BD584E67
3CB9C222
BD2E1451
BD618303
3DE9D0F0
3DB2DC61
3D43C991
BDB5E3A5
BE038F98
BD8AD146
3CB12AB4
3DFA954F
3D4A5070
3C82D268
3D83413D
3D3AA1C4
3D9724DA
BE22B0FD
BD0CADEB
BE6D7705
3D14B06C
3DCB571D
3BAC1044
3D1B3563
3D03E752
3D30F5B6
BDFF8599
BDB13C93
BD923E59
BDF26234
3D9D9195
3D1FB589
3D338051
3CADEF3F
3D807BDF
3D60F6FD
BC13946B
BB68E903
3CF1A933
3D778909
BD36DF7A
BE16436D
3B9C0E07
3CC84869
3DF91427
BE0D9CD5
3E0C1353
BD8E8652
3CABCC4C
BD3BADB5
BC6F063B
BDBA3EDF
BC2B0C4E
3D619B5D
BC0872B1
BBD317A8
BD33BBA1
3DAAB8C4
BD4D52A9
BDE39792
BE174AF2
BD54EE09
3DF01E85
BE03E179
3E32F752
3E449F00
BE06717E
3E490553
BD66C37E
3BFDB8FF
BE11DA02
3DD360C9
3E1D8D94
BE66E829
BD9931D4
3D1B2FA7
BE755F02
3DEEB10B
BBE0586D
3D9C7219
3E05C113
BD9B1DE4
3D8A68F3
BCC4A866
3E0BD2C7
BE8F0B6B
3DCB76D5
BD989CB2
3CCE0978
BD9D6E01
3C17B9C0
BE033D45
BC7B5D40
3E8116FD
3C8E973D
BE3D2B20
BD73FA1B
BCA538AE
3C7F287C
3DDAD623
3D8D51E2
3C99ABEC
BDD1B15B
3CF8FFFB
39ECFD77
BA62CC1A
3D7C4712
3D864C2D
3D6FC4D9
BC4C374A
BDDDD458
BEA850D0
BD7B5C5F
3E83684E
BDCEBCC5
BD208A8E
BE2DCC44
BC412D8D
3DCC00A8
3DC6C38C
BE1F5CED
BE057D7E
BDEFEDBA
3D9FF723
3D028A86
BE39F291
3DD07C86
3D28ECB9
3C0A43D5
3CDB7328
3C85C636
3DE44B07
BDDBA2BE
BCFD3FB5
BE2AC578
BDEBB494
BE03A76B
BD192003
BE5B47DF
BD4C00BD
3E5AB7E4
BE9B4B70
BE1E05F7
3E8DE1DE
BCEF6F80
BE2AACFC
3C7579E6
BDDBA140
3DCE8FAB
3DEA53DB
3CE99F9E
BE5043EA
3D218B56
BE199C6D
3BB95344
BDCC80F0
3D8C85C9
3E243B7B
BE64B70C
BE0250D4
3DE9F421
3D041F96
3DC0F116
3D956DDA
3C439154
BD0056D9
BD5DFC2E
3CCD2DC0
3D25BB28
3D8FF4B7
3DBD9389
BE8FC168
BE5A1507
3D710D11
3CD5D8CA
BB8AD824
3D80AB92
BD52F318
BD96B2C5
BD95E1E1
BDE4AE2F
BD12E73F
BC6843B2
3D035DA2
3D69EDB4
3D545E85
BD0C3A24
3CE0741E
BD8ACD08
BE5A736A
3C369548
3D941073
3CBBD058
BCC6DDE1
BC0F5D0D
3E26014A
3E294B44
BE52D63C
3C6EA97B
BDB759B5
BB5FA40A
BDAAB189
BE16997A
3E56F2C9
BD8565F7
BD9CFA35
BDA4B212
BD6C245D
BCBC830C
BDC206A4
BAF76708
BE53A047
BD918EF7
3E34B1AA
3D66EEDC
BC168201
BDD1E01A
3DB5D455
BE082491
BD38B370
3E4FF5C9
3C98810C
BD5920D8
BC2B0D03
3E3C353B
3CF8EF02
BDFF2FF8
BD91809C
3D1B3E59
3DFD0B8C
BC4E05A1
BE209C06
BDFDDCDF
3C6C75B3
3DC314B4
BD9D4326
3D8DDA95
3D613B22
BCCE08B4
BD3310F9
3C9C1DFA
3C810737
3D84C13E
BD9F055F
3D6B5AB7
3DDD8B7C
BE1CF9F3
BD6675B9
BD21ED5C
BD130C4B
3D93F603
3C25D18D
3CBBF719
3C3345F9
3D8FC7ED
BD62FD69
BD8406D0
3DC4372E
BE20A4C4
BDD5E943
3DCBDD8C
BC6E2D7A
BE26BD8B
3E60244E
BD33F8EA
BE3151E3
3DC0DB02
BDD402CE
BB8BEB3E
3D85848A
3DF5AAF3
BE61675A
3D0260F5
3D2F946F
3D8D0F79
BDABDA03
BDF6B628
3C8E9F63
BDA6A9D3
BD934474
BC1CCB13
3DE8BEF1
3DCF8914
3D32C927
BD80A50D
3DBA8ED2
BE27ECC6
3D8FE516
3D3EAE9E
3DCF3592
BDF8B281
3C40FA0C
3E63A2B2
BE311AE1
3D1256AB
BE088E7B
3C3679F9
BD675BB7
BD59E930
BDDFBB4F
3D68EE40
BE421006
3CAA5FC0
3DF271D9
3BA18A28
3D59E672
3D0A248E
BE04C16A
BD2E3E20
BDD140A9
BE30C795
BD4686E8
3E0D73A4
BDA72264
3D3F346E
3DB1A335
3D98C2A7
BE5901CD
BC62CC3A
BD8D3A85
BC678E34
BCA00F1D
3C939C36
3DDF3088
3DD59359
3D874463
BE06B84A
BDAE9941
3E036D85
3E0255F4
3D752352
BE7A1701
BE5D8A19
3E84FD3E
BE04B706
BDDD7F47
BD464F4B
BE10F28E
3D891C72
3D9BEEA5
BE94D89C
BE104F6F
BDA89609
3B68CDF6
3E12DD75
3D45AD7B
3E0825CD
BC059697
BDA3231E
3D92DABC
3E044C19
3D971644
BE1D212C
3DA5E62A
BDAAE0A6
BE1123C0
BD11B9BA
BE1A81DB
3C571DAD
BDC40E07
BA178C7F
BC8D59DC
3D96C454
3C2BB515
3D2B64A9
3CF8B853
BD23B7A7
3DAB3182
3D6C5F3F
BBCA023E
BD61F3B6
3D9B13F7
3D53EFDC
3CEBC8E5
3D669C31
BDAD4289
3CEE2D01
BD6C6AA6
BDEF30F8
BE0459C0
BD85A160
BDBDDF01
3E2C8A92
3DA0707B
3D698A57
3DEAD3DB
BBDE63EC
BDC39237
BE725179
BCCBDA25
3D72E013
BD0BC530
BCD5ED1F
3E7AFE1F
3DF8AEE3
BE06429F
3DDA656C
BD6CA1E9
BC924622
3D2DC1D4
3D958CFB
BE308951
BDEA0D37
BD69B953
3DB19CF5
3DC9C9CD
3D209E85
3CDDB00C
3C9701C6
3D96F2A1
3D9B80D8
BE9B5C41
BDAEA69E
3D992736
3E26CF5F
BD070886
3B06A1DF
BB985121
3DB646F9
3D90251D
BE79E69A
3CB10D51
BE8F82CC
3DA7E451
BC981306
BC6F76C6
3CE545A2
BEC0F498
BE3B0F10
3DEF9B16
3E14F5DE
3D32514F
3E403680
BDC397EC
BD86867D
BDBA51F5
BD6EF6CF
3D6822C1
BD627F44
BD78F7DA
3E535B04
BD9B158A
3E4390B6
BDD68156
BE76D8F5
BE366D70
BDF440B3
BDBE3047
BD895F5E
3C008D2F
BE7B4F43
BBE9AA86
3CE6474B
3D7B938C
3D23CB47
3E47CB7F
3C1DB909
3DD32099
BD7CD9D6
BE43A1DA
3D723077
3E32572E
3D2517F4
3DF77BCC
BD05AF87
BDA0C665
BD859BC8
3D2322A9
3D12740B
3D4E299F
BDA3D5A1
3CCD3B62
BDC4CCE8
3DDD98E0
BDC53CA9
3BAF7BC1
BE53D1DF
3DF28A0E
BD4BC663
BE45AC87
3E038714
3B6A12AA
3CD60D02
3D1323C7
3D41DD2C
BC11D837
BDBD6870
3CE27619
BD835EAC
3CB97B57
BBF58E5C
BD6F3549
BD6F313D
3CAEEB21
3DF336D6
BCBB3F39
3C35FCE9
BCF1C400
BE407CA3
BE42DF77
3E8527EF
BD544FA2
3E212416
3D8C2432
BA8BECE4
BCE9C6FF
BD221475
3E394EDD
BD1F6AE5
BCA5A462
BD97F0BD
BCEAF239
3D7580EE
3DE0EAC2
BCFB04A7
3AD24351
BCEF8C30
BD43A4C8
3CBAA19A
3D9C8A56
BE7FA00B
BEBA4A94
3D4098B9
3E13E717
BE3037C9
3D78EF44
BDF34D09
3D290937
3D37E0D7
3D0F2C9D
BE2B30D0
3B94E39A
BE3DE07B
3DA754B5
BD5EAC95
BDA0B0A1
BD44FDB8
3DB2E978
BE0446C2
BE9C6B9A
3E3F2E30
BC80F097
3D42FA3D
3CBFDF2D
3BF92AF4
BCA26731
3D4446C1
BE1C3A5E
BD25789B
BE6EF92D
3D299851
3CBA205F
3DA7F978
3E0B9B1D
BB1068B7
3D16BDF0
BD1C8448
BD0748A5
3A515F99
BE2CFEF6
3D96E34D
3D0A61F9
3CED4BA8
BE85309E
3DB606C4
3D6ED9E6
3D0AD324
BE6ED3A5
BDAD491D
BD8D951D
BC4A0FF5
3CECA24D
BA05A863
BE5ECC0A
3D739E8C
3DEC7187
3AAC686C
BD2A1568
BCF4E510
3DC0F2E7
BD4230D7
BB80122F
BDF052E7
BCDCEC7B
BCD965BB
BB3FCEF1
3D61CBDC
BB670A4D
3C74D9DC
3D677ACB
BDFBE968
BDA42DE3
BE38CD1E
3D82341B
3CA2DD40
3D34A5C2
BCE9C3D2
BE2E7F3C
3D4D8AAC
3CF84B10
BCE05B90
3C91EBD1
3CAF0F68
BDA54FA6
3D405AE6
3C8A5900
3E662CBE
BE450B1C
3B84FAA0
3D13BE96
BD9A9375
3C2CCFDF
BE880E9F
3D8A784E
3DE0BDD7
3D4F3A83
BB822C58
BD209019
3D29146B
3D8EAF5F
3DEA76B3
BECEBCA3
BCA60FCF
3E1F9B18
BDC8E18D
BDDD4C50
BC146C98
BDDBB3AC
BDE72152
BE84CDBF
3DD09465
3D0CBC44
3DB8C5AD
3DD76486
3CCD193C
3DA5FA40
3CBC542B
BD06D90C
BD927A99
BDB2EBA8
3C747BEA
BDBD3698
3D1B6843
3C104C19
3D97183F
3D9D2740
BC82E45F
BB89187D
BCEBF81F
BDADA1E8
3D61372E
3DFCE7DC
BDA98DA0
BD96E9A4
3DBC1372
BCA8E63E
3D2FF294
BDC3D5E2
3CA6ADA8
BE9781AB
3C7B1960
3D37CE60
BD2CF04E
3BB71E95
3D4726C7
3C09448C
BE4D1D4B
3D4814AB
BE841499
BE82C906
3DFABEAE
BD98FCD6
3D23D9BA
3DEDF7C6
3E2E0329
3D91ABE7
BCD1853A
3D0898D0
BCE8210E
3C045F74
BD917FC3
BD42D4A8
3D1598F8
3E04EF63
BDF262B0
3DB19C0B
3C914256
BDEEAE5D
3D30477B
3D92062A
BBCF8CD1
3BEFF370
BAFE241D
BD2EC63E
BCB16D36
3CBC2306
3D8FEE43
BE8F6E74
BDC44D42
BCE21D9F
3D418BA7
BD86EF61
3CE3B8E6
BE1E8FB1
3DAD6C2F
3C4E9483
BD861FB0
3C09EBA3
BD5ED9BE
BD7E1B8C
3E376E32
BE002910
3E786771
BE66A9BA
BDB8D756
BE5B921A
BE1ECCDB
BDD209D8
BC5A1A2A
BCB7562F
BE230072
399775E2
BD931F9B
3DB80E35
3C5A4C57
3D1BDB1D
3D17EB4B
3DA68CD4
3D3546C7
BCACBEB1
BE74D5EB
BE16EAD3
BDEF4BB5
3DD2C3C6
BDB0778C
BD4F5D53
BE65A9E9
3C52C642
3DA43554
3DB10C2B
BD373D15
3D12C2DE
BF193433
3D5E78E5
3C859765
3DB5F4A4
3D1107C0
BDDBC07E
3DD01124
BBB64D71
BDA804DC
BE08A90C
BE0664F2
3E2B07BB
BCAA82C3
BC36EBB0
BCCCFB5C
BC81ACD5
3D7EBDB5
3D503FE9
BE3DD832
3BACAC0C
BE6E5099
3E111318
3C23952A
3A40851F
BE11DC58
3E0789D2
3BAC5A10
BDA7DCDF
3C428AE5
BE153F19
3E62DF31
3DADAFDE
BD30DCD4
BC546B2B
3D159FD9
3D89E09A
BDDEEE8F
BE668775
3E28C032
BD864CA4
BD309AEC
3E8D9012
3B43B5CA
BED89790
BD0601B3
BDC80FB2
3AE7A97E
3E9968EE
BD0A5E46
BE6BB61E
BD0FC065
3C9FF4EE
BE81C12B
3DD01560
BDBC1FA6
BC4BFEF2
BC6D83B8
BE301D0A
3DE2ED1F
3D1AF756
3C908DF7
3E038AE2
3B27B1C0
BD87A0BB
BE2C6815
3DADA9EF
BD7F7A24
BD53086C
3D80B7D0
BE33F738
BD90E76C
3E475EB8
3DBDD7A5
BE16B341
3D15ABEE
BE0E991A
BD75B4DA
BDCFC3E5
3D1DC50E
BCABF92D
3D5C18D1
BD08A6CF
3C9795B1
3C9F6AC3
BE2FAD61
BDDC03D9
BDA3F97E
BE66F4C9
BC4CF487
BD0B8120
BE0E4E7A
BDB1D4E1
3E01B5AA
3E7FB859
3D58A6AE
3CD10546
3D144853
BD244AC7
BE2CA597
BD0AA264
BC6D144C
3E11BD96
BC5BF19C
3C85AB56
BE398CC5
BE5AFE0F
3CE1434A
BDEE464D
BE0666D0
3CD6B8D0
BDB43A50
BD2EC01E
3DD1344D
3E154C72
3C7A03FB
BDC8C476
3D88DC84
BC3B4C62
3D40EF6A
3DA58E1D
BE7E1699
3CA7BF49
3D83DC74
3C7B5B40
BDA4DF00
BBDAE855
3DC18148
3DC892A6
BE8EC309
BDF29CDC
BEBFE356
3DFDB6D5
3C604A36
BE1590E9
BE23EEF4
3D1131FD
BD82FD0B
BDA80C55
3C97F3B6
3C5B2123
BE660D0A
BD3E519A
3DE75B3A
3DD45175
BE9BB106
BC5D59F4
3D3FF2B9
BD51DBB3
3D7B596A
3C77D291
BE2C6DD6
3D07E26F
3D25369D
3E040A9D
3D1E7293
3DF96B00
BC19C7B8
3C82ED35
385C2180
BCC818A9
BE3692A5
3DC28750
3DD970D2
BE3CCBD1
BBB8763E
BCFBC452
3D082BAA
BD027979
BDB96C97
BD4A7C12
BD70BD01
3C1778DE
BD8655CE
3CB2BBE5
BB88E36B
BE29FD32
BC7F866D
BE249299
3CBE37EF
BC8E0BA0
3D5C32D1
BD8A0200
3DD094BC
3D316A44
BE289EAF
BE045BD9
3E2C4D52
3DB5ED7F
3E570396
BCB20A9A
3E111164
BE850342
BE6662CC
BDCDE73D
3DF8C5F1
BDC4A28C
3C9AA6B8
BCBC1C42
BC700E72
BD8089A7
3D519363
3CEFB8C2
BD799E97
3DFB49FE
3D2F9444
BE2D5BE6
BD90C4BD
BE247AA0
BC353D66
BC61CBE4
3E12F9BE
BCD94818
3D0E7942
3CC95F40
BDAA252C
BDBD9A71
3C11D56C
BE61FE56
3E0BBE6B
3D4858DB
BC1CD0B1
3DA3C866
BD40CC3D
3D406868
3CEE7AE3
BE1419F7
3E52DD70
BD1C0E38
3CF3870D
BE2F108C
BDED8FB4
3E632EEF
BDD94761
BEE0D19F
3A8E0889
BDD117BF
BC79A632
3D3D9DD8
BD55355F
BD657A2D
3D66C3FE
BDDFCC50
3E23A134
3DAE5EF4
BDAFEDC0
BDB0E878
3CB7CA03
3D9EF018
BE6022ED
3D94D17A
BE92B83C
3D196DD8
BCE08A15
BC9371A0
BCE7CF4E
BC16BD5B
BD066F10
BDC5C61D
3D8BF9C5
3C326D2A
BC45FBB5
3D7F51A4
3C062FA1
3CD5A297
BDFDF37A
3D4DDFD1
BC913B74
3D0A8F30
BE51F5E5
BCC35ACB
BDE7413B
3D779978
BD124DBB
BCAB2774
3C6D0B0A
BE926BDB
BD2A8FD0
BE0477B1
3D554DD0
3D117898
3E1A8067
3D0D8DA5
3D0B5291
3DBA421C
BCF774FD
BEA6132A
3C923302
BEFC0E2B
3D599CEB
3CAFB569
3CF88BFD
3D1B222B
3DCBDF93
3DA99A48
BDDD89A3
3E2CFE30
BDBC975A
BC9557E3
3C90145B
BC47D09B
3DDDF834
BD82C8FF
BC7FC7CC
3D5292B4
BD3C52FF
3DB3DD8E
BD68A278
BDBCEB35
BCAC8FC3
BD71FFE5
BB0EC4B9
3E259124
3DA24DEC
3D8E8EE3
3BC42DAB
BE08407B
3E068014
3D3056B0
BE846001
BC372008
BE0B625F
3E0B727F
BCA4613C
BD29AD32
BDA87F9D
3DF8B97D
3BFFB0C2
3E398E9C
3E344260
BDA93562
3DE148D5
BDC5B29E
BE443B7E
BE72EB82
3DDE55FC
3E058F3C
3D454112
3DB502A9
3E4A14B9
3E2A7B1E
3D88DECB
3D211C3C
BE9A3000
BEAA8283
BDEED8C2
BE0C0CC7
BDD9AB27
3D8D94C7
BE5D31A1
3DCC0A36
3BF9993D
3D80B116
3DB30017
3DEDB314
BC28C42D
3DD6973E
3CB20B88
3CAD1F01
3CDE1B75
3E0ABE1B
BBD05EC2
BE00C799
BDA83293
3BA7AE38
BD4FD2CC
BDE78549
3DC2975D
3D75BC34
BD9F8BDF
3D44CB40
3BF10284
3DA61748
BE04BEEA
BD1958C6
BDD938BC
3B946B37
3D33BFA2
BD866652
3D491A40
BC0CE907
BE80BDD0
BDC21C0F
3E070F91
3C99ECFF
3B5B0115
3D003C28
BD95F3D8
3D8D8374
BDB32D69
BD0FE38A
BD6AF0A2
3C8C17CA
3D47C3B0
3C3E8D83
3CE60F20
BE1EB48E
3CCB288B
BE399E70
3E7ADEDC
BCD253FC
3D77A424
3DADE412
BC3912C8
3C7A34D0
3C758D91
3C95135E
3D285870
BC9C29DC
BE1017E1
3DB0C666
BCBA9CD6
3D1E3070
BD793856
BDC8BB86
BD02A612
3D982252
3DDAE985
BC83EFD1
BD9989E8
BCD0D846
3E027CAC
3E1F5E4A
BE0CABBE
3CE1D254
BD810E96
3D0BE018
3D2B9F87
3D694616
BD23C29F
BD864037
BD94AD91
3DAD161B
BE2A1A9A
BE004127
BE3629B7
3D224B0A
3DEF6D09
BCC58D48
BCF3B0E9
3DD49881
BE1F2C0C
BDC76568
3D9E349F
BCACEB5D
BCDA542A
BC8934EB
BD2BC2FF
BE3CBA65
3DD20E99
3D9EF1E0
3C43DC1C
3D271DAF
BD54CAFA
3BC3007A
BD687179
BE78E22F
3D1DB82A
3BA1DA42
3D78867C
3C97801A
3D93B394
BDA05564
3C6E5226
3DD2199C
3CDC08A8
BE592591
3D0CC93D
3ACD11A9
3B90B241
3D80B1EB
3CA4FFD8
BE83E38A
3D4CAAC6
3D95447F
3CC7AE7E
3D03CA25
3CB767C1
BCDAC2FE
BD62148D
BCC62BD7
BD9CBD6F
3D5EB4D9
BC950C33
BCF5BFDD
BC21D237
BD75DAAF
3D63DF10
3DACBE65
BDDB13EB
3C7DBC45
BE57F094
3DEDE76A
BCB044E9
3D55EC13
BC9F04B0
BDAB19A2
BA714704
BA5B2ABE
3CF5B06B
BD4456AB
BC78FE0F
BD5F5E8C
BB37633B
3C1AF096
3D8BBD62
3C876262
3D0A2FC6
3DB909CA
BE0916A5
BD702C10
BE655A00
3D3D6F84
3CD098CB
3D35FBDF
BDCEA09C
3D75195C
3D3FED9E
BD009F74
BE5B410F
BD9BDC75
3BBB787E
3E0C5C29
BE3290FA
BE5B2CDF
3CC944CA
3D49E42D
3D22B146
BECEE2D6
3DFA0721
3E02250B
3DC28E21
BC918A33
BDCF3286
BD8DCA2F
3D8CD0A1
3D35CD26
BD7321EF
BE10D23A
3CAE9AE6
3C10D99E
3D8FF738
BB3B8099
BCDAFE82
3CB8E827
BE44A1C1
3DC72213
BCB72998
BDB3B6A4
BC953922
3DC410E5
BDFAF30C
3DAE30C5
3DA12FB4
BE48CFF0
3C3EFBE1
3C994155
BD28E66E
BE0F60B8
3D31F3C4
3CDB5D1D
3B96DF50
BE6BB772
39E3068E
3E15882A
3D2B57C5
3CADF3B6
BBA3492C
BD84D2C3
3D683257
3C1FC2D9
BD77DD09
BD7CC561
3DE279A5
3DC49850
3C654D70
BDEDBA71
B8E57107
3C81EEF9
BC59C16E
3D4CC3A0
BCA3DB84
3DC75697
BD8EA25A
3D5BF99F
3D611EED
3D9B0085
BC527C21
3D1CA919
BC7F4AE0
3B318DFB
3CDC5C01
BDD21F83
BD5B6040
3D27D448
BD98C413
BE4E6CD0
3D2DEC00
3CF6CD9C
3C5B2463
BD0BC4A3
BB3FED0C
BDB50578
BC9814B4
3D5BB7FB
BD8C39DE
BDDAD3AF
3C833986
3DF059C6
3E4ADC95
3D0C1624
3DD2722B
BCB74D92
BE2E01B1
BE822FE0
BDAA5D27
3D0CE4D2
3D811F0F
3D9323BA
BDF2898D
BE3FB27D
BDA9D756
3D9F6C4D
3D18ED9B
BD1534EA
3DDE4458
BE572448
3D86E1D5
BCB842F7
BDFC475A
3D903F0E
BE71A91D
3D92B6C0
3D4F35DC
3DA849B8
BE450DD5
3D48113C
3D86A659
3D44B701
3CD01A56
BC65A40E
BEB339B5
3C8D7965
BDD37B2C
3DB5E686
BDD42C2E
BE06F04D
3DCBEFB6
3D4CB30A
BE89E25F
BCDD49ED
BE71B6F6
3E0C5DB1
3D4E5C21
BD012D8A
BCB6C333
3DA73C44
3D848DCB
3C1EFE81
BE92F2BF
3E150344
BACCAB08
3CAC2045
BE536252
BD4140D7
3DF7B8AF
3EA24EDE
3C99E12D
BEBA895A
BDA72ECD
3CB140B0
3D9899C2
BCA0A8CF
3C8E0F73
BD33F1D7
3DA0EB95
3D010527
3E0BC7EB
BD025760
BD660658
BE24DBE4
BE4EC2A8
3CEBDC3F
3D3C0C1B
3DA83EB0
BD5CEA2F
3E03ADEB
3DB7C82F
BDA94E21
BE227718
3CEBA7AB
3B263976
3DD90213
BE1FC8DC
BD6583CF
BE0BFE2C
3CECB921
3C8A7682
3C4A7954
3D82E220
BC44866F
BDF2A998
BD283254
3E12B33C
3DC6ECD0
BE14B696
3BB93B25
3CDC4ECC
BE0C5736
3DDA57D3
BDFFC6C2
BCB9077E
3D9389BC
3CA10CC8
3A69955A
3D86E84F
3DC615C9
BCD2C9B5
BEC31727
BCE6511A
BD0E81A8
3DC19533
3CCA2F88
BCF20117
3D82E5B4
BC52FC67
3D09E97B
3D2C4E5D
BE1E8E1B
BDEB7FDB
3D0EB71A
BDA5A0A1
BDD4522C
3E5BCAB8
3DE981F0
3CE22B82
3D41625F
3B5B3783
3D003071
BD6F3A37
BB1E6384
BDAD6D8E
3D9700CF
BDDF53DD
BBCFFA4D
BDD81CFD
BE4A9A74
3C2F433C
3D279822
BDEFEAE7
3D894A6C
3D2E1081
BDF54F59
3D9E9455
3DA5C931
BC7CF071
BD057B61
3D99EE01
3C4B53E4
BDFB3592
BD251D53
BE96EA68
3DBD3FD8
3D4FB03E
3D91D1F2
BE1A8CAB
3893A756
3DAFF508
3DC3C4FA
BE3256D1
BD081699
BE1357EC
3DBA55E9
BDCBE7B1
BD987631
BD54B288
BDF42102
BC965A80
BDD93DA9
BE291653
BC9887D3
BEB33410
BCD8706B
3E6A9DA2
3E1E1AA7
3DDA95FA
BCDE7EBD
BCD9BAD1
BDB4E84E
BD99BF5F
BD493BD1
BEA5B77A
3D27F548
3E0C74E2
3CA1B9E0
3DFF1BA1
BD8DF4E7
3D9AD000
BBB69D0A
BE561982
BDBCBE9A
BECA6575
3CD79CE9
3DB7B4D3
3DC8B903
BC26C280
3CE48177
3D5F3410
BD85D62F
BE0BD4CC
BCF6CF43
BD90C160
3D92E7B3
3D98FE4E
3C8CE123
BE064A90
BC94BECA
3C30EBC3
BE464CDA
3D4BE0D3
3D7FAA7A
BDA52790
BE8AF6DE
BC7F8528
3E426CF1
BCC8F039
3E19C34E
3E373DAF
3CCE3142
3CCA39BF
BDE2D834
3D09AB95
BDE4FB13
BD78F2B0
BE1BD9A1
3DE39F17
3CA36C83
3B599E4B
BD53B4B9
BDFE280D
3D67D8E0
3D227225
3D4990E7
BDDCEFFE
3D7F7EE1
3C6AF3A0
3D557187
BD465308
BE0BA1FF
3D63F85B
BB710C85
3D986FD3
3C59DE45
BD956B74
3CA509C2
BDED0046
3E01E182
3DE77EC3
BDE50651
3E5574A7
3D535660
3D73643E
BED64D13
BD14A0B8
BE6BC70B
3D47682E
BDECBD8B
3E644306
BDD0E469
3C751E99
BA9E2F13
BE9950E5
3E1BF4C6
BD9A8A7D
BE7423DB
3DDF1E50
3DBD09AD
3D2C812F
3CFD74FF
BD985EBB
BDE17E3E
3BA7B487
BCCC3F42
3C9C6FBA
3D551B26
BD8134B4
BD9CCD8D
3D0B1E64
3DD1B325
BE3E0A66
BD8EDF7F
BE18CA03
3DBA07E7
3C960519
3C2E252F
BD440C51
3DBBCF4A
3C84164F
BE267E90
3C1B2070
3E14295F
3CFE102B
BE0A0654
BD88B1AB
BDA8564A
3D26C230
3E3AC039
3CEE0528
3DA229B5
BE312B76
BD329855
BE1CB058
3DD5695D
BD2B6164
BD5AD17D
3A4404E7
BDA45EF8
BB17E506
BE2EEB7A
3C8E58EA
3C9FC62F
3D1BB9F0
BD1CEA5C
3CC0C1B9
3D97D7DC
3D0798BE
BDD6DB84
BC048E99
BE50FB9D
3D5D7AC2
BBB09F37
3D88FE31
3CBC237B
3DD18BCE
BD493EA9
BDCC1E35
3DBD2F6A
BD97E395
BC5F41B3
3C9BE74F
3D484CD5
3CFCD3BC
3D29E6CF
BCC3C6F1
3D1E766F
BD72E620
BDAAA250
BD3A9A03
BAFFA1F6
BDA6F0D5
3C64F90D
BD767741
3D7719A3
3D07BD7C
3DDB1745
BBDC552A
BDFA1F46
BCEEE03A
BC88B851
BEB7031E
3DDA0DF3
BDA76ACF
3DB03CE2
3D9FA229
3BB4676F
BE2F2CBE
3C661688
3D8CA10A
3E0EDC3F
3D707D92
BEDF45F6
3C99BE97
3C957EDA
3CF80D7A
3CED7ECE
BD7CBDAD
3D1415CD
3D3DBA1C
3D9E088F
BC360367
BEBE9EDF
BAF2CDBB
3CDEE5A0
BD2ADE21
3D286540
BD565E24
BE04FD73
BE05F7D0
3C96B60B
BE54D4E5
3DE0A453
BD61DD0D
3D2F92CF
3DB1E757
BD526B67
BD883AFE
3E19661F
BCF64BF5
3A1A58C6
3D6F9510
3CE63C4E
BE5B02FC
3DBC590F
BE666F5E
3E17C73D
3BAAD18A
BE545AD7
3DFCE3BE
BD2C9B02
BE6D4986
3E1B5B11
BDADB086
3D775D17
3D297726
BC236840
3DFE9A63
3D65EF36
3E1C73D0
BD80A4C5
3DFF755D
BC4F70E5
BF044A68
3E0F7844
BD996B6B
3AF26C12
3D460349
BD05BA0E
BC59FAC9
3D893B73
BDAF6F8D
BD8DAF80
BD1DBD38
BCDEFF4A
3B5C7D84
3E0AB1FF
BD760F21
BDA24A4C
BABBBAAD
3E5BFC0E
3DD99711
BE15BC6C
BC870E97
3D863911
BD7097DE
BD7B3ABA
BE1B19EF
BD98A033
3DA30856
BE01C93F
BE235BF8
3E0AB453
BCA6D51D
BBC9810F
BC5872D0
BD8F7674
BD3409FE
BD66A5F4
3D640BFC
BE2AF094
391CF9AE
3DE85BD1
3D8522C2
BC571E19
BD08F30B
BC882703
BD5E8EF5
BE4C4A9E
BC45D41C
BE0A79A1
BD3C619F
3D7AA6F5
3D0B631D
3E2812DC
BD9647BB
3DA8A97E
3E1A2D55
3DDFAA11
3E0705F3
BDD70104
3DC3A64B
BCF68721
BEF8A5B6
3D7EB066
BC23701B
3CBBB8C2
BE555F80
3DC76C32
3B9A22AB
3D53E38E
3DDEC1D0
BD89411E
3D00D755
BC98CB6C
BDDC959E
BD6D544F
BE48E908
BDE7E8ED
BD42145E
3E6A44DB
3D298291
3B7CFF97
3D8161F0
3B1A5E00
3D98396C
BDB8C5B1
BD0E7162
BDA18751
BE06D5C3
3D4A0377
3E1686CF
BCD9D2C9
BC13175B
BDB2E35C
3DACFA72
3DCE5CF1
BD25973A
3CB18283
BD1DADF7
BD66F069
BD3D3D4A
3DED6AE8
BB91100A
3D2D2C7B
BCF9D22D
3B0B0A8F
BD90FE3C
BEC4F47C
BCE53B7A
BC447C5C
BE2557DB
3E1AD727
BDF66588
3D6AF7E7
3D0B21C7
BCBA5A6F
BD1A2D68
BCF39995
3D1D2E24
3D832892
3D05A404
BD4079E2
3D333AF8
BD010C12
3C08A25B
BD2A0634
3D8FC8E7
BDE5451D
3D187124
3D4D0E37
BD94485D
BC864BB4
BE072B15
3D75A7DB
BD5422EC
3D0E3F14
BD90F038
BDC67FD0
3C85342F
3D15AB73
BE82E626
3DFA620C
3B8CEF34
3DCD684D
BE5B40F3
3D4F4AAE
BE127738
3E4019BC
3E08185D
BEB41DEF
3E024326
BE05360E
3DD8311E
BDD3B510
BE199A04
BE0B572A
3C89F4A9
3E0DE96F
BDA512E4
BE2A6623
3DD16C81
3E04A918
3E1A446C
3C1F4C57
BDC5CEF9
BDE155F9
BD9FAA49
3E70FBE5
3C028829
BCD8FCCD
3E0B90FC
BE067322
BE1D70F2
3E483ECF
3AE2F2FA
BE0FE4F9
3DC3CB58
3E3A640A
3DC35A7E
3DB4ADDE
3E3B3AA4
BDD66EE5
BE8FD39C
BD3B97DB
BE185D4E
3D9C0ECA
3DF6BFDB
3C3C8021
3D1CB75D
BC7F7E5D
3B7A9B91
BDC8B40B
BDD2C304
3C1756D0
BBA97BD9
BC015A21
BE3C0084
BD6F815D
BD6D3B63
3D3B823B
BE150B12
3DD1B010
BD19A54C
BC73F852
3D0855CD
BB90A675
BDF307DD
3E5972A1
BE44768E
BE0B54B8
3C703C20
3E0354AD
3E12F8B0
BD2CA272
BDCB0277
BDF27858
BD5CD1FB
BCD7BD60
3BD220EF
3D3624DB
3D3937FA
BD9E00DD
3CD00D65
3DA70746
BBBF00E4
3D56E0E7
BE1815CF
3D508A85
3C5C84EB
3D2CC74F
3D2F7C45
BE738C11
3B8F5CC4
3D8C2EF4
BDB4A991
BD52A5BC
3D1AB29D
BDDF322F
3E0AAC6D
BBE75562
BECBF671
BCDF707D
3DF417D6
3D553811
BD8CB91A
BE041D11
3D3DA1B6
BE80F263
3D8E5E77
3C99381E
BDFC0E0A
3C693C82
3D82101C
BC0D8ABF
3CC2BCCB
3D28DB78
3DA42B8A
BD14807D
3DD4266E
BDF05595
3D150F23
3C0C3254
3DAFD18D
3D108B11
BE25386F
BBFB4491
3CB1BF33
BDE817A7
3D35946A
BD26AE2E
BE0C3379
3D7C7583
3E2CEA66
3DBBFAE7
BE2322CA
BD811973
3DAD5409
BD6FB4AF
3D729205
BE567907
BE138003
3E59A380
BCD204FD
3DA99AE5
BC5FB2D5
BDA3C94E
BE564D37
3E985FD6
BDC8687E
BD609E67
3C66FC24
3E14A501
3D912317
BE563131
BE42BD65
BDC205CC
3DC58BA1
BB3460DB
3DB495BD
BC36AD45
3C2668F7
BE08B882
BCD1CBCD
3D8AB48D
BD83EA8F
3CF40C58
BD866642
3DFBB4F0
3D1DD4C9
BDF1BA82
3D5DCA07
BACAF084
3DF3F609
BE1A7554
BE183B55
BD913955
3A922319
BD19C5CF
3E1F8C42
BC1BFE46
3BA1FBA0
BEA7B437
BE95B878
3D20FA3D
3DBDCA8C
BD831FEB
BD0DDCAB
BD0CBA79
BD51500D
3D872C28
3C8CB8E5
BD97A7A7
3C97F6AC
3D3D51B9
BD93D244
BD815A6F
BE71EF15
3DCE0C7C
BE0356AB
BEAB8260
3D8692E1
3DA6E5C6
3E5F167A
3D8A318E
BDDF2DC4
BDEC353F
3D910469
BCF8CCEE
3CB4A4A6
3BCDCA0E
BCDE5E80
3DB076FF
BDCFA954
3D29CCD6
BD2D78A0
BC0816D2
3D9637DE
3E295387
BE287C1E
3D1F3D3C
3C5B35F4
3CCB451C
BE11E0C3
3D9AD822
BDB845EB
BC07484C
BDBE1B3C
BE0E2C53
BD268632
3DAC1906
BE1932F0
3E18A322
3D54B23A
BD87BABE
3CBF9162
BCA7302D
BD8AA7BA
BE18874F
3D76BF5A
3CCDCD21
BE4C4D04
3C14A0C6
3DBB656E
3C306EE9
3D317BCE
3C8166A8
BDF8B558
BE53724B
3D916BB8
3DA96828
BDBD149D
3E11569F
BDE19418
BC0E938E
3BE31FFE
3DAF61AA
3D9DFD69
BE21C2DC
3D64F45B
BE306D6F
3E05E6AF
3E1C2BEB
BE950CCB
BD71080D
3D844B05
3D0E3D0A
3E0EC89D
BD3A8977
3DB39D2F
BD936751
3E149128
3D9CE517
BE0CB52A
BDC6AA42
BDBDCC84
BDBD25E8
3D6ECD12
BE85BA2A
3D1DFA5B
3CE9C213
BDD26955
BDC117FC
BD8AE031
3DC02E9D
3D85C333
3D8DBA38
3D17FFA0
3DBC3450
BDAA3B70
BDC08DE4
BE02ED92
3E2C0E0B
3E39311C
3E3ED83C
BE4D6DF4
BE81EA00
3D4A3B29
3DF55B46
3E37D125
BDA7C3F0
3DDD979C
BEAF6AEA
BE993BD1
3BB8D623
BD5E1612
BE00E7B1
BD0F85B0
BB7E24BD
3DA01622
BD29C2AA
BD18EE1F
BD02C798
BD0589A9
3D65C8D0
BDD2EB72
BDBF0011
3BC7DFAC
3E7F8202
BDEE3028
BDA96BD5
BD90D0F4
3D1C1813
3E5C2BEE
3E0A6574
BE147EE1
BD063DA3
BE797AD0
3E1ED28E
3D84A6DD
BDE38AD5
3D5CCB1F
BE96F7DC
BB1920DC
3E41738E
BCBCF177
BE09FE19
BE1F263B
3E173520
3C34E85F
3D88CEC0
3E1FE995
BE8227A2
BCE53354
BD5A142F
3D02B49C
3C897864
3DCC0B15
3BFFB5FE
3DDF8D8B
BD0FE710
BDD37E92
3CD6EAAE
3E1A12DA
3D3E2DF7
BDD1146C
BD50A66B
BD006195
BD614E0C
BD3D05DD
3DCF5BEB
BE06F423
3C07B5B0
3D2C244B
3DFE7F66
BCE6E3E0
3CFA7064
BB90C314
BEA55B34
3D9F1D18
3D5F5222
BE8E3593
3C707734
BC822B91
3DC5DF74
39791312
3DC56AF8
BDAA6E74
3E4354A0
BD9488F8
BE8E6F4F
3E557205
BE82D3AA
3CA05F4E
BEA9DA0E
BCE93C78
BD9D0D93
3D81B51F
BE2A3788
3D79CD47
BB9EB6B8
BE6F6A37
BD3D23F8
BCAB5FF7
3DF463B2
BD047FF9
BC071DD1
BE172406
3DB132AD
3D00C2A0
BC6010B8
3CA957F8
BD2892A9
BE1C09B0
3DE09E5A
BC5BA2E6
BDB1A97F
3D20C2E0
BD2F49B1
3CFB8B12
3CAC6C41
BD4301FC
BDF51695
BC598D18
BCEA4B8A
3CD1D1FC
3DCC4794
BE3761F0
BE6E0AAC
BDC01459
3DC1E5E3
BE1393D7
3E0228C6
BD96B12C
3CC4E9BB
3E016631
3D9546CD
BE0FCFE8
BE8DEE95
BDD562AD
BC9B6DE7
BD88BB9E
3D731819
BCA778F2
3D8F0663
3E14BC47
3B995DC3
BCE6A89A
BDA3648C
BE8AD81F
BDD8A9F7
3D46F429
3E647A09
BDEA47B5
BD94EE8F
3D305822
3D4075C3
BD8532C6
3D7259E2
3CBAE9F0
3E084EAB
B96F9F90
BE816158
BE0BF96F
3D4D229F
3D483619
3D68859C
3B6ED75F
BD723D82
3CBA660A
3DD5301E
3CB454ED
BE0D4B53
BDECFBDC
3CC59C69
3C07F570
3D66BAFC
BD0C3F4F
BD4A7672
BDE025E8
BE10182C
3C683BC1
3E2FD298
BE320162
BDA6FAF4
3E42CFB4
BCC6B80E
3D4CBC1F
3D9DDABD
BE0027A6
3C98A9B8
3E679458
BDC491CF
BE663953
3DD5E5C6
BDAF7DC2
3DE09074
BE69FCCF
BD81DB32
BEFCB430
BE3BAE82
3D4DF6F8
3E6ED4EC
3DFD0472
BE61B086
BAE0F2D3
3E2C2B7F
3DF039E7
3D0CBF25
3CC81DED
BE149D83
3E1F8956
BE07810D
BE565FAA
BCE8D006
BD306A6D
3D39EA75
3DFB83CB
BE4E1ECA
3DD2CC92
BE1B4EF4
BCEA54C7
BD13848F
3D9B2BAF
3D84B9FE
3C8E6836
BBB1CE86
3D3C6382
BDA9B59A
BD2FE020
3D4B737E
3DC54C4D
BD9C5B3F
BEB93851
3C46E51A
BDB66DF7
3E259472
BE0AE036
BDAABFE6
BEA92628
BCC6F266
3DA74E96
3E0AECDA
BC4252B4
3CFF1B61
BC6EC873
3D4B8E70
BEC8ADA8
3C355FDF
BE81C0C8
BD3DB6F1
3E06F89E
3DEE89D3
3D9F8E4C
3E15561D
3CE8650E
BDF1974F
3D8A1303
BE244B2E
BD97857D
BEF0DDEC
BE5C3954
3E62FCB8
3DA7204E
BE086409
3C160A00
BD015EEA
3DD61AD6
BB1EB9C2
3B58441B
BE20B4CD
3D589BBC
BE480D97
BE5C9269
BD0E1803
BCE22483
3DF15021
BD866E3A
3E1777EF
BBD6FC59
3E233290
3E8272B9
BE7F3012
BE5A2462
3DCF93EB
BE14FBA1
BBBFD5C1
BE18EC60
3D72218E
BD8015A0
3E05F522
3DB3B7E1
3DEBE65D
BE3337EA
BD5340CB
3CE5BFBB
BD93C194
3C9A9D90
3E5A50B7
BE69B2F7
3E0EF895
3E53A3F0
BCC35AE4
BE2B04B7
BDA966AC
B9EFF54D
BD9A7257
BE2756AC
BCA4DE09
BEBA670D
3DDBF931
3E102199
3D1EBB8B
BB8D5DF0
3E504702
BB90CC75
BD0974A8
3E22D0BA
BC8EEDDE
BE0DD3BF
BE5E6262
BDCE897E
3E3C6C0B
BD90CC8C
BDDED9B1
3E0AB2A4
3CCF5B3E
BE57B53B
3DFF91BC
3D33D5ED
3E229D0A
3E4AB7C1
BE8EA925
BE0E47D1
3D0C2D47
3D8EDBD1
BE07E8A0
3BDC52B9
3CB18A5E
BDEE895A
BDA996A1
BE4CCD51
3B230596
BD98BE68
3D93B075
3E1C3407
3D1B84B4
BE07E5FE
BE0045AF
BEFF446E
BEEBD677
BEBE5746
3E3C86A1
3E7B346B
BE3D3BEA
BD064F74
3C67B9BE
BD697114
3E547DA1
3CCFC27E
BE2B808E
3E81925D
BE4363F5
BDCDD58D
3B8D98F3
3C99F000
BE91B7E6
BC0F69D9
3E0200AF
BE0B53EB
BE8193C0
3DFA7715
3D8EF92B
3DA9DFCB
3E39313C
BC5F300B
BEA5B45A
3D648FC9
BB6F0278
3E0C4FF4
BE8717B9
3E1CBCE5
BEDB2EE5
BE1F0059
3DE51887
3E11CD79
BE26E268
3DF8E348
3D5E6C80
3C8561D3
BDF1D34B
3E2A95C5
BEB7FFB6
BDB938AF
BCD01BA2
BD85125B
3E078FB2
3E0529DF
BDECA2C2
3BD88B62
BD866E9C
BC70D041
BD82A59D
BE438CDD
BA80493C
3DA016EC
3C2401CA
BDB9AA42
BD611477
BE59FC53
BE13FE06
3AB70C60
3E4CA549
BE04F157
BDA29E87
3D3FD06C
BC7E649D
BEAE0138
3D858064
BCD05C20
BDAD5EAF
3DB352DB
3E55F4B1
3DA7F18F
3D849D67
3D81EBF8
BE715E1E
BE8BDE25
3E2394BC
BE1F25AD
3DB09448
3E1856EA
BE466D84
BD77CAB0
3D7F8FE6
3B9F2132
BDB76C13
BCCA0CB2
3CAB4319
3C1D31F8
3D80EA38
BB2820B5
BE3441F3
BD9F65AB
3D6A7A22
3CEAF2FC
BC95C04C
3E39037B
BEBABC92
3DBCF89D
BE8A898E
BEBBE148
BD743A52
3E34C830
BD871CD0
3DDB214E
BD464F8D
3D252535
BA145F8A
BE1353FE
BDC49602
BDB4CECB
3CCDF9D2
BBABE77C
3BB2F6BD
3D8364DB
3D120039
3E74E861
BE1C470E
BE94E487
BF1D8A30
BED7AA2C
3E1FB344
3E3FAFCE
BDF79A3C
BE3F3ADB
3CEFF0C5
3DA6DA63
BE779225
BB9CF4F3
BE054D93
BDF699C2
BD492798
3E297F24
3C150990
BE07C5A6
B9AAE0E0
3BFC7F1B
BDFCB569
BE43CC99
BE87EF9B
3D5CD712
3E96EA9C
3DDD01BE
BD4336A9
BE0C7F7A
3D84B696
BEC38858
3DBEC1AB
BE868BF8
3CEF79FE
BD8EB694
3DDC64A6
3D9F46F4
3E0364AD
BD90C8F7
3D622E1C
3DD2E826
BD3F8D72
3CFD6874
3D1BFC04
BD925950
BE6F3116
3E0F1201
3CE8BCD3
3D397E32
3D0A8ADC
BE646B32
3CFC702A
BDA66795
BCD7325E
3CA509AA
3CEF377A
3CC907E3
3D8B1EDB
3C6809E7
BB8A75FD
3D8BB74D
BE1EDBF8
3CE25083
BDA75927
3D86FEBD
BED9D1DF
BE91C030
BCD3A15C
3D8D7ACB
3DA42FBE
3D4FA7EC
BE6F3BC5
3D0652FF
3D1D014E
3B660913
BCE11687
BD84CE3C
3CC32D04
BC4E5A71
3C7D74CC
BEF3CE97
BCCBFF55
BE4B3AED
BDB6E81C
3E42BD6C
3D67D88C
3E01411C
3E1D5178
3C67CD08
BE88C94A
3D876F71
BB0A5A1B
BCFEEEAC
BDC824EB
3D32614C
3D4551CB
BD7B55C7
BDE4FAC5
3DF22C9E
3D5D8BF7
3DA03467
3D98FF85
BE2BEBAC
3DE43918
BCD75518
3CFDFF24
BDEF0A53
3E3E535B
BD5C3CAE
BD5FAED6
3CDEC8B6
BE4582E8
BE422CFF
BE1321FF
BDD2CED6
3E26BCA3
3DF02530
BD9040D7
3D8AD3CF
3C451AE3
3D8CBD7F
BE1DD787
3C0F3AF8
3DCDDB66
BDB0E391
3E0BC71E
3E0A7C9D
BEC95CC3
3D798AC7
3D190ED6
BE84FB44
BE50EA02
BE7B0C3B
BEC8075A
BEBB4F59
3E89A089
3E74D99A
BE8BD1B8
BD1805A5
3DAE7BC5
3E252F42
3DA9CAC7
3DC2A508
BE30A29C
3D1F0C1D
3CF68644
BCCC16AC
BD86E97F
BBBCF936
3D226390
3E93BB1D
3D5B692E
3D4F1F5F
BE922252
3DB04D3D
BE0C9E48
BD0D26A2
3D27ED2F
3DFEE57F
BE2C0FFE
3E003FFA
BE74C260
3D59C371
3DCFB2C4
BE9915E1
BE70B61F
3D049158
BD05620C
3DE1AE16
3DCE49FE
BB92C650
BD9829F3
BCB5C387
BD6F9624
BD6EEE19
3D1D5CFE
3E8670C5
3E49EE68
3B8EB0D0
BEB6E72E
3DFCF889
3CA2F0E0
3E4012D4
BE8CD449
3E44AA5B
BE101A24
BEB56B86
BE23A5C5
3C6B6FAF
3C596D0C
BE471BEB
BBD73558
3BACBA75
3D18C989
BCAB679D
3BBAA508
3D3DC3F6
3DEE7656
BCDD2C8B
BD0B06F9
BCF31E92
BD1159E7
BD207C72
BDA98EEA
BDAB045C
3DC31B3C
3E498CD4
3E0B6884
BDB174FB
BE443571
BC43A35F
3D5A380D
BCD141B6
3CFCA3AF
3E303A93
3D83DBE3
BD928904
3D2D597F
BD824B69
BE8EF0B9
BB05D134
BD59DA5A
BBD4EDEC
3DBAE9D2
3BF281AD
BE026A4C
BE331ED4
3D58CEB9
3D0E8BFE
BBD10414
3D8EE362
BD1FBA2E
BCB907AA
3CA6BAAF
3C555810
BD9C2EB0
3DF34925
3C27550E
BD423AAC
BCF1156A
BE991F03
BE185E88
BD5E8937
3C919B6F
3E300E58
3E0B0D6B
BCDB1C24
3D5D8037
3D161CBF
BE4B9332
3DC1B3AC
BDE25EFA
3CC21511
BDCA4D56
BEB9C50F
3DB961AE
BAFC0346
BD35467B
3DECF27E
3CE436AC
3DC401BC
3D710A2B
3D9082F5
3D27DF74
3E1476B5
BE7E38AC
BE842022
3D015435
3D526B7A
BDF69DA1
3DDEE29D
BE1EE11D
BDC4B301
3D4C6F8F
3E0EB16F
BCBF5BB8
3E368663
BDF6C883
BD18A8C8
BE28EB51
3E081756
BD95FA1B
3E3D9328
BD30AF9B
3E181D6F
BEA006C8
BED7A878
BDC8D004
3C132F6B
3CD4DA6D
3D3535B2
BCBD5194
3CE204EF
BCF29F8B
BD23861B
BDA1D34C
3DA582AC
3D004925
BCC11A87
3C816CBF
BEC05922
BDE6DD6A
BE10B375
3CEBD293
3DEA7F98
3E2184F8
BE12394F
BD86800F
3E1BF027
BE3A6F39
BCB06850
BE4DBBA0
BD341813
BD17199F
3D023A93
3E2C0CA2
BC93CFA9
3C3BAED3
3D87ADB9
BDB3DF9C
BDDCE09C
BDE4C8F6
BCF80A97
BC157E19
3DCB9E88
3B7D05C3
BD905333
BC963A31
BC919D69
BC153478
BE446B87
3E61E691
BE10DC52
3E01BE54
3D45F213
BE6CD1AD
3E5213BC
3E4A1941
BE72C536
BCB17105
3D101B55
3E39DB25
BE3B997B
BCAB5F24
BD7EF190
BDE7023B
BDC0D59D
BE919FC0
3AE6C0E3
3BFBC8FD
BE33B51D
BDD212FA
3D36EAAF
BD5C10AC
3E1CCAFE
BE0DF288
BE693674
BDA8B495
BC742E6B
3D1582D4
3D78021E
BE7C5976
BE8CD43C
BE580D61
3D6F50A9
BE020CDF
3DC0937E
3DF5F99D
3C36F67C
3D76759D
BDA6BC8B
BE864E56
BC233191
3D4E4FA0
3CC8B228
3DF4510C
BEC4FF48
3DE0A1BA
BE45ACE6
BDBD8DF1
3DA0C050
BE296902
BE3E4E71
BE220B4C
3DB1DA86
3CBA8BB1
BC299CDA
BD283B78
3D46F8E0
3DA47A17
3E1FB74D
3B3B8E23
3E048985
BD3DD0D2
BD20DE8A
BD18D5E9
BE0C927C
BD36D8E3
3DE58C36
BE144D6B
BE03CB2F
3D80AE9C
3E016DC9
BE5B4DF3
BDD99A86
3E362796
3D357BE1
BE9885DB
3E025485
3DAE14E2
3C4057B3
BE2D86DA
BD25FB27
BDBCF09E
3E0520FD
BDCFD316
BE4FAB89
BCD0960E
3D1C6F10
3C30EF23
BDB5E6C6
3B19BCD5
3DA58B51
3E0B667A
BE5B3BB3
3D2308FF
BE11762A
3D188866
BCED2A4C
BE8A3E94
BE5A5F76
BD81D083
3CCE70C9
3D6A7B43
3E101390
BDCEF9B6
BD8799A2
3D9A99CA
3D6D6096
BCA337C4
3DCB4900
BE1705F2
BE9D9BF3
3CE81C01
3D87363C
3B6C5128
BD336E14
BD64BE02
BC19589A
3D9C4A58
3D911F23
BD2A6155
BEC1F973
BD979CA7
3D62B2A9
BA4ABD70
3D5FD1AB
3A66C254
3D378D2C
3D87954D
3D8B4692
BD0B0B53
3B48C476
BEBB920B
BD30DB7E
3C233AF4
3DD37D4F
BE2E49DD
3E4767BC
3D2663AA
3DA9ED5D
BCE877EB
BE18F020
BE7E0355
3E001B83
BD8929B6
3DB85FEE
BE38C880
3E1966E9
3D80F62F
3DCC4CE9
BDE6AB3D
BCC6E9A4
BD4EEE45
BBF50F8D
3CBAF241
BE110702
3BCCC219
3CC3E01E
3D65DC12
BE210510
BDE96955
3DA3C64B
BC9468C5
3DEFE00B
3DE2F692
BE3A09A4
B8821850
3D9EFD97
BD144767
3E18C4A6
BC598F7A
BE3969D9
3BF864CC
BD2173F5
BE6F436A
3E218F11
3C796739
3A98B731
3D23B5F5
3D27AA0D
BDFB8D0C
3E868EFF
BD3D1376
3BD41AAB
BE3215F2
BD55AC8E
BDBE33DF
BC9DBAD0
BD3F49EE
BE139644
BDBDCBE7
3DB7728F
3DB92336
BED0BC08
BD3A8901
BE0C79D8
3D799624
3D3015BA
BE9016EE
3DF23706
BE0C6C49
BE4CC8CF
BDD25559
BD158ACA
BDD34AD2
3DCE3073
BC860A54
BB27120A
3DFFCE90
3BA4B89A
BD3BCED9
BDA29407
BE85B397
3DBF657A
BE58E600
3D9A6299
BC95B4D6
3D35874A
BC651575
3D492CD3
BE1F2E6F
BE349151
BE07CECA
BB7B0B3C
BD2FA797
3D2CA14F
3D431B1E
3D399A09
3D13F027
3D990E2D
BE3C9992
BDE2511B
BE8FE1CA
3D8856AB
BDD3E950
3B6007A7
BD6B0C9D
3D77CA66
3CEFFC12
3C86D2D9
BDB97FD0
BE233B2D
BDA48CCE
3B57ACFD
3CA3F9F3
BD045D50
BDF878CF
3E7C76F0
3CD4F148
BBC048EF
BDA9ECF2
BDB041D5
BD50A147
3DB12BDB
3DC08506
BE263662
3DF17D80
BD42F6D6
BDA52357
3D687D57
3D571EBD
3E31E8E5
3DAE13B3
3E1F5186
BDBA8A1C
3D37234F
3D205509
BCD7E6F2
BE3F4E3F
3E474022
3D791EC8
BE35F85F
BE3A5BDA
BE147A45
3C6761BE
3E7AD69B
BD6DF5F6
3E0624C1
3D8B2267
BDDB0C84
3E3F9C9F
3D8EE090
BD9290DB
3D8D89B8
BCEB742E
3DC19DBE
BE545460
BDF58B59
3CEF95B4
BDE9537F
3D420E68
3CAB8B7C
BDDAD179
BBD1B355
3C90C30E
BDBE8D9D
3B5CF2AF
3D666A1D
3DA53DEC
BE422029
3E0C9BC0
3E4B6E19
3E4FF300
BE3EF6A0
BE1FD040
BA33D746
3E5970D1
BDE385C9
BE995BCC
BE9F6A1A
BD5D6113
3BC4CAF2
BCAE80D4
3D7B034D
3CE2BD75
BD46D291
BD5DA0C5
3D191D8D
3CFA3B4C
BE0B569C
BC9BF433
3E0CE87C
3DF304EB
BE1402E4
3C6E9BAA
BE335B3A
3D9B57EC
BC037990
BE8D359A
BE21AB91
BE1C1535
3C92B83E
BDB91F37
3DF3258D
BBD28871
BE938E4C
BD8AD002
3D317087
3C0932CA
BD6FD86B
3E13A411
3D7A29C6
3DC8E837
3C6E10C7
BDE8DE29
BDD01DF3
BDDFDEFB
BCE805D7
BE267AC7
BDDBADF6
BE373BC1
BB274695
3E05414E
BE830D23
3E691963
BE5C09E3
3D7CC618
BDCAA2F5
BC6A15D6
BD86CDB2
3C5BFE1D
3DD49CE4
3DDCE08D
3BC846D3
BD9A401A
3CC2D5E2
BBFDDF30
BD63245B
BE6AF626
3D4CE7CE
BE0F9DCE
BE58EA16
BE2FEAC1
BD966691
3D321939
3DBE4E47
3C1C0971
BBDD5D0F
3CB93572
BE23830B
3B981446
3EA98639
BE0B3403
BD1FE0D7
BC06C816
BDAE1C38
BD2B996B
3DE47CD2
BE17810F
3D477008
BE3B8B3D
3CE35F97
BE871E63
3DC3EC37
BC56A693
3DCFA123
BD6F5BCA
BDB8A7FC
3D9BBD3F
3CC1C23D
BDDCEC5C
BE096060
BE5434D7
3DE37C48
BDB06222
3DA43B5D
BDCABFCC
3D82561C
3DC915A8
3DC68AD5
BDCB8469
BD3C2B22
3CCB004C
3E455092
BE8BD1FB
BD73BDC1
3DF93E44
BD552975
BD8B07A6
3D11788B
3DB489C9
BD956BB1
BD94B792
3E04679E
BDBD60FB
BD563E7B
BBB75C17
3D8470C2
3DC84AA4
BE405358
BE4B9E39
BCEB7F21
BD3B7345
3BA94596
BDE92289
3D0481BB
BDB51D6D
3DF7C942
3DECBC1E
BE397C3A
3D81D298
3D0494BE
3D3D456D
BCF4648C
3C3B8FF0
BE38144A
3D9D8C57
3C07D10E
BE186A3B
BCA10382
BE1CBFE5
3D0CAD1D
BE3ADCDF
3C7F6FEE
3CF962C9
BB434876
BD2FDDDC
3C86BA50
3DEAFE7C
BD921436
BD245E88
BD4B00DD
BDBCCF50
BB435EA2
3D98DEEC
3CB4F87A
BD890AE4
3B7C48D2
3D69E06E
BD271EB3
BDA0A1B0
BDEEA5CA
3D53E9F1
3E351F95
BE2B76E7
BDD11D85
BDA5662C
3D176145
3BA90E0E
3D1BF720
3D6E8707
3E12DBC5
3D835EC1
BE00AF67
3D12EDA8
BE271367
3D73E09A
BD5CD528
BEB09762
3D760178
BDA5F53A
BE5337DB
BDFC6C68
3D611208
BE06DBBB
3DE28AA2
BD719AA0
3C853299
3D78C85C
BE21058B
3E195BD4
3E10C989
3DCDF28C
BE852F9F
BE8EE05F
3DFC2D02
3E1A1940
BE7C4991
BCC1433D
3DB083AD
BDCC0AD6
3DC8895C
BE1DEFB2
3D9CB6C2
BCAA76B8
3D405B24
BD81D74B
BC2458FA
BE446BE3
BC8F0637
BE194033
BDB0455F
BE3C02B8
BD39B4B2
BDFBA749
3D791C07
3D2B1845
3C383A62
3DB2A807
3D90D4A4
BE436889
3D89B498
BD75B77D
BD45105A
BCE9ECF1
3DE03639
BDACB99E
BC0BFC68
BCCB14E3
BE3EB313
BDA22930
3BF6C327
3DB283B9
BE9EC135
3E88D937
BEA114D0
BD964B17
3A5E4E42
BE0820B3
3A3AC253
3DBDF062
3BADE9F9
BDA7DBF0
3CDAB98B
BD5568C4
BD9EEB8C
BCD75A2B
BBCF0083
BD0053CB
BDF1BA11
BE530F88
BD0167D4
BD37BB91
3C450721
BD398946
3D7583D6
3E0275E8
3E52772D
BE1FD2EF
3C823F2E
BCA997C9
BD452C7C
BE482D15
BC083FA5
BCDC6799
3D6D1EE2
BCFAE5E0
BC7C26D5
3D585887
BDE8FBF3
3C478D7E
BDDD8948
BDF0182A
3C82D9DB
BD83A7F1
BDF3FF4D
3DF3648C
3CBADFB5
3DC0F43E
3D10B0A6
3E0319E4
BE574A67
3CF1EA61
BD692FA9
BDD43D1B
3E48D208
BB332CA1
BDA38D9D
3DC6670E
BCC7AAB4
BE434501
BE7804D7
3D70B904
3D9AB43E
3D55AA06
3C6947A8
BE82B947
3D23B4FA
3E388E1C
3E3A98BC
3D9ED783
3D9D9E82
BDA0D16F
3DD6381F
BDF5935E
BE1187B6
3D61569D
BCBD96A2
BD89C9F8
BDE365FF
3B151BED
3E4FF56E
BDB3709A
3CC1A600
BD86F7CC
BE2DFD54
3DC8FA1A
BD5E8578
BDDE0B19
BE7AEB3F
BDD1DDE0
3D95D530
3CC298C4
3DD98658
3CEAA44A
BE170FB1
3D6F1DE1
BD8C5437
3DC035C3
3D4B55CB
BE1A548B
BF1681B3
3E46C51C
3DF39DC8
BE129DBE
BBBAF4A6
3E97CC3C
BE5CA3CC
3E094741
3BB70D55
3E2C0FBC
BE2A57A7
3E23DF44
3D30FFEE
BE230C11
3D44B651
3E74B818
BE440814
BE35CA63
BE08378B
BE490554
3C45B403
3CF1ED55
3DA5AB32
3BF158B7
BD6FE468
BD8929CF
3E04C625
3DBC0A16
3D94C413
BCC9E163
BDD757B2
BE52C13A
3D2FD16E
BC5B353E
3CA52C40
3D1885FE
3D763B5E
BBF854FF
BE0AC85C
3D79C010
3DDFB7B6
3DA3B0D8
3D8AD048
3E034158
BEC5EF9F
3D3185F6
BE91C09C
BD2EE7C3
BCF70099
BE940119
BEEAC430
BDC3F7E5
3D82A9FB
3DB2BCCC
3D96249D
BDB3C1B2
3DCED754
3DCA6F5F
BE3BC399
BE0E1170
3DD530DE
3CDC3EC0
BDCA8CF3
BE20F1A9
BE0FE723
3D5871F3
3DE02327
BC19A201
3D2DD536
BE01C8F6
BE6F6B0E
BE3F1899
3DA36C40
3D9ECA34
3DBDAA91
BE8715BF
3DCB3ACC
3DB4788F
3DBB6D56
BD881AAD
BC476B74
BE410C61
3CF17A15
BDBBFF21
BE37BF0C
3D99ED20
BC9DAE3B
3E246C29
3CA73E0A
3DB38281
3DD56650
3D5A29A5
BDC839A3
3D4996EE
BD9CB0C5
3DCA01F8
BEAFE1E2
BDDE1566
BE6A4351
BD853953
BD9918BD
BD1C1BB6
3DB6D03A
3CC6896A
BEC11FC6
3CBBBEA4
3D92B671
3D9F5287
3D15D15D
BEAB0AF2
BECD3956
BE0E48D3
3D8A7481
3D4383EB
3DAB1418
BDA45E94
3D9DD040
3D31AC22
3DC3FF7F
BE05B2F0
BE1B2CB8
BE27C5F1
3DCEA1BD
3C2DCB8E
3D9ED2B7
3D3DF63B
3D0B90A9
3D3E6F01
3C37FC46
BEA1EF88
BDF5EEDD
BE16FFA1
3DAE53CB
3D458C89
BBB80366
BE5C93EA
3DA870B5
3DDA0609
BC9315AE
BE677A6E
BE5DA5B9
BE157A54
3C9D9EFA
BD850335
BC4D131A
BE1C6B68
3D86854D
3DA987DB
3DAB80AB
BC52E177
BBC6DB5E
BE15E66E
3E505DCD
3D0E41DB
BD4A17BC
3E011A86
BD4AA8D5
BE14066E
BE2F0EDD
BC7392DE
BD6B6B43
3D57E11B
3DEDE86E
3CF41D9B
BED20065
3D19BF9B
3C6BE210
3D9D69BC
3CD82164
3D54FDD8
BDD9E267
3B09690A
3DA7F3BA
BCA7AE3C
BC65B311
3C5C7E42
3CB9E176
BD0DD561
BCEEF0D2
BE2081C0
3E12C5E6
BE61CEA7
BDEA48DD
BC4D4186
BE29CEF1
3E05468D
3E1A62B1
BD90A5F9
BE803003
3D10E257
3DCAFD9E
3C9E6C54
BDF10613
3D97F2B0
BE32DB14
3DD10B83
BE7D714B
BD588B3E
BB03947C
BDEFF8CE
BD540AB3
BE98E1E2
3DAAA216
3C7AEDFC
3C920521
3D12E84C
3CF6CABE
3DAE794D
3D6F4E3F
BCE0A549
BD52017E
BE522665
3DFE0EAA
BDBF30F7
B9DD03D8
BD20D6F4
3D93257A
3D8512E5
3D0F16C4
3D266C17
BD15E6AB
BDFCB72B
BB40338C
3CC2F6A8
3C4202C1
BDBE633B
3D812860
3C0A96B6
BC6F8EFC
BE8EE1FB
BDD98DB8
BE2012C3
3DE07EEB
3D88E3B6
3DC85A93
BE5B98CB
3B89C8DC
3E14141B
3D7F604C
BE9DC051
BE729E25
BE8785CB
3DC1558D
3D5B367B
BD5C120E
BDEEE0B5
3E41840E
3E149C3B
BCBA5685
BDC74A53
3C3318A1
BE18ADDE
3D8048FD
3D8CEB12
BDE60AE8
BD172452
BDB0CE4C
3E0B5CDE
3D69263F
3E26B4C7
3DB958A5
3E23836A
BD99E0AD
BDBC131D
3D39753D
3E0C2E4D
BD88D98C
BEE663FA
BD1F43CE
BD91BA63
BE5E8A8B
3D27CCFD
3DD201E1
3C2D71F0
BDA832A0
BE28E201
3DBF04A6
3DA11AFF
BD27DC95
BD75DC7F
BE0B348D
3DD6122F
3D828266
BED64674
3DD8C3CF
3DECE320
BDE1A6E4
3CC7B55A
BEB75694
BD8C4678
BDB7CB86
BD6650EB
3D5EB8E5
3DB4CE08
BED5D821
3C6D191A
3D5DF3E9
3C912673
BE85132F
BDA19D25
3E40C27B
3C427960
BE5F920F
BE25EB1B
BD491028
3E934916
BC79ACD5
3BFBE2DE
BF21C925
BD1F6960
BDD8EA8C
3D53AFB6
3D9BA442
3D876228
BE743BD7
3C80A4A1
3D14669B
3DA026B2
BE774A9C
BBFC508B
3E1DB730
3CE5D398
BE1D925D
3CB816E0
BCC58F86
3E162926
BE022EA3
3D239492
BD83C357
BD229956
BD7413B7
BBF599D3
3DEFF0A3
3D5028A1
BE767C5A
BD7AE37E
BCD1E096
3DAAB3E0
BE0655ED
3DEA2530
3D236D78
BD57EE93
BE2D51F3
BE37C1D4
3E335E97
3D5AF9EE
BE915B91
BDE7B28F
3D43F486
BEDC8134
BC95650F
BD7CA28D
3D91A43C
3D0C77CB
3E00E972
BDFC3E34
BD9B34A7
3D9EF981
BD40105C
BD0627A3
3DA70D43
3E694B3D
BE6E96D9
BE752EF9
3D8ED753
3DAFD76F
BEA5F476
BE044BAD
BC95982E
BCA362F9
BE062EA4
BE0F18B8
BCF7B7A4
3D0DA63E
3D6D0D83
BCB5B1DA
3DF34608
3C5FD8BA
3BF8B521
BE819609
3C163A09
BE1788A3
39CE820E
BC386688
BBC8FC59
BE547E49
3DDCBA66
3DFDA6F0
3E09C9F3
3D19E2A2
3C38B64A
BE2E57D4
3E021916
BD940E67
3DC0528B
BDDCAD06
BD48FCDE
BC860509
BD8D2CBE
BEE71B4E
BE5FE1A1
BDE15949
3E123E3D
3CB59789
BD722DE3
BE52F157
3DCE5DBF
3DEA0FDB
3DAC6976
BD8E4B0A
BC80A788
BD6193DA
3D8A6A29
3BBEFFA2
3DA37374
BC8C5964
BC0A1519
3C203103
BD8E74CC
BE4265A1
3CF094E2
BDF8B2B7
3D561344
BDD5DA19
BDF77BAF
BC800BA6
3DDE1B3D
3DB3E85B
BDF41AA2
3CE790FA
3D85BA42
BD6C95E1
BC15B364
BD8E36E4
BE5BCDD6
3C01325C
3E4D8C86
3D3D9E1E
BEB589D0
3C8BA568
3D8D8F77
3DD4CA9A
BD1621DA
3E1F19C2
BF024766
3D947008
BE05B834
BBF36A09
BE51CADD
BE195D61
BD7FE576
BC5A4D44
3D296978
3CD20BD9
BCF01A1F
BC007BAD
3D88C430
3DD87EAA
BC9FFC77
BDA3DC01
BEA6CAAD
3D18FB33
3D833C0B
3D781BB5
BDA1A4AD
3D84F9BC
3D8F0941
3DD2EBF3
BD85727B
BD9C50CA
BA4D5150
BE96E731
3D8A6CE9
BD942982
3D71BBDB
BE07AF41
3E309B74
3C01EDC9
BDF575A6
BCE83FCA
3E3DD1BC
3D8705B6
BE71FA4F
BDC309B5
BDE0EE03
3E2F24E8
3DA813F6
BED7A917
3D9FEC4D
BE9F4D9D
BE4202B1
BE34ABAA
3CE1E09F
3DD5EE4E
3DF07A54
BE06F044
3D656177
3DB26268
BDA9A0F4
BE05D6C4
3CF08EE5
3ECB4E57
BDC7DB3E
BE73F151
3E1AAF87
3E648F66
BEDB204A
BE69B6CC
BD598A7C
BD17EBC3
3DFB9C29
BD7F8486
BDF64362
BD969588
BC0B7658
3E2D1B37
BE070874
BE8115FF
3C48379D
BB11AB80
BDBE9E09
BD27EC99
3DA8492F
BE04BB88
3D0B4B11
BCF360EE
BCF67156
3DBC8D0B
BD8E7C26
3CA63813
BE5793C6
3E4C252C
3DBE2FA0
BABE6FBF
3E190023
BE123BA2
BE32D34A
3DDA98BB
BDCD66F6
BDDD3DD0
3D05E1E9
3DF91A90
BECBC833
3E66F23F
BE0581B9
3E1108C2
BEA55B84
3D487E13
3D8D26AE
3C23567A
BDA95D04
3C12798E
3D8F4F58
BD6987B4
BDC09187
BC811DF5
BCBE292E
BDCF894C
BE1124AC
BD048E0E
3CBFF1A3
BD97FE07
BC6AF317
BD0D9B7D
BE06D0E2
BD24DCF5
3E861861
BDA1B6DF
3D22407F
BD50E7C1
BE117A9F
BD944A8C
3C346E2A
3D853165
3D8971E0
BBE99737
BD66EF84
3A8EB043
BBE37B3E
BAA87D90
BD62E213
BD6C1DB8
3E2EBF73
BC9DB41B
BE06E2F5
BDF4A297
3E206175
3D96BC07
BA9B76ED
BE4F3C51
BE0BC5C3
BCFD313B
BD3DB7F1
BC9AB508
BB719C55
BC870AF9
3DA0CC37
3D31D1EB
BCFC6806
BE327849
BE29FB92
BCD18F74
3D8B03E8
3D8A4BC4
BD8CB45F
BE15FF09
3DF6C6A6
3D81ABCF
BDCB47BF
BD7971D0
3DC44713
BD52FA66
3D4CB908
BCC2D2CE
BD0A0AFA
BE1C1171
3E0529AE
3D81272A
BE279C01
BD83FCFB
BC19C26A
BE899DA3
3D3527DE
BD85B1AD
BDCC373E
BE17D7A1
3D941E5F
3E0B1551
BE296714
BE706561
BDD5FE5C
3DF9F145
3E0F92E3
3DB10C76
3D9DD9B2
BDF76D31
BD555E6B
3E084EE1
3E070C10
3DFFAF35
3D4DC46E
BEA6AB23
3D4BEC74
BD3A0694
3D36F5F3
3DB00145
BE202CE8
BDC65215
3E38266D
3C6D8C2B
BD6CE69D
BEA058A0
BC25521B
3D48F454
BC8611DB
3EC6226A
BE50E363
BE5B7905
BE27CFE4
BF21B077
3D648A30
BBCA4D82
3DCC77B0
3D676AA7
3DAD5E1F
BE107731
BBCB2428
BB088F54
3D9242DB
3D8E6F65
BDE8B2AA
BD5F8F06
BDA07301
3DF8A218
BD6E28FA
3D909A51
BB2B590F
3AC21F04
BE0674DA
BE8FAF38
BDA4E854
3D9C5CD0
BCF6A685
3D56E409
BDDED169
3D19301D
BDA121EB
3E03CFA4
3C90A985
BADC492F
BDD3CA11
3DB38032
BCDF7E45
3DD8CF4E
BDAB488A
BDE24781
3D443FDE
3CED13DD
BE5A9699
BE438763
3CFA108F
3C99438C
BD8A8139
BDC0FAF3
3D005A11
BDB64CC7
3E0C2DBC
3E3ACCE7
3C9234BA
BEBD0E92
BE5325C3
BE4C7967
3D6E9F24
3D5B07FE
3D7AAE09
BE480EC2
3DD6B3F3
3DF510A5
BC56B9B8
BE3B1B75
BE182EF1
BD5DEED1
3DC08A97
3D39D992
BDDFD601
3DEFAECE
BB9198BC
3DB3A700
3CEE00AB
BDA460DE
3DC65075
3DD8FBD9
BC2B8253
3D529C01
BDB8EB35
3D7106B8
BE3FF56A
BD084341
BC9C26AF
BE2BBB47
BD5A0781
BC9C503A
3D2F0281
3D31A13D
BE06A275
BCA7FCBC
BDE0725E
3DFA4929
BD378670
3CF22DDE
BE03A750
3CA32B29
BDB14C01
3DF34E92
BD680B70
BC9BA24B
3DAA8911
3C3F2A13
3DA8F557
3D2DC78A
BD591432
BD817C2A
BC0BFE93
3D4CB3C1
3CBACFC5
3CCA07A5
BB67FB22
BDD297FB
BD5C0FBC
BE73ED75
3C9B158D
BD8D82CE
3DA48044
3C270401
3DAFB93C
BE8C2579
3CD2A870
3DBF26A6
3D75A3D7
BE8403B6
BD4219B2
BD9692B9
3D40E8BA
3D63E7FE
3DD5662A
BE3E0F63
3CCE0DF3
3DC18255
BBCD1647
3DB805AD
BDD415D8
3D7E7DD3
BD403D58
3C139983
BAA6A3B9
3D3C9062
3D3230B9
BDD5F332
BE39D40A
BE7511F1
BD9733F8
3DC766B6
3E0755E2
3D41C478
3B6331CB
3C016AA8
BDD710AB
3DFF7149
3C9C7C88
3C1ABBCD
BD1E2F20
3DDF3086
BD0413B3
BD03A707
3D57E7BD
BDB0BBCC
BD288B31
BE00AAB4
BDC6F3DC
BDB5293F
3D58EA43
BD25D10F
BCC1D158
3C7A374C
3D2D4AE4
BDA7D7D5
3C299FC6
3CA0D343
BE0ABAED
BC24AB51
3D70D244
3C5E3C87
BD137561
BDC9331D
BDA87C85
3CFBE93C
BEAE2F39
3DEACA25
3C6AF812
3DCE94E5
3D25A05F
BDF1D20C
BDCF66E4
3DBDAF47
3E20AAC1
3D95EB58
BD36054E
BE60F086
3D9FDC0F
3D6A0075
3CD56F3C
B9E8F6DA
BD4D354C
BD17B6D3
3D87A80B
3D5A09FD
BD4DC67E
BDA891A0
BE7B7A25
3D0781FC
BD858055
3C85E173
BD2846BB
BDCDA78F
BB42556B
3D1D1BEC
BC85D025
3E2968D9
BDCC7BA4
3CB3E830
BDE2AAC8
3D4E297C
3D3C2E4C
3CF248FF
3DA3ED0B
BDCADE2B
3CB547A2
3D4E127A
3D90B1C0
BD5BE0ED
BE154E2F
BD92FF9E
3D66E3A6
3B9AB312
3D1A8E2A
BE3D04D9
3D6BF141
3C00DEE9
BDE56018
BE3A5749
BE015D22
3D3FC634
3E0086E6
3D597A97
BC09D2BC
BCDB58F4
BD4EE2A4
3DC268FA
BE650B77
3E6CE72F
3DF59EEE
3E130778
BDAE2B9B
3D423444
3E14C1AF
BC470EEB
BE989F18
BD634FA6
3D0ECF48
BDB5E030
BE17A519
BD839A21
3DD1F6C6
BDCE57E9
3D826341
BE5672BB
BD37CCAC
3DB91F0B
3CD635B6
BE4F3809
BDE6D9CF
BE2A2776
3D97F7C8
3C64E000
BC15C189
3E8D5035
BE42B2EE
3D146AC9
3DE307E3
BD5FE9AC
BD9C6C83
BD188589
BD3AAD28
BCD6918B
BEB50C58
BC9C66C5
3D934093
3DAC8084
BECEDEFF
BE17A45B
3E3F2F20
BD474738
3CD5B434
3E046CDA
3E1006FF
3DBF1C1F
3BC9580B
BE8BC8F3
BC3CB584
BE6E5BD4
BBEC76A9
3E04B873
3DA3D4E6
3DA66661
BEC84101
BE010F83
BE2BAAE9
3E299D1B
BE09F9C4
BEB004D9
3E3C410E
3C2466E2
BD13C96D
3DE4485E
3D0BF14F
3D9612C4
BDB9486F
BE2221BA
BD10B80B
BE718E37
BE281BFC
3D8A3846
3DBA35E1
3DA1AC49
BD7331CA
BD621F71
BDCC53A6
3E1F201E
3C8686BF
3DA1D87C
3D1802B4
BE1C5F29
3D87D53B
3D25BA76
BDA4A8FF
3E1B5FB8
BDE98624
BDEFD8E5
3D7AAEB7
3E3AEF05
3E49DF2B
BDFD0A59
BC49380E
3DA35989
3CB68621
BD97AF4A
3D80F0A7
BE4A03E3
3CC90369
3D068B25
3D11E95C
3D1C6877
BDEF463F
3D490A55
BCBD4771
3E13EC83
BE62D999
BB2AEA7D
BDF7C4DB
3D169DE0
BDB6DE9D
BDA1CF03
BE0D65A4
3D150042
BD905FE1
3D52217F
3E06817A
3D1B9492
BE0BF66B
BE8E9FB0
BDCA1B35
BE80AFAD
3E2B0AE6
BC2CDE3F
3D1F4925
BD113425
3CF14D20
3CB3D613
BDC27B9D
3E27DDC9
3D9C432A
3DDCE675
BE0F50F9
BD508142
3E1E82F9
3DD99741
BE1EB61C
BDD35A1C
3DD360E3
BD9A96DA
BB3F4C6F
3D5E01D5
3D884870
3C1AB4DA
BD751E1D
BE19179C
3D37FE7E
BC4E83DD
BD2B1508
3DA705C1
BD6FCC84
3E0E413A
BD3FA538
3D4D0F5A
3DC1B8C4
BD8C7775
BC5C964B
BB4703A6
BD3DC7F0
BEE5E8CE
BCD1FD87
3D446F03
3D71F2BE
3CED83B4
3BAEA430
BE035FDC
BCCF2B38
BC3AEF13
3D125249
BD764B05
BD03FB08
BCDC89B2
BBB34815
3C9A03B2
BE82400F
BC48B8B9
3DC42EB4
3CDE1AF0
BD638712
BE244333
3D2F95A8
3E01C37D
BE0057FA
3DC7F671
BE752FD8
3C8BF0AF
BE675275
3D6B0260
3D89EF9B
3B8209DE
BE0F6489
3D8680C0
BCCECF61
BCD7BD9F
BE0F653F
3D131579
3E0198B2
3CC49C9D
3D9DA852
3D9F0444
BECCC424
3DD0B5F9
3D10599C
3B31EA47
BDECA11A
BDE70824
3DE67C79
3D3BB5D3
BDF63F4F
3D4E3E16
3D5BB2D9
BD666436
3CB56BB4
BBAB71C6
BCC6E20F
BE2BE3FC
3DF43D10
BDECFEA6
BE56C7EE
BDFDBE66
3DB0DB97
3C005435
BD0F920B
BDF3EC96
3B314F0D
3DF50815
3D1EDCC5
BD7CB1DD
BDB5D9ED
BD335FD1
BD5872DA
BDDB642B
BAB303DA
3CF0BF68
3C48C09E
BE826FA6
3D8000AD
3D5CF963
3D31E2D2
3D94553D
BAF352D4
BE0F3E9B
3D7AE633
3E413D12
BE0B963E
3ECDC172
BE92C821
BE3134E0
BE8EECD1
3E20DFDF
3DBD8160
BD45A80D
BDBCFDB0
3D7FED41
3DCC86B1
3E31C8A6
BE10B00B
BE200BC9
BD7B351A
3DA38A33
BD09E470
3DB22F13
BD641426
BD605F5C
3D8F33B6
3D89ED36
BE0B3074
BD819679
3D353E16
3D872AE0
BE088C12
3C9232F1
BCA43595
BDB89287
3D9E2BB8
3E29B716
BE63EB9B
BCAB1D38
3E4CBC0B
BE441DAB
3DD908BA
BE5BF5F5
BDE05A7E
3E86E49E
3B9429EF
3D5F7072
BE0E5144
BE6E6502
3B247101
3E13F601
BD147AAE
3D9A075C
3D13D049
BC9B5709
3DC00C44
3B43CEFD
BDD4D670
BDA9976D
BD9DD391
BE1464C0
BC77082D
3D3F1441
3D8B0035
3B681A5A
BDB88512
BDB2E8B0
BC050712
3D85DF55
BE8354F5
3D6AB9B3
BCAE9DE1
3DAF693A
BE9E7CEC
3CF8FBC2
3CA8580B
3E0196A6
BDFC711F
BE22CB48
BDAD1CC7
BCC25851
BE34E093
3D819E88
3C090D63
3D99AF7E
BD56B1C0
BE22F673
3D8DA7F3
3DDF1BD4
3DB7F184
BD74ED3E
BDAED0C8
BE2D4D5F
BD6CCBD3
BC90921D
3D94BDB8
3CA6E318
3DA24980
BCD3F100
BCBC98A5
BE5E471B
3DEB9B3D
BE2F00F4
3D8C748E
3D192919
3DA5AC92
BEA47BB8
3DCD2729
BB5A5E49
BE809460
BEC23E17
3CC2A0A1
3D9CAB38
3CC4DDA3
3D8980E3
3D781C99
BE1C4F13
3DDC3EBC
3D79047F
BE3EECD1
BECDF550
BD475B51
BCE2E655
3E08267E
BBA9F725
BCDCF09E
BE563460
3D9978B4
3DEA677A
BE2510EF
BE11D766
BD7DC45B
3DB4389C
3DBFB59D
3BA60B4F
3B6744BA
BB06BB01
BC4800F2
BE34BFF7
3DD8AED2
3D24AD23
3DCC295A
3CC75395
3A17CF6F
BB84F259
BE6B6223
3CDB1810
BB9065BE
3CB35DA0
BDD66950
3DA5346E
BC6C9474
BCE3AB33
3C35E4EE
3D849255
BD8A90C9
BCCF076B
BE228003
3D719878
BE458E0D
BE96C096
BCD91314
3DA1504E
BC21937E
3D7B545C
3D28980B
3D90884B
3DC7A18D
BCCD1BD8
BDB4F918
3D703348
3D90E273
BDE6B14F
3D008C46
BCFA48C3
BE04E1DA
3E0B8891
BE35F944
BCAD8E0F
BE0234F6
BE5D2145
BE362A34
3E04613E
3E37FFA9
BD3A4760
BE49BC01
3DB2272D
3D83A99A
3D6071AA
3D4FB7D1
BC0264D3
3D1B58DC
BD21EDE7
3E244499
BDC3060F
BE1D9228
3D6C6863
BE26BB4C
BD7182A1
BE18FC43
3DCA72D4
3DAD7B25
BDB9DDAB
BDC0DC91
BB8D6525
3DF1CCAC
BD9E8D5D
3CD0B7F2
3BA7B573
BDD287BC
3D5A6F6C
3D5828AC
3CE33EB8
3DD528A6
BE890614
BDD907A3
3D9EF0A7
BCA6A6DD
BE00426E
BD637E68
BD1406F1
BE181F87
3CE1E940
BD366C40
3D792E47
BCC47C53
3D1420E0
3B2DF94D
BDAEB187
3BA9EEB0
BC3E9AE5
3C152017
3DB47643
BE2F5965
3B82A162
BE03FD23
BD1C3EAB
BC203590
3BFA873A
3DEAEBA3
BCDCE1B5
BDF29F97
BD277A7E
BB1D7C5F
3DBB17BB
BDE54424
3DA446F3
BE50DC25
BE2E4B8B
3DBB756A
3DADD62C
3BB04131
BD23F843
3D4D56B2
BDA4072A
BE4CD13F
3D8C88E9
BE33BF41
BCC98E64
BD180D0B
3E081EED
3DAFAE34
3D9DA81A
BC9ABFBF
BDCE6F82
BE15920B
3E126104
3CF2EE40
BD51F20D
BE225A3E
BD154C2F
3D444445
3D83C406
3D7A29F0
BE1400AD
BCCDB246
3E5055C3
3DCFA99C
BE5A31EB
BD306E64
3C44C3AA
BD184F33
3DCD0A7F
3D75C97C
BE3F27F5
BC0DF189
3C1BA723
3D99D311
3B8FAEA6
BEEF6D79
3D1A52B8
BD677432
3E304991
3D3747E3
BDDDB1F1
3C359DE9
BDAA1EB5
3D84118B
3DB597C6
BDAA4564
BE5A50BA
BD3800CA
3D45B5A5
BC95DFE1
BB0FB221
3CE6F96B
3D7D0C02
3C9C4A24
3ACEB2E3
BDCC59FA
3D078D43
3D00670D
3E36BE19
BD2EB753
BEFA3977
BD4CA80A
3DB71B31
3D3C8DD0
3CFAED53
BE11FFE8
BE4DE2EC
BDEDBE3C
3DCDF1D7
BE198B98
3DE1EEE3
3E0B5B0B
3BB64EB2
3BB0BF5F
3D5C14F5
BD8BF951
BE969028
3DCB0732
BCD0A435
BE4FB4BF
3BDF2C20
BCDE6607
BE266F0E
BD5FCAFE
3E012C84
3BDB6659
3D8C19D7
3DC6D9C2
BEA92C61
3CA9FDDB
BDABDCE4
BDBAF2DC
3E537294
BC2E7824
BE0B2A07
BE018D9A
3E8CD2DC
3D8420D1
3E02F240
3CB33ABF
BECDA197
BE0FD0EA
3C70AA53
3D73C1C7
BCECD3CE
BD6CA956
3D80DD39
3CA0DEF3
BD1A0199
3DFF867D
BDB18129
BD2D88FB
3DE6319C
BE6E0178
3D0A05EB
BD76913C
3E1E8DF3
3CB6EF80
BD88F4D3
3DAA4FFF
BE08C852
BBA94A38
3DB31064
BD5DFB16
3B61346D
BD12177A
BD5EC823
BD866B4D
3DA5E197
BE414D10
3CB19A8F
BC20E587
BCC207EE
3C6286E9
3CC5D1FB
BE973988
3D3E4DB3
BCFB1893
3DA2313A
3D82D79E
BDBCDFC0
3C014927
3E3B4B58
3A9593B4
BB609860
3D24E40E
3C8604F2
3DE63204
BE3E9E47
BD70009E
BD484F10
3DA27076
BE2C0282
3E0EA493
BDA22269
BE178E53
3BB76FD4
3DDA49A7
3E18CA8D
3C7A1B46
BEC41919
BDE528F0
3B953D8B
3DA46121
BD6E9380
BC3C34DB
3DA0A8FF
3D4CDAF1
BD8AF765
BCE92C0E
BDCDBFE2
BE40E179
BCDFB35F
BCF10243
3E051719
3D614F11
BEADE3CA
BD6BFCED
3DAA1B78
BE5515CD
3E1F724E
BD705036
3D20F916
BC76873A
BDA8B653
BD989FB7
3DAA6590
BD8A5BA8
3CD58294
BE68F9EF
3E02CBBD
3E442525
3DD63D81
BDD6F3FE
BE390CBB
3E48946D
3E718FFB
BE07BAC3
BDC59019
BD0728E0
3C724547
BDB3C1F5
3E5EE579
BDF7A612
BE8436A7
BE49BE1D
3E444CA1
3E211783
BDBA2503
BE01082E
3DEED782
3DD248EA
BE217724
BE123740
3B005430
3DAC4A90
BE42C8F7
BEAA505E
3CED689C
3E20FA75
3DD8C89A
BDCA3480
3DBC9B18
3E089B72
BE24E75B
BE2A96E1
BDAC5F4E
3E408AA9
3E0278D7
BF145F30
3E12742B
3ABD4A60
3CFC3E41
3C175D61
BE50A6A1
3D0B339A
3E061B6D
3D10914D
3B672CA7
BE7D5314
3DA8DD0B
3D74C8A8
BD864C74
BB1E498F
BD2E9E06
BD23C562
3DEDD72E
3D94966E
BE3B706E
BDE99D31
3DDAB111
BDB092DF
3CB1B22A
3B99D8B1
BE893836
3C9C4BE6
BD287C38
3CF65B17
BD641970
3E16C1D4
BD43AE9C
BE0593EA
3CF186EC
BD853C16
BCD79026
BD481B35
BDC9E3B2
BCF80757
BD88589C
3E1DDE96
BE06109F
3B3F218C
BCD00E48
3D863D52
BDDC5247
BD5901AD
BE4817CE
3D56ADFA
BDDC94C1
3E136B04
BE903976
3CD6FCC2
3C8807D9
3D01D9ED
BD2F3680
BD17B072
BD0A2565
BE92AFEB
3DFFA276
BDCC37FD
3CD9D6AA
BC8849C5
BE0836BA
3D1F9D6D
BD27505E
BDCB1DD1
3D638853
BD8016AA
BC851D1F
3CF2FEA1
BDB44DBC
BC4C1AA7
3DBF6654
BD7AEF61
3D7F98BC
BE1787E1
BE9F0665
BD6D15A9
3E36D66C
BE091872
3DB0EE2F
3D17D461
BE832037
3D00BEB6
3D8573C8
3D3CE743
BE300C92
BDBE8A25
3CD13902
BC315E1F
3D94A2D4
3D9D538C
3CEB5A99
BCC19D36
BE26547E
3D2808A6
BE5E3D95
BD044F2A
3DE603E0
BEC1532D
3B2E4D9E
BD975389
3D6C5303
BD9CC651
3D296893
3DD5B7F3
3CDDC207
BDD1B425
BD9E959C
3D9F7DBE
BDBA0F61
3CC16330
3D864636
3D8737F6
3D713391
3D8F33A6
3D0F13C5
BE662D99
3E01EF3C
BC0C87E7
BB7B6494
BE1DBF48
BE1383FB
3D04F41B
3DEC9933
3BD2707E
BE468F97
BE0C31E9
3D5B997F
BE181206
3D9E055C
3DA5CF0A
BD8CF5C8
BD8B2E0B
BCDE8705
BE20B828
BE2346A3
3E42E0BA
BDE75CA9
BCBDBEE5
3DD1DE5E
3E01F2E2
BDD6C864
3C98F9D2
BC47716A
3E36E73B
3D9E7AB7
3D831BA5
BE17732C
3E07CD9E
BD208AC8
BE165CA9
3DB31AE4
BE014E49
3C9A67CE
3DAD8482
3DD73416
BC05E3FA
BD90EED4
3C9DF667
BE4A2AC4
BE324E80
BD3CDFC7
BDC43617
3DB53FA0
BE815BF7
3DFB0AFB
3E3749FA
BE0F41A5
BD8484C4
3DA6AB60
3E217DD7
BDA917AF
BE083FAD
BD7C2701
3DE7F81F
3D78B23A
3DD8A594
BE9047D5
3D58B215
BD8CDEFE
BD500B03
3D815E68
BD450B0B
3D342962
3DBCA56A
3E0FEE49
3BBBEBBD
BE6F9EA0
BD89BF9E
3CCD2BCD
BB4F48C6
3D64F32C
BE2FCBC6
3E20BD64
BE7C8270
3DA1B6F0
3E25B739
BD3AE9AE
BDB8AF2D
3DE80292
3E2EDFA1
BE5FDD9C
BE4D25A4
BE09774F
BEBF9EE3
BB8CB72F
3DE55E10
3E217BAF
BD41E8B0
BE5DD9B1
BD00DA39
3D95EB70
3DC449C2
BDBE2CC1
3B7C4588
BE2DF894
BE0D888C
3DCBE2A1
BE550939
3DA0BD1E
3D9C73D0
3D5A33EB
3BEE0BC3
BD98D884
3E20EC72
3E4FA97E
BB9FF94E
BF04407E
3DADDD28
BCDEF18E
BC348019
3E2388FE
BE376867
BD71B04F
BBCD2C65
BE68AB3E
BE3B57C8
BBE62053
BE0A4F95
3BCEF2DB
BD606C30
3D58102B
3E52358A
3D927C3E
3DC7618F
3D976C8A
3CB70662
BDC49A5D
3CF2B6EE
BD8C114F
BE387185
3D8D7A78
3C2F60AC
BD82CFB6
BE81C781
BE35284F
BCC3C0C1
3E0A8C7A
BD0100D9
3D1FEA1B
3DFDC472
3B64912C
3D99CA9F
BDB5CDA2
BDF01429
BEE75F45
BC769125
3DAB4CE1
3D81B57E
BDD41854
3C862EA4
BD781F12
3E391B63
3D6BEE4C
BE09C6F0
BE9A5B15
BDFA9C46
3D26A9EB
3DE70559
BDC685DB
3E007711
BD5679C9
3D33A845
3C9C01B3
BE2CDFE1
BBD03630
3E151C6E
BE85253F
3E6FDA6D
BD8D9296
BDC1CDB3
3D59A46A
3B7FA286
3D5F9ED3
3D52CB48
BDC727E4
BC7C0BF9
BCD5A855
3C6849A5
BDA49C6E
3C852FCC
3C70469D
BCD7FE38
3C7E57CE
BD18E288
BD7A743C
BCBA78D8
3D766E39
3D619E27
3D9329A8
3C1EBE86
BCFAA279
BD108818
3D7A776B
BE26E3A3
BE984905
3DC4EEEE
BB6B8313
3E17C20B
3DB32750
BAA8CD9F
3CE2D7C1
BC034AA5
BE6A9591
3DB6E25B
BDB5EF8C
BD13CDC5
BE2B4E8A
3E888BB1
BDD52970
BDB7500E
3E8A194C
BE564B20
3D8EADC7
BE5F4E60
BE0AEFC7
3E406DDD
BDFDF5A2
3E2579F8
3D8F0D29
BE424D88
BBE1E835
3D99C379
3C83CE53
3DADC490
3D7900A5
BD3053AF
BD3C684C
3E139DA2
3DA3630E
BC70DAF7
3C8BA3D3
BDA8C6EB
3D06F941
3D534E78
BB55E492
3D5D1C5B
BD7D8065
BE7F9B87
3D4501DC
3E20A833
3D0A4D6F
3CEF321C
BDFBD54C
BE0442D6
BDB22041
3D986B3C
3B98EA05
3DDB5DF8
BD652058
BDC11566
3DB184D5
BE16C75C
3D2C5D61
BDC03068
BE47F13E
3DD48C96
3DB21133
3DF87E3F
BC909ED8
BEA253F1
BE47CADD
3DD26446
BCA3D61F
BE0D8F5D
BCA285A5
3C73579C
3CD5A3E3
3D50DA12
BC9F5729
BDD63785
3D0CC4E9
3D9D2ED4
3CF882F9
3E4863FD
3DA4B336
BE7C8A86
BDDF26C0
3DE89AF7
3E40D6FD
BDA55481
BC43CC4E
BDBE56E5
BE5D61E0
3D3AC358
3D13BEC4
BCDE0A03
BE1F3F6F
3E1AF1C5
3CD8C269
BD9E245E
BD73857F
BE52D4B2
3D40F501
3D476E8E
BC16577A
BD0EE189
BD226592
3E86B9F3
BEE9A9F2
BE226541
3E15076D
3D9819C6
BD4412A5
BDD38E94
BE22F517
3E5FC106
BC546AD0
3E9D7AB6
BE889944
BE0914E9
3DD358F8
BDB49422
BE331DF4
BE2301F6
BDEF448E
BBC46B1C
3E24196E
3DFA4604
BEDAEC8A
BDD550B1
3CC16568
3E2F1523
BDC59B43
BE165763
BD72568C
BCB5593D
BD827AAB
3C8F6882
BECD013D
3C927439
BD77183A
3E2D09BC
3D9CA1C0
BDD7E4F3
BDE5727F
BB5428CB
BD2A171B
3DBA08FC
BD2CF658
3D3295E8
BD1A8748
3D347FF1
BEA4C8D0
3E1E16E8
BDF4CFA1
3E05DB57
BD011944
3D89AE0B
BF3336B8
BE34BBD8
BD5E73AB
3E3BABBF
BA197653
BCBFB153
BE86719F
BDA0F766
3CBC17ED
BD959378
3D11E2CE
3E431D94
3DAD9D9B
BD9BFDF7
BD4D9F8B
BE79A1BA
BD883626
BE323DEF
BD67A742
BE830C9A
3E3B6555
3E2EF66B
BE8A6915
BCF52D95
BC428EA7
3D2A512C
3CDF7418
3E258783
BE991EB6
3E65FEF3
BE35C305
BDFF56DC
3D17A59C
BE8AE134
3B34F91B
3DEFC248
BE023760
3D5FC687
BDE31B9C
3E250262
BEC68AD1
BDF51CC5
3D0A3672
3DB3DCB6
3D8FC095
3E460233
BE3905E1
BE54A8CB
BE19B95D
BA3306D3
BE1337FB
BD242006
3E85EC52
BDE884D0
BE1C4BD5
3CA71E25
BD95A696
3DE6E630
BE0F6642
3E0DBBA7
3DF924BE
BDDBB6AB
3D00CDB8
BE70BF26
3D9BD2BF
3CB84E60
BDB2C955
BD83951F
3D823B99
BD1E99D6
3D879EAA
BCAAD57C
3D030ABF
3D784F7B
BD1F61C6
BE24FCFF
BE196F8C
3E0CEE39
BE5FAE51
3E3266A1
BE070DA1
BE15A706
3E4E6205
3E15C6E6
BD94B9C3
BEA1E6D8
3D84CE5F
3D85DFFC
3D73DBDC
BC58A00A
BE103EE8
BE14FB46
3C70A205
3DCC01FF
3D10C4D4
3DB0C5C1
BD31C35C
3DE50FAB
BB93D93B
3D8B1AFB
BED20A25
BE4CB65C
BD2A94D3
3DCCBBEC
BB9E87AC
3D1CD9C2
3B46288F
3C45A4C9
3D16ECF6
3D3B9790
BDD22D25
BE0CE75E
3D323C65
BD0BDD2E
3D840842
3E0FA1CD
BE1E279C
BD4E7BB7
BDE367D2
BE4CE278
3D9D5DD8
3CB82211
BD0800D8
3CD34E52
BE2586F8
BBCF7241
BCB25BF6
BD45D975
3D629A3E
3D53306E
3D359139
3E16A301
3DD11A3D
3C845398
BE2611C6
3E2C757A
3E69674B
BE3C2C0D
BE1F0640
BE449133
3E8953DC
3E1EA03F
BE33F3B3
BEBACEC5
BE473BD6
BE26558D
BE021742
BC2EB320
3CA76A79
BE25F89B
3DECF9E7
3E6765B4
BD162D0D
BE0174F0
BDA809AF
BD0DF41D
BD501607
3E0E2A9D
BD15450E
3D119559
3DBDD9F0
BDC6EFBC
BDE91E61
3CE6CD60
BE8478BF
BE9EC6AC
BBDE1336
BC551995
3DCB2143
BD17D31C
3D5CCF66
BCA64351
3D347401
3D71475F
BD2F75E7
3D8DC6FB
BE5E9827
BDB445BE
3D3CF645
BE304285
3D9A2648
3E1C9694
BD351682
BC505551
3D1C2CA6
BD8C4736
BB9280A8
BB6170EA
3D00F4AF
3D130024
BAF1AEBA
BDCD419C
3CE0709D
3D92D9C3
3D97646E
3DD165A7
3E013D71
3DEDEE17
BE091038
3E137D8C
BDB12E2B
BD270372
3DED0196
BDEA9973
3BE02A46
3D8AC3A8
BBF4B08C
3DDE00DF
BBC9B22F
3E0265EC
3A5B6E90
BDDC3C40
BCC992EF
BDE49173
BDBA1DBE
BCBFCDD1
3CB67DE6
3E639B20
BE3CAC15
3D973F5D
BE8D7C86
BE472286
BDE86598
3DADBC43
3D129CAD
3D3F52A2
BDCB0B5A
BDBC100B
3D9D53E0
BCC8C8A1
3CAA086A
BDB330D6
BDDE459F
3D9B1620
BD84733D
3C95943F
BDF0A884
BE037C4C
BD36D2B2
BDCB3D13
BE2E985D
3E24CEDC
3E144C0C
BDF203C0
3E0A8B8B
BE321D66
BEB14A76
BDDEEBDB
3DDED6EC
BD0089C8
3D8247FE
3D0CC77B
BCD0FD84
3D966090
BE3C14FA
3DFC28B7
BE92849C
BE27A789
3E11C845
BCBF870E
3DBE707C
3CA5183D
BDA532A2
3DBD0305
BE544D06
BDBBAEAF
3D48D9EB
BDBB215A
3DD0DFF4
BDFEEFED
3E42D870
35DBCB00
BE23CDFF
BD9A8666
BD329A8A
3DDCE439
BDF48FFD
3B9A1993
BD2D3D91
3E6AD2AD
3C454795
3D37C102
BDC47DD2
BE11CF21
BE22E4F3
3E0BCC3E
BD86B45C
BE33F47D
BE0AF0AE
3DADC787
BA8892CB
BE09B86A
3DAC1B0B
3DCE1D4C
BE30F532
3DA84CEE
3B91156D
BE274131
3D0C391B
BE1DE885
3D79B062
3E0E4D35
BD802906
BD049568
3D0305CB
BDC1E3EF
BC90FD38
3DD53CD6
3DC106FF
BE5870FF
3DA6D5B5
3E162F65
BC093C39
BDAD5B1F
BE784A4B
3E55DC15
3D512251
3D0BA3A8
BE1AEE31
3DE97908
3DDA6C82
BE104B84
3D1C69A3
BE4CFB74
BB345D3C
BC731D54
3D2FB624
3C6B82CD
BC8E2B57
3D8FAA6B
BE9ACA24
3B61A8F4
3D535F7A
3D3CC2AD
3D32EB3B
BE9D71CF
BD3F1EFD
3E0A3334
3D0B36FD
B97B7176
3D3011E5
3D8F4601
3C80411A
BE2C660D
BEB49E32
3E584B36
BD30ABF9
3D409114
BDA4FF1B
BC7ECD85
BEECD92C
BDE5D7DE
3DB3D5C8
BC64A3D0
3D8DD9E7
3E0A8205
BC476175
3D22ED50
3CE7D1FF
3CC641A9
BD2161F1
BE377EF5
3D2C8022
3D499D85
3D3EFA64
BE2592B4
BD6B6423
BCC8C506
3D576CFE
BC648927
3DDFC8DD
3E071327
3D57715E
BD71D07B
BCBE93B8
3E2A6350
BD9BA804
3BB8BAAC
BCADAEE6
3DF8F156
BEDA456E
BE4BC8BA
3A248DB2
3E35327D
BE12C3DC
BC820769
3D4CB884
BD744BB5
BE38E416
BDD16BDC
3E37172C
3DF97A33
3D2F9AEE
BD1AD09B
BE94BFA2
3E8AA715
3CBA06B4
BC406476
BDBD934C
BE229A8E
BDCD0132
BE7017D3
BCC27E39
BCEFCFD7
3D372541
3E42A888
BDD607D3
BE2B2B92
3D694526
BD1D3C62
BE350D5D
BDC085F0
3D47B55B
3E07BB3D
BD78DF07
3D8292CF
3DB17F2E
3C9D8B7F
BE123D96
3E3FEBE7
BD4A9104
BE11B9CF
3DB4BBEC
BE28D995
3D160817
BDB403F1
BC586EAD
BDC63EC3
3E0CF882
BD4E0D42
3D3BAD6E
3C8722E1
BD58CB69
3DA56151
BE0D4146
3D8C1969
BD1D09B0
3DBEA9B8
BE7AEC0D
3DA99C1E
BEB092B6
3CAA85E1
3D352B8E
3DAE40AE
BDF1B775
BD680A79
BE22DA04
3DE37D56
3DD2664B
3D5AC67F
BDBA1899
BC5DFA3F
BD9C6C7B
38955232
BE4CE9BA
BC9CDA96
3D429BF7
3B63F120
3AC8FF83
3CCE7951
3DCCBBE7
BC396C54
BD89E8CD
BD3F6CE2
BD8AED7E
3E30AB1D
3CDBD2D0
BE152348
3C518BBB
3D942E5E
BE163C18
BD7E5684
3E1322EF
BE890EC9
BE498AE4
3E279D29
BD80280A
BC899BB5
BCB95F09
3D076395
BE818702
3E0A3CBD
3D2D9775
BDA25135
BD79F0F4
3E397BFC
3CB7CC17
BC3E6934
3CC1327A
BDBA138A
BD983E5A
3CD2A266
3C551440
3CB2346E
BC972DFD
3DD3437A
BEAA55B1
BA83A5FF
BDA538EC
BD2F0F27
BE5731AE
3D13DA2D
3DC1EC74
BD172A5D
3BA83E52
BD982EA0
BD6B637F
3B9A2FEB
BD68E515
3D730E3A
BD1911C4
3BE646E3
BC4CE446
BDABFC32
BD717C7B
3D6D8A51
BEA01F3C
BD9D4301
3CC7A54E
3D0EDBD5
BD6C7E14
3844DBD4
BBC9DB08
BDA94104
BD005490
BE959D65
3D805AF6
3B6E63AB
3D450698
3DD5AC04
3D397A94
BE43C6CE
BE449104
3D526486
BD86FF40
BD4FC08E
3D9119E6
BE227D48
3D74F844
BC91AB11
BE04DFBA
3DA8DA0B
BE8A05D4
BE0E3FCC
3D8A07AA
BC3A7489
BB0D7E69
3DC6EBFC
BE837A23
3E2E7AAF
BD04346E
3D7AD096
BC2A6525
BD85339C
3D404702
BE62F330
BBB47771
BDA5FD8D
3D89BB0E
BCA81C42
3E786282
BEC04DAF
3E241F49
BD8DAE34
BE056EE7
BCEBDAF0
3DF521AE
BDB90B01
BDADDDEE
3D26ABBD
BDB913A0
3D14C75E
BDE48D43
3C82F068
3D182185
3CE54296
BE223393
BD317121
3DA42DAA
BC990BA0
BDD99E57
3DE62898
3C9657DF
BDC7D531
BB98ABD9
3DBC02D2
BE8D8F22
BB0FB15F
BE3C00C3
3D487A65
BD88011D
3D6AC7AB
3CF4E46E
BC45B24D
3E00543B
BBC97E7C
3CD74E0B
3DD99CCF
BD8598D6
BB652DA8
BE73325F
3D799A10
BE648D5D
BD4A517F
3DAF1869
3DADBFB1
3C885355
3DB6E650
BE5BA2A6
3CC6B786
BEB12CC8
3D381461
3DC2EF89
BD50FB29
3D9F526B
BD7B430D
BDB74F8F
3D506B9D
BE6ADCAB
3DEB3A4E
BD1D2D6B
BCA08AD7
BD2BF2FE
3E28B4F6
BDAF8601
BD43A797
3D289962
BBCCDEF1
3D234E4C
3D0BDB36
3C802DFC
BD8B2FF9
BD5AF05D
BCA7B066
BD9056A9
3A84D76B
BDD9C8B8
3B8BED37
BEA7174E
3D901205
BDE51BFA
3DA81FD1
BD14AB5F
3DDA6378
3C4CE147
3D48EAF7
BE7DD2FF
3D9B86B8
3E087BBC
BE81B8BC
3E223A0C
BE9BD3CC
BE3C471D
3DE1E7C1
BE34BFE6
BE06A32C
3D93BF2F
BCAFDC69
BD0F615B
3C0124CD
3D411705
BEB2ADEB
3DA28F49
BD9194D9
BE019A75
3DBED810
BE8DD977
BD34E1D2
BE489274
BD89A8A9
BE0F35F8
3D844598
3B3C3DE5
BCD80532
3DD5BB29
3DBF7483
BE846C0D
3D640DBA
BEB23607
3D3061F9
BDB2BECD
3D303514
BD3D649F
3DEE461B
3C8B3C61
3DBD46DC
BDEB714F
3C9CDA53
BE068EC0
3C9CE951
BDB1E94E
3D97AE9F
BD1B7666
3B02A46E
BC63389D
3CD8DB94
BE7612BC
BBF7565D
3CF1A6D8
BCF6628C
3B136C80
3CFC319F
BDAACFB6
BD024BD6
BD3A3442
3C9E96FB
BE1F2682
BD4F5D06
3D57740A
BC9C642D
3DC982A5
3DD3699E
BECE3C0E
BE0174D8
3D7851DB
BC66107B
3E802374
BA33515F
BD8F88BD
3CD94861
BE3B2B07
BD800BCE
3D06B4AD
BDDE5F7E
3D9F4C87
BE472D98
3D7F9A7F
3D487370
BDAF455F
BD66C94C
3D6FD328
BCC69584
3E0CEC5A
3DCF4550
BE5DE5D5
3BA2A92C
BE42E104
3D8D6CA2
BDAC675E
BE04E6E9
BD2DE7E4
3D126E28
BE3A6F7B
3CD1993A
3DD66965
3C5F7D65
3DF4AEC7
3DA33F2B
BE077D27
BDCDC874
BE020F55
3D0FA1A3
3E5ED7C4
3D6F5DB3
BDB4C419
3DA3D0CC
BE493894
3D046BD0
BE11950A
3D5FBD28
BE268DAD
3A824DFA
BDBB8D41
3BE8F547
3CCC0EBE
BE10B098
BD1F6ABC
BD9AE709
3E28F0D6
BE876E9A
3E4B69D4
BE04E31B
3DA965D3
BE6299BC
BD4CA58F
3D0BEA9B
BDEA1DA0
BC101C2E
BD3D31CB
BC1AF41A
3C1E48D1
3B8FCF0F
BB17B14F
BD2EEBE0
BC20F128
BE792097
BDD48664
BCD47BF2
3DD8F18E
3DBEEE5D
3E094161
BEDA19AD
BE0F500E
3DF34546
BDD3A49B
3AD022B8
BCFF7946
3D471262
BE1F38C8
3DFF0E49
BD088079
3D2EDE91
BCB1CD3C
BCDCE710
3C39899E
BC358234
3E918578
BE039423
3E33637E
BE868551
BD499064
BE593687
3EA23E2B
BDFEE4F0
BE80141F
3DCD1388
BD412A76
BE1F44F0
3E093EAD
BD544F92
3DC817E8
BEB99017
BE5E72F5
BE893733
3D1AB00F
BE57EEE7
3DD6D68C
3D9028FD
3D12E9B0
BDB93A92
3EA067A9
BE3FCFA0
3D98CEBF
BD21512B
BE0367C7
3D92F7BE
BEB01CE1
3C4CC068
3D73C5AE
BD955F8D
BD31D5CC
3CB73A1C
3C73996F
BD3A28A6
BD3659B0
BDEF57CC
3DBD41FA
BDDA1D42
3E005728
BD18705A
3C7D51A5
BE0EEAC2
BE35FF2F
3DD7751F
3DF8DE4E
3DDA845B
BD90A0FC
3DDE89E6
BE16D334
3D99EE6D
BD967484
3E371FE5
BD491C2E
3E19FA7F
BEA1B667
BC1F3BEA
BE854442
BC2C1389
BB3B6397
BCAD4672
3D968F7E
3D06E15C
BE898AD5
3E086DA9
3D3A98B0
3CD41C27
BE1E154E
3DD21F1D
B92A9944
3E1ED3BD
BDBC6F6C
BCECA275
BC88002C
BE2FEBC0
BDFCB0E9
3B236917
BE3C7605
3D39163B
BC74F9E2
3DDA4B9A
3D815BF1
BD442E60
BE38A717
3BE3DEE2
3D7CF79D
3E033A97
BD1FAE4C
BCE925CC
BE2A6902
BC2B53C1
BC332ADE
3D988A5C
BDC022E9
3D4D8242
3DD78802
BD1A1F48
3E13E50D
BDAD4152
3A85F2A6
3DC9C5F6
3CB95ED3
BE0C419F
3D8B1A6F
BC8C9DFF
BC288F88
3CDB8B5D
BE6B1229
3CA140EF
BDC32848
BDD4711A
BDC33834
3CFFDECE
BDBE585C
3DD7F7C8
BC8088A1
BC98C710
BC3F3E78
3DA0515D
BCBFFC9B
3B858ABE
BD156168
3D2B96E2
BC94116C
BA8B57D4
392FC1A8
3CD3A6DB
BE5D7B53
BE200FBE
3D2B3EE1
3AACFACB
3E5774B2
3D45F477
BDC8D23E
BD62D0C6
BDA466B2
BEC784B5
3E419EA7
BC0CA743
BC8C3160
3D828DC8
3C663A17
BCF5BD08
BDF22428
3D3187FD
BCD24ABB
3D905087
BEAE24F0
3D4B456B
3CB62B6A
BE0502AF
BC1C175C
3DDF155A
BDFF9282
BD516ABD
3CC78871
3E002024
3E3B42AA
3D356ABC
BCD5D6C1
BEA83967
BEA0B891
BD91DD89
3E95CFD7
BDC4FE0D
BE3D025C
BDE8ECBD
3C84F162
3DBE33FC
BC111EE2
BD103AE0
BD517F5D
BD72D171
BD422EC5
3DB5EF63
BE87437A
3D509B9D
BE663E8F
3DF0BF1B
BE373FC0
3D03C9F0
BE39F03B
3E0ECB8D
BD31B45E
3CEA62B5
3D841C65
BC32B2B5
3B9252F3
3DDFAD16
3D80C4C7
BE41C923
BC2D5763
BC8E4D01
BE0BE52C
BAD48A20
3CA6CB98
BE592EB3
3C8A7A81
BE2E9FFD
3E3D1302
BDD18814
3E1FABCF
BE445E8A
3CE6092F
BE6628B1
3D243707
3E034AC8
BC151108
3E0CC4B6
BDAEB9F7
3D238C0B
BDA58769
BCB7149E
BD54EEB5
BDF16F41
BCDD151D
3DC9603F
3C841593
BDECE0AD
BC472913
3E137565
3CB39C6B
3DB912C7
BE82A582
BDBC988D
3D2EE463
3D83EE3F
BD6585BE
BBF05633
BD960E09
3CC258A1
BC8E4FB4
3DD1479B
BE2ECB5A
BC9329FF
BCAD704B
3D62344E
BE8C7FB3
BD88B60E
BE887586
3E254D94
BD928628
3DAA5606
BDEC2BFA
3CBD6ED3
3D94AFF5
3D91647B
BEED6AB9
3D908B47
BDF15E92
BD0500A2
BE01FEF6
3D409710
BDB1F39F
3DD10C69
3C775250
BC4DAAE9
BE885413
BDAD65BB
3AD9F26E
BCF5E8BE
3D08D6B0
BE491DE1
BDAAB4A2
BD0B2DBA
3D83443C
3C110C2B
3DFF292F
3D99D886
BE407841
BDAC586A
3CA8F883
3D8845AF
3D5DA795
3D1CE4FA
BD63F895
BD89B358
3E2AAA43
3D277041
3CB19E1E
BCBCAB78
BD1FC7E0
3CD3B8D1
BE1295FA
BE2992FB
BBB23DB2
BD8558B6
3D5FC4F0
BD840A49
BD81DA25
3D04EC45
3DB041AD
BDCC1921
BD20AC4D
BDB59267
3D1860F7
3E1AE794
3D034560
BEFBABD5
3C057864
BDD77FD5
3C816123
BDB4EB6D
3EA09775
BD8295A1
BE74C22C
3D0E6711
BD30732B
BE247DA6
3DC50D9A
3DADF28F
BCFE134F
BE32D898
3EF809AE
BE881914
BE0B0797
3C017E86
BD8A478E
BD87F998
BDA9685E
3D84DEC0
3D369273
BDA51102
3CEB995F
BD8A7233
3D8AEF8F
3CA9F91D
BCC40D8F
3D6D1A7F
BDCDF0D8
3C837D48
BD7D05C4
3E22FE3A
BD035072
3D6E531A
BE00D944
BDC54AA8
BD4DB836
3CB50DD4
3C1A2167
BC9F7EB8
3D7FF22E
BDF4B94F
BBC4A9B6
BD819116
3D23E778
3D9D9B24
BE2C9F44
3B50E560
BCB6F782
3D72C540
BD3B2DC6
3D569630
BD47F4C2
3CDAE50A
3D62189A
BDF40264
BC862AF8
3BAF6FE6
3D875687
BC377C44
3DC8B114
BE822406
BC9EAB12
3D5E7E95
BBC5AA84
BB81BF05
BE3D166F
BDCD5C37
BE149FF8
BC5FAB4C
BDF0AA90
3D397847
BCDAC594
BC40290A
3E317B94
3C81A84F
BD835CC4
3CE845BF
BDB14701
3D5FA6BC
BCC6B931
BE28B591
BE1362D7
BD4B722B
3DA3F636
BE7FA761
3D82ABE2
3D069F6F
BBFD77BB
3D3836E1
3E018BF4
BEB70AA6
3E17E579
BE004FEF
3C573542
BBD73952
3D0CDA47
BE65EFD5
BBD2DAB2
3DB34B16
BD0473D9
BE1DA421
BD039627
3A6630EF
3D7534A0
3D1F8AAC
BE25149B
3D046F32
BD944BE5
3C1E62C9
BD858E54
3D0CF9FE
BBEF04E8
3D10D3F6
3D3EFACB
3DCD6B9C
BD80F382
3D99D46D
BE9AAF9D
3DFE3899
BE16BB65
3D3E53F3
BE0B1EBE
3DE77BB4
3D980862
3D3BD158
BD9F72ED
3B365D0A
BE429AD5
3DA2F166
BD4B06DF
BACA89C0
BE3DFF34
3D08CEBC
3E116661
3D2F752A
BE87991A
3D2D03F0
BE41473D
3D35B548
BE3A6263
3D801E29
BE1F40CC
3D904B4F
3DA4B864
BD80C6B5
BD28FE11
3E305C77
BE0BD56D
3D9BD350
BD657525
3DF1DD4D
3D1E0572
3E180DC1
BE2A3B56
3D187128
BB0724D6
BD85889F
3D1D542D
3D5C9584
3D9C3951
BDB7C1AB
3C8AE049
BD8868FA
3D28920D
3D4AA042
3DBFC276
3D2A5A1A
BDB46615
3DEE397E
BDACA4CC
BB3D6A8B
3D603C36
3E2E4D68
BECF6993
BDE09632
BE0300C5
BD80C236
3B9BACBC
3DDB60B8
BE020DA1
BD379AAE
3E19A891
3CFCA0B4
3D107AE8
BEED00EF
3DB41EF1
BD82C627
3D512877
3D5FA51E
3D86D9D4
BF1F66D8
3D8AB7CD
BE325058
3D39215C
3D10ABAE
BAE14579
3D5859E8
BE73FA13
BD0C5D61
BDAFA49D
3D77C97C
BDC29624
3DBB3B20
3CB4CA32
3E116041
BC350AA5
3D8564FF
BE98072B
3B686B72
BE02A518
3CC3E4DC
BD267D8B
3E1D3C49
3C4958B7
3D903629
3C721562
3E076827
BD81457F
BB81F766
BCBF94F9
3D1807D2
B9AA7A83
3D2270D6
BD161243
3D997018
BE19BCD9
3DCC1D12
BCCE07C9
3DD53B3F
BE09C5F2
3D90C36C
BDC0BC84
BCEA6BB5
BCD803B7
BCC1F53C
BD8438DB
BDAC86DC
BD269CCC
BC9A7394
BD74E02A
BC0FC187
BDD72AE6
3C8B9DE6
3D8818E0
3CCFF8A1
BC81A18E
3CA4A995
BDEC9E4F
3D97F869
BCF1700E
BDBB69E0
BD5526C2
BDF80B58
3DFC1783
BD62801D
BDC0B71E
3E043E76
BCA4956A
BE9D6BE1
BE378022
BE11FE84
3E5416B6
BCC34565
BE0EA498
3DA3FED0
BE929B55
BD167993
BE2645FD
BC846F56
3D067EDB
BCFF6C68
BDC8FBC5
3DBB5C8E
3E0D11F6
BD7688F6
BD6BED29
BE99F88B
3DF9C158
BCC79B58
BE22EED4
BDD0AC69
3E8D546B
BD85511E
3C4CA5D7
BD208EF7
BE439A24
BE0974F8
3DD244A3
3D8B5C13
3CA829F0
BDC6EE7A
BD402566
BC2CD00D
3DB99EF7
3D021EFB
3D94BC5D
3C26491C
BC9EFE31
BAC56AB1
3C4578E6
3DA5B3E3
3E050FCF
BE2EE4DF
BD53DB16
BDBCB086
BDA3BD00
BDEBC796
3DAA5171
3B3A861B
3C1855FD
BD8965A7
3DD6BF13
BDC44652
3D3F6F39
BE28EC1F
3E0A1B95
BDAD0F2B
3E054CB1
BC183AE9
3DF27AC4
BECFF3CF
BB7727CA
BE7E3A0E
3DD19BD7
BD73D57C
BD726747
BC77355B
BD836222
3D4B0076
3C80CB78
BD2EC94B
BD44C361
BDA3ABC9
3CC078F6
BD742959
3E49A85C
3D3B2608
BD1AA21B
3D496437
3D81B551
BEBAC524
3E064720
BE551746
BE389337
3D4A1DE8
BD19D703
BDD164DD
3E05472B
BDA42560
3E0431FC
3BE93C42
BBB743B6
BEA80930
BD25A921
BDBBD15A
3B658C5B
3CC2B650
3E1D5AF4
BCDBD8D4
3D3EFF8F
BE93959C
3DCF2CAA
BDB89115
BDE697A1
3D90B594
BDD549FB
3D2CF87D
BC727C8A
BE1C4A5C
3D1D29F9
3C9F1C3B
BE15507B
3DA0F91D
BD6F4629
3B15ACBC
3E0C5921
BE899C23
3D84F5C7
3C362CD7
3D28DA37
BC201F78
BE174E03
BB6D311F
3D3C7525
3E18E093
3CFECECF
3E0782CD
BE53E264
BE296C7C
BEAB86A3
3DFD24F8
3CA710C9
3DC62862
BD7AD2D5
3CD8AC99
BE3F9BCF
3C72DA27
BE31A501
3D786F05
BA8499FC
3D9E1C65
BE717DFC
3D6C118A
3BA1C0BB
BD14B83A
3D586994
3D57A57F
3D374E86
3D76F44D
3C4EFB3C
3E294EDF
3D334DA8
BE14EC4B
BE355D1F
BD579550
38AEC15B
3CA23729
BD3F4F9F
3E0C1242
3D430EA6
3C0AD3A3
BD75FE66
3C383F95
BCBC13DC
BE221E17
BD419448
BE48EB1D
BC53601F
3D88DC2C
3C3201A7
BE26780F
3D48FC75
3D68BB4C
3A6C9F8A
BE6D5013
3E1B2229
BC288506
3DC7437A
3D618AD5
3D92F9FB
BE849E60
BD13E242
BE65AA1E
3D00D71D
BD7EFCC7
BE449398
3DBB9A01
BC2B769E
3DA544AA
BD835B7E
3DD35AD4
BE695543
BD2609C2
3D7F226F
BD2E50D2
BE1FB8CE
BE0DB4ED
3BD2E602
3CC71FE3
3D2495DD
3D4B4652
3D18CF06
3CB24F32
3D26309A
BDB7500F
BE2A5C62
3B90E609
BCF74734
3BD258BB
3BA07E69
3E2332B1
BD186296
3E004042
BCD81CE8
BEB6F3E6
3D9DE798
3D995E3A
3D8B4782
BDC29625
BDCCD35F
BE94FB7B
3D8D355A
3D0CE5C7
BDA5112A
BCBC877F
BE082311
3D86CEA5
BD942DCD
BD77ABBB
BD840F87
3D4C3D18
BDAF1EA8
BB7AE368
3D0C3A53
3D320397
3ED15E30
3D9A7299
3D6F5173
BE3EA922
BCC42084
BDC433CE
3E92C188
BE07EE9F
BE4BF90E
BEA27F40
3DC156F5
3E1A3339
BD9C18B2
BE0CCC58
BDC33182
BDE39E0F
3E1688E0
3DDCA62F
BD35C19D
3DD18A2A
3CA29D7E
3DA8E4B3
BE3BE811
3D82D492
BE5F9AC6
3D960327
BD7DC7E8
3DD6CAC5
BDB1F097
BD3CCC34
3D6A7992
3E06E788
3E0598A5
BE22C4ED
BDFC190F
3D7DA51B
BC9A575B
BD8A1130
BD0D2426
39F0D59E
3E2F0E7F
BE340607
3E1A3DFB
BE5988CA
3E174541
BE902A8E
BD837D03
BF24C930
3E07EE05
3CAFA02C
3DCB27FC
3D7DDF0C
BDBFCDCC
3E2E6697
BE3C18E4
BA297B61
3BE0B208
3DF3E035
BEA6630B
BE053EAE
BE535831
BE267B5D
BC30D4B3
3E20344D
BDE606F4
BE319958
BD950B52
3D2D01CF
3DE0F769
BC07196F
BD0B8AC6
3E436895
BDA7DA7B
BDEB66FD
3BD301F2
3A8F0F9E
BE083E34
3D7B9AB5
BDC89563
BDFA428C
BE104CFC
BD07DC3A
BDC3E468
3E1060E9
BD803532
BDA13F0C
BE174F41
3DF56C6C
3E0520C8
3DBE1D92
BE18A70A
3E08923C
BE69CAF5
3D053D45
BDF7C514
3D0B6B4A
BDEBFD9B
3D9E7FA6
3D8C385C
3B3A88B6
BD0C4A20
BD2AD588
BD61A96B
BD3F2600
BC9CE61F
3DAB7729
3D1D815E
3C746F7F
3DEB75FF
BD8CE61F
BDFB7629
3C96A117
BD808853
3D2E0108
BD3F3199
BE107DA7
BBEE47E7
3D9FFAA9
3D016AFA
3C71B87A
3DEC812B
BD45CA3C
BDA746AC
3D70D6DC
3D1F498D
BDE50BDE
BDF14594
BD0A9490
3DDD6F81
BDAC0211
BD08270F
BDC5A131
3C8BA18E
BCB836FB
3D1D97D4
3C2F1D07
BE093CA3
BCC4D9A2
3DACDBB9
3DCEEE80
3DD35C47
3CCFB63A
BE5C6D38
3DB51F72
3E04922D
BE682340
3C755325
BE222106
3E097E29
3DF39F7B
3E23803D
BE4498E6
BD7B15C7
BE56FB99
3D89D34B
3DFEA8C9
3E7858C1
BE1E9A18
BE8677CF
BD8BC2B7
BE38C969
BD2EE726
3D905570
3D857C3A
BD7C5AFE
BC809141
BB7B9EFF
BD85C47D
3D783B47
BD8F39D8
3D5F5B51
BC512793
BC2F0C71
BD928168
BC5ABEFF
3E3AE5A2
BD0E3ECF
3D8C2A04
BDD3138D
BD81A47B
BD7AFA38
3D1144C2
3E18A0FF
3CD82C49
BC75FC6C
BD61A6DC
BDD047E9
BD1DA62C
3D779E6B
3DCEF0D7
3DED7818
BD8DC91D
3DD35109
BE028DA0
3BEFB291
3DF90C20
BE030E90
BD8121AC
BDCB093A
3C011BE3
3D7EB19F
BCDBD2F8
3E1417AD
BE1ECE4C
3DB5CC19
3B81F9E2
BD25DE09
BD4F64A6
BD0AA867
3D326CB1
BE178BE5
3D62CDC6
BE0ADE1F
3DDFC4EA
BDF0E9FC
3DDA328C
BE520C06
3C59F1E9
3DE9AC3A
BCA4B842
3E0D4907
3D5EB6A7
BA8E9E65
3B76BFD0
BDBBB58A
3D8FFDB3
BDFDEF6D
BB03ED9C
3D1E924B
BE401E80
3E534EF0
3D0FDBBC
3D8CAA43
BD1EF570
3C63390C
BD9F8E1E
BE0D856F
BCA47AF0
3D17FBCA
BDBA9F9F
BC92325E
BD990D2D
BDAB911C
3DB5DEFC
BD3DA02D
BDFF5041
BD48A950
BD430E4F
3D9268AD
3E29F2E2
3E3C713D
BE132400
3D9AFCA7
BD244349
3C6069EF
3DC7A2A4
BE0B482A
3CE0F6B6
BDC92C90
BDEBA8A3
3DA411B2
3D5E5B8F
BE463B08
3D0809C7
BBDC6467
3D99DE77
BB972FDB
3D003DC3
BD2059FC
3D1AD5F3
BD542557
3CB3CCF5
BDC4507C
3E2896CA
BD7A9FE7
3DD58022
BE7A49D1
3CA1D510
3E037A23
3D884C2F
BD96ED13
3D6538A2
BDBC030D
3C189E73
BDFEC757
3D611C53
BE324B92
3DAB79A5
BD2940D9
BE2AF71E
BD8ECEDD
3D760B21
3CE66048
BDA60366
3B9AABC4
BD9F9ED6
3D80A2D7
3E06B3E1
BD9AB45C
BCB2A716
BE264DEA
BD64DAD6
3D7BA33F
3D70B98B
3D0A0A88
3C4DB080
3C9B783D
BDCF8B6A
3DB9C87D
BC952C14
BD819FD3
3D46C7AB
3CFE45FA
BD20DD10
BC0ABCD6
BD939105
3CB32216
BBAAC4E5
3CAE6147
BE11B408
BE706EF6
BC95D5A1
BD722032
3E04BC85
BC8A8743
3DAEF969
3DA8E7F9
BD276D3B
3D328A47
3C301C20
BDC6EEC6
BE044853
3DBFF6BF
3D5C7FDC
3D2AB970
BE4E15D0
BB54716F
BDFE9035
3D86037F
BD8D7438
3D6A55CE
3D3E666B
BD3A2D3E
BD3DC1AA
3C6FA387
3CEC5623
3C34CB5E
BB9EB851
BDF0FE99
BD1A42C4
3D037733
3D9EF6A7
BDB13E77
BAA4BA0F
BD256435
BBD84DDD
3B331E29
BCAA5D0E
BDA189E0
BEAF6137
