3D97C350
3E023D0C
3C4B89D7
3E348302
3E5E87D3
BEB7CB0C
3D05681F
3D705964
3CF967CB
BEABA7FC
BCFADF2F
3E3DE69B
3DDC254A
3E6C50CE
BCC6D3FA
3F06238E
3E90BF5D
BD5B6B2B
3DA58DDE
3EAF5E85
3E1A1AD6
3CF151E7
BB49B845
3E66C8B4
BE4F9336
BF15BB38
BD12DCB1
3DC89119
3D84AA54
3E0ED784

