3D08919F
BEA938BD
3E8A8F5C
BD2B4528
BDD5B2D5
3D93E0BD
3BB6177F
BE285879
3DA10E02
BEE550CA
BDF1CC10
BE0A33BE
3E89BE6E
BD8A5269
3EAEC13C
3D896CC6
3F02582E
3E9F79A7
BE2F0564
3E7F4B62
3E60AFA3
BDA2D384
3E296463
3D7A96D5
3E6270B0
3E1C63F1
3EA7685A
3ED8EE8D
BE18201D
BEB6D699

