3F025461
3E580065
BDF3E5FB
3E18FF32
3CD7B203
BF11C033
BEADB6A2
3E84E960
3D106FEF
3D036977
3D47CE96
3E06F113
BD2B0100
3E181F54
BEDC8B22
3EB54E90
BD422899
BD2FDFC2
3E0CB03A
3E1901D2
BF139757
3EDEDA66
BE3C0BDD
BE5D5065
BE9912FD
BF0872D2
3C343D8A
3C9B1FAC
3E149FD8
3E23C9AC

