BE93DC48
3F0CB60F
3EAD0225
3DCCB74E
3D682624
3ECBB2FF
3EB56606
3EBF28E9
3E55F783
3E47FED2
BE7AA3AD
3EA8882F
BD014C66
3EA50AAA
BEF8D1FA
BB71F57B
BE3EE30D
BD7BB2FF
BE39B952
3DA4217D
BDEE34FC
BCF93BC1
BDAA10E0
BEA5BF6A
BE7BFC22
BE0E820E
3EA8BB4D
BE6EC3DB
3EC771A8
BE13FB7A

