BE8CE033
BE00B8D0
3CFF4773
BDB948DC
BEC886E0
3DDC6FBD
3E59F7B6
3DFBEB9E
BE33F4ED
3D8237CE
BD5A0CF2
3E16C58F
BF11D7FE
BD9AF640
3D714DB6
3EC0E193
BE61C8A8
BECFDD66
BE035C9E
3E0C9470
BDADCEC0
3EA6E6DA
3CF6C8B4
3C982A99
3F328B3B
BD190C0B
BDF31C22
3E546349
BEBE40C8
BD2C5C14

