BD9C6DA4
BD015A08
3D91A5CA
BE70F66A
BC1B8024
3E648DC1
BED645C3
3E60114D
BC9715C6
3E112E84
3EB5249E
3D521BC1
BE5F42FF
3DE24D4D
BD5D7BA6
BE393F6C
3E18E4B8
BF163886
3D8038A0
BD70307F
3B8661AE
3D2277C4
3F0712F5
BE140E9D
3EB18506
3EFBCD57
3DD16DB1
BDCEC28B
3E4B1AB1
BDEC5F39

