3DAF355D
BF0A2531
3DED2568
3D9E8CCE
BE412514
3D27DED7
3D9AC4F8
BE6CCC8A
3E780B67
BDA30CAA
BD10B418
3E5217D3
3D975537
BE1079A3
BD0AD03E
3E6CBA73
3EAC87FD
3EC1DF33
BDD6E610
3D9C89F4
3E9EB8D8
BE29FE00
BD46F588
3E99F4B2
3EA38B26
3EC2DC4D
3C83DFF4
3E83B928
3CAD96A7
BDE4D014

