3F1F93AB
3D695960
3CCB8173
3E21CAC1
BE09018E
BE36CDAF
3CF23034
3E5CCD10
3DA64DC2
BE8CB839
BBCF312B
3E48D6D4
3D5CD3E1
3E84A7D6
3E215619
3F133CE6
3D61198B
BD8EC41E
BD931F47
3E84DA2B
BE13BE66
3D526528
3E33DCCF
BDC9F490
BBFEB4A6
BE9E22E6
3E2910C3
3EA2E515
3D92D880
3CF0D62C

