3E561805
3EA2730C
BEB2276B
3EDFCD03
BEBB1056
3EC4B8BF
3D9B1855
3ED301EB
3E11BE6E
3D93F7CF
BE1B456B
3E66A982
BEB6043A
BDD77100
BD84A7B5
3E0816AD
BE00281C
3E6F7F4A
BCAF09D9
3DF05293
BE220E1F
3E00B0AF
BDC3137B
BE2F4906
BEBE11DC
BEB5AE60
3DC2DF0D
3E00B2C8
3C0AE74F
BD4F82F5

