BD624FEC
BCEE47DC
BD6B0100
3D0142F6
3DBF47FA
BDDEA140
3E186AD3
3DA72D1B
3D715F89
BE8F8CEB
BE7AD8A1
BDBBE4CD
BDC73B43
BD26DDF0
3E629ED4
3E030F8C
BCDA1017
BE18F084
3E5ACFB7
3DD3732A
BE044630
3E06D480
3DD41D08
3E560781
BD964B66
BDE7179C
3DE65CF6
BE277E1C
3E4A0FD4
BDC6687F

