3E905586
3D3CAC01
BD8F6ADC
3CDC2BF7
BD4D0B7D
3E0E27BA
3F0AEBD5
BE3735AD
BEE69312
BE3571C2
BE202C9E
3EBB1F7C
BE8C840C
BE8413B0
BE56258C
BE8AACD2
BE430211
3DDD944C
3CB58725
BE92C42D
BCADF2D4
BE8CB3D2
BD621A6B
BC8C9EA3
BD16673A
BE50A7C0
3EDE65C2
3E85507A
BE5C6526
BF103AFA
BE006781
BDC97343
BDC643D3
3EA0C7DB
BED9DA97
BF5646C0
BEC50012
BE9A07B1
BD8F9C1D
BEB5466D
3E7D62A8
BEC68E24
3E841636
3E42710C
3CAD2BD2
BEE30ECF
BC54E154
BE3DF64B
BD1BD486
BD24BF58
3E944E04
BE6C0324
BDFBBBA9
3D6C57CA
BD52E0F0
3E86AB8C
BD8619EC
3C83E9A7
BCBDC36F
BF09E80D
BEE6D735
BE0FE66C
BE809F38
BD09E381
3EA81C72
BE13D870
BEED2A2B
BEADD66A
BDBFF7F7
BF10C93E
BCD62E8D
3D5C17D3
BEA4C4C9
BE089A9D
BEA4C2F2
3E995AEC
BF2FDC57
BF2C08C1
BC4E8E35
BE0C9C48
3F0D6FB6
3D367782
BE91A671
3D59426E
BF004C1C
BECDA789
BDF8AA2B
3E82C5AC
BCDE31E7
BE8B67DA
BCD6A1A3
3E5E7417
BE454195
BF2267F7
BEA63B96
BE57817A
3ECED824
BD4415C9
BDBE15A6
3F06966B
BD8947BE
3CE8B6DF
3DAF4189
3D0AB836
3E1DFB1E
3C1D61EB
3DAD3BCC
BDB8D53C
BE548385
BCE73CA4
3E25C75A
3EF4B8C0
3C0A63E8
BE3C394A
3CBF3BA0
3E292621
BEF7F217
BE628954
BDBEA730
3EA43230
3E274083
BEE19A05
BE2B48E0
3E93A22E
BE921820
BF0D9481
BD3BFE3F
3EDDF7E1
BEAA6773
BE8662F9
BED9CD59
BD7994A2
BEE5E543
BE8E4AB8
3D9CF7A4
3E7EAA8F
BE7E034E
BE2A0D14
3C6CA768
3E79ABE4
BE892BC3
BF026B76
BE60DF2A
3F351C55

