3E0FA2F0
BCAE2B8C
BE6179C0
BC44156E
3E0C8D5C
3D9C3A43
BE22E1EF
BB0B6523
3E10E38A
BE3D1DCD
3D2594AF
3DFB5B70
3E865C4F
BDB29995
BE8544DD
BD150225
3DCB2AF1
BD71EAFF
3DDE77D5
BDA5742E
BCB2F87B
BE873648
BC40F451
BD155F78
3E45757D
3D7280F1
3E737500
BE79C8C9
3D6DCA08
3D36D224

