3E064F12
BE4E76C9
BDBADF2F
3E5CD39E
BF122963
3E8832DB
BEBA1251
3EDFBAAA
3DCF8E7E
BE37F844
BCDEF848
BD9DBD30
BEB43611
BE1C7D1C
3E16CCE6
3E832BBB
3B8D6D3B
3EBB035C
BCE92D56
BD32C519
BE59552E
3DB52A84
BD4ADEEC
3E88AFC4
3E7C4B4D
3EB5DE16
3E801DE2
BBF28C7A
BC57CF5F
3E117F41

