BD7630A9
3EAA9F7B
3DDE6D59
3EE3AD3A
3DAF8E7E
BE95C183
BD7E32A0
BC6DBB5A
BABB9064
3E0EA78B
3E0E45C3
3EDA13A1
3D244D87
3ED77F06
BD339D1B
BD99146E
3F1345BF
3E04C448
BEC011B2
3EBF9229
3E5C1F00
BEB50FA6
BE6461B7
3D1692B4
3DDA68B2
3E8A83D3
3EB46E09
3E5C115E
BD09BF9C
3E467C28

