3E0A044B
BE0C243E
3E8D7471
3E2C28B3
BDCC4828
BDDD3997
3DB77E1C
BE5B1E5C
3D058256
3E69AE92
3E083233
BC3F2F55
3E442C3D
BE076A72
BD8FFFBD
3D2ED45F
3E05F4A1
BD805144
3DC3E6C5
BE6082CF
3C2400FC
BE5DA2F9
BE7A07B3
3E127393
BC7CDAB2
BDEA3055
BE05F916
3BD0A244
3E5D2D88
3E3DBB5A

