3D5DD2AF
3CB5EFA6
BDDF8C22
3E09FB1E
3E5C2DF1
3E62E771
BEAA12D7
3E94AB1D
BE2A4ACF
3E2801F7
3DFAA2E4
3E9BAB43
BEFD6239
3C3AF102
3DF3B6CC
BDB143BF
BCDF47FA
BEE85DFB
3ECE9036
3D4E0A85
BE425C81
3E81C8C9
3DF5C8DA
3E07DBF5
BEDF3A15
BE7A836F
BE3A3C21
3E70DCFD
3F10AFD5
3EA53544

