3D171E2A
3E975126
3E1DD15F
3E3382E4
BE92DA55
3E4B1290
BE8551F8
BE7CDAF5
BD92E0E3
BE674081
3ED083BA
BD8CC9A7
3E4DF86E
3EBC942D
BDF7EAA3
3F09AB5C
BD85A1CB
BE992147
3E836502
BF086131
BE89F44D
3EB06812
3F41744F
BE1B9C73
3F0801B4
3E5794A7
BE0D8A11
BE82B8E9
BEB1D6D0
BE92A7DF

