BE988FA8
3D9D0D8D
BDD6EDEE
BE681345
3E61FB83
BE11BF7B
3D5B4BB6
3EC20CF2
BE6318B9
3E5FFD1E
BDA6783A
3E174363
3D7E835E
BBD78C43
3E15C1C6
3D29728A
3E6F340D
BDA3C6C9
BE3FB225
3D85931D
3D35E52A
3DBABA7C
3E72C387
BDC44849
BEB9C8A8
3DCA5BD9
BE881301
3D502470
3E6ED528
BCEB0FAE

