3E88F020
BDF01217
3E81CA5C
BDBB78CD
BE3E2DE8
3DF7AB32
3E644630
3CA3B14B
BD97C6FC
3E85CE18
BE6E00D2
BD3DD54E
BD4E5929
BD57720D
BD3DE1E3
3E4AE643
3CAC625F
3E5AD1D0
3E791FB4
BD40CF9E
BE52A023
BE09285B
3E5954EB
3E7153BD
BBF9A06A
BE55FE11
BE78ADEF
3E448D3B
BDAB54E3
3D8A37AC

