BE61FEEB
BE4FA6DF
BDED2FE4
3E570974
BF0DE1B1
3DD92EA5
BEA2D5E0
BE1AF102
BE0B4741
BE0032DB
3E80B546
3BBD5561
BEB0FFB9
3E6835DF
BE32BB23
3E6EA9E7
BD03A861
BE75DB77
BDFB9842
BECCF462
3D6AB8A6
3F07C5CE
3E953261
BDB484D7
3E2A8651
3C90BE94
3E7F5C29
3E8DFDAC
BEFC54BD
3E54228A

