BE8837B5
BE560B70
BDF933E3
3C625C81
3D7BF727
BB9D1F60
BE666949
3D2908A2
BE8C7F99
3CACEEE1
3C9B0037
3ECDE8D5
BE8BD2B7
3E130D30
B8F34507
BE4B9496
BC45FBF8
BE4697AF
BE3D8B1E
BE1067CF
3C27C17B
3CC4028E
3E8068FD
BE4BDB1A
BD9DAB5C
3EA9E796
BE7A860E
3E8505F3
BDD4B620
3EB0DF9C

