BEF1F666
BD319C5A
3E8967EC
BBDB0DD8
BEADDBFD
3ED3C48F
BE0A148C
3F0ACB75
BD30A4E3
3BD81ADF
BC6DFA44
BE057F30
3D9B1D0D
3E89A06A
BE69057D
3DBDCF03
BC573C92
3E59F905
3E999BB2
BDC91F2E
3E5898F6
3AF4D7AE
BDD1476B
3B85DB77
3E32220C
3E049668
3CD885D3
3BA84381
BC72FDB9
3E186FCE

