3ED69446
3D0FE47A
3D01A7A0
3DB29670
BE1424E6
3D837260
BDD806F2
3CFFF79D
BD182CB2
3D9903A7
3D94BB5E
3B8FB00C
3DDE18F0
BD6F709B
3E0D9989
3EDF1DC5
BDA08180
BF1046E9
3EC50CC3
BD0B2746
3CF1971C
3E389870
3ED4D270
3EA885B2
3EA067CF
3D893E1D
BD9FE9FB
3C14C016
3B010A57
3E57210C

