3DB975F3
BDEB6849
BD4DC769
3F00F3CB
BEB6683C
BE337C9A
BF148D19
3E2D0310
BCA1AF7D
3D614F05
BD3F2B24
BE14CD75
BE407AF2
3D4F7985
BD2D02CD
3EA6DEDB
3E38897F
BDF15D70
3CDEF1FE
BE083665
BE432980
3E61059F
3E0B21C4
BEC6E936
3E9384FD
3E03E682
3EB0DF59
3E5E7104
BE4A6D6A
3CCD9C6B

