024
1FB
1C8
1FD
023
014
1D7
1FF
024
1D1
00A
01F
043
1EA
1BD
1F7
019
1F1
01C
1EB
1FA
1BC
1FD
1F7
031
00F
03D
1C2
00F
00B
013
021
003
02D
038
1A4
008
00F
008
1AA
1F8
02F
01C
03B
1FA
086
048
1F2
015
058
027
008
1FF
03A
1CC
16A
1F7
019
011
024
023
1DD
047
02B
1E6
1E4
017
1C9
008
03A
022
1FD
031
1DE
1EE
00B
021
1F0
018
1C8
003
1C9
1C1
025
1FC
1E3
1DF
002
037
02F
1FC
02A
02B
023
1E8
023
034
02A
042
010
1BD
008
1E6
023
1CE
1F2
1D3
1DA
1FF
01F
022
1BC
1E6
00C
01B
1CB
1DA
00E
1F9
1F6
1CF
089
1DC
1F8
010
1F3
014
033
1F9
180
1BA
039
014
023
17E
1B7
1C9
04F
1FF
006
1D6
052
1E3
1C7
195
1AB
1EB
1FB
06F
1EA
025
00E
02E
046
1DA
1ED
02E
047
00A
021
1EF
051
022
029
1FA
058
019
044
1F2
07A
02D
002
1F4
03B
1E0
177
00D
04B
043
004
1ED
033
00B
027
1F0
052
01F
04C
15F
1C9
1F7
195
055
041
130
1F0
02B
00A
08F
025
05A
1DF
1F8
1F2
157
1BC
026
181
008
191
00B
04B
1F9
1E5
1EF
1BF
1FB
1C5
1EA
028
1C5
032
023
083
16F
000
010
066
1DA
081
04F
1D3
18A
023
176
1E2
025
1A7
063
1FF
1B6
08D
057
01A
00F
066
05B
060
035
032
1C1
054
1F8
053
184
1FF
1D0
1F0
1D2
015
1E2
1F8
1EB
1AD
1C1
1DC
054
1C4
064
1DB
03C
03B
1DF
058
1EB
174
1C7
1D9
1C6
1CD
1FB
067
1FC
1EF
186
004
09A
050
024
000
00D
1BD
000
1D9
03A
052
071
04C
1CE
17F
1BC
1CA
1E1
004
010
1FF
1C6
00B
1BA
005
005
067
1BA
025
000
1CD
1FD
1CE
1D1
1DC
003
006
040
1CD
1EC
055
1C1
043
1E5
058
0A0
00F
006
028
1DE
1D2
008
037
015
1BA
1FE
032
00E
042
028
093
00E
1EE
1EE
042
1DB
00D
02D
1E7
1FE
1B1
02A
051
012
008
1C5
1DA
00F
023
1E0
063
1B9
03A
017
056
03C
1EE
1C5
022
1DC
001
1E6
026
1F1
18F
1E4
1E3
017
04F
01C
020
04F
1D5
1F5
1F4
1F2
1F9
1F1
008
018
1E4
026
015
00F
1B8
1C1
1E9
1E7
1F6
039
021
1F9
1DA
037
01A
1DF
022
01B
036
1ED
1E3
01D
1D6
033
1E7
030
1D6
1ED
1D5
1C7
1F0
188
012
1F9
061
03C
18A
1C9
000
1E5
1D6
1CE
016
079
1D6
1F9
1F0
1E5
088
1BF
048
1D3
198
04B
1DC
1FD
1E2
031
00D
015
024
027
1F7
1DD
1F3
1FF
02E
1FA
1E0
1F0
011
037
1DB
1CD
1D7
1C7
1BE
1FB
044
004
1C5
01F
1D7
00F
027
00E
006
1E4
022
037
039
1AB
04A
1D5
02A
01F
04E
181
003
01E
1EA
1F9
18C
067
00D
1CF
041
01F
022
190
1C1
1D1
03C
091
053
066
04C
1FD
01F
1A4
06D
067
014
023
1A6
004
02E
020
01A
009
076
1E0
1F0
00B
1FA
1FF
045
055
004
1CD
193
01A
05C
00D
019
1EC
1EB
05B
1C0
17B
05A
030
00D
006
1E7
1DF
1EC
008
1FF
1F0
012
00B
050
030
1F7
076
07A
044
02F
04D
023
1E7
030
001
1E7
022
1CC
1E9
037
16E
044
1A3
070
01A
1D2
1F9
1EC
1A6
1D9
026
042
001
05E
1F9
1F5
1CA
017
1F3
044
03F
05B
040
1FE
1FD
024
007
087
007
03B
001
032
1F9
055
034
012
01B
1F9
005
024
1A4
048
1DF
1F2
053
01A
1F1
05A
1F5
1C1
1E8
1BD
008
1ED
034
04A
1C8
1CC
1E2
036
172
01B
1AF
1D9
1DD
1E0
040
001
1A8
03A
1D3
03C
1F8
1C3
1E1
19A
00F
088
04B
1E9
02B
005
040
047
182
035
043
1F5
1F2
045
1C3
003
1B7
1FA
005
1DD
1FA
1DF
00D
1C2
1B4
023
025
1C1
01A
020
009
1EB
1EF
045
031
1C8
019
1D2
1DD
1E1
1B4
014
1E5
1C6
038
1DC
00E
061
1C7
038
1EB
026
010
1FE
025
00B
03C
1EC
1D0
011
00B
017
03D
1E7
1A3
019
1BC
00D
03C
1F9
026
044
1F8
082
031
13C
1B6
1C5
1EB
002
1FD
08F
00A
011
02F
006
05C
00C
02C
052
1FA
1EB
010
1D8
029
075
079
010
1FB
19D
1F1
055
01C
072
016
1B5
1F0
1FC
000
024
024
06D
00A
06C
1F5
1ED
093
021
1A0
060
037
1A5
1C7
009
01B
045
05A
037
1F7
032
081
049
05D
1F1
1DE
1B3
02A
1EB
1F1
1AD
096
1FA
029
051
1E9
063
049
195
026
1DB
02C
1C4
036
1D5
01C
1E3
016
1D0
1EE
1A0
009
1AB
045
1F5
1E5
012
001
1D6
014
18D
1E2
1DD
045
1EF
057
011
082
050
1D4
040
038
1EC
02A
010
039
027
054
06C
1DA
1A5
1EC
1F8
012
1C4
1FE
039
195
038
1FB
024
05B
00D
1C8
01C
1F2
1D2
026
16A
010
1F1
001
00A
087
1DB
059
07E
01A
1E6
033
1E2
042
03D
00F
18E
036
051
046
1CB
012
020
054
050
00E
025
019
1C0
027
018
1E2
039
06B
1F7
039
011
011
05C
1C6
01F
074
010
022
01E
02F
1CF
023
1D6
1D1
1BE
02C
1E2
1FC
033
1F8
1F6
03C
1C4
1CB
1FA
1BE
1C1
1F0
1C3
035
005
031
00D
016
009
000
1E6
01A
004
1EB
02B
1EC
1F1
1E0
005
01E
063
1F8
00E
1D9
014
017
014
05E
04F
1E0
029
1E5
02C
1CE
034
180
1BD
1EB
1F8
05F
069
010
155
1F9
008
1E3
004
1E7
032
057
00F
00B
1C2
1DD
1C7
017
04D
07B
1EF
1F1
01A
025
007
039
027
1ED
025
1F5
06A
019
03E
01C
060
1E2
032
1BE
01D
033
1AE
00C
188
1F4
1BA
075
1FB
1CF
1E8
03D
087
04D
00C
048
1E8
1C2
1F5
1BF
1E0
059
03D
001
012
187
1F5
045
1FE
1A9
06A
1DD
08B
1F5
002
1FC
1DF
013
045
1C6
018
1FD
036
04D
1E7
036
000
1E6
001
02D
021
007
001
1FC
026
082
036
1E2
026
007
16E
1A9
042
009
008
00C
022
1F5
026
192
05B
1F4
1F5
023
026
16C
06F
1D1
1C9
1B3
178
003
005
025
029
017
1E3
1F3
081
1A5
1D3
16B
02B
1FB
00E
1F4
1DB
1D0
00D
1F5
053
02E
1E2
007
1DE
1CF
038
023
19D
04A
021
058
038
1CD
006
044
1E2
041
1E9
1D0
01F
039
005
1ED
043
1C4
1F4
1F3
1F3
1F4
033
005
037
03E
1F4
1CB
1DE
036
03C
1FE
1CB
1C2
031
1EB
011
03A
1DA
03A
1E2
04E
04A
1FB
043
013
022
122
023
1AE
1F5
17E
03E
1E6
1E7
1F3
03A
021
1F1
05C
041
03E
058
1C1
1FB
055
022
036
051
1A7
070
1A2
062
013
06A
024
012
1D9
03A
1A5
1E5
1EF
022
1E0
03C
1FB
01E
1D7
020
1E8
1D4
1A1
1A5
018
020
002
1F3
1CD
02A
1F8
02A
02A
1CC
00F
1DB
1C1
005
1D6
00F
007
06B
18D
17D
05D
02F
1CE
024
07D
1EE
1F3
1DC
02A
050
1E6
076
096
015
1FA
012
06B
14C
186
041
013
1EA
002
03D
009
002
036
1D9
1FF
1FA
00C
03B
1F5
1EE
02A
1E5
05D
04F
055
034
067
026
002
1C7
009
04C
027
02D
1B7
033
1BD
1C1
1EE
1C6
068
1EE
033
05E
1E1
08A
1EF
1B3
042
178
1BB
058
0C1
1D9
088
036
1DD
1BF
1A7
1B7
016
176
01E
014
1D0
00A
013
1C5
03E
1EC
1F7
035
013
1DC
1F7
03B
056
061
1E5
014
04F
1D6
1F4
04D
052
061
004
042
005
1E3
028
06B
05A
1FC
1FC
017
04E
1B9
188
00F
1D9
006
024
049
188
1E0
01C
045
068
025
1E0
032
1CD
1FB
1D6
1DF
038
16F
03B
179
019
055
02F
022
1B2
01F
016
1DB
1FE
1DE
1CD
005
04C
19D
03C
020
1F9
1DC
03E
1F2
030
019
086
00C
071
037
00A
00B
1D7
1C2
1D0
02A
010
18A
013
06E
020
08A
025
1F8
035
1CD
026
00A
012
1D8
1FF
032
1D8
00A
038
1D5
02D
048
164
1E8
019
000
04F
1E5
06B
009
008
016
1DB
010
1E5
008
1F6
013
013
001
01C
1F1
023
070
1EC
170
063
1F7
008
02E
06A
054
050
011
1EC
002
001
036
1BA
1E0
008
1E9
19C
01C
036
01F
1D3
010
1F2
026
16E
1ED
00F
060
1C8
198
1DF
023
1EA
053
008
005
0B3
1F6
1E2
035
1A1
1F5
05F
06D
007
1FA
054
05A
1D4
1EC
019
06D
06C
1F1
009
027
015
1CA
00B
1DA
052
1E3
1BC
04C
046
1D9
001
029
038
19A
016
00D

