BD0C7F35
BEA55E6C
BE72E7B4
3E596BFD
BE346AA1
3E05E41D
3D8E2FBE
BE06134D
BE237B4A
BDA5A709
3E23A216
BEAB1CC9
BD1AD42C
BE989C80
3F02CACD
BB67BC3C
3C1C1F86
BE1A17B1
BEFA7E52
3E1ABC0E
3E9FE62E
3EC9AF9F
BED704FF
BE892989
BCBA53B9
BE97A6BD
BC1A77E6
BF155337
BE026784
BE84636B
BDEA569B
BE45AAB4
3EB89DF1
3EBECF85
BECFD999
BE92BE27
3E1D7C70
BEF86D94
3E523C00
3EF6F998
BE8568A5
3B92146A
BE8C2071
BEB1D68C
BE4F00AC
BE01387A
3E16559F
BDB3FC87

