BE7F5A96
BC2CA362
3B61D649
BEA841AB
BE033F42
3E6B8FDE
3F0643BB
BF110B52
3E72FC69
BF08DEA0
BE1BDE40
BE7CA4F4
BEB5E0F8
3E438434
BF6BF78C
3E62BBAA
BEDB8E2A
BD173A79
3D198394
BE07852F
3D7164C7
3E934268
BE6027D9
BE1AC92A
BEAD1761
BE840AD0
BEE4829D
BE81D9D3
BDB62CFE
3EA35F5F
BEE88E7A
3DEBE836
BDF5E84F
BE0F8594
BE10767D
BF015326
BD9CC7D2
BDDD8F0C
BE419371
3E90F81F
BE6935FC
3EA90ADD
BE242246
BE957D7C
3D3DDCA5
3CA9B6B3
BD9C9A35
BD082492

