3DA57215
3DEF34D7
3E32702A
BF436588
BDB6A50D
3E465B21
3DD9B5E9
BE9A493D
BE81A587
3E3717DF
BE07DBF5
BE5B3D4B
3C8D77B8
3D7B2357
BE71AD21
3E7A8113
3E33AD19
BDC27957
3CF0B8D0
BF572EF1
3E825B53
3D128284
BE95B142
BDE49CB2
BE48D64D
BD7FA2AD
BE859FF5
BEBA0B80
BE49096C
3E7785B6
BDE0218E
3E52B884
BE59C62A
3EBA3C43
3D8EB1C4
BF287B46
BE477E5F
BD73519C
3DDA3337
3DA92BC3
BE048F11
3DAEE200
BDBA5EBB
BE0040C0
BE18C155
3E2307AF
BD381B65
BEA15D4F

