3D770585
3E63671B
3E02E947
BE510B20
3E03AB43
BEAF214F
BD88F9F4
3B8A2EC3
BD78A5CE
BE22ECAF
3E123E18
3E0E7B81
3E2A5F42
BE9F1F58
BE359253
BE1ED4E5
BEAB05FB
BEA80757
BE1C1095
3D52502F
BE47E49B
BE65AEE6
3C502470
3D9A72A8
3DED84D3
3D19BB28
3E9A7AEA
BE0F1FDE
3E83CEC8
BEE949E9
3E3AB4B7
BD710DBF
3E308206
BE1DEE35
3BFD5454
3E186B16
BD8C3C9F
3E35A20E
BCA2B7BB
BE1A0B1C
BE6F61AA
3E61E258
3DC5E5F3
BD831727
3CBFD502
3CF77D0F
3D9DBA0A
3E81CDC4

