BD7F1844
3E9F4A77
BE305B3A
BB33F63C
BE91BB49
3DE29414
BE298DCE
3DC052D6
3E0DA37F
3DBF3E8A
3D1B9735
3DD388A9
BDCAF4F1
3E9C4220
BF05EFE9
3DC6C333
3E5E17A0
BD946AA1
BDBDCBDE
BED7E6D6
3E182A99
BD20029F
BEDACE89
BDD733A9
3EFDE1E3
3E0C5F7C
3E8290CD
3D9584B2
BE009AED
3E89715C
BE5B1705
3D6CBC8C
3E89A8AC
BEF4B967
3EB1BC99
BE0E83E4
3B920C07
BE8A4C40
BB525EDD
BCC2A23C
3E95F612
3D8AE643
3EE8F8E8
BEC2D491
3E615CEA
3B2CF313
3E07C30D
BDAC3761

