3E4B40F6
BC4C9EAA
3E3BEE3D
BDA1C369
BD9EDB73
3EAED506
3DBDD1A2
3D3FAE36
BE36DCA0
BAB86B16
3D7660E5
3DACF206
BD8EE30D
BCF80560
3E287A07
BDB8C650
BE73E250
3E15757D
3D97121B
3F015E07
3DB93251
3CE234A8
BE717B0F
BE4AA4BA
3D397DD0
3C6DC3BD
3E618612
BC3FF045
3E6AA64C
3D85692B
3DEC8ABD
BE8458EF
3DB2ABEF
BE072E6A
3D004A73
3EBA4BDC
BE67A56E
BE063B25
BE25F0B3
3E0849CB
3E88B674
3E3D562A
BD63E6C5
3D24C2F8
3E7DEC1C
3E247454
3E0AD8A1
3E0BC558

