BD16424C
3CB83D84
3D0F7495
BDB772E5
3D6E0062
BD56B14E
BB87D5EA
BDECC935
BE402506
BD5B7BA3
BC37E7B4
BCE95733
3C8E7FD9
3B39CD74
BE3BEC27
BE221768
BDC476F5
BD8FC9AA
BE2D6B06
BDD7D313
BD250001
3D845D30
BCD1DCBB
BD86C669
BB6F436F
BDD3A91F
BD6371D2
BD9231B3
BE018AC2
3D898E3F
BD7FEEEC
BCF5D949
BD8ECA92
BCF9A343
BDCB4B6E
3CD7C645
3C981284
BCB7EA38
BD94CB7D
BE1E1ED6
BCCEBED5
BE01E5CD
BC3A6119
BDCA268A
BD13804D
BDB9A7EC
BDA1D87D
BD0F7CFB
BE011BD4
BC94B790
BD1BD0DB
3D08A105
BB5B6125
3CCC5249
BB8662BC
BB69B5D5
BDC85A8E
BD9D506A
3D164A74
BD8F9863
3CC906F9
BD822142
BDCF86B8
BDAEE159

