3D3E7B79
BEAA0E01
3E011583
BCC05916
BE90FE9A
3E5CCDA3
BE62E0BF
3D500041
BDCF7BC3
3D2E34AC
BE8E64B3
BD88F62C
BE20482A
BD225D8D
3E9CEE56
3E59C8C9
BD1C1E47
BDBECA96
3E4D8D7F
BDE130BD
BC105BC7
3E2E629C
BDB77E2E
BC89314B
3DD464BE
3E08845F
BEEAC98D
BE65E998
3E7A48A8
BE291BAA
BC42B256
BCB25922
3CC173AD
BF1D6825
3E0E4AC4
BE2FF5F7
3E229813
BDAB4519
BE5ED76D
BD86442A
3DEB5A22
3ED213D7
BF168F55
BDD49D45
3E8A690F
3C4ED697
BD20B208
3E2D664B
BDB40D77
BED0D50B
BCFC0A9C
BE1BAA50
3DE490AC
BCED1584
BE700566
3DCCE77C
BDFF17F4
3E9D254F
BEE43075
BE7A23C6
BB6051E0
3C9B98A8
3E06FF3C
BE5D9171
BE02A563
3D40C6DF
3D626BB7
BD196CBA
BD9B9E64
3D105964
BDF85281
3E508BBB
3E7AC596
BE3CF564
BD4EE05C
BDE2CF70
3EC16010
3E6989FE
BE3EFE7E
BDF61BFE
3E905586
3D3CAC01
BD8F6ADC
3CDC2BF7
BD4D0B7D
3E0E27BA
3F0AEBD5
BE3735AD
BEE69312
BE3571C2
BE202C9E
3EBB1F7C
BE8C840C
BE8413B0
BE56258C
BE8AACD2
BDC0DC22
BE12CAA5
BCA1C0D5
3D9FFBE4
3DA5658A
3E84DB44
3EA75D8A
BEB18A59
BEA2F490
BDEE376D
3E03F52B
3E6E71C6
3E56F52F
BC3C2172
3D83E317
BE59FA97
3DE8568D
BE6E3D3D
BE3D3FA6
3DA49D12
3D970A94
BC618ACB
3E7B5FBA
3D1E02AE
3D96BB54
3DB912B7
3D0429DE
3DA3BD50
3D1E49FE
BE500CBF
3E4FC284
BCF33CC8
BC141F20
BE3CF9EB
3D842712
3DE92E7A
3E11F696
BE1CE0C8
3D5F3CFF
BC0AF57F
BDC361F2
3E1FCECC
BDDDFF39
BE9A1E64
BE4A7C5F
3DBB999A
3DC4AF72
3DC3E439
BDBAAD8B
3CA767BC
BDC3ADAF
3DE54872
3C291B6D
BE0FC50A
BDAB20ED
3E11039C
3DA4A5DE
3B1D7518
3D94E018
BE5AC3CA
3E1B2844
BDB85B8C
BDB34DDD
BCF0498D
3E34DD86
3E9D9A05
3A828169
3E437492
3E3F4B9A
BE3A3ABA
BE3DCDAF
BE146025
BDBA10C2
BE8F6CE7
3D50A285
BEC7C214
BE281817
3DF90122
3D61ACE8
3E106D88
BD1BD486
BD24BF58
3E944E04
BE6C0324
BDFBBBA9
3D6C57CA
BD52E0F0
3E86AB8C
BD8619EC
3C83E9A7
BCBDC36F
BF09E80D
BEE6D735
BE0FE66C
BE809F38
BD09E381
BE69116E
3DD572D3
3E08515B
BEB15E2A
3E47307E
BB2976AE
3DB89C47
BEFA16C4
BEACA055
3E8FD785
BE86CC17
3E3F11D8
3F0A14C4
3C53EDC9
BE6F6672
BEB33517
BE26ABDB
BDC9A2CE
BC184227
3D8ED8FB
BEBD7E47
BEA69516
3D96C8FD
BE7484FC
BD8E3CD5
BE382514
3D71AE7B
BE0BE4C6
3CECD0C1
BDD3F02A
3D61131E
3D0B301A
3D267CFA
3E5FB114
3E3ED452
BD5DB35A
BE58D3D0
BEDADF4A
3E8275B2
BEB37E43
BE80784F
BDD40DE4
3E408FBD
BDDF7D8B
BE4395EB
BE15CCB9
3E5828EC
BE57A49F
3D7B1588
3E5213BC
BD2168D6
3D0EA69D
BE89042A
BECB4B0F
3E17C39B
BEBF7C76
BE472DD1
BE3E0228
3D8A84CE
BCF13138
BD442FE3
BDEE58B9
BCE5F3B4
BEA25C84
BDD6B45E
3E0233BE
3E04055B
BE53AEE0
BF0A39E1
BEB21F04
BE47A837
3EA3BD7C
BEC61958
BE9B0FF5
3D06F159
BD51CB82
BE557EF5
3CFA4A80
BF0C3EA5
3DCDB4A8
3ECED824
BD4415C9
BDBE15A6
3F06966B
BD8947BE
3CE8B6DF
3DAF4189
3D0AB836
3E1DFB1E
3C1D61EB
3DAD3BCC
BDB8D53C
BE548385
BCE73CA4
3E25C75A
3EF4B8C0

