3EAD4492
3E21D13B
BE0317E6
BDD82236
3DF01EE0
3C8845D4
3EAFD18C
3EC78339
3E34996C
3DE020FD
BE93243C
BE548CAD
3E38B569
3D94F768
BE0C4B5D
3DB4F28E
BD24D210
3DB00DA5
3E19B014
3DE341B9
3D501B10
3E652F05
3E1E6C9A
3D8DCC74
BC55A301
BEBF405E
BD9AA6CB
BEA20ADA
BDCB81B8
3DE10B21
BDEE8EAB
BD339848
3D13D152
3E26FA8B
3E441C9C
BC80959E
3CD4EB61
3E4A7565
3D8988E7
BE3D59D6
BBB73599
BEB76BEC
3D76CA8A
BF0D8148
3DF9426B
3E8AB36F
3CB33574
3B48C01B
BBF1A01F
3EA873B6
3B0A3A65
3D6BFED0
3E149057
3D955564
BE0005DB
BD4E29FE
BDBB65D4
BEB65DBB
BE7029DB
BE9AD63D
BE009810
3E180C57
BD354DAC
BE5F30AC
BE21D7AC
BF260823
3E7C733C
3CCD43C4
BE890244
BE1CCBD3
BECAF164
BC2F2060
BDE8E18A
BEC25B0D
BDE51B7B
3EDBCF36
3E0F3480
BDE84134
BDBBFA71
BC7A185A
BDC643D3
3EA0C7DB
BED9DA97
BF5646C0
BEC50012
BE9A07B1
BD8F9C1D
BEB5466D
3E7D62A8
BEC68E24
3E841636
3E42710C
3CAD2BD2
BEE30ECF
BC54E154
BE3DF64B
BE673578
BEEC6733
BD79EFDD
BDED6A28
3E888483
BEBB8CA6
3E027A57
BEB6D8A3
BE907FB2
BC6E892A
BEAF8AE8
3C8B8F4A
BE071375
3E151FE9
BCDC51ED
BDC9BF02
BE28EFDB
BDBF246B
3E2AF239
3E1D18C5
3E9E0480
3D722E03
3D1E3ACD
3DCB2A83
BD570938
3CB0AB65
BDAB5D10
3DFA8475
BE1A6E1A
3E5C2C0D
BECC33ED
3DB91C39
3C6DABA9
BE7D58D7
3EC82B3F
3DD8D941
3DF4FEA7
3E4F18FB
BCA31E0C
3E8B5AD6
BBEEC994
BD844ED1
BE88F641
BCFB651C
3DDFE88B
3E8855A5
BDDECB65
BCEF4C03
3D307048
BD84D7BB
BE424C67
3C870C2C
3C14B842
BCF57551
BDDBE508
3DB06F43
BD4B59B9
3E451F2A
3E06D198
3E435805
BE9F7772
BD354CAF
BEA510E7
3E466490
BD8E95B3
3EB9BFCF
BE21E688
BE85A0A6
BF149E42
3EC0B9D0
BF0E9520
BE8F60AE
3EE707BF
BED13967
3EC48334
3DA8B681
3DDB2D7D
BD3FFBB0
BE804724
3E1A1D2F
3F0D6FB6
3D367782
BE91A671
3D59426E
BF004C1C
BECDA789
BDF8AA2B
3E82C5AC
BCDE31E7
BE8B67DA
BCD6A1A3
3E5E7417
BE454195
BF2267F7
BEA63B96
BE57817A
BD80CA81
BD06ED52
3DDF5AC4
BEE040B4
3E3BFFBC
BEA7C912
BDFCE8F7
BECC00BB
BE9B3D13
3E318836
BDB91056
3C688A15
3D217F80
3D052353
3ED8F81E
BE96FDA9
BDC5F94F
BDDB555A
BE4C5333
3D4FE5D5
3E273B55
BBA7C33C
BC8A759C
BED490DC
3E08B458
3E589DF1
3DD1D956
3E0AAA06
BD50CDC3
3D06CE64
BD8D7FEB
3E2EF295
3C6EB3BF
BC9711C8
3DB7836B
3E063562
3C38DF68
3E51DA6A
BCC406D8
BDA5FC7E
3DC818B3
3E8422EA
3E06D07F
3E25FF3A
BDA5C76A
3D598029
BEBD10B4
3D022B38
3D78C40D
3E2CAA25
BD9E5EB1
BDF64F06
3D58DD28
BD0A4DFF
3DB10B7A
BEAB4C93
3E4B8554
BDB34043
3E8864BE
BD15C2AD
BE945B1D
3E0737B1
BA26A2DA
BE012F55
3F2346AC
3ED94397
BE744DB5
BF2188EA
BEC48E5B
3EE4713F
3E969025
BEC941FC
3F16CF9C
BE402ECA
3E3D0A85
BE498576
BD24C88B
3E3C0EFF
BE66FA19
3E23912D
BEAA6773
BE8662F9
BED9CD59
BD7994A2
BEE5E543
BE8E4AB8
3D9CF7A4
3E7EAA8F
BE7E034E
BE2A0D14
3C6CA768
3E79ABE4
BE892BC3
BF026B76
BE60DF2A
3F351C55

