3C9EDE12
BD33A9B0
BD195BBC
3E9299D9
3E6C929B
3E321F2A
BE744285
BCF3E89B
BEA567FD
BE221FF3
BE811B3F
3E0CFC40
BD988C1E
3DA3AB00
BDD73B00
BDC88CE7
3DD539B9
BD95F0B3
3DDB8BAC
BE1F8C22
BD569E3D
BEC12AFA
3E963BEF
BAB0AF60
BEBCB2B7
3E3F5F4E
BE87E176
BC42D6AA
BCBE121F
3E9947AE
BE4B3F64
BD8E019B
3DA5796C
BD027E95
3E848C0D
BD672325
BE5EE0F4
3E423AB0
3E6F0E91
BE634D27
BE9CE033
3D529025
BE6980B2
3DB4CE3E
3E42A3CF
3E08676A
3E3EA854
3E739970

