BD711B61
3D097204
BD5FE868
BEA5F02C
BC813448
BDB4317B
BE3A1A50
3DC37E6F
BDED5AE2
BD8CAEEA
3E8452E7
BC2F4F0E
3D27CD03
BD2F89C6
3DC2BF12
BE031056
3D067AD9
3CB20536
3E0EB181
3D91105E
BE697B31
3E7A9D1F
BE6455A8
BD8F5A10
BE33608D
3D80CB6C
3E1B8349
3C87E9D9
BDBAB863
3D47CA64
3E830510
3D463498
BC5EA897
3E2F6230
3E858E00
3E7E74B0
BE24EFCC
3E99C7BD
BEAC0A8D
BE109CC3
BE13504C
BE519BD4
BE1EA466
BCDE1C15
BE9EEAA7
3E774752
BCD78C43
BBBA7B91
BE24D728
BE77B289
BDE10ADD
3D987F88
BD88F96E
BEAC0FED
BE69984A
3CA43DCD
3EB52BB2
3C82C2BD
3E631A8F
BD71FBC6
BD99AB6D
BE904988
BD85AA2E
BD12D128
BE2E20CD
3D908BB9
BDBE0F80
3D145B6C
BD3A3EC0
BED16F87
3A3FA094
BD57F844
BE1AB863
BE79CB68
BBD4CB9F
3DE67275
BDC2E0A0
BB1FC6DA
BC57ECBB
BE94B03A
BDCE5365
3D8C4AC7
3D055FBB
3B794C88
3D9EFD00
BE85A555
3E69F623
3E2F2C73
BE8D6627
3E0F02C5
BE5445AA
3E7D4995
BDADE43F
3E827C5B
BDA63BEF
BEB1F948
3CC2784B
3E8DE02F
BECD3AE7
3D6BAF10
3D13D534
BDADA4CF
3E5E3C53
BD298BB5
3E4ABFFD
3D3910C3
BD2E568A
3DF13DFB
BE88A611
BDF18EB9
BD0DE6DE
3E85F71F
3C430D30
3E4DE97D
3D39FBA4
BCE64F55
BE42DCF4
BD38316A
3D7D8277
3D9DB552
BDA851A8
3D0D130E
BE6B8F15
BCBE3194
BC6F9DB2
3E16466B
3D9BD838
3D2C41DD
BDA7F23D
3DB5043E
BD737C9A
BE512D34
BE5F6A94
BE78D8ED
3E84C986
3DA101F3
BE679F23
3D9B499D
3CD4C76D
3E753587
3C3FD71B
3AF16F44
3E6A2941
BE002603

