BE4ED395
3E835DCC
BE8E5CF6
BECB2F88
BE74FF43
3C4F91A3
3BFD1138
BE37BBF9
3DD21D54
BEC12275
3E307A29
BE1428D4
BDB3BC0A
3E0B8280
BF3E83D3
BCD22425
BE697C3D
BEA320DA
BDC9E5E2
BF937ACC
3EA10D17
3E909AAA
BC2D538B
3DE3DDDB
3DB97DD0
BE6E8FB0
3CD3910C
BE49BCBA
BDCDDCE8
3CFFCDAB
BF31F538
3E489A89
BEA7F36B
BEABAE68
BE66B096
BF2414C6
3E13A42F
3D6C59FB
3EA6696A
3E477532
BE8445AA
BE652935
BE22FFD2
BD38B9BB
3DDEAB36
BE4D249E
3DE1AC58
BE91E258

