3E44C448
3DA74214
3EA04620
BDDE785B
3E1DA33C
BE2908E6
BE4B1359
3E035A86
BE7FA9C1
3E5F0308
3DD354C1
3D64C836
3C32788E
BE845D64
BDFADFB5
3D34F50A
3E61CDE6
BE331DB4
3E9F1DC5
3E76C333
BE8CB1AB
BF232485
3E104103
3DABA062
BBD7D7C3
3DEC8F75
BE939CB7
BE4CE0B9
3E6E3583
BE13AC4F
BBA1511E
3E6DB61C
BDE62132
BE7AA64C
3DA3CA75
3D7F5515
BE501B43
3E3EAD4F
BC61E2DF
BEBCEB79
3CC15F46
BCD0763A
3D9D2FA1
BD883D36
3D1FDCDF
3D7F21B4
3ED11D7A
3E3007DD

