3E19D12D
BCC21188
BE619696
BF73D3F6
BE4B95E6
3E7640A7
3DCCD0FF
3DA436FC
3CBB2570
BBAF78FF
3E8235D6
BD83D5FE
BDD7F6B2
3D5702E6
3E8123E6
3E953719
3EA6045C
3C8DC11E
BE866CF4
BE538C11
3EF864AA
3E5A083A
3E9211CB
BDD9BA1B
BD753E70
BCF9B34A
BDA2E1AC
BF4A68A1
BE207853
BCA12945
BED51B71
3DF08C3F
3DF6E697
3E0CDA6E
BDED727A
BE9A82C7
3D895B79
BEE2BD3C
3D7D72BD
3DEC258D
BE509678
3E3558EA
BDFE3C10
BEE6CC81
BE7EE957
BD5E13B2
BA807358
BF15653D

