BD711B61
3D097204
BD5FE868
BEA5F02C
BC813448
BDB4317B
BE3A1A50
3DC37E6F
BDED5AE2
BD8CAEEA
3E8452E7
BC2F4F0E
3D27CD03
BD2F89C6
3DC2BF12
BE031056
BE24D728
BE77B289
BDE10ADD
3D987F88
BD88F96E
BEAC0FED
BE69984A
3CA43DCD
3EB52BB2
3C82C2BD
3E631A8F
BD71FBC6
BD99AB6D
BE904988
BD85AA2E
BD12D128
3CC2784B
3E8DE02F
BECD3AE7
3D6BAF10
3D13D534
BDADA4CF
3E5E3C53
BD298BB5
3E4ABFFD
3D3910C3
BD2E568A
3DF13DFB
BE88A611
BDF18EB9
BD0DE6DE
3E85F71F

