023
1FA
1C7
1FC
023
013
1D7
1FF
024
1D0
00A
01F
043
1E9
1BD
1F6
019
1F0
01B
1EB
1FA
1BC
1FC
1F6
031
00F
03C
1C1
00E
00B
012
020
003
02D
037
1A4
008
00F
007
1AA
1F8
02F
01B
03B
1F9
086
048
1F2
014
057
026
007
1FF
039
1CC
16A
1F6
019
010
023
022
1DC
046
02B
1E6
1E4
016
1C9
008
03A
022
1FD
031
1DE
1EE
00A
021
1EF
018
1C7
002
1C8
1C1
024
1FC
1E2
1DE
001
037
02F
1FB
029
02B
022
1E7
023
033
029
042
010
1BC
007
1E5
022
1CD
1F1
1D3
1DA
1FE
01E
021
1BB
1E6
00B
01A
1CA
1D9
00D
1F9
1F6
1CE
088
1DC
1F7
010
1F2
013
033
1F9
180
1BA
039
014
023
17E
1B6
1C9
04F
1FE
006
1D5
052
1E2
1C6
194
1AB
1EA
1FB
06E
1EA
025
00D
02E
045
1D9
1ED
02D
047
009
020
1EE
050
021
028
1FA
058
018
044
1F2
07A
02D
002
1F4
03A
1DF
176
00D
04A
042
004
1ED
033
00A
027
1F0
052
01E
04B
15E
1C8
1F6
195
055
040
12F
1F0
02B
00A
08F
024
059
1DE
1F7
1F2
157
1BB
025
180
007
191
00A
04B
1F8
1E5
1EF
1BF
1FA
1C5
1E9
028
1C5
032
023
083
16F
1FF
010
066
1D9
081
04E
1D2
18A
023
176
1E2
024
1A7
063
1FE
1B6
08C
056
019
00E
065
05A
05F
035
031
1C1
054
1F7
052
183
1FF
1D0
1F0
1D1
014
1E2
1F8
1EA
1AD
1C1
1DC
054
1C4
063
1DB
03C
03B
1DE
057
1EB
173
1C7
1D8
1C6
1CC
1FB
067
1FC
1EF
185
003
09A
04F
023
1FF
00D
1BD
1FF
1D9
03A
051
071
04C
1CE
17F
1BB
1CA
1E0
003
00F
1FE
1C6
00A
1B9
005
004
066
1BA
024
1FF
1CD
1FC
1CE
1D0
1DB
002
006
040
1CD
1EC
054
1C1
042
1E5
058
09F
00E
006
028
1DD
1D2
007
037
014
1B9
1FE
032
00D
042
028
093
00E
1EE
1ED
042
1DB
00D
02C
1E6
1FE
1B0
02A
051
012
007
1C4
1DA
00F
023
1E0
063
1B9
039
016
056
03B
1ED
1C5
021
1DC
001
1E6
025
1F1
18F
1E4
1E2
017
04E
01C
020
04E
1D5
1F4
1F3
1F1
1F8
1F1
008
017
1E4
026
014
00F
1B8
1C1
1E8
1E7
1F5
038
020
1F9
1D9
036
01A
1DE
021
01A
035
1ED
1E3
01C
1D6
032
1E7
030
1D6
1EC
1D4
1C6
1F0
188
012
1F8
060
03B
189
1C9
000
1E5
1D5
1CD
015
079
1D5
1F9
1F0
1E5
088
1BF
048
1D2
197
04B
1DC
1FC
1E1
031
00D
014
023
026
1F6
1DC
1F2
1FF
02E
1F9
1E0
1EF
011
036
1DA
1CC
1D7
1C6
1BD
1FA
043
003
1C4
01E
1D7
00F
027
00D
005
1E4
022
037
038
1AA
04A
1D5
02A
01F
04D
181
002
01E
1E9
1F9
18B
067
00C
1CF
040
01E
021
190
1C1
1D1
03C
090
052
066
04C
1FC
01E
1A3
06D
066
014
023
1A5
004
02D
01F
01A
008
076
1DF
1EF
00A
1F9
1FF
044
054
003
1CC
193
01A
05B
00C
019
1EC
1EB
05A
1BF
17A
059
02F
00C
006
1E6
1DE
1EB
008
1FE
1EF
012
00A
050
030
1F6
076
079
044
02E
04C
022
1E6
02F
001
1E6
021
1CC
1E8
037
16D
044
1A2
06F
019
1D2
1F9
1EC
1A5
1D8
025
041
001
05D
1F8
1F4
1C9
016
1F3
044
03F
05A
040
1FE
1FC
024
006
087
006
03B
000
032
1F9
054
034
011
01B
1F9
005
023
1A4
048
1DE
1F1
053
01A
1F1
05A
1F5
1C0
1E8
1BD
008
1EC
033
049
1C7
1CC
1E2
035
172
01B
1AE
1D9
1DD
1DF
040
001
1A7
03A
1D3
03B
1F7
1C2
1E0
199
00E
087
04A
1E9
02A
004
03F
046
181
035
043
1F5
1F2
044
1C2
002
1B6
1F9
005
1DC
1FA
1DE
00C
1C1
1B3
022
024
1C0
01A
01F
009
1EA
1EF
045
030
1C7
018
1D1
1DC
1E1
1B3
013
1E5
1C5
038
1DB
00D
061
1C7
037
1EB
025
00F
1FE
025
00A
03B
1EB
1D0
010
00B
017
03C
1E7
1A3
019
1BB
00D
03B
1F8
026
044
1F7
081
031
13C
1B6
1C5
1EB
001
1FD
08E
00A
010
02F
006
05B
00B
02B
051
1F9
1EB
010
1D8
028
075
079
010
1FA
19D
1F0
055
01B
071
015
1B5
1F0
1FC
1FF
023
023
06D
00A
06B
1F4
1EC
093
021
19F
05F
037
1A5
1C6
009
01B
045
05A
037
1F7
031
080
048
05C
1F0
1DD
1B2
029
1EB
1F1
1AD
096
1FA
028
050
1E9
063
049
194
026
1DB
02C
1C4
036
1D5
01B
1E2
015
1CF
1ED
19F
008
1AB
045
1F5
1E5
012
001
1D5
014
18D
1E1
1DD
044
1EE
057
011
082
04F
1D4
03F
038
1EB
02A
00F
038
027
053
06C
1D9
1A4
1EC
1F7
012
1C3
1FD
039
194
038
1FB
024
05A
00D
1C8
01C
1F2
1D1
026
169
010
1F0
001
00A
087
1DA
058
07D
01A
1E6
032
1E2
042
03D
00F
18D
035
051
046
1CA
012
020
054
050
00E
024
018
1BF
027
018
1E2
039
06A
1F7
038
010
010
05B
1C6
01E
074
00F
022
01D
02E
1CE
022
1D6
1D0
1BD
02B
1E2
1FC
033
1F7
1F5
03C
1C4
1CA
1F9
1BD
1C1
1EF
1C3
035
004
030
00D
015
008
1FF
1E5
01A
004
1EB
02B
1EB
1F0
1DF
005
01D
062
1F8
00D
1D9
014
016
014
05E
04F
1E0
029
1E4
02B
1CE
033
180
1BC
1EA
1F8
05E
068
010
154
1F9
008
1E2
004
1E6
032
056
00E
00B
1C2
1DC
1C6
016
04D
07B
1EF
1F1
01A
024
007
039
026
1ED
024
1F5
069
018
03E
01B
05F
1E1
032
1BD
01C
033
1AD
00C
187
1F4
1B9
074
1FB
1CE
1E8
03D
086
04D
00B
048
1E8
1C1
1F4
1BF
1E0
059
03D
001
011
187
1F4
044
1FE
1A9
069
1DD
08A
1F4
001
1FC
1DE
013
044
1C5
017
1FC
036
04C
1E6
036
000
1E5
001
02C
021
006
001
1FC
026
082
036
1E1
026
006
16E
1A9
042
009
008
00C
021
1F5
026
191
05A
1F3
1F5
023
026
16C
06F
1D0
1C8
1B3
177
002
004
025
028
017
1E2
1F3
080
1A4
1D3
16B
02B
1FA
00E
1F4
1DA
1CF
00C
1F5
053
02E
1E1
006
1DD
1CF
038
022
19C
049
020
058
037
1CD
006
044
1E1
040
1E8
1D0
01E
039
005
1ED
042
1C4
1F4
1F3
1F2
1F4
032
005
036
03E
1F3
1CB
1DD
036
03C
1FE
1CA
1C1
031
1EA
011
03A
1D9
039
1E2
04D
049
1FB
043
013
021
122
023
1AD
1F5
17E
03E
1E5
1E7
1F3
03A
020
1F0
05C
040
03E
057
1C1
1FB
055
022
035
051
1A6
06F
1A2
062
013
069
024
012
1D9
039
1A4
1E5
1EF
022
1DF
03B
1FA
01E
1D7
020
1E7
1D4
1A0
1A5
018
020
002
1F3
1CD
02A
1F7
029
02A
1CC
00F
1DB
1C1
004
1D6
00E
007
06B
18C
17D
05D
02F
1CD
023
07D
1ED
1F3
1DB
02A
050
1E5
075
095
014
1F9
012
06A
14C
185
040
012
1EA
002
03C
009
001
035
1D9
1FF
1FA
00B
03B
1F4
1ED
02A
1E5
05D
04F
055
033
067
026
002
1C6
009
04B
027
02C
1B6
032
1BD
1C0
1ED
1C6
068
1EE
033
05E
1E1
089
1EF
1B3
041
177
1BB
058
0C1
1D9
088
035
1DC
1BE
1A7
1B6
015
175
01D
013
1CF
00A
013
1C4
03E
1EB
1F6
034
012
1DB
1F7
03B
056
060
1E5
013
04F
1D5
1F3
04C
051
061
004
041
005
1E3
027
06A
05A
1FB
1FC
016
04D
1B9
187
00F
1D9
005
023
049
188
1DF
01B
044
068
025
1E0
031
1CC
1FB
1D5
1DE
037
16E
03B
178
018
054
02E
022
1B2
01E
016
1DA
1FD
1DD
1CD
004
04B
19D
03C
01F
1F8
1DC
03E
1F2
030
019
085
00C
070
036
009
00B
1D7
1C2
1CF
029
010
189
012
06D
01F
089
024
1F7
034
1CD
025
009
011
1D8
1FE
031
1D7
009
038
1D5
02D
048
164
1E7
019
1FF
04E
1E4
06B
008
008
016
1DA
010
1E4
007
1F6
013
012
001
01B
1F1
023
06F
1EB
16F
062
1F7
007
02E
06A
054
050
011
1EC
002
000
035
1B9
1DF
007
1E8
19B
01B
036
01F
1D3
010
1F2
025
16E
1EC
00F
060
1C7
198
1DF
023
1EA
053
007
004
0B2
1F6
1E1
035
1A0
1F5
05E
06C
007
1F9
054
059
1D4
1EC
019
06C
06C
1F0
009
026
014
1CA
00B
1D9
052
1E3
1BC
04C
045
1D9
001
029
037
19A
016
00C

