3D3E7B79
BEAA0E01
3E011583
BCC05916
BE90FE9A
3E5CCDA3
BE62E0BF
3D500041
BDCF7BC3
3D2E34AC
BE8E64B3
BD88F62C
BE20482A
BD225D8D
3E9CEE56
3E59C8C9
3E528724
BDC70A31
3C5DA5D4
BD4C6E5A
BE06462B
3D0A8027
3E312061
3C5E409E
BDB9A5ED
BD80D0FF
BE12D3F5
3DE85903
BEA0BE59
3E9FF22D
3DAFD32B
3E121655
3EAD4492
3E21D13B
BE0317E6
BDD82236
3DF01EE0
3C8845D4
3EAFD18C
3EC78339
3E34996C
3DE020FD
BE93243C
BE548CAD
3E38B569
3D94F768
BE0C4B5D
3DB4F28E
BDC0DC22
BE12CAA5
BCA1C0D5
3D9FFBE4
3DA5658A
3E84DB44
3EA75D8A
BEB18A59
BEA2F490
BDEE376D
3E03F52B
3E6E71C6
3E56F52F
BC3C2172
3D83E317
BE59FA97
3D0B3A83
BED796D4
3F0D1FAA
3D9DE021
3E5EF0D8
3E602C65
3E62B52D
BDBD352E
BDC24CB0
3DED51F1
BD4F4CBE
3DE83155
BE5ED1EE
3D456F9B
3EAD866C
BE73F83D
BE673578
BEEC6733
BD79EFDD
BDED6A28
3E888483
BEBB8CA6
3E027A57
BEB6D8A3
BE907FB2
BC6E892A
BEAF8AE8
3C8B8F4A
BE071375
3E151FE9
BCDC51ED
BDC9BF02
BE69116E
3DD572D3
3E08515B
BEB15E2A
3E47307E
BB2976AE
3DB89C47
BEFA16C4
BEACA055
3E8FD785
BE86CC17
3E3F11D8
3F0A14C4
3C53EDC9
BE6F6672
BEB33517
BE110C36
BD62E653
3DBFE4C3
BE3E3CBC
3C8E26AE
BB6FD777
BC6273C2
BE59461F
BE66B41E
3E9EB54F
BDF41B79
BE4D4FC0
3EAFFB46
3C9E2DAC
BE81805E
BF0857CD
BD80CA81
BD06ED52
3DDF5AC4
BEE040B4
3E3BFFBC
BEA7C912
BDFCE8F7
BECC00BB
BE9B3D13
3E318836
BDB91056
3C688A15
3D217F80
3D052353
3ED8F81E
BE96FDA9

