3D3E7B79
BEAA0E01
3E011583
BCC05916
BE90FE9A
3E5CCDA3
BE62E0BF
3D500041
BDCF7BC3
3D2E34AC
BE8E64B3
BD88F62C
BE20482A
BD225D8D
3E9CEE56
3E59C8C9
BD1C1E47
BDBECA96
3E4D8D7F
BDE130BD
BC105BC7
3E2E629C
BDB77E2E
BC89314B
3DD464BE
3E08845F
BEEAC98D
BE65E998
3E7A48A8
BE291BAA
BC42B256
BCB25922
3CC173AD
BF1D6825
3E0E4AC4
BE2FF5F7
3E229813
BDAB4519
BE5ED76D
BD86442A
3DEB5A22
3ED213D7
BF168F55
BDD49D45
3E8A690F
3C4ED697
BD20B208
3E2D664B
BDB40D77
BED0D50B
BCFC0A9C
BE1BAA50
3DE490AC
BCED1584
BE700566
3DCCE77C
BDFF17F4
3E9D254F
BEE43075
BE7A23C6
BB6051E0
3C9B98A8
3E06FF3C
BE5D9171
BE02A563
3D40C6DF
3D626BB7
BD196CBA
BD9B9E64
3D105964
BDF85281
3E508BBB
3E7AC596
BE3CF564
BD4EE05C
BDE2CF70
3EC16010
3E6989FE
BE3EFE7E
BDF61BFE
3E905586
3D3CAC01
BD8F6ADC
3CDC2BF7
BD4D0B7D
3E0E27BA
3F0AEBD5
BE3735AD
BEE69312
BE3571C2
BE202C9E
3EBB1F7C
BE8C840C
BE8413B0
BE56258C
BE8AACD2
3E528724
BDC70A31
3C5DA5D4
BD4C6E5A
BE06462B
3D0A8027
3E312061
3C5E409E
BDB9A5ED
BD80D0FF
BE12D3F5
3DE85903
BEA0BE59
3E9FF22D
3DAFD32B
3E121655
BDE65AA9
BD4FECA7
BD502D8E
3E2145D4
3E00B8F2
3D720F5B
BE14D056
3DE723AA
BD977530
BDE17E69
BE2BF8D9
BEEC0741
BD5F9D42
3C90A7E1
3EADD415
3DCB3707
BDEEEEF3
BE03CCD1
3C995F49
3DB60677
3D4A5D82
3E030DDD
BDB468FB
3D29C5BA
3E814239
BD47EA1E
BE254E3C
BED6D7BC
3D31E2A3
BE174D64
3BA25C22
3E3524BD
3D2CEF63
BD6072AB
BC23CCF3
BD81BD92
3DC65066
3C6A1079
3DE3E10B
BE0D4BE7
BCDA784B
3CD84EC0
BC3A801F
BEB2A5EC
BA8582AA
BD374E76
3DD7C3A0
BD81FE15
3D6E98C2
3DCE719C
BDAAB152
BCDBF4B9
BE25EDB5
BECD2549
3B2D6943
3DB54DCA
3E373FF9
BE796D2C
3EA967F1
3DB4A75C
3F0E2A7C
BEFA8379
BD373630
BE42EA4C
BE430211
3DDD944C
3CB58725
BE92C42D
BCADF2D4
BE8CB3D2
BD621A6B
BC8C9EA3
BD16673A
BE50A7C0
3EDE65C2
3E85507A
BE5C6526
BF103AFA
BE006781
BDC97343
3EAD4492
3E21D13B
BE0317E6
BDD82236
3DF01EE0
3C8845D4
3EAFD18C
3EC78339
3E34996C
3DE020FD
BE93243C
BE548CAD
3E38B569
3D94F768
BE0C4B5D
3DB4F28E
BD24D210
3DB00DA5
3E19B014
3DE341B9
3D501B10
3E652F05
3E1E6C9A
3D8DCC74
BC55A301
BEBF405E
BD9AA6CB
BEA20ADA
BDCB81B8
3DE10B21
BDEE8EAB
BD339848
3D13D152
3E26FA8B
3E441C9C
BC80959E
3CD4EB61
3E4A7565
3D8988E7
BE3D59D6
BBB73599
BEB76BEC
3D76CA8A
BF0D8148
3DF9426B
3E8AB36F
3CB33574
3B48C01B
BBF1A01F
3EA873B6
3B0A3A65
3D6BFED0
3E149057
3D955564
BE0005DB
BD4E29FE
BDBB65D4
BEB65DBB
BE7029DB
BE9AD63D
BE009810
3E180C57
BD354DAC
BE5F30AC
BE21D7AC
BF260823
3E7C733C
3CCD43C4
BE890244
BE1CCBD3
BECAF164
BC2F2060
BDE8E18A
BEC25B0D
BDE51B7B
3EDBCF36
3E0F3480
BDE84134
BDBBFA71
BC7A185A
BDC643D3
3EA0C7DB
BED9DA97
BF5646C0
BEC50012
BE9A07B1
BD8F9C1D
BEB5466D
3E7D62A8
BEC68E24
3E841636
3E42710C
3CAD2BD2
BEE30ECF
BC54E154
BE3DF64B
BDC0DC22
BE12CAA5
BCA1C0D5
3D9FFBE4
3DA5658A
3E84DB44
3EA75D8A
BEB18A59
BEA2F490
BDEE376D
3E03F52B
3E6E71C6
3E56F52F
BC3C2172
3D83E317
BE59FA97
3DE8568D
BE6E3D3D
BE3D3FA6
3DA49D12
3D970A94
BC618ACB
3E7B5FBA
3D1E02AE
3D96BB54
3DB912B7
3D0429DE
3DA3BD50
3D1E49FE
BE500CBF
3E4FC284
BCF33CC8
BC141F20
BE3CF9EB
3D842712
3DE92E7A
3E11F696
BE1CE0C8
3D5F3CFF
BC0AF57F
BDC361F2
3E1FCECC
BDDDFF39
BE9A1E64
BE4A7C5F
3DBB999A
3DC4AF72
3DC3E439
BDBAAD8B
3CA767BC
BDC3ADAF
3DE54872
3C291B6D
BE0FC50A
BDAB20ED
3E11039C
3DA4A5DE
3B1D7518
3D94E018
BE5AC3CA
3E1B2844
BDB85B8C
BDB34DDD
BCF0498D
3E34DD86
3E9D9A05
3A828169
3E437492
3E3F4B9A
BE3A3ABA
BE3DCDAF
BE146025
BDBA10C2
BE8F6CE7
3D50A285
BEC7C214
BE281817
3DF90122
3D61ACE8
3E106D88
BD1BD486
BD24BF58
3E944E04
BE6C0324
BDFBBBA9
3D6C57CA
BD52E0F0
3E86AB8C
BD8619EC
3C83E9A7
BCBDC36F
BF09E80D
BEE6D735
BE0FE66C
BE809F38
BD09E381
3D0B3A83
BED796D4
3F0D1FAA
3D9DE021
3E5EF0D8
3E602C65
3E62B52D
BDBD352E
BDC24CB0
3DED51F1
BD4F4CBE
3DE83155
BE5ED1EE
3D456F9B
3EAD866C
BE73F83D
BD717033
BC6DF7ED
3DDFB388
BDB6056C
3CA16AD5
BBE99B01
3E54B091
3E4D35DF
3DFE8A1E
BE86A358
BC9028F9
3C6B0F1A
3D18472F
BC469812
3E4E362E
3CF74702
3E0A2B83
BDDE209F
BE36FC19
3D27AE07
BE487549
3E6A582C
3E35E2C0
BD821D63
3D4AC20A
3BFC668A
BE49FA3F
3D763DD6
3DBD4E11
3D24AC45
3E11395A
BE0DB9A3
BE0CB082
BE219069
BE0F6D1E
3E03D1FB
BE031B9B
3D2E4AAD
3DFC415C
3E650350
3DCB6327
BD83D575
3C7A0D73
3DBC89CB
3CCD75B0
3DD0CCAE
3E53597F
3DF20BC2
BD49B77A
3ECCBC36
BCC6F704
BEAAA427
BEBFF967
BE06AFA0
BF11BAEB
3E89C83A
3EC2D64F
BE865009
3DB4BC09
BD52F54F
3E848F2E
BF1ECF5F
BE271F8B
3E978190
3EA81C72
BE13D870
BEED2A2B
BEADD66A
BDBFF7F7
BF10C93E
BCD62E8D
3D5C17D3
BEA4C4C9
BE089A9D
BEA4C2F2
3E995AEC
BF2FDC57
BF2C08C1
BC4E8E35
BE0C9C48
BE673578
BEEC6733
BD79EFDD
BDED6A28
3E888483
BEBB8CA6
3E027A57
BEB6D8A3
BE907FB2
BC6E892A
BEAF8AE8
3C8B8F4A
BE071375
3E151FE9
BCDC51ED
BDC9BF02
BE28EFDB
BDBF246B
3E2AF239
3E1D18C5
3E9E0480
3D722E03
3D1E3ACD
3DCB2A83
BD570938
3CB0AB65
BDAB5D10
3DFA8475
BE1A6E1A
3E5C2C0D
BECC33ED
3DB91C39
3C6DABA9
BE7D58D7
3EC82B3F
3DD8D941
3DF4FEA7
3E4F18FB
BCA31E0C
3E8B5AD6
BBEEC994
BD844ED1
BE88F641
BCFB651C
3DDFE88B
3E8855A5
BDDECB65
BCEF4C03
3D307048
BD84D7BB
BE424C67
3C870C2C
3C14B842
BCF57551
BDDBE508
3DB06F43
BD4B59B9
3E451F2A
3E06D198
3E435805
BE9F7772
BD354CAF
BEA510E7
3E466490
BD8E95B3
3EB9BFCF
BE21E688
BE85A0A6
BF149E42
3EC0B9D0
BF0E9520
BE8F60AE
3EE707BF
BED13967
3EC48334
3DA8B681
3DDB2D7D
BD3FFBB0
BE804724
3E1A1D2F
3F0D6FB6
3D367782
BE91A671
3D59426E
BF004C1C
BECDA789
BDF8AA2B
3E82C5AC
BCDE31E7
BE8B67DA
BCD6A1A3
3E5E7417
BE454195
BF2267F7
BEA63B96
BE57817A
BE69116E
3DD572D3
3E08515B
BEB15E2A
3E47307E
BB2976AE
3DB89C47
BEFA16C4
BEACA055
3E8FD785
BE86CC17
3E3F11D8
3F0A14C4
3C53EDC9
BE6F6672
BEB33517
BE26ABDB
BDC9A2CE
BC184227
3D8ED8FB
BEBD7E47
BEA69516
3D96C8FD
BE7484FC
BD8E3CD5
BE382514
3D71AE7B
BE0BE4C6
3CECD0C1
BDD3F02A
3D61131E
3D0B301A
3D267CFA
3E5FB114
3E3ED452
BD5DB35A
BE58D3D0
BEDADF4A
3E8275B2
BEB37E43
BE80784F
BDD40DE4
3E408FBD
BDDF7D8B
BE4395EB
BE15CCB9
3E5828EC
BE57A49F
3D7B1588
3E5213BC
BD2168D6
3D0EA69D
BE89042A
BECB4B0F
3E17C39B
BEBF7C76
BE472DD1
BE3E0228
3D8A84CE
BCF13138
BD442FE3
BDEE58B9
BCE5F3B4
BEA25C84
BDD6B45E
3E0233BE
3E04055B
BE53AEE0
BF0A39E1
BEB21F04
BE47A837
3EA3BD7C
BEC61958
BE9B0FF5
3D06F159
BD51CB82
BE557EF5
3CFA4A80
BF0C3EA5
3DCDB4A8
3ECED824
BD4415C9
BDBE15A6
3F06966B
BD8947BE
3CE8B6DF
3DAF4189
3D0AB836
3E1DFB1E
3C1D61EB
3DAD3BCC
BDB8D53C
BE548385
BCE73CA4
3E25C75A
3EF4B8C0
BE110C36
BD62E653
3DBFE4C3
BE3E3CBC
3C8E26AE
BB6FD777
BC6273C2
BE59461F
BE66B41E
3E9EB54F
BDF41B79
BE4D4FC0
3EAFFB46
3C9E2DAC
BE81805E
BF0857CD
BE04B018
BE0D42E5
3E0C9B2B
BD0DDFF2
BD18020E
BC338F03
BC9EF245
BDF09564
BDE54318
3DA6ECEF
BDB2F84C
3DEAE457
3CE1319C
BD8EEB28
3C88BAB9
3C9B1631
3AF88FF1
3BA655CE
3C8C1D98
3D2040FF
BC9000F3
BCBA1139
3D83BB16
3D9C8CBC
3DCC8DB5
BD06202D
3DA5CD6A
3E212957
3E55A158
3D764A29
BE53938C
3BC58188
3D6D4830
3DD8CAC0
3DD4D8A2
3D36517C
3D81C864
3D9663E8
BE22AF05
BDBA8BCC
3D0E8550
BE0542C3
3E22D33F
3DC0B5CC
3D1DB9F8
BDF1BD4A
BE5048B7
BE2A79E3
3DB33763
3E504CDE
BE0B85F6
BF111B52
BF217886
BDCEF462
BEA68FAB
BC7510F1
3C8CB2F3
BE604F3D
3E5D49E7
3DA2D368
BE82CA2C
BF085390
BF2F28D9
3EF544AA
3C0A63E8
BE3C394A
3CBF3BA0
3E292621
BEF7F217
BE628954
BDBEA730
3EA43230
3E274083
BEE19A05
BE2B48E0
3E93A22E
BE921820
BF0D9481
BD3BFE3F
3EDDF7E1
BD80CA81
BD06ED52
3DDF5AC4
BEE040B4
3E3BFFBC
BEA7C912
BDFCE8F7
BECC00BB
BE9B3D13
3E318836
BDB91056
3C688A15
3D217F80
3D052353
3ED8F81E
BE96FDA9
BDC5F94F
BDDB555A
BE4C5333
3D4FE5D5
3E273B55
BBA7C33C
BC8A759C
BED490DC
3E08B458
3E589DF1
3DD1D956
3E0AAA06
BD50CDC3
3D06CE64
BD8D7FEB
3E2EF295
3C6EB3BF
BC9711C8
3DB7836B
3E063562
3C38DF68
3E51DA6A
BCC406D8
BDA5FC7E
3DC818B3
3E8422EA
3E06D07F
3E25FF3A
BDA5C76A
3D598029
BEBD10B4
3D022B38
3D78C40D
3E2CAA25
BD9E5EB1
BDF64F06
3D58DD28
BD0A4DFF
3DB10B7A
BEAB4C93
3E4B8554
BDB34043
3E8864BE
BD15C2AD
BE945B1D
3E0737B1
BA26A2DA
BE012F55
3F2346AC
3ED94397
BE744DB5
BF2188EA
BEC48E5B
3EE4713F
3E969025
BEC941FC
3F16CF9C
BE402ECA
3E3D0A85
BE498576
BD24C88B
3E3C0EFF
BE66FA19
3E23912D
BEAA6773
BE8662F9
BED9CD59
BD7994A2
BEE5E543
BE8E4AB8
3D9CF7A4
3E7EAA8F
BE7E034E
BE2A0D14
3C6CA768
3E79ABE4
BE892BC3
BF026B76
BE60DF2A
3F351C55

