36A0
0A2B
3C35
3BEF
38A1
348E
3AE5
0053
2FC3
37C6
3886
0563
01AC
3C66
033C
3C69
03C7
3A11
3073
0B77
043E
3BB1
355D
3FFD
3988
3540
0130
33F0
062E
39F8
3CDE
0A13
3A4A
3EE8
3505
0B16
0AA5
3A47
0E8D
3799
3419
2669
0CDC
3564
03EA
3A10
32B1
111B
30E9
17EF

