1F3F6
0120D
011EA
1F5BD
1D90C
1FE28
01BD7
00344
0069B
1FA7B
1B0B1
1FB70
1FDE8
00827
1EF14
008E2
002E0
1FF61
01B97
1F9F9
1E37C
1DC43
01B7A
1E2CD
1F71D
1FBBF
1B980
1FF01
000CB
1DC75
1E942
1DEC1
0049D
02ABC
1F22F
1EC3E
1DAA9
016BA
1EACC
1E642
00DDA
016E4
1EE3F
031CC
00974
00DDF
1F923
001CF
1EB6F
00E82
1E9C2
02E98
1F5A2
1FBA7
1CD19
037B6
1EE84
1BBEF
1F4A7
1E3E7
1B1EE
00E97
1F72C
1E5D1
02C47
00410
015B8
02D71
01A5C
01F6B
00229
1C98A
1E9CD
1F758
1EF30
1ED43
1E8FC
03533
1D699
1D965
1EEE3
04104
019BC
03395
1FCF8
1DFF0
0003C
0083E
1F4FC
02316
1CF45
01686
01392
06567
1D97D
1F63B
1F962
1E449
1E62A
1AC6D
1EF93
1DA56
1ECB3
1E28E
1D848
1ED67
1DAFF
1F8B2
1F197
017C1
01B9D
009E0
024DD
0198B
1DBF2
1FA88
1E8AE
1E07A
008F3
01717
1F67D
1F90A
1F2DC
1EBEF
005B1
1EED2
1F3F8
1FCC9
02839
1D72D
1F042
1FF96
017AE
1E90E
01698
00BB9
01229
1E6CD
1F527
011EF
1FDFA
01DA4
0174B
00888
1E207
01E6B
1D8AF
1FAE9
00514
1E849
00463
1C743
007D3
007A2
006BE
1DEEA
1CDE1
1AA03
002DC
1DD46
1FB4C
03414
02EA7
0120B
00FEB
1F409
1F5FE
02DC6
000FD
00D45
0264C
1FD33
00799
1F545
1F8C1
1EBC2
00710
1FF42
1E194
1D402
1FF61
01471
1EECD
1F615
03B81
1D39B
1BB91
002E2
1FE23
02079
1A932
1EDDE
01476
1F5B8
1EFE4
021FC
1F0F2
1CE82
1FB11
1FEBD
0029C
053F9
1ED20
001ED
0403F
0438E
01E71
04714
1F0B1
0245F
1D9EF
03A3D
01A11
00366
00092
00D21
025E1
000D4
1E17D
1F7DF
1FA93
1D6EC
000E7
01E5F
039A7
02AB6
1A932
1FB5B
007A9
1CC16
006BF
00447
00FDE
00B44
0308C
01BF7
016A4
00725
0116C
009B0
1CF13
1CABC
1E754
1FD5F
01B6A
1C252
1F903
01A5F
00217
1DDEC
1DB25
00291
1F916
00FFB
1F5D8
1EBE2
1F05B
1E0F9
00BF0
1DB43
1EF54
02128
1F5C6
1E578
00D28
1F138
016D9
1F627
1BFC6
0115A
018CE
1EC4C
1DD74
1EDBD
017C2
1F8D4
01154
1EAF1
1F6D8
00FA0
1FA69
01097
1E8C1
1E867
00EE6
01D4C
00AB2
0154D
0124B
01694
1C859
1D93E
01573
1E4EA
00FBD
1CC37
1C42E
0013C
01447
02930
1E675
0239D
1E410
1F7B9
00920
032E8
00B30
00CF8
00D2E
0070D
1E4ED
1FF57
026D9
01360
1F735
0108C
1F0A0
1F153
1F3F2
1F39F
1D073
1E360
0015F
1F983
000A4
1E56D
1DA23
1F650
1ED97
1F105
1E805
02FC0
01D99
01813
1E7AD
1F8CE
1F9EB
0109D
00DA3
02199
1EFB6
1F5A4
1DE88
00F25
01046
004F1
007F0
00AE8
1E871
1F66C
00496
04035
0154D
01ED8
1E13C
057B2
04001
00554
1CB8D
1E62B
1D0C0
04A13
02C75
1F3F6
00786
00F5B
009FC
1DC04
004CB
02845
1E665
1F0E2
012CF
00654
1DD2E
1E725
1E09C
01573
00BD7
1E54B
1E938
04E93
1F637
016B8
011B6
1FACE
01626
1FDB3
00CFC
031E5
1F79F
1C188
007D5
00F8D
1EC38
1D820
1E28C
02B0F
0169C
1ACD3
006A9
1F09D
1EF02
00300
01076
1FDD0
020A9
1ED80
1F84B
1EFCD
0013C
1FE57
1E7B7
1E3B8
012F6
1DCE6
00F7A
1E9A5
1EC7C
00CBE
01FFC
01D1F
0014D
014AB
1FD8C
1FACF
02086
1EEB3
00459
00095
1FF5E
1FB3C
011FC
00665
0068F
1F7C1
1FBFE
002D5
024F0
1F039
1DAAB
1E0BE
02789
1F04E
018CE
0085B
1E9C9
01966
1F4CD
014A2
1E900
00FE8
0075A
1E58E
1ED9C
041F1
1E3B3
1EBC2
1FC59
0175E
1BC49
02D02
1D9B6
0109B
1E024
01015
1C465
1FCC1
1DDFD
00148
1ED83
1CADC
1E4DE
1E07E
1FE77
019C0
1CDF7
0112E
00088
0160A
012C2
025BF
004ED
03E7F
1F908
012B3
1D53C
00C75
1DAE0
03388
1E7C8
006EB
01CCD
00CEE
0227C
1EC08
022B7
1E247
1CC37
010FB
1FEA7
1F5F8
1E6EB
1E79A
1FADA
1E13E
00FC0
1F29D
00657
1E147
00C2E
027DD
0402E
014A6
1DC1A
1E3C5
01452
00A73
1F575
021E4
0321B
0023C
1EAED
003C9
00ADB
1EC40
01201
1F746
01630
007E0
1F822
0006D
1D3B4
1FA3D
0388F
0133E
01340
01098
01204
00DB7
1E8B7
005A0
00B66
1EE29
02C65
02253
1DBC7
04668
1DF3B
05BC3
00292
0348F
1FAEB
0023A
1EC1B
03635
1D5DD
1E89D
017D1
007C4
1E725
011AE
1F826
00A3C
00404
1FCF9
01C3C
01338
00F81
1F7DF
01E75
1E5A8
00839
1F74F
01DF8
1F169
1D406
0296B
010A4
1E753
00AE2
049A7
00330
1F873
1DB46
1FBA1
1FC87
00AE2
1E104
02AEF
1F7F4
1FBE8
1FE77
03654
1E621
1ECD6
1F552
1F281
1D460
1E565
00997
01436
1EDC7
1E4DA
1FD8C
1E812
1DF94
1E8CC
1FEE9
007F5
1F247
00A34
0335C
019E0
00819
1FC9E
011FD
00C15
0093E
011FF
00906
0031F
0090F
01152
1F470
004DA
1E64F
017A2
1F7BF
1EBAB
0063F
0189F
014D1
1E664
1DE72
01136
00213
0098E
1ECB9
0126F
01811
1F611
004EB
1D55C
1EB58
1E68C
01E01
1FA7B
1E8F3
00287
1F4E6
1E79A
1E79E
00C1B
1E9AF
00CD3
1C0D4
1FDD3
00033
01094
1FF81
1E0D8
032A2
00E81
1E831
1E23A
00A93
1F619
00D12
04827
1D0EC
02A76
00BD3
006DF
1D9CB
0158E
1C952
02015
0069C
1EF31
1FA56
1F3A8
0179E
1F6E1
1FDCA
1F52C
006E1
1FE2E
003A8
1F96B
01315
1F3C2
023A9
1F6CD
1C9E2
1FCBA
1EED8
1F971
02211
00162
00E72
1EE40
1FCDB
0083A
02502
1DD5D
1EFE3
1E8E8
0264F
00508
0019D
0133A
001B7
1E4F3
1EC4C
00802
00182
1F230
1C50B
1CA63
03877
1DE72
00DBE
1E64B
026DE
01D75
00578
1E422
01F2F
1F0EE
1E60F
1F82F
1CE89
1E7EC
1F4A1
01A58
1E533
1E77C
00E59
0066B
1FC52
1DBD4
0020C
1DA0D
01116
1F249
1E6BE
004AC
1ED86
013E4
1E4A9
02721
1F71F
1EBAE
01FAA
00AFF
0145B
1FF3A
017FE
1EFA1
1FCF9
01F8B
1FCD4
01F01
022D2
1FD1B
00053
1D5A4
1C270
1EF80
006AC
1B0C8
1F02B
0123D
00514
007A4
1F8AA
00A09
1FC31
00FFF
0034D
019D8
00D4F
02CC7
1AA94
01130
0044D
1FF13
010B8
00A99
01237
1E70C
00D48
1D6D0
015F1
1D0EA
1FD82
1F68D
1D22C
02A40
1D330
1C7F9
1F0ED
1E5EB
1E3E6
1E6AC
1FA97
00C75
1DF56
1EEB6
1D72E
1FBDA
004FB
1E990
004C1
1E9BC
1F697
1E064
006E9
1E792
1CDDF
1F841
00339
1EF7D
1EFDC
1E7D4
1DCD6
01213
1E309
01B3F
1E4C3
1DEF1
1FE71
01D34
0012F
00814
017CA
1F6D9
00E95
1A92E
02E5F
00135
00686
01907
01230
005A2
1F2FC
00910
1E3CC
0030C
1DFA6
026A5
1EAAA
00E88
194FF
021BE
1E0FE
00168
1E212
1EA60
1D717
012FF
01618
1F27D
0034D
01B05
00C06
00629
03587
01EB6
1F495
022F2
014AE
1D7FC
1F565
1E5DB
032EB
02D6C
00A78
00475
01921
0083D
01045
0002D
1F92E
1F33D
1FBCC
1E464
01839
1E8EF
02368
1F780
0079F
03FAE
1D06C
1D68C
003B5
0415A
0077A
01865
1FB7F
1E5DC
0154D
01747
02CE6
1AD4F
02411
1CD52
0023C
01BF9
00D23
019AC
010AE
1DF8A
1DC80
00C4E
1E518
1F377
1CD64
1DFA6
014DD
02091
1EB48
1FAB6
0387F
01967
0159A
017BC
02396
1F65F
1FE1D
1D211
1EF6F
1FA95
004B6
01779
0132D
1EAC3
002D2
1FD34
025EC
00661
01CD0
1DF19
0072A
01CAA
1E7E1
1FD8E
1F353
0077D
1F8A5
1EE2E
1E1D2
004F7
01A24
1DC8B
1B6BB
1CD85
01E15
1EA6E
00BA4
1E749
1FD98
005B4
1F9A5
00456
1ED6B
1F82A
018DF
1F3C4
0248A
01834
01A26
1F0EA
1FA8F
1F632
1ED56
1D30B
003AF
1D8CA
0026C
1EF67
1CC1E
1F9D4
01B28
03D75
00244
1E3D3
01E89
00FA7
1E416
00550
009AB
1E1AF
0107F
1E390
1DC46
1F7E6
00858
01E78
00CA3
036D4
00DB9
016E7
00D71
03082
1AD8A
01C29
1E15E
00E2E
1ACA1
0317A
1DFB8
1F24C
1CE6B
1EAA9
00CC2
00D30
01C43
01996
1FB57
012B3
013B7
0103E
003E2
00D5E
1CCF1
02698
1B663
015F0
1F2B5
02F98
006F9
0214F
020FC
1FFB5
01748
1DD6F
00530
016B3
1D11A
1D64A
1A9A1
01699
1F3CC
1CAE2
1F655
00790
02828
1A9F7
1E22A
0041E
1FDF3
01224
02C03
1F815
1D761
0017A
0314A
02B61
1EDA3
05578
1F2C2
1DF2C
1E9D9
1FFDD
1FA40
03937
1C7C0
0149D
006DB
1EE5B
1FD58
1FF0E
023D3
0324E
1EEA3
1D674
1F059
00045
01094
00837
0122E
1DAC1
0065A
0065B
02508
1E8CF
01679
02E1E
1DC79
1C57D
1D60A
1CCB3
1E2A5
1FF87
1E772
1FE7E
0011C
01414
1E25A
003B8
00464
1E5C5
1F7BB
028E5
1E8EC
1FD18
01343
017C4
00A42
01677
1EFEC
1D78C
00439
01149
1E97B
0010F
1EFA9
1E83A
1F6F9
1DFFE
1F693
02B8C
00A0B
01E25
1CEC9
0048D
1ECF4
01CB3
1E45C
019C9
001CF
00F6D
1D4E1
1FAD1
1E5B7
1F305
00389
0051C
1F595
1E518
1E638
0121C
00E71
1FCB5
1E169
1E56E
1EA7C
00148
1EC9A
039F4
008D1
1F317
1EB4B
03431
1DF0E
0011B
1E307
1EDDA
1DDFB
0211B
00AAB
1F8B4
1F32C
1F0F4
1DCF8
00BA8
00180
1FD58
1DBF4
1F962
1E95A
01289
1E42F
1F1B1
1CF48
1FD30
1F983
1EB1A
017D3
019FA
01D12
1FF63
00864
1FC40
01579
1EE35
1EBE0
01ECE
00D41
01547
1B5AC
00B4F
1D614
1DF6E
01C2A
00023
0058A
1C900
1E89D
1E3C3
1EA88
1F87E
00F6A
1D72D
035A2
002C2
01924
1DDF9
1C171
01634
1F9C3
01223
1DBDC
1EFCB
1FF64
05FF5
00FA0
0139C
05AA7
00AB8
1FFA8
0028F
1F34A
1F5FC
011E9
18722
1F67A
1F31C
01786
1BCCD
1A40B
04610
02E91
1D8FC
1E3BC
01032
00493
1F051
1B8C6
005C3
01433
1AF7B
04795
00AAB
01665
1ED0A
1F964
00EE9
1FBEB
1F3A4
1F906
1E2EF
024D2
1D769
1E710
00D60
00F84
01908
1DDF8
1F98B
1EEE7
1DCF2
016F1
003B8
1FAED
1E938
1DA60
1FEF0
1E03E
1D503
012B9
1E4A7
00E89
01413
1EE17
00391
010C5
02689
01B7A
1EDF8
1F7FD
0085F
1E242
009C5
013D3
009BA
1D84D
00446
000AB
1DFD5
1EBA9
1DAFF
0243E
0125E
1E9DB
0021B
1F1D5
028F6
1F0F0
1A744
01868
00188
1FF35
1D980
1DE95
1BDD4
015EE
1CEE8
1C741
1E585
05D12
005CB
1BA2D
1DCEA
1BFF7
057F7
0756E
04059
01EB9
02A51
1F311
1C3F4
19C36
1CBA5
1D657
1D114
010A8
1B47D
014A8
1D5E2
1DA30
00BE4
093D9
1D679
1FA75
002EF
017DD
1EC97
17BC4
0894D
04C52
1D6CA
0245A
04271
1D416
00781
035A9
012F0
000D8
00D5B
1FDDD
1DF9A
1D18E
015F7
1FAFD
00A5F
1E3BF
00531
00EDD
03409
00BB0
1F846
00D48
1E98C
001EB
00332
1D5BB
026C6
008AC
024C0
1FEF8
1F063
1FC99
02226
02807
1F38D
011E2
1D254
004A7
01155
1FA03
1ECBD
1D782
1F6FC
0011B
0089E
00E2D
00434
1FDE7
1D83B
1D5D8
1F475
1CC1A
1DD9E
1FECA
1F691
02184
1FDEC
1FB32
1DEA4
1E2A6
0017E
02765
1D209
1F199
018B9
01386
02EFA
03BA7
003A9
1C6C0
1FD40
1E616
0193C
1F8C1
02FE2
1E821
1D810
019E0
1EB4E
1E31F
00DDC
0382A
03D21
1F5CB
1F668
0004F
1FD60
014FE
1DE70
1E4A0
1DC58
1E028
010EB
0037A
1DCC5
1F248
017DD
1F326
1F989
1E358
1F337
021D0
00F70
1E344
1F639
1D12C
013F1
1FE63
0334F
1F752
00859
1FCF5
02806
1FE64
1F1D4
1FA02
01329
1EA14
01372
1DEB5
00007
1D816
1FB28
1E7E8
0191C
00A8B
1E2EF
1EED2
1F906
1E91C
02565
00E5B
1FF3B
02088
1FCEC
01C1F
1FD42
1EA62
0125B
012DE
1F68B
01A32
002D4
1FCAE
01940
000B8
1FBDE
00B9D
017A6
021BD
1F905
1F045
1FF1D
1F34C
00FA2
007EA
015BA
1E16D
1E1E9
1EE27
00C6E
04121
19D83
1BE86
1FFAD
038C6
034BE
01D32
1FB47
1E2E4
00845
00897
1FFBF
00E82
1F58E
1865A
1FDCB
014AF
02612
019C1
00077
0355F
03842
1E7F3
1E33F
01417
00E9D
1F44E
1D040
1F33A
1EDD4
1C973
0166B
03AEA
0115C
1C95D
01485
02019
1E00C
1FA56
1B75F
1F353
00967
1B6FD
1CF76
1DCD8
026A7
1F6C0
01F53
1FF05
1DE42
0224E
0103D
00213
1ECF7
01EEF
016A8
018AB
00219
1D3E4
1E909
006FE
00E14
1F9FE
00961
1DBE3
1F58C
02EAC
1E17A
1DDC7
1F06F
022E0
1FAAF
1CC9F
1DB98
1EFDE
014ED
1FFFD
0043F
1E092
1DE5F
1EE24
0172F
1EEE9
1F712
1FAC6
02C36
1C8F8
1DDEC
1CCCC
1EA7C
02E08
1EBF3
002F3
1F730
1EEA0
0238C
1DB4A
00DB5
00364
1FA5B
1D18C
0330A
1F9E5
0284D
1EC11
1E964
014AF
0164C
1DCAE
1E7EC
1E985
0189E
00EB5
1E61C
00132
1D7AF
1F00E
00022
1E97D
03776
1F5A7
0282E
1F4BA
00184
1E435
01750
1EF30
01C3D
01A9A
1F699
0079A
01A3C
1F98D
1EFAA
00082
1FE5B
0189A
00932
1F31D
0090B
1E06A
1D838
1E840
004E5
1FFC6
00BE6
1EAE0
01B07
00991
1FED4
1DBFD
1FA40
1E5E8
015E1
1BE42
008F3
008BC
01323
1FE8D
1E0FD
1D75B
1F13F
1FD6A
00F18
1FEE7
1F199
1DA98
1EDB1
1E453
1F7A2
01C93
0052E
01B27
00CC5
1D715
1DD52
1E878
02EAD
001EE
1F4D2
00645
022FB
02521
1E062
1DA9D
1F045
012EB
1FD45
1FCD5
01332
00255
1E2A8
1E9FC
00F38
01D11
00C79
1FB43
1EBC5
010C1
1EB5A
02E58
1E0D4
04228
1C545
03AEA
1F6CD
00266
01BB8
1E8DB
1F4EF
1C026
013EA
1F166
03231
1D412
1E4B4
044B9
1DAC8
1E215
1FD8A
05239
02578
010C3
0018F
0118E
1E578
1E2CE
1E346
1DFB9
02F78
01B71
029EB
01387
001D2
1B9E6
0156C
1D63E
1F23F
009CA
1EE2E
02526
02C3B
1F544
00FB7
1EB31
02417
1EF9C
1D11C
007E5
001CB
03965
1C01A
01021
1C37C
05488
010E6
1EF93
1F96A
008F9
1F295
1DC3D
1EE28
1E52A
0113D
0019D
1E887
03358
0012B
1EF01
1F05D
01F63
1F6AC
01263
1D075
02851
1E0A4
0033A
1A326
1BE7C
0141E
01DDF
004AF
0145E
1EBC5
1D15C
0089F
1F156
1FECC
0235D
1C2B0
02AD8
04556
00295
1EFF8
1D184
03FFF
1F479
0439D
1FD22
1F576
1E9B6
02D4A
1AC97
030A3
1ACCF
00CE9
1E4D0
0111B
01436
1F570
1FE98
01A91
00734
1D739
1F031
00419
1E6B3
1E8F1
015D3
0193D
1F0C5
01A1E
1D765
02E1F
1DCBF
02F56
1F1D7
01952
1FAF9
1E793
006B3
02300
0105C
1EB32
01754
1FC20
02578
1F374
00447
0227D
1D936
1E386
1DD1A
1EAB4
003B0
1E747
1FF40
01388
1DFAE
1FF8C
1EE14
02AB7
013E3
1E065
1E94E
041F7
1FEB3
017BE
1CF7D
1F388
1FD69
1EBE4
1F7F1
1E517
1F0B8
0167A
1D1B4
1CC42
1E50D
0211D
1E4D8
1FE47
1C268
01FCC
1E715
1E5B2
1EF4F
0436A
017BE
00B2A
1F256
1F422
01B39
1F6D2
0000C
0365B
0219B
1E0AD
1A39C
01A95
005C9
1E2C1
1F757
1CCED
1F68E
1EFD9
1EB3C
01CA0
01169
1E7FD
006C4
00CCD
1F2F0
00F8A
1E581
1FE56
1F304
0062E
1D42D
1DBAA
1FFA8
1FF1F
1F2AF
1FBEB
01B97
0088C
1E301
1FE04
1FC88
005A1
00851
00DB6
004BC
02B85
1E2EF
01E85
1EBFD
004FD
0277D
00B85
1E5C6
1FE38
1FB39
1F304
1EB66
1EC7D
1FF76
00630
1DBB0
02A5D
1DD14
1FA9F
00F68
1EF3A
1F981
1CAC1
1E20B
0109B
01B08
008AA
1DF8C
0187E
004F2
1FFA1
1D3AE
02143
010A8
027B0
1EA12
1D947
1E2CF
0098D
001F4
1D5E7
1E842
00E57
1FAB8
1E87B
1F439
0130E
1EAC7
02C9B
1E272
02D84
1ECB4
1CBB2
00D48
00A6D
0271F
001DB
1F3DA
1EE41
00074
1F956
1F2BB
0043B
1FA10
0115A
1F52F
026ED
00189
01534
0025B
1E48D
1F873
1DEAA
1E2E8
1B73F
1FDB3
1F04A
1ECCE
1E219
02B03
1D276
0018E
1CEC7
1DBBB
02F28
031D0
1E47F
1C671
0167F
00447
051EF
01F67
07D00
016CB
02FA7
1F5D5
1DDDD
1D4E6
186D4
03285
1C4D8
1F07C
1B64A
017FB
01882
1E794
03272
0288B
1F3B2
04BB3
001E1
1EEAE
0650A
19A43
1EE8C
04D99
1AC8F
00DC1
1E3DC
02BA8
006A0
1F889
0247F
1F18D
1F779
1EDEC
1E9C7
1F49A
1F209
01DD3
0197B
1FE33
01DF7
008BE
01253
1BAF2
1EF40
1D9BF
1DF79
0013E
00F64
007C3
1E730
00138
000FB
1DCBE
02745
00B10
02630
1FBEC
00033
1E032
1F63C
1E52B
0016E
1E493
01AC1
1DCFD
00334
1E7F5
1E367
1D9A1
1F9A0
01CDE
1FDC5
1D5FA
1EB92
1FE18
009D3
00A77
1EB69
1F49D
1EC2B
1F31B
1CB7C
1EAE7
1F2E8
1E691
1E142
04EC5
16889
0276C
1EA70
1A277
0205E
038CE
00B87
1AC9A
000C2
1DFE0
00F4B
07358
05054
02220
02C8A
1FDBA
1E269
1B845
1B4B0
007E4
1FC78
1FE1E
18BE8
1F994
1DB54
1C898
02EE1
08C1E
1F277
0314A
00A99
1D41D
00985
18E2E
03C3D
04F8F
1EB63
025E2
03AF6
0026C
003C3
03F5F
02005
1F69C
01420
00453
01285
1F9C2
1F88D
01DE4
1EEB0
1F146
000B6
00FCC
01731
00E87
01567
1FC40
1E6F4
00272
01A7C
1E2F2
1EA01
021BC
00D3B
014B6
1F871
00AD5
0088D
00B30
1E0A4
00F15
1FD2D
00169
1E784
1E878
1E975
1C387
021F6
01550
1FA08
1F88E
1F9BB
027ED
1F2F7
1F20E
1F741
1F94E
00257
000FE
0148F
1D901
01B11
1F42B
1F32F
00C6C
1F84E
00299
0161B
1FF50
1D60C
01673
00329
1DB96
016F1
1F0B7
01051
002DE
00285
1E537
1FA4D
00912
01E0B
01FD7
0128D
0067A
1EC99
1ECBC
1DD5C
1F944
1D565
1D97B
1E684
0069C
1F5E1
0023D
00F67
040C3
018EB
00457
00569
1DF86
00D07
1D850
1F8C5
1EFBF
1ECA3
025AD
00F83
0024F
1F7F5
1EA7C
1F367
1FBE3
1EBEB
00313
1EF2D
1E477
1F27E
1F3A0
1D122
0084E
005CF
1E0F1
1EC81
00E69
1F337
1E01E
00B4F
1E72C
0106A
031AA
1F086
00490
009D4
1DDFD
1DEB2
1F956
1E253
01895
1F37F
007BB
1D4B8
1F788
1E9D0
1D049
0073A
028A9
1FA89
01B19
1EB66
00992
1E638
1E86B
03F1F
00AD9
1D6DA
0046F
03601
1F840
03938
01FD1
01F50
00398
00674
0110A
00E6A
00C30
1E463
00F53
0175B
1FA5E
1FD41
1E712
1F323
1DFF0
00AC0
022FF
1EB5B
001CB
1F559
1D6B0
1E60E
1FF01
1EEF2
1F47F
00A6C
028A4
026BC
024F5
1F3E3
011E7
01D6F
1FEB3
1FB48
1FA9D
1F582
1E809
02102
1FB4E
1E8BA
00875
1E9CF
0241A
1C949
1EE0D
1E388
1ED6C
1EA0B
012E5
01C88
1EEC4
1FB76
1FA51
01FF3
006FC
00A6F
02846
01B9F
1FADA
01CB6
02BB2
00FCD
1F607
01C0E
1C2F1
1DD8D
01BA4
1E3B7
02A74
00AF3
1CD4F
0059D
00381
1E8CE
1EB01
0227A
01711
02144
1CFCA
0039F
1E502
02B91
1F208
016BD
00929
00C13
1D6D9
008D9
00D8C
00866
017D6
0158D
1DC0C
1DB5A
1C690
1F6D2
1F623
1F6A5
1F261
1DF9E
00195
1F11D
1DBCD
03263
1EED4
1ED35
1F86B
0161E
1F755
00221
1ECDC
1E40A
00193
019E7
1F86D
1E2BF
024F9
013AD
01934
1D9D1
1EEE9
00336
00890
010B3
1E2E6
01A97
1FB14
002E7
00A06
00578
1F68D
039D9
1EC1D
00DD6
0165B
1DCF7
00733
02A60
017C8
00344
03D21
1DFA2
02012
1F446
1D8EF
00793
1CE37
1E37C
00726
01DC8
001BD
1E4D4
00DFF
001D1
1E6FB
1EDD9
1C862
1F8EB
006FD
0004C
1E1DA
03C70
1F863
01559
00D0C
1E02C
1ED5E
1FB91
1ED5B
1DCD8
1F0B9
1F38C
1E843
1F781
00BBC
1CFB3
011BB
030A0
1FCA4
0016E
1FB64
1FB9F
012D8
00149
1FC75
1DFFD
1D851
01AFF
02809
1DCDF
01130
00595
013A3
1D58C
023EC
00906
1FB58
1DFFD
1FA6F
01200
1E799
01271
1FF2C
01123
01360
1EA5D
1E73C
017DF
1F83A
1CAC7
00C65
01635
1A541
05410
1FA19
1E935
012BF
1E0FB
03B2F
05613
1ED02
02291
03753
01530
1F40A
0090D
004AC
1E5B6
0130C
1C904
1DDAD
1F5E8
1F313
0129B
018E0
02BCB
1EB0E
021FA
04347
1E576
1EF0A
03473
17BF1
1C67D
00D3E
1D6E1
1FE01
1D4CE
01169
0237A
003E3
00261
1EAC1
1B402
1EB16
01216
02790
1A8AD
032D4
1C60E
03FBA
1F1A3
003A9
1BD5F
0244A
1E512
01BD4
1F30D
1E9AC
01518
01878
1E2B7
03571
1F292
001A0
1F18E
01CE4
1F78D
017DD
1C7A3
03C94
1E9E8
1FEF0
17574
1C20F
029BD
01B46
1F8A5
009B8
1E310
1E59B
1E89F
1E0DA
02A30
01D9B
1BA63
03753
055DF
02404
02EA8
1DA3C
04666
1FC94
01461
1E3A2
1E351
1E963
00846
1E8B7
02BD4
1C1E9
1F58A
00684
1F809
1EFF0
0166E
1ECD5
00FE1
01376
1E3EC
012C6
1FEB9
00123
0200B
005C2
00BAA
00864
00C64
01103
1F510
1EB1C
1EBB2
018CB
00CD0
1FEA1
1C73E
01C49
00BD3
009CC
00971
005A3
1D4DB
012E5
02CB7
00311
00E78
1DB4E
016A1
1D7B0
00AA9
016AD
1F55F
1FA48
02B4D
1E886
1E82E
009D2
018C1
01D4B
01959
1D5D1
007D7
1F965
1BBDE
1EFB3
00506
00CE2
1E131
1DE90
1BE9D
01B8C
00EED
1F49E
1F104
1EC6E
028D6
1E790
01CDC
1EE95
0068F
0018B
01461
0057C
01914
1DF65
000ED
014BB
1F2C8
1F60C
1F02A
1E12B
1BEE7
00ECA
016AA
002AB
009AA
0387A
1D48A
1DD60
1C54E
1CDD4
016A6
1EAAF
03AFF
1DB20
1F863
1E38B
00A40
00463
00655
1F8B0
1E5BF
1EC3D
1FC42
1D1B2
1FDEA
011B9
1FA38
1F6D4
1E98B
1E211
1F29B
1E84A
1F924
00BCB
010A0
00DD6
023CD
01818
03153
0042E
00ECE
1FFEB
008E2
1F4A9
1FEAF
00381
1F43B
1F259
1E7EC
1FAEA
1FCB4
039B0
1FF17
1EA09
003EE
1F474
1E68F
1F11F
1D725
1EA06
1E4EC
1FA08
00685
0032C
01680
1E611
01432
0035E
01A4B
1ED04
02CA1
1FDB9
1FC63
1FDF0
00781
01D4A
1F757
1EBD9
01304
1E0AD
1F293
001A9
1F62B
1FC9E
0057A
023DA
003CC
023EC
00AC3
012E2
0005C
1E192
00000
009EE
00705
1E583
1E3E8
00D2F
1FA86
1F955
1F308
018C8
1FE2D
1EB62
0229B
1EB19
00A17
1F7DF
1E8E5
1EEEA
1FA30
1E156
00828
1F70F
0114F
1D3F5
00191
028BE
1F0AC
1F4A5
00D27
1CDA7
023B1
00BA2
1E094
01658
1E75E
1EB27
02ACC
1E13C
02FDE
1F423
1E060
1F017
1EEEB
1EB04
1E00F
023A8
1EE4B
1D082
1CBA1
00F2F
01DC2
003D9
03508
1FAD7
1EC7D
00840
1F13A
1F855
01619
1D1D4
1E518
00623
001B0
00052
1E48E
020EA
00FA0
1E881
00BCA
009A8
0081D
1E586
0035D
001CC
1F745
1FBA5
1FF5C
1F284
00792
0005D
1FB50
1CE56
00CFF
02718
1EDD3
004FB
1F49A
1F9FA
1FB78
00251
1F887
0062C
00EF8
01952
1FCB8
1FAED
01571
1FE0E
1F0B4
01660
02424
0178D
016F4
1FFB6
1FF91
000E1
1EFF4
1FBD8
00D1C
02185
1E206
1DDEE
1F7FC
00288
00142
1E7E7
1F4A2
1DD04
1DCAC
00D43
1F509
1F800
1FAB0
00993
1F795
1F79B
1D10B
0393B
00554
19979
01C56
018C0
1F129
1C803
1DDBE
1E513
00CF9
023EE
1F51A
01ECE
1F5EC
00585
1E281
01684
1E65E
0059A
1F4E9
1EFFE
1DF9C
1FF3E
00027
1BDA2
04345
00BD4
00521
00C24
1E264
1E6EE
02DEC
1B3AC
1F736
0059F
1F262
00DD8
00E01
1FF00
00DF8
1FD73
02AE3
001A7
007AC
1ECE7
01688
1FFBE
1E77F
01B1B
01846
1FB0A
00990
006C7
1FEEE
1ECCA
1E670
01C22
00245
00C23
1C886
1AE1A
1D435
01533
1FD4C
1EE0A
1F915
029BF
02B35
00B74
01360
02420
03E24
1E18B
1F71F
1E997
01199
1B032
01121
1EB29
1EA35
1E606
1EFA4
027E4
1DCF1
1FE6F
0096C
1F851
1F379
1F84B
0104E
1E846
1F851
1DC9D
00FE6
1FEBC
1F055
029B3
00A8A
006F4
1F177
00227
1E13B
1B63A
0212C
1F966
1FE0F
0061B
1E1E9
1EC29
02F21
0277C
00601
01409
005D7
1F0D6
1FEAD
1D56C
1EEDE
1F709
1E9A9
1F943
01230
1F92A
00B76
02012
1FDB1
00C03
017C5
00659
1E9CC
00853
00B5B
1F08A
1FA72
1FF15
1FE04
021AA
1F3DE
00D85
002CE
00BBD
002A8
1E6A3
1D584
00823
1E23F
1FCD4
19695
03037
1B146
1FEB2
1C58C
1DE16
1B262
00F91
00246
00F37
0070D
1B471
00B7B
02547
1E428
0057D
00797
1E359
1E1B4
1E91B
1CBC5
0301F
1D944
043D2
1D2DD
01628
18750
1C2D1
03AAE
01C34
1E755
01E9B
1F935
1CC65
1BFC1
00EF3
068B4
033EC
003E3
0152E
0733F
02DEC
03635
1DE70
0556D
00942
021FC
00527
1FF1F
1BD26
0214C
1D6A7
1F7E8
1C4AE
1EF22
1EDD6
1F865
1DE02
0151B
02B30
1F75A
01D2C
1E71B
1EA1A
00AC8
1F3A3
00EC7
1FE5B
02AE4
1FB31
1F4E7
1EB16
0126F
01507
1E474
014AA
02260
02C34
005D8
1C935
01142
00219
1E358
1FC35
01EB9
1F503
1DCCE
1F6F6
008B6
1DCC4
1BE3D
003BA
1E56F
1FF1B
1F334
1E837
0211D
00843
1E50E
006AE
1FAF2
00E2A
00E29
0003D
1FA88
00A83
0102A
00672
1DD21
0263B
1F88C
0260E
01419
1E145
0032D
1F787
1F6BB
00CDA
02318
0024B
01D59
1EE02
1F641
00101
1FFA7
1E444
02ABF
00B9A
1E36E
1E440
1F970
00509
0037E
0123C
0082E
0039E
1E335
1F4B3
01EB1
004C0
1DE94
008BE
00912
0001D
1DC3B
002F1
00460
1EFFF
0137B
0037E
02DBD
0216B
01CD0
00D20
1D4FF
1DA08
1FD4D
1EF5B
00C36
03095
00422
006BC
00581
1E444
0199D
1F2AB
1F380
1EB56
0044B
0100E
006E4
1FEEB
1F718
1F098
002A4
0116C
010CD
008D9
01118
1E10C
006AC
1FA55
1EB7E
013A8
1F87C
00DA3
1F04A
1E18F
00F53
01938
1CCEE
03DD0
00B5D
1FC37
00759
00AAD
1F5A1
01352
1E921
1DC58
1F4A4
00BC6
00737
1F052
1F2DC
037B4
1DA99
00164
00261
1DD54
00283
1EDA0
1DEDB
1FF22
1F866
1DE59
1F742
01155
00757
016D5
034BC
1D88A
00B16
0184D
00A79
01733
1E66A
1C589
1C800
01386
1FA01
00881
1F0E0
1ECEB
1DF5B
0494E
0128A
03F59
0128B
1EA59
0012F
0127C
1FF8F
003B2
1F61E
1F972
05885
1E92A
0094C
1FDC2
05608
1D8E8
1B10C
1F3EC
01336
190F3
06DDA
1EC21
0101A
00239
1E588
046ED
03E18
0100A
019FF
1F6FB
00AA7
1F4E2
01E93
1EED1
1BD12
01063
1DD62
1BDD7
1FE10
0123E
05539
02B4D
1FBC6
00102
03657
01711
01159
1FC6F
04190
1AB9B
1CD1C
1E116
1EF09
1D9B8
1E90A
1F38F
00CB3
02DF0
1E11A
1F60A
1D4D4
1E723
1F9E5
1F6BA
1DDD3
00E17
1BD09
03041
00983
1BF9A
1E961
1EB10
1FFDE
0121D
1ECA5
1B311
025A4
01EB5
1BD11
1FB94
1C06F
00AB9
1FC24
0280B
1CF1F
00DF7
1DC07
00312
0007C
00C71
193A8
1E0AE
02346
009BA
1D494
003BA
1FBBD
1C739
006E4
1ED16
03410
1FC6C
1E826
0157D
04287
0479E
1DB40
1F77D
02DF0
1E539
00B06
01553
1EE21
1D417
01A91
01B0F
1FBCC
023F2
1F2DF
01139
1CFCC
004E4
1FB02
01C28
00B08
1BA3A
1F6D5
0125B
1CDB2
1E4A7
1D453
014CA
02736
1E914
00E8B
1D53B
01049
00B2E
02ECF
00E66
1B406
1CB40
1B828
01CC6
1D6EF
1B4B3
01016
036D4
1B9FC
036C4
02EE6
1FDE5
0159E
0120D
03E4C
1F686
02B72
00200
1EE38
1F702
1F653
1FAFA
005BF
02C75
1F2AB
009F9
005DD
1F9CE
1E7EA
0077F
1D6A3
00AC2
1DEF4
00B8F
1F9BA
1EC09
1D413
1F8C0
1DB2D
1F2AB
1E581
1DF99
013E2
022D0
0179C
00C2C
1E6B7
010B8
013FB
1FF11
1ED5F
1D476
1DBD8
0189E
00E70
1CAB6
00098
0100E
1E6A2
00CF4
02D65
02186
00600
02C22
019FE
1F970
1EA83
1E90D
0225C
1E662
1E4B0
1EE4B
1FE57
1F6EC
1EDBC
1EE91
003FE
0185C
1E92C
00269
1DD07
1FD81
1F098
006D6
1E8C1
0076F
0116E
1E2CB
1BC78
004B4
007E6
005B7
00802
0039C
00433
1FF34
1FA37
00CAA
01E03
014E3
1E816
1FA78
1EC96
1D868
1FD38
1DC66
1E35E
1F445
1EE19
01FE2
00E75
1BBEC
1EED9
00EB0
00C5A
00AEF
1E368
1E121
1E1FE
1FD23
1F1EA
1FB1F
01874
1BF9A
02149
1E95E
01603
1CEC4
002FA
033A8
1FF0B
02967
1F55F
0088B
1DF10
00D38
1EFEE
01905
1E80C
1EAF8
00303
1FA3F
1FE44
0160F
026FB
1DBAD
00818
1F081
1F204
00F88
00575
1F8AB
1DD15
1E654
00C85
1DD74
1F7A6
01578
1D42F
1F0C4
004D0
003E4
0258C
1F05C
00DCE
1ED6A
1E8A9
01520
1E8F7
1E4F9
00A26
1E4B1
00631
1F03B
000C2
00487
0171A
1F425
009EC
1E802
017A0
1DB35
1FE1D
1F5DF
009BC
1DDB1
009AE
1F21D
1F622
1E4B2
1E85E
1F690
0042E
0123E
1F61D
1E599
1EF92
1EFEE
1D254
1EEA4
0031D
1F6D3
1FAED
1F09F
008CF
1E94B
1EEA4
1E3C9
01914
1F946
1FCBC
1F187
00A06
1FC1F
1EDF9
000E1
1F86A
0140C
1E837
1DFE4
0076D
1F4CD
012D1
00AFD
00191
00E96
0037F
1FDCA
00EBB
00A82
1F8E1
1E24B
0115A
0239C
00BC2
0135B
0142F
00517
1FE36
0071F
0054F
1E00A
01DFF
1F9F0
018F8
1FEB9
00D17
1FE39
1F884
1F25F
01844
1FFCE
1FFD9
1E7C6
1FED0
1F0B2
0103B
00270
1F392
00352
1F5B7
1CF25
0190B
012FE
013AB
1E80B
1FE84
1F0E2
1FB87
1D9B5
010C2
1F550
1EA93
00235
006B8
00AC0
1F5AB
01E66
02EAD
1B94A
009AA
01CE7
1E38B
1E1C0
1F0D0
1F714
1ED41
1FD96
0212A
01CFC
1FF56
00F6D
1F2D4
01510
00EE5
00639
01096
012AE
01000
1E648
00EFE
000B0
00419
1F63B
00C86
021C6
1FD9C
00EA4
01E9A
1D7F5
1D954
00898
1F590
01ECA
1E6AF
1F4A2
1FD20
00CEF
00E75
014C3
006B6
1EDEE
00B67
1F99E
1F521
014E4
00D0B
00A53
011CA
00FD6
1E43B
1F32C
1E44A
010DD
012FA
1F521
00B54
1DD51
1E4DD
1D8FE
1E0D0
1E24B
00A46
00BD5
008C9
1FF1D
01B03
00A32
1FE2E
01643
01CD6
00AE6
1D52E
1C83A
1FFA4
1F341
1DDED
1F3DE
006FA
01428
007CD
1E667
010EC
01128
006AE
02645
004E0
1F939
1EFE9
007C5
1DE45
0150A
00723
00916
01227
1F624
1FFC1
0049A
1E7C5
18D98
1FF3A
033D3
1E231
01574
1E7BE
002F1
01E8B
1EC55
00396
1D2C9
1D8C9
1F868
005F7
1D1FD
19984
00E23
1E41E
1DC11
00663
1E6D9
008EC
0128E
1F378
0054A
1E8BB
1E4C6
1EDB4
00E3D
005C9
18A2A
1E3CA
1E916
1EA55
1EDFE
1FE89
01E59
02B48
004AA
1F5B7
017B3
148A1
1F598
00326
039A7
12FC6
02EEA
179C4
06621
1F360
039C6
19C49
1F005
1F559
1E1DF
1FB2D
19500
07A2C
03FBA
1952D
054B9
1E2C5
01733
1F300
00571
1E919
1FCA2
1B8AF
029D7
1FDC8
0025D
17CB9
1B0E2
028C7
011FC
1ED95
1DBC2
1F605
19A63
0070E
1D217
074BF
01E96
1BE86
00A7B
0D1CE
03B63
1C06A
1BC1A
1F907
1F9B9
02510
1ED06
1F2A4
1E9B7
0284E
0022B
00E9D
1BE62
011D8
16CB3
013B5
02372
1EC67
02908
1F71C
007C7
1BBA3
008D1
03B91
1C4CA
1D8F4
008A9
1FA99
00192
1E0F7
0092A
1F7EA
1CC65
1F48D
1FC0A
027C6
00672
1FFA4
1FEE9
1DAF3
0133D
1F848
0359F
1F1E1
1D9F6
1F0B6
1FF7D
1FBB6
1E558
1DD14
02CB2
003E3
1E46F
00331
1EB87
1F1E3
1FF26
1E9E4
007A9
00EDD
01299
00C63
1E4AB
1DFBC
1E0A2
1EE05
1E9CE
1F1FC
00D6A
1F9F0
01041
01100
1EB9F
1EFCD
00043
1F85E
006C1
1F806
1F1D6
00A07
1F352
00B49
1FE44
00090
1F58E
0268C
03FCC
1EA5E
1E6D1
1FA0A
1D39A
0016A
1EDF3
1F19B
1F2C4
1EBEA
1CF36
01B15
1ECEB
1F5D4
019D0
0073B
004CC
1F252
1FB27
1E4F2
014F3
01759
01063
1E00E
016A8
02179
1F4B1
1B440
1E663
1EFD4
1EE0A
00BC5
1EA1A
1E3CE
1DF31
1E377
00518
1BD7D
1DB2F
1E341
005ED
1FFFF
1DEAB
1DAEB
1E3DE
1EE59
018CE
014E4
012BF
1DA6C
1F856
1F785
1D536
1F38B
1B4E7
006F1
0103C
1E8AD
1D384
00A5E
01159
02667
02C06
1F939
01B1C
1F692
002A3
0216F
1FC34
0064D
004C4
0184E
00687
006EB
1D96E
1EE57
01DEE
008C9
1EEE5
008FE
0194C
1E4C4
02512
01728
00B29
00E16
1D638
1F3F0
1FD5D
1EAD0
1E8C7
1F8F7
1EC9E
00DE7
00916
1FDBC
1DDDE
00BA5
1EF6E
1FBE9
1DE70
1EB64
1D0A5
020EC
1D180
1DD13
011F5
00671
1EADC
1D09E
1DA4C
1E8EC
1F896
1C55E
010F4
00088
0084E
1FBB6
1E2FC
1FABE
1F310
01045
1F64F
1F043
1DAFE
00F1E
01624
1EE22
0384A
1C3A1
1F0CB
0054E
1DAB7
000DF
1E7D5
01BA0
1F60E
1C930
1E3B3
1EF94
1EEBB
1F290
0042E
01A2E
00295
01CEB
00B7D
01172
1EBF8
1E5A0
003F0
0016A
1FB0D
1F59B
1F974
1EECA
01725
1DB6D
01F1D
023AF
0075F
019AD
1EC6C
041E9
1EB36
008FB
00C21
0095C
1EB10
02462
1E3A9
00310
01F02
00AEF
1E6C9
02596
1D15A
1F6C8
003BF
1EEBF
00CE5
013E6
1F901
1EBBA
01D43
1EA61
02B8F
1E4E7
1D846
1E75C
1EF43
1EA41
1F4EB
01FDC
1E9BB
1E3EA
0296D
03ED4
1FBA7
1E7DB
1EF37
1EF36
1EE20
00501
1D08E
1E276
005A3
1BFCF
02743
00DE4
0179A
01247
1F609
1EEC7
0175D
1DEEE
022BA
0032C
1EA23
01272
00314
005B0
010CD
01469
01B94
012AD
000FA
007B7
1B6E5
00F14
1F743
1E935
1F74E
1E9DE
1EC13
1E498
028BD
1E7AE
1EF96
1F962
01405
00A7E
01571
1F0FB
1F1F8
1F513
1ADFA
1DBF9
0017C
008AA
1F17E
00FAC
1E4AD
1EC62
1EEAC
1F6A5
1E9C0
006DF
1FA7E
1C752
1EF83
1F448
1FFCC
1D243
1FBB1
00086
1F091
0042F
00A60
02024
1DDE2
1E3C8
0062F
02F91
1EFD3
02C75
011CB
1E0B2
1939C
0198C
00E7D
1F14D
1CB45
1E5D4
1F0A3
016F9
1F728
00464
1F7DA
000A2
1FD3C
01182
1FDB9
0018D
1CEEB
004B3
1CCC3
00E70
1F7BF
01F48
1EF38
00972
01E54
01ECE
0124C
005FD
01076
00F26
1F4B0
1AAE5
1FBBC
1F84F
003F5
1BA6D
1B3DE
00B74
00B22
1EA95
1DBE1
1DE8D
1F456
018D9
00A3E
00C49
1FB92
0189D
019DE
1BCDC
1E555
01D41
00068
1EA1C
01F53
003A2
1F4BB
1F608
00378
1FF3A
008C0
1E341
1FF62
021F6
1F120
1F791
1D52A
0002C
1D4D4
02015
00C30
1E592
00D8F
1FE7F
1F751
1F5D8
1C787
016AD
01510
017BB
1FDC1
1D816
1E6F3
1D545
0065F
1D0DD
011C8
034F6
02BB2
01487
1FCF0
02ADB
00A31
005F5
01BB9
02621
1E5DF
1FC19
0081A
0096B
1BA65
02587
027D3
01B68
00A9B
00BB4
1D9CC
1CE4A
1BEBE
00C32
1E7D6
1DA1E
1E74E
030C1
01880
01D1D
1C92A
1FF6F
1BA49
024FB
1E488
01916
1F666
1DF8B
1CA5B
1CB9F
1DAEE
1E622
00190
00B06
1F08A
1E393
1D6CD
1F727
01ABE
1F240
1D5C8
1CB53
1D917
030D9
1EB32
00816
1DE65
1F479
033B0
1E564
0032F
1FFBB
00C4E
02389
02D5A
1EEBE
0167B
1EF66
00731
1F267
010E8
00307
1D2B9
007B4
032EE
1F671
1ED5D
008C8
02CB5
02CEE
1F50F
1E9F9
1F19F
1DBA4
016C1
1F19A
1E26F
1F510
01587
0093F
01018
01A99
1F656
1EA48
1E155
1F935
01B63
1E959
01587
1E100
1DD96
003E7
1C2BA
015E0
01542
00EF5
1EEE5
1FC23
012DF
1F7EC
1E4F6
00F36
0217F
1D6E1
1EE4D
012DD
1D63A
1EF80
1FF80
1EDA6
00512
1ED66
1CCE9
1D403
007D4
1E02B
017D8
00CA1
02015
00FAD
1DAB4
1E57D
1E369
0461F
009D9
1ED18
1E026
1DBAA
1F280
1FF3E
1F1BA
1F677
045A0
00E11
0158C
1BD0D
029A4
1E49D
04BDD
1FC68
1EA72
1F9C8
1FC9C
1F3F4
1E355
016A7
01633
1FDBB
1CD90
0300F
01E86
1C63E
1A480
1EE72
1E1E2
03E30
00AE6
00932
1ECEC
0083A
01B89
1D0BC
02953
04032
1FADE
021C5
00EB7
1F004
1D842
1EBD9
01442
003AA
04988
1AE8D
01748
00788
051FF
036E4
009BA
02BCE
01753
014D0
0026B
00132
1F69E
001B4
05B00
02578
1B3BF
00D40
007EC
016F8
1F17C
1F48A
1E76D
01624
1F46D
006BD
02F85
018B7
1D88A
00A0A
01653
1F67F
02A6C
1EEF3
02157
01442
1F61E
1FB9C
1FA0C
1FA78
1DD73
1DAF4
1F045
1F07B
01044
01B76
00FB5
01EE1
1E3AA
1DB05
1FFB1
03E6C
1F8EB
1F29D
1DA81
1C389
1FA01
1FB98
1FAAB
1DF66
00BB9
1F315
01CBC
1E70E
1E314
006EC
015C3
1D976
019F4
1F2B6
0012E
1E065
004C7
1D9C5
1FEDB
1E921
0020E
1E3B8
1E6EE
01410
01E6B
1FA5A
013D8
1DCA0
00761
1E7FE
00647
1E172
0037E
1F6EC
1F2CA
1E222
0014B
1DCF0
1DE3F
00C13
00F45
01A4B
1DFF9
1FB11
01AA7
0279B
1F5A3
1D76D
1F372
01BD5
1EEE6
005E9
1F123
007C4
010AD
00E7D
012D5
020BB
1FB12
1EB04
02484
00D4D
1F42A
00A3D
018D0
00C93
1EB66
000FF
1E156
1F4E1
1EC93
1FD19
0129D
1F5ED
00DDD
1E4B3
001AA
1E702
1FB1E
00CC1
1F469
002AE
00A47
00B84
0303D
011B0
1F8A2
01353
0083A
1F93A
1F446
1EDC8
1BB9C
0051A
0143D
1EA55
1EB6D
00CD1
005E9
00652
016D6
01194
1F6ED
0081C
1FE2F
005D7
004A3
02239
01E06
00C43
1EDEA
01A09
004C9
01577
029E9
1EB10
1FB0D
1EDC7
1F34C
1F27C
058FF
1D132
1DFDC
1F337
05322
1EADD
1F701
1A4AD
1E7F5
000C1
00DB5
1DF8D
1D822
00D23
01470
18D6F
1FAFE
1C688
1E345
01EA4
01354
01172
01372
1D0BA
00D85
03B81
00E7B
1B612
1B4C2
1D6D7
1E914
1D61D
19C17
1E887
01515
1EBAC
1EDF0
00FE8
1DDF6
1D045
03722
007C1
1EC9F
1FBBE
00303
02E6E
0056E
1E77A
1FF66
01452
04428
01535
1EFED
033F7
02A5E
0013D
1C2A2
02FE1
0079F
1EB3A
1F32D
01237
01F3B
01A62
1AFBD
1CE0A
02558
1EF1A
1FFDB
01248
00D79
01FDC
1CB84
1B71B
1D473
1FC51
0123F
0369E
1D50A
1DC41
1F9BB
00B02
1D510
1FF2D
057AB
0289B
1EB52
1A13A
00A01
1C458
02530
1A8E2
1DC66
00705
0316A
1F0A8
1ED79
1BEBE
010F3
0142F
1CCC9
1FB53
021A7
1EA94
1F8F6
1EE5C
1DEA0
1D5D5
1C6EA
1F3BA
00199
1E9B7
1D57A
1FC73
03419
1C9DE
1DB06
1E22C
1E336
1F0EC
1C7CA
1D371
1D7C8
0357A
0027C
051F2
1DF71
1C16C
1FF6A
1FAB2
1F28F
1D286
1DAE3
010B6
02053
1B92C
1F5E7
02936
1F1D6
031AB
1FC4D
02512
1F694
00C4E
00A07
1E6D5
1F87C
1FA7D
00A9C
1F784
1FB2F
1F384
010F7
1F941
0149D
01081
0078D
02EB3
1FC42
1F05F
1EB09
1FBA2
1FD91
00B30
1DD5D
01375
0090C
01978
00DF2
1FB68
02B3B
00D79
00949
1DF35
015BF
1EF67
003FC
1F582
1E55D
1E7EC
0098E
01105
0288B
1F3A0
1F56D
00ECF
00829
00945
018D8
1CFB9
01A38
1FF3C
000AF
01673
1E530
028AD
1EA3A
1B727
1E0B0
1EF0C
01615
1E53C
00CEB
1F4B9
01B70
1EB80
01A35
1C623
1E502
1FDDA
0003E
1F2DE
1FCC3
1FCD7
0034E
1BE45
00033
0085A
1E5E6
1F029
1FAA7
1FD1F
1EF8B
1FF82
1F94E
0269F
1EE8A
1B623
1FB83
1DD8A
1D797
1DEA8
1D5D7
1F9F5
016AD
1DB48
00C4B
01840
1E803
006CB
01447
03816
1F736
1F1C8
0057F
013D9
1E898
030AE
01852
0124D
1F386
01F50
1FF57
02E02
1EDA9
1D52F
019D9
1F95B
00964
01719
00669
1FFDB
00C9F
1D00D
01676
1D8F7
1E6ED
0112A
1EC19
1F8B6
00247
013B1
01151
00512
00E1D
01F78
0072D
018F2
1FB30
00FA4
1F8F9
02473
1DEA2
00FDF
026C2
1E832
01868
00E75
022CB
1FDD3
00938
02140
005F6
010E9
1FD63
1DC98
000D0
02942
00115
015BF
1FEDC
00ED4
1FF30
1EF61
1FD47
000C4
1ED83
1FFB4
1F431
1EDDA
00263
00E90
00CBB
1C845
00090
00FBA
01AFE
00CCD
1EA9D
1F531
0072C
00720
1EB2D
1E7A3
0294F
1FC41
1FABA
1FE01
1E8B9
0219A
00280
006C2
000C2
1FB56
01D23
00176
1F592
01ACC
00A44
1F11B
00501
1DB6F
012B2
1E71B
1E4F7
005E1
005AC
03A3E
1FE86
00761
0228B
011A1
1AF1C
00D4E
01FC1
1FF27
1BBDE
014FA
006DE
00460
1DA7F
008F2
00CA4
1ECDB
1D321
02C1A
012CE
01B42
1F500
016C6
00BA9
1F638
1CDE9
1E09B
1B714
1FC22
1F048
01D58
1F25B
1FA7D
045C2
02539
1F0DD
1EC4C
0253B
0369D
1AF78
1AFF5
1CAAD
1EC2B
017A6
1AA54
1B90A
1C760
0096A
1FC94
1E164
00CEB
00A8A
1F7E9
1F5AE
004B3
1EBC4
00EC4
1F2DA
1F676
1E443
1F686
01458
1DF41
00EB8
00798
007DC
1F4CB
1FD29
016C7
0096D
1F818
1F2F8
00BB3
00288
001D4
1D8DB
1E5D3
1FB42
1EC0D
1E955
01F9F
1E674
0074E
01EFD
00EC5
0110E
01770
01824
01C25
1EB98
1ED66
1F54C
1EA10
1F241
1C640
02FA2
1F2B2
00616
0001A
1F0CE
0169E
1EFE2
1FD3E
0228B
00493
1C695
00B1B
01B98
1FA38
1FC64
1FF78
1EC51
014B5
1F604
1DE81
01485
1D4A2
1C67E
02315
023CD
00A20
1E11C
03F97
0349F
00D35
1ED38
1C92F
00E85
015C4
006E9
0286C
1EC8C
1EF5A
0099E
00E15
1EE48
1E0E2
0074F
1FC86
1F62C
1CD81
0072C
1AE8E
1FF89
1F594
1C8EC
1FBD4
1DFC4
0226E
1EA25
19D43
1F832
012D6
03A8D
1B921
0066E
1C379
04FE0
042AC
1D86D
1D167
00B2E
1F0E3
1D30C
1F923
00C3B
019AA
1D255
01CA4
0544A
0393E
1E263
1E5FC
02B66
025DB
03CD2
1B6A5
1EB15
1F774
01834
1FC32
1ACF0
1FF8D
01D9E
016FA
0329A
00F1C
007CB
02476
1BFE8
1E214
0466A
1B30C
02CD8
037F7
1E8A8
03226
1F1A2
0204B
004A5
1D088
00ED7
1E0AF
02F22
00615
1F147
01CC2
0456B
1D10F
1F648
1F89F
1EEB0
006B9
1DF8D
1F6C4
0149D
00726
1E37C
1C31C
00CA2
1F33E
00C94
00618
02198
00052
1F2A4
1ED3C
1F763
02A49
1F027
1E704
1E643
1EE4D
1F15C
00944
1CBCD
1E020
03D0A
0154A
00DDE
1D197
00046
1E7CB
01884
1F5F6
1E9B1
1F6EA
1FB48
02747
005B2
1E400
1E4C6
00D9A
1DD98
1F432
017AD
1FA1C
00A12
1E635
1E5FC
1DDAA
010AC
1FB47
1E67B
1FB33
002D0
1DAF7
0496E
1F08E
1F496
01302
1E79B
00348
1BFAE
1D8E6
1C8A3
1EF6E
01896
1F47A
1FAF6
1FA07
1D7AE
00C7C
028A4
1DF24
1C6C3
1E4C0
02A50
01C63
00FC0
02142
01BC4
1EB5E
01EF8
037AE
037CB
00378
01436
0159D
1DB5A
1E394
00360
0009B
04C58
1F1EA
1D7F8
004DF
01F4E
1F2D7
0403E
1CCE6
00581
1E814
0155A
00967
01F85
1F4C0
1D478
011F9
020D6
01522
1E170
015E3
02211
0132F
1D4C1
18F68
0265F
1F8D5
0037C
1FE94
1AC1C
199F8
1E06B
00C9E
00AB4
00C94
0327D
019AE
0009C
1FA1E
01262
1B4BD
028C5
0091D
1F616
1F355
1E141
03109
00F55
1D522
00B7E
00474
03135
1FDF8
1EE8D
015B3
01C0E
1F53E
019AE
1D565
1BF6D
1EB0A
1F453
01113
0036E
1EB6C
1DFA8
1B809
01E56
1FE48
00E31
1FB62
00E4C
018A1
1EB57
1E465
1F82F
02DC2
1EEDE
1ED9E
1B34C
1E0E9
1F892
1E861
1CD5B
1F562
02B28
1E99A
02523
00555
1D62D
1DF19
01FCE
00684
00805
1F1C7
1EAC7
02985
00CA7
1E544
00376
1E523
1F208
1F961
01768
1F894
0230A
1EFC1
0270D
1D2DE
01AED
00642
1FC38
1E90A
013D4
1DD53
0244E
1E97E
007C9
01133
1ED4D
01193
1EAD0
01B16
1E7EC
00661
00F3A
01730
00E30
0124D
007CD
00874
0033B
1F32C
1F555
1E7BD
1E372
00ACC
018DC
028B6
007DA
1F404
01B79
1F7A9
0202B
1C80F
1FBA0
013B6
0042E
1FE9B
01099
1F86E
0033D
1F053
1FD11
03DA9
1EC63
1C209
044A3
1CADA
1DEB6
00E34
1CB52
1E842
1E996
004A4
01482
180EB
1ECDE
1E26D
1FA21
013F1
1E02B
1FB55
1C489
00450
02348
03954
1E2E5
1B7E4
011C6
1CE92
1CB61
1E37D
1AA58
1F2E0
01E3C
1BED3
0258C
04F8F
1E000
1F722
1FB74
0208C
1FEB9
0193F
03565
00502
1D2A7
1F42F
1F81C
00711
04228
1F982
1C0C5
03BC8
023FE
1F983
1F334
0033F
00489
1FC9C
0130A
1E560
018E9
01898
1DD5F
1DF48
01E64
00766
002F2
021F7
01077
1FE43
1C9CF
1E7B4
003F9
01FA8
003D0
01D96
1FA49
1EF71
00209
02CCB
1E7E9
0063B
02CD4
1FD29
00CA0
1D8DC
1D2E7
1D0F7
00E53
1F10F
00224
1F43D
0182D
00934
1D894
1E53A
1EA59
00863
1DBC6
1FFB7
1DAF2
1E12D
1CE5A
1EB34
001EB
1DBE7
1EE0A
1F9EA
022D9
1F51B
00D03
00509
0166E
1F3F0
1C4C3
00BBE
1F15C
01EE5
1E6FC
1E9B5
1D910
02BB7
1EBE7
045C3
1F3F4
1F5AC
02C87
1D9EA
1F7BA
1B973
1C6FF
1ED68
01D5D
1D14F
01E01
004F9
1DC1B
0226A
1DB0B
1E819
0105C
00652
029D7
1E495
1D18A
1FF91
1E724
1E479
002B7
01B5C
01084
1F66B
1EAC0
01CF2
1DCCF
00A92
1EC96
00350
001AE
1DEA8
1F5DB
1EF96
1E109
0426B
00169
1D62D
1F50A
1F7A6
01983
00326
1FDA2
00338
1DC31
1CCCE
010D6
00B74
01000
02956
004B1
016AF
02654
1F1D6
1DB13
005E8
1E12B
1EB1C
01413
1F53B
008E8
1F7FC
1F67E
1D587
1EA8E
00662
1F46E
013C9
01220
1F0D6
1F901
01345
006E5
00F2E
1F9EA
1E5CD
1F333
0045C
1C3E5
01297
1FBF3
009E9
004FF
1FF0C
000A3
1C1B9
1FF07
1E318
1EB26
1E2C6
01073
1F7FA
03914
01C91
1D5BF
04E05
001A7
1EE35
02296
1E860
1AB5E
00CEA
1F3B4
1DF33
0284F
1EB6E
02B5F
009C2
1DB6C
01B92
1EAC3
00DBF
1FB00
01039
005A0
00110
016A8
1E6AA
1FA15
1EA9B
00E69
1FCAD
1F9D1
02147
02085
1C279
0159D
1B1AB
00DBE
00999
1FEA0
00CAB
00B7C
1C1B8
023CC
1D9C9
1FF4B
019E6
1E0A1
00387
1CAD1
1F844
1E0B9
1E738
03D9D
014DE
1F4C1
1F7AD
1D335
1DFC2
00210
1DE8B
1ED7C
1E420
01BE4
1D420
03330
03093
1FFD5
1FC73
1FFBA
02262
012B6
1E2FA
017F9
007E1
1EEEE
0389D
00387
001C3
00761
02045
1E051
017DD
00D28
0022E
1F7DF
1FA26
1FA0B
00ED8
006A0
0024D
1FA52
1C7C3
1FE34
006BD
1E292
01DC4
0119F
011DF
01E66
02448
1DA12
0034A
013F0
03E2A
1EE87
013B8
1DD87
1D099
1DA50
0277F
1FA42
1E0DB
1FD09
1EF89
0274D
1E55F
1F1CC
1F94F
00D0A
1E062
1E1BD
1F432
1F562
00D6B
00751
01481
1FAAA
001FA
0342D
1F730
1D428
00616
027EB
0155D
00E6C
0157D
1C7EA
0041C
1FA51
1ECB7
01A37
0057E
1BB8E
00163
0374C
1FEE7
1E5AC
01C87
01B80
00EE0
1C4E3
1D0D5
1FBE1
1E058
1F045
008E5
1E508
000B0
00CD1
02554
02CBB
017FE
1DD6F
02032
1FF08
1AD2D
1E559
1D7C4
00DE1
1E33A
1C802
1D249
1EB7F
0026F
1D689
0175F
006A3
1E81E
027F0
0265E
00404
023B9
00452
022B0
1F09C
01AF6
00D4C
1F409
1FFC2
0046C
01FAB
1CD77
1E90C
014DF
1E8C9
1F44D
1FA67
013AA
03663
00E8D
0080F
00AF4
1E9A9
003F2
00494
02B46
00168
1EBD2
1EC85
024B4
1F090
1F569
0063C
1E697
0121C
1E948
02496
00266
00885
1D321
1EEC1
1F980
1CFB8
1FE34
1F616
03FB2
1EFDD
00C2B
1F39C
00C1B
1D6EC
0054F
0150D
1F832
02E5B
1FE8D
1D35D
1EBF1
0199F
0098E
003F5
1EC43
1D098
1E3AC
00495
1E9E0
0042A
0133A
02A1C
03980
1CF9A
0039E
1F995
035B4
1F210
00AA0
1ECC6
1CA2E
1F6A8
00454
1FE32
00DB4
022C2
1F40F
01DEB
1DE69
1D824
01696
0011A
1F1D8
1D657
1FE4D
1DF46
01DC8
0163A
1B7CB
00F72
1E845
02721
194BD
030A2
1DF70
00EB4
03CCA
0359E
1F67C
0380C
1E6EC
01740
0128A
0142A
00359
1BDFA
047E6
04153
004A0
1EAA2
1E918
0252E
1F902
04301
1D011
03080
1C868
1EF29
0051D
1EC4A
035EC
0103B
02552
053C6
1EC94
1ABB5
058BF
1EE9E
1C7EC
0115C
1C5A3
0057C
02AE3
03411
1D611
1BC89
05047
0040F
1F20E
00FC5
1E27B
02E3A
001F6
1F363
1CDBE
02579
1C8AA
011DB
1F365
00176
0121F
008C7
1F866
00227
005A8
02858
1D69B
00CCF
1D823
1EA8B
1EC70
1F8C4
1F29B
1D910
1E989
1EF3A
03810
1E7E1
1EE7B
1F454
1F2AA
00DF5
016E6
1C77C
1E953
0229D
005E3
012A4
1F4A7
1CCEE
0040A
029CE
0051B
028AB
1F293
1F851
1F1F5
008E6
1C968
1F993
1EFAE
05020
1D08E
00377
1EA28
031AA
1E66E
00B04
1E426
022DD
1DCFD
004FA
00A5A
020FA
1F7E4
00171
00B08
01E4B
00EC9
1EF22
01502
1F3DD
007D9
1EFA7
1D6DE
028B6
00DE9
011AD
1EEE8
1BB90
1FB73
00DC7
03254
00580
01431
020B5
1F094
1F228
03105
00224
1D1E2
01B52
045AB
1F996
01F7C
0025F
02915
00E9F
1F36B
1E05D
01224
000E2
1FA6D
1E4B2
1FCB0
012F7
00CA9
028B5
1F1A9
02355
00DE5
01271
1FFCB
011E2
00A6F
1BEFB
1E76D
1FF46
1F531
00504
00FAB
01A95
1F565
02B0A
1D9B9
0185A
1FBC7
1E505
1FD55
1CC3F
00B71
1F061
022A2
1F832
00196
1EFBA
1E60B
00926
1E1E7
02703
1DBA8
0169A
1EBDA
1F48F
1E10F
1C3D0
01293
01022
027FB
1F415
1DE38
1E676
0185E
00837
01387
1EF55
1E8FC
02099
007AC
1D142
1F176
1FA59
1F78E
00948
006AC
02795
1C5ED
1EC08
1E410
01B00
1FCC0
1CDF2
1E140
1EF1B
0047D
1F5DD
030DF
1E57D
00F05
1F893
1E342
1DC73
00179
1D58C
00FBD
02DE6
1D8B5
01B82
00D4B
1DE50
01879
0022F
1E13A
03F1E
00161
0166C
1E245
1DB33
00244
1F35B
0076E
01C93
01059
00A3E
0142B
019E2
016D6
1EE43
1EE30
014C2
00ACC
1F276
1FC36
1FA9C
1D49B
1E278
0173E
1F850
018EA
1E024
0065E
00FD3
00053
01E9E
1F763
00DD2
1F725
1FD80
018A0
1D69B
1FC76
1FAB4
01F5E
0233E
0012D
1F705
01321
1F518
1FB8E
02F71
1F1DD
022DC
002A8
1F38C
1E686
1D1F9
0312B
1E85D
00781
00EEE
005DD
1DE1F
1FCC4
0052C
0017F
1DBE7
1E28A
01C8C
00CF9
1D06A
1FCC9
1F7A2
1F7E9
00F7A
02338
1E775
1AF0A
01A04
1EB9D
00978
1F242
1E854
1F0B2
00CE3
00BAA
1ED57
033DC
1F466
1E719
00C86
1FA6B
1CE7D
00857
1E24F
1EC57
00B7A
1ED13
00C77
00467
00C3E
1F18B
003DC
011FF
1E521
01140
1F15F
009BF
00DCF
1F172
1EFFA
1F56A
03E6A
013BA
1D59D
1F88C
01C3A
00BC0
0069B
00428
1DE84
1FB7D
1DA55
0050D
00FD0
1FC3B
1F822
1C01D
1F496
1E34E
1F059
00AB4
01363
0167F
1DE46
1FA17
001E1
025B4
1F6A5
1FB18
00D8A
1DC82
1FAD4
00046
1FCEB
00BD7
024C3
0018A
1FF88
1FD97
1DC2D
1FF71
1F8C7
1FE10
1EF61
1FB8B
1ED7C
1DC51
1F9F5
1F7A4
1E64B
012E1
1E2BD
01B28
1E95F
01F46
1E15B
02A3E
1C4A6
032BE
1EB3F
00C1F
1DB85
011E2
1E729
007BA
1F994
1E347
1D508
1E1CE
1D7D6
01EFA
1E8B2
1FD98
1FCD1
01166
1F038
1FD76
0121B
1EB53
02776
02AE3
00D35
1BC2A
1EDE6
012F6
02468
015C2
1FAD0
1F3DA
1F933
023D0
1D692
1ED43
1E231
00D05
00BC6
1D9FD
1D810
0224F
1F66C
1F984
1F0D0
05826
01DC3
03B67
1FD19
02C83
1B94A
1FDDF
1E2CF
1ED24
1DC44
00D28
1DCAB
1E66E
00D46
01861
1F439
19F70
1EC5F
1D64C
023C8
01679
1FAA4
03498
1B485
0178C
1FB19
0377B
00048
03BC3
1DCF3
1EACD
1E3B8
0120D
1F717
1FD1F
00D81
1D3A6
1F29F
03009
01BA2
1ED73
1FF69
1FA9B
1EEC7
1D376
1FF7B
02680
1FA00
0058F
0251B
016E8
1E9A1
1FBC0
01822
1D36F
1D1C4
1FFDE
004EE
1E78D
0218D
1FB5A
033B9
00E6B
1D759
1E69B
00C17
008E3
00A94
01A4D
1FD41
1F87A
1E977
1D22E
1F2C6
03031
1E430
02F33
1F607
0007D
01095
024A8
1EF0B
1DFE5
033FB
02039
1F1D8
1E2A7
1C151
1EA7A
1F988
1D54C
00BE7
1F72A
1FF1F
0077A
016DA
1C8DC
1FAA1
1FDA9
1E5D1
17FB7
02C44
1A43C
1F315
1E6A2
1FD91
1FBDE
001D2
1ED12
1F780
1F999
1E718
04047
004B3
1E72E
016BF
1FD3E
1F7E3
1D215
1FFC5
1C4FA
00340
1B23F
00846
1AF1E
013F8
1C1F7
1E53A
017AE
02A17
00868
0142E
1E4CD
1CE4D
010DE
1C109
04375
01CB5
1D5CE
03202
05AC5
00E3A
1EE44
1CF2E
01273
1FD81
009EC
1FBA4
008C0
1E0EA
010E0
00912
00571
1E6D5
1F188
01F03
1E871
1F1CF
013B8
1CBD2
1E7F1
1E24A
1F2B3
021CE
1D20A
1E5D8
007F7
1EEAB
1E81A
007F1
024EE
1F40A
02F4B
01420
00022
1FCAE
1D813
00C84
005B6
1EA32
00621
1F864
0122E
1FD18
1B7C2
0371F
02577
01239
01A93
003E2
0354C
1F1D7
1F945
000B1
1D30F
01439
1EA74
006FD
1F62D
019EA
1B380
1F494
00F44
1FF38
00E8B
04669
1AF71
1F071
1DD91
1ED20
1F271
00ED1
1DDC1
1BDC9
1D786
01D6E
01DE3
00E3E
1FE0B
02A5B
028AE
1C97E
1FCC4
0399F
1F403
01339
1D8DD
1A327
1B8A2
0159B
02CD1
002DE
012C8
1CC22
1CFBB
02603
031E6
0178A
1E1B3
02D69
01149
01386
1DA11
1D137
01E17
1E046
013FA
1FDEF
1DE33
1F3FD
1DD4C
1D3C1
01498
1DBA5
00D27
0370E
1E151
02FC8
1F862
1E894
1DC03
1F0FA
19F04
1DAC4
027B9
00303
0181A
006CE
00916
04EED
0258F
03E45
1FE00
05738
1FA80
0151C
00303
1DF6A
1D06C
1D450
02968
039C2
1E0ED
0124C
1E063
00B80
1FFF0
05506
1F059
1F650
01A15
1A5E3
017B9
1E7A3
0340C
00441
1F32C
1F936
1E1E4
01BCF
00403
1FF11
01C51
02228
017C2
02800
00C37
1FB5C
01447
1E043
01074
00B54
00B4B
1FE68
1D5BF
00374
1FD23
1DA06
1F9A7
0127A
027DF
1EB93
00F0F
0189B
01E84
1E2DE
1EE55
010A8
1F924
1E61E
1ED44
1E749
1E47A
1FDD4
1F03E
0077C
1FA6C
1E683
00275
00F50
1FA66
00A9A
1FD4C
1F1EB
1FF62
00B42
03366
1E41D
00670
1E4F3
03B7C
03F4B
00601
1D90D
006EA
1CED5
0091F
00584
1ED8C
01A00
1E27F
03394
1F4E6
1CB52
045D7
00FE9
010CE
0007F
008AF
1F6D8
1ECE4
00A4F
1E96B
1DEB7
1ABF4
012E0
05B0A
0062A
04571
008B6
02F20
0136C
00B37
1ED3B
021A4
00F63
18A4B
1F166
1EBEE
1F74E
1CD32
00E2A
00669
1E136
1E482
1E43D
01AA7
1E99F
1E3AF
009B6
1EBD0
1F5C1
1FEB1
1FFCC
1EB91
1E23E
1EFC1
1FAAC
1EDA3
0169C
1E827
02A34
015BB
00845
1C983
1E529
1D2B4
1F5F9
025D0
00270
02708
1F7CB
0140B
1E105
040D3
1E2DE
1EEC3
00E6E
1E1C2
1DECB
1EDBF
1D600
0143B
00C2C
1F921
006E0
1EDB6
1CBD9
01346
012A2
1F807
1EEDA
00322
00A76
0089F
1D671
1D844
1F611
00980
0245C
1DDEC
0182C
1DBDA
01D04
0006E
1F9D7
1F330
00F20
016DA
1F7F3
1FD27
1E0FA
1E522
1FEA7
02136
01B2D
00481
1F6B2
1E17E
0082D
00A41
005BA
1F9E1
1F5F6
1E527
0065F
1F357
1FA95
00632
00D6B
1FC57
00E33
007D3
1EF57
01BBD
1E2CA
1F918
00B81
1E123
1F453
00668
00BCC
006BF
1FDD7
00EB7
1F00B
1E560
1F20F
00BFF
1F276
1CFDA
019BA
1EB2A
009A8
01300
1F558
1F9E1
00CB5
1EBCF
02FC2
010CE
1EB82
1BC54
1C5B6
1E1E5
008B5
1ACEE
1FDA0
1F6E5
1FBF8
1F1FF
03945
009D1
1F43D
1E7D7
1E7CD
01060
1BD8F
01C2B
1BD6E
0080C
1F746
1E385
1CDB3
002AE
1D4AF
1D47A
02DC9
1F91A
02B3A
1E515
00FDC
1B342
1A7E9
00594
005F0
1F5C6
1FAAB
1EB9F
1F34C
01206
0033B
1FFCA
02285
1CC88
1EF89
1F2EE
01546
1FBA8
01B61
00255
02D02
0129D
1FCC5
1FB20
01488
1EBBC
1F441
02BFD
1D94A
1DFEF
1B54C
1CC46
1F0B5
00902
01743
00437
022B5
1F7F8
00721
000F5
003CF
00CE6
01849
1ED1C
1F450
0062E
1C8A6
1DA9C
1EB28
1DE60
0213A
01908
0027C
002A4
00E87
00C26
016F3
002D3
01FC6
00D2A
00E64
1E5AE
00FBC
1FB03
1BC22
02A62
014AA
00511
1DD5B
1FDF7
1E7AB
024CB
00D44
00CDD
02EEF
1FCCE
1F8EB
00F6C
1FCA6
1FAEE
02DF6
1E3AA
190F1
1B3AA
1F8F6
0108D
000C8
02597
1FACA
01F8C
0348C
1F29E
1DA85
0331F
1D701
00DAB
0183B
1E990
029CE
013A0
01368
1E775
1ECDC
00496
1E67E
1DEF5
1F286
1F104
1D2D4
0080B
1EE71
1F8F0
1FEA7
1FE10
01E8B
018F4
1EE27
007DE
0025D
01956
1F015
01C46
1EC1C
1ED39
00AED
1C799
1F555
0013D
1E5C7
1F3BE
1F0AB
1EA21
1E21C
1FEE6
018F5
00731
0158F
01890
1E8F1
1DDE9
1F949
1FFFC
1EE45
01784
1EBE8
1E231
1DF3B
00247
1FB42
1CEDA
0149A
01C59
1F28D
1ED82
1F7AD
00126
1F075
009FF
1F6A9
1FEA9
1F72B
01F0A
1C941
00B19
034FA
00C89
1E1E6
1F944
1E251
1FEA2
00440
1FE89
00E61
1E592
1D950
1F827
1E222
00650
1FF19
00D13
1EBD5
01515
00796
01758
1E47F
01A37
02B0E
1E342
00AB2
1FDCA
0109F
00C3E
02289
1F92B
01E28
00110
0091A
0203D
1EBE4
01340
1E9FB
012EE
00A74
1F47B
00E77
02168
016EC
003FA
1ECA5
02837
010CF
1F5D1
1C7FB
1DB4A
1CABD
03458
1F42B
00537
02A9E
1EA62
1F28D
03D99
009B3
1E411
1F686
1AA43
1E327
1D6F8
1D8CA
1E05B
1DD20
01E6E
1BFCD
01DA7
0175A
01FE7
03662
1F968
1E920
005D9
1CA79
007C3
009C1
1E991
1BD45
1DCEF
1EA57
02FA9
1D396
1C86D
1FB2B
038CB
01A99
1D2A3
1EBF5
035A3
00F02
1F8C7
0069F
04C3F
1ED0D
1F49F
01446
0258D
1C6D5
024FC
1D584
1F007
1F097
1E1D5
1DC09
01BC5
01607
1F418
1F8CE
1C1AE
1E06F
1D81E
1FEC0
1FE73
0257D
01558
1D6B6
01FA4
1E268
00806
1EF14
02D53
1CA32
1E590
1CF11
016B4
00A06
02A3B
1CC6C
1F139
1CE14
010A8
00536
1FFDF
1FE1A
009F6
1EBD0
1CD2D
1EA9B
020DB
1E0DF
1EA32
1C46B
0199A
1C75A
004DF
1E6E8
19E1D
199F3
1FEF3
0061A
1FD18
03D20
016F0
03714
00AA5
1F9C9
011C1
1DE58
1EC38
1D991
01A4B
1CF01
1BBFE
1F8A0
1EA46
00C2B
00D2C
00F70
04D23
00AA1
1F1F4
1E8E7
1E907
1CDDB
1ED05
06CFB
1EF37
1DB21
1E456
1D010
1EB37
1D39A
1C549
04049
047EF
1F006
1F416
0153C
1BB19
1EC49
1E2E8
03DE0
18DFC
03A1B
1AFB7
03BEA
1CC81
006BE
1EA6F
1FDAE
011F0
1D32C
00373
1D1AE
04D0F
02991
1A99E
00C6C
1E2B7
1F1F7
1B801
0014F
1E0E8
1F3FB
1A89E
1D462
1DE06
015F8
1A3B1
1E7F1
01001
02DCB
1DDCF
1E459
1EDC8
1996A
050FF
1AF2E
02E83
00ADA
1E33B
01F46
06005
03F4A
1B5C8
1C919
02EA4
1DDD4
1DF8E
01796
1E99F
1F414
1D7BA
01D91
1F25A
003C3
0162F
02FDC
1F536
1FC51
1EBA0
1E4C1
1F7F2
1E098
02886
03204
18E74
1F8C0
1E548
1F1FF
1FA8C
1D70D
1F6DF
1E025
0031E
0089D
00F94
1F283
1B696
00297
1CD57
1C8BD
1C59D
1F538
1E147
1F369
1DD98
00FCF
07120
1E9C0
009F4
008DE
039AB
012BF
1F584
01E35
1C71B
1E365
1E71A
00C01
1F91F
1E971
1D795
1F92B
1FE9C
1DC8F
012F1
01BDE
196C8
02534
1DDE4
0167D
1F1D8
1B225
1B0F2
1E130
00937
1B582
05020
00E57
1FA43
039C7
02256
1C902
00878
04638
1F997
1F97E
1A590
1A713
16799
1F97C
1CE7E
020E7
1F295
1DC95
1925B
03269
062AD
02A4D
1E0BE
1FE58
03EE3
1D154
1EFBF
030CB
0266E
01335
1F281
00B71
1F884
02E59
1C21A
1BD34
1FEFD
1FEE5
00969
01F43
00578
1F456
013A2
1D75D
1FD73
1DF1D
1ED0D
00E98
1FBFE
00EE9
03A01
1FC93
1FB16
02D5E
02D10
1D15D
00B07
0235A
00B6F
019AB
1D1CB
1C4E9
1CB5C
00503
007B4
013CC
1F23F
000E9
1EDAE
01188
019A7
03CF5
1F030
1F1A6
04F43
1BB1B
1E689
03234
03501
1DBF6
1F109
1FD48
1E5E1
1E331
1E94A
1F48B
1ED13
00C83
1F98D
03893
00E8E
1C940
1F825
00755
006B8
00667
1F3AD
1F88E
1DFAD
1F172
004BC
1ED3C
009EC
1F020
1F68F
1F7F0
00D05
00A7A
021D6
00B12
00344
02ED7
1D3E7
1DC2D
1EF66
1EEB5
0160D
018C7
00326
00319
01869
1DE06
02696
1EA1E
024C2
00378
1EFBB
1F224
1F73C
1E0CB
011EA
1FD6D
1EA1E
00D9D
019B7
00879
00797
1FB0A
1EC31
1C532
1FFBC
1E38B
1F393
03251
1F5B4
0237F
1F41A
00BD6
003FE
1FEF7
1DB52
1EB00
003CD
1E35B
1F54E
1EFDA
01806
1E653
00E9A
1EFB8
02E12
0177D
00E52
1E59F
1EE47
1F7B1
0128D
1EE68
01FCA
009A9
1E65F
1C2C8
00318
00746
1B977
021B8
00C14
1E529
1E507
1D4CB
1F824
1E372
0011C
1F8D1
012E3
1EBBA
015C1
1F3B0
02539
1FC78
1EC5C
1F475
1EF85
01AD9
002E5
1ED78
1F0F9
00896
015B2
1D67E
01191
1EEA3
00129
1E338
00230
1D573
02322
00416
001EE
1F0D5
010C1
03154
1EBAC
1FA63
1F011
1EC9C
1DF63
01E66
1F29D
02143
0164B
1D53D
01EE3
00B49
1FD71
005C5
00E85
01541
1E513
1D4FE
00CF6
1E62B
00923
1FE31
02228
1FD90
1F64B
00715
1E138
1E4C9
019C9
1DFC9
010CB
00F56
011B6
004BD
1F14C
009B7
1FEB4
01FD0
1E6D3
00021
0076A
1E8E8
1E600
01645
1F748
1C4B5
1FDD8
1F37E
00D59
00CBE
02857
009F4
00647
1EDFD
1F320
1F1E3
00731
1EC66
1E306
1DEDB
1F95B
02044
1CEA8
1F522
1C91F
1E7DD
01584
1F137
1E2C1
00E93
1E6C0
0117A
00E61
1DD3A
017D5
0026D
00F78
1CDE6
1DD7C
02FA6
1E7D9
01C45
00273
0086E
1F535
1F3B3
000CB
1F85B
01E12
1EF15
030F1
00AEF
009BE
1D8EE
1DCF6
028A9
00691
008A9
00E8C
00427
1DC82
0059A
01DE5
1E37F
1FD02
022AB
00F5E
02ED6
00FA0
1F069
1DD7F
00DBE
1F83E
1F98A
1FE41
1EE39
1ED52
1E23F
00568
00A2B
1E2EA
1D58E
0235B
018AF
1FD49
1E780
1A868
1A794
0060E
0102B
1F44C
04736
1F67C
00C77
1F3AA
0293C
01F84
1DCFC
1E88D
0002D
03E7F
1B3B1
1906F
1BDF7
1F94B
1DD2D
00F2E
1F184
01CB9
1FB35
1EFEA
1E463
1FA25
1B9EB
00E47
04F62
1EAC1
1DE1F
1E263
1E328
00CF6
00D02
1DDC1
04732
0412C
1EDC0
0145C
01304
1FBBD
1FD1B
1E82A
03BDC
1EF71
1DE8A
1B455
0484D
1B689
1CC55
02C9E
1DA90
1E6C5
1FDD3
1F4F1
02DDC
05523
024B7
1EA78
03C5B
1C78F
00E13
1F826
1B268
179D9
02224
1B127
1EE8F
01397
1E3EE
1E483
05A24
01E7F
1B57B
1F719
1CC11
01921
008C7
04DBE
18E6F
1C592
1BEDE
1CA83
1E950
0035D
1F95C
02265
01AB6
1F308
1E40F
1F33F
0121E
1E8F8
1EF93
0195E
1FB8B
1FF09
1F4CE
00A47
1C797
1F635
0520F
00746
029B0
1EDB8
1F9C2
1DDAA
00837
01576
1CE9A
1EFE6
1F11F
00C55
1EE80
1FB94
1DFEE
1F6A7
00C92
00FA2
00017
00702
00D5E
00A55
01B7D
1C7EE
1FD46
1E9E4
01E2C
1F5C1
1DF19
1D84E
1F644
1FFB0
00BBC
1D952
00AC7
01700
1CFB6
01FCD
1FC46
1F3FF
1E265
003E4
1EE11
1FD81
01D61
018CD
1D457
1EE74
011F7
1CBE6
02390
1EA18
1F4D3
00DF9
1F89C
1E0A0
014B8
0096D
1D187
032A6
00DDA
01105
1FF5A
01F77
1E59D
00D2F
026B7
1F4AA
0061D
1F5E8
1FBE0
1E90A
0490D
1EDE3
01052
1DEC3
00219
1D053
01DE0
04921
01995
1FB8B
1F4ED
1F9D5
010ED
0140A
03B0F
1EBE9
00787
1F487
1FCA9
1FE92
1C992
1EE56
02D9E
1E67D
1DCED
1BFEF
1EB10
1F6CB
1ED7F
1E182
1F76B
1FEEF
00119
00698
0502C
1D201
1D89E
1DAB4
1F822
1DD65
1E3CB
1EE9D
1F1C2
1EBDE
1E602
00F22
00DD3
1C95F
02A8D
1FE4D
02BBE
1DD78
1CB8C
1EE12
02D63
1CA9E
019F4
01A3F
03B42
02AB2
00897
1FC8D
0209E
037DD
03508
00ECE
00F5E
1DA0A
1E8EF
1F334
02D18
1CC81
1F39A
1FF8B
035B9
1C00D
0302B
1DE7E
01889
1E41C
02842
01060
01E8E
00313
0094D
1CB84
02D0D
1DFD6
1FF5D
1EAF5
1ED71
01122
1F35B
1BA75
1F47A
00FA3
1F7A3
1DFBE
00D4D
1F075
00325
0151B
1C9CB
012B6
00339
01952
1FBD2
026C8
1EBBB
1DC5F
00332
00C18
0120B
1E097
1DF42
01DE0
00D20
1F376
1DB04
005B0
1FBC7
1E605
00D87
1FE98
1FA6F
1D2C5
02469
1DBD2
01BA8
0102B
1F893
009CA
1EBE1
1E416
021BB
1DEAF
1E3E4
1F401
017E7
019AA
1EF98
1EA42
0232A
1FEEA
02248
03110
00675
00079
1EDE8
01131
001F0
1E56D
1F0D0
0106D
1F4CE
1AEE6
01339
03D61
00367
009C8
01723
00D65
0139C
1F839
00425
1F5A3
0058E
1ED0B
01B46
01384
1DDD2
1DF69
02033
011A1
1F151
1A82B
1E00F
1D07F
020C9
00982
05519
00AB9
000BB
1C85C
0049F
03458
1CD8C
1E85C
001EF
0113E
1BB48
1C2E8
1E701
1EE63
1F7AB
033B0
01512
0054F
1F117
1F97F
01CCD
1BD67
1CA11
1FEAB
03AFA
1A8E1
1E881
1D908
020CF
1F42B
011EE
1EEDC
0388C
01318
1D989
035FF
1DFB2
1EFE5
1DBB7
1D8E3
01B24
1EE14
00C10
01488
004DD
0045D
00158
01728
1CF42
1F86B
1EE6F
1E1B7
0118B
029D4
1FCEB
1EACC
1F91B
010B1
004F8
009BA
1EAB7
1D9C2
0011A
00290
1EC09
011B8
01330
1D1DD
02160
00976
1E0BD
01BB3
1F6EA
00071
1FECD
1E95A
1F6F2
1E64C
1BF8C
011A0
017A7
009BD
0010A
1FF71
02439
1E51A
1F384
01DFA
00A41
00261
1FB8A
02242
1C05B
1E6DE
00449
003BA
001B5
0422E
1AB4B
00139
198B4
00140
00AD3
00EC8
00C24
00DB9
01B23
031CD
1E6A7
1FEAF
013A8
1E121
1E24D
00267
1F36F
1D849
00342
1F6D6
018EA
1FE7E
1BCA1
03C2D
04F44
1E90D
1E60F
021E5
1F02A
1F360
1CCFD
00504
1F594
006DC
1CD9B
1FBA9
016D6
1D98D
1E800
1DE20
1E131
00657
01A5D
1F977
0011C
1F605
0185C
1C6C8
0023C
01C77
1E94C
1FC5D
00338
1FBF6
01F89
04F1E
00E16
1FC49
04A14
1FD5F
1F9B8
01A9C
1E7A9
1E302
00B59
1AB50
1D9C9
1E902
1FCFC
1ECE6
002CD
1EBD1
00091
01AFD
1FAD5
1EC97
1FD61
03D1E
1E0D9
1E64C
00C35
1CE27
0167E
1ED14
0145E
00D9B
03C8C
1FF06
00208
00B92
1F376
00A3D
00414
1D3FC
1FFD2
1E057
1F76F
1CF49
03BF8
1DD8A
1D8D0
1E2E7
01807
1F05E
012A9
01520
1F1A8
1BC25
01AA9
1F5B8
00A1F
1F086
1DA86
015FA
1EE28
1DFFD
1FBCF
00680
1FABB
1E219
1E7E2
1DA26
00320
00B14
1DD63
1E7E3
00967
00307
00591
1FD8A
1F1E8
0066E
1F7EC
0149C
00009
1EE98
1E639
1F43C
1DF85
0123D
1DAF6
00215
017F5
1FB74
1FBC1
02016
1FB0F
1E14D
0138E
0030A
1F96B
1F1E3
1E7D0
01D1F
1F59F
1C43C
1B93D
03262
00994
1EA91
1E022
1E926
1E91C
1F047
1F0FA
02B6F
016CC
1FA66
1FE3E
010E5
008A5
02AD0
1DAC6
1D9F0
1EAB1
01734
02578
1DD0B
0023D
1EFD1
008C6
02188
024C3
1E98C
1CD33
00FBA
1BD19
0336F
00B0C
022CA
1EFE0
1E9FA
022CF
1FE92
00251
007CA
0173E
1F095
009FC
00458
1F2E9
00143
00A8E
0023E
000B3
017FC
1C3F4
012B6
033E7
00B71
1E20A
1DBDF
1E437
012F4
003B3
1EA48
0133D
1E39C
0171E
010DB
0168B
1E465
1E974
008B0
02019
01826
1FDBD
032E1
1DBAD
0055F
006FC
1C467
1E719
1D5CA
1D90E
00D57
1F920
02D92
0113E
02AD8
013F0
1F011
1F51A
00455
1FD08
1D3D2
199AF
1FB7E
1C2E2
02BAE
011B9
00A98
0239F
1E7B2
1F287
1ED37
1C83B
03A51
1C703
01ED2
1FC0B
01913
1E607
1E98D
01D6E
01526
1FDD4
1E90C
00FE6
03466
012A4
1EB38
0019F
1F088
1F625
1DF2D
1F77E
01DFA
1DFE9
1AD85
033FE
00DAC
00B48
17CD3
1CD1A
1DFD9
1E5A7
01AC4
1EAEB
1F2B8
1EEB9
00A6B
02173
1D5E4
015D1
1E14C
01F97
1E70F
1EEB0
1D0AE
00CE4
004E0
00548
00268
1DF90
00AE4
01A25
01128
1EFDD
00034
00E87
01317
1DBD9
1E85C
1DAAA
1CA03
023A8
01623
1EA4F
1D9EB
1EE4B
00B8B
0326F
1BCC4
1C82F
1E29B
1FE7A
1E1BE
00A12
01EB5
1F2A1
006E1
0313D
02042
00480
011EC
1FA44
00ABC
00DC5
1D1C0
0017D
1E242
1D2A1
1E2B1
1E94A
1F68D
1F2E5
1C95A
013AD
1DB61
00AF3
1F4A7
1F86B
004FB
015D3
00D60
01857
1CE55
1E71C
1DDC7
00A6E
1F75E
1EF2F
1EE7B
028A7
01A4F
02FF6
026F9
1F0F6
1DF14
02A59
1FD07
1E46E
1FD1F
1FC4E
1DDB1
02DAC
1C7B8
01E02
003FD
1E8CF
03561
1E992
02B0F
1F869
006FF
01B81
01D84
1F135
1F4D3
1E7BB
1E000
1EE64
1D609
000D3
1F70C
1E6D0
1E5BD
00C63
1F247
025AD
00050
02032
1E146
012E2
001E2
00DAD
00892
00F34
1FA4B
004A7
007CF
1F9F9
1F8FF
00836
1FF82
02B51
009CB
0152E
1FC00
1FEF3
00F6B
01251
1DB49
1F4B7
01182
01C99
1F17B
1EB38
000D9
1FE9B
1E462
00E50
020CC
007AE
00B0E
008D9
1FFAB
1FBF0
1D93F
1F56B
1E85D
1D3E1
004AC
01653
00C6F
1E1BF
1FA6C
1E5C9
1BD07
02FBB
010E5
01680
01305
1D3D9
006AC
023CD
1C6E9
1BB69
1DC72
1E79F
1F8EF
1E104
1BDF5
1F16B
037F7
1F74F
03E28
002E0
1CE4C
023D2
012AB
1FDBB
1A1E0
1D9B2
1F906
019B1
19F6E
011BB
010A9
01111
0291F
1D89D
00B78
00E36
1F605
1EDC2
1F4CF
1DC9D
04934
1FFCA
1F86E
00F86
010AF
1974E
1D9DD
007F2
03A72
020B6
055B1
1D159
1FA3D
1F44C
1F0CC
011C0
04940
1E08B
031E3
02A0C
009E1
1F70D
0112F
01416
02143
015C3
1FCCC
1DA5E
1E627
017AF
01E5A
05D59
1C9FA
1E3D8
0255D
03D23
0148C
1E5BE
024FB
003D8
1ED54
1CB4C
1F631
1E424
01253
1A503
1F0FA
01BE6
1E613
009E3
00E52
00330
1F0A0
1E2F3
00C57
1F61A
03430
1E977
1CA64
005CD
00836
1DE21
00BC2
00AF9
1F534
007AF
1F605
00D84
1C3BF
1EFF3
1D06A
01297
00889
1B903
1F432
1DBCE
01039
1F73C
02B21
1FDC1
1F468
02896
1F67D
1E24F
1F9D4
1C6D8
1F456
01BB9
1B760
01F7B
016D5
1EB56
0490B
00249
014AA
004FF
0017A
01901
1EA3A
00290
1D7A8
1EAC2
1DF12
031A1
1D5B1
1EC8E
1FAAA
01534
1E87A
02768
00834
009EA
1EBEA
006CC
1FE59
01AE7
0045A
00DEF
1BF1C
00FDF
00994
1F0AB
005D1
00935
1F877
1F3C5
1ED10
01795
01875
1E2BC
1C21A
008BE
1E076
1FC59
1D809
1D3F5
00140
010D3
014C7
1EDEB
00262
1F411
1C28B
1F9C1
032B6
1E294
02D12
0357F
03301
00031
1FD1F
019D6
1FFC5
1E060
1FBD0
0060B
0028E
1E7AC
1DBF4
1FCCD
1DA6E
1ED8E
1F8AD
1DD8A
1E9C3
1DA59
006B3
041A9
1C444
1ECD6
1E42A
00B94
1CD82
1C914
005E4
00423
02334
1FAC8
02883
0075D
1CB96
1EC94
1F99B
006B2
1A4DE
1D222
1DCBD
00B0A
1B973
0360C
03679
1F5D1
028AE
008DD
03DE6
01570
00E0A
00C0D
0045F
0070A
1EED9
1EB05
00672
0081F
1EBF3
0128D
012D3
0012B
1F87A
1F8D4
1BEBC
03479
1DD92
00D9B
00818
1E2BB
1ED0C
01798
02818
1E9E6
1F414
1F85F
1FD6E
1D419
1F66D
00022
1FED7
02538
02175
1FDBE
1FB5C
1D3DD
00858
1F962
1AB24
1F242
006FA
0237D
1E7FB
00E7C
03DF4
00F10
1FD27
1FD40
1DC8D
02026
01521
1EBB0
026E8
1F844
1DEA2
0048E
1E011
0208C
00238
0065C
003A2
01A42
1F583
02399
1E9CF
1C552
1FF1D
1E502
01192
01A25
1F42C
00350
003AC
012BB
004E3
1F1A5
01B26
1E28C
00984
1E3F5
01DF3
0085E
01FDA
00EA0
1FE4F
0154B
0058E
1C344
00958
1E1A5
016C4
1FEF0
00053
01D02
00EDA
19C5C
01604
01416
1D59F
02033
1E84E
1F376
1DF54
00D75
018B0
00978
1FB81
00FFE
02A5D
1F110
00FCF
01959
1F2F4
00CBE
1F6E3
1AFB9
1E253
18B19
1E5D2
00D0C
1FB7D
009DB
1F264
0251D
1F9C1
1FA30
01EFC
1D4FA
0037E
1F3AC
00D05
1DC7F
00CA6
1F7AF
01424
005D0
1F8BE
1D94A
01203
1FBAE
1DE82
1F0A0
01791
0126B
1EE10
1BEBF
02092
1FDDD
1D236
1F638
1C530
0048E
1AB32
1FADE
0045B
1F506
1E17D
02E6C
01A6D
1C75E
1FD0C
03659
00C18
01AB6
0453D
01DE0
1FA55
1F9B3
00101
04774
01D51
1BB56
05F71
019C4
038DF
1D34E
0258C
02726
02630
01FB9
1C26C
01F4B
1DC1C
009BF
03D4F
1FBC5
1B5BD
01ACA
04FA4
01644
00A16
02508
02CB5
1CD84
1BE98
00A0F
1C2A1
1F487
1C4B5
1DDB6
01914
01520
014A1
1FEE4
1CD88
1DF61
1EF54
0126F
1EE30
01901
1F440
1FADC
1F6B3
00B84
1CE53
1B084
1F956
1E443
013E5
1E52E
1F73C
0346B
1BB8B
000C7
1EEDC
1EF4E
01073
1D708
1EC51
1E41B
1E503
01EA5
0161D
1EEE4
1E14E
1E205
1FA0C
02951
0024E
1D7E8
0072B
1E39E
00242
002F2
00CB7
1E335
0020C
003C9
1FDB9
0205C
1D983
00E30
1E5F4
0042F
02FA1
1E8A9
1FAC9
04D9E
1E7CF
0189B
032BE
0268C
053BF
1D3EB
1A848
002E5
1F1E2
00553
1F03E
1E89E
1D8EB
1EEB2
01CE9
1CA17
1B40A
1DDDE
1FAEA
06772
010E5
01862
1C2B2
1FF35
030CF
1E45C
020A0
1E7FB
1F7C8
1F4FE
1E09C
00C81
0097C
00CC6
1AD5E
1E642
1E9AB
01C50
1E409
03B21
00761
1F280
1FF1C
1B23A
02A67
00623
1EA78
1F3DF
1F948
1EEF3
019BF
003AC
00641
1D21B
1ED36
0132B
01075
1E88A
1F119
1E302
1DDA2
01193
0091A
02E5B
1D660
1DF9A
00CB5
1EB12
1CCBE
1F894
00C6B
00289
016A8
003B4
019E9
1F542
001F4
1E9C9
1C93A
1E2A3
00977
00DA3
1F777
1F755
1FBA3
003D6
1FE84
02892
1FA71
1E050
01CE3
000CA
00AF1
018F8
1E98B
1E9B9
0164B
1F3B8
1E4D3
0206E
013BB
1E6CF
00A50
02726
1F1DF
1CA18
1E588
037DF
01AB8
02FAD
1E31E
1F4EC
1C40F
1F50B
026EF
1EB1D
1BC6E
1E6DE
019CF
04717
1F663
00803
1EA61
1F832
01416
1E9C3
01CF5
1E116
00785
01CCC
1E823
1EB8F
1E419
1F6D7
1E4A7
1D222
1EBE0
0130A
1DF3A
03752
1D6B8
1FBAD
1E916
1D1FB
037AB
1FF07
1DF0E
001FE
0195F
1FF16
1C7E4
01231
00BF0
1F900
1F9E2
0059E
1C85E
00CD1
00CC1
1FA94
016A6
1DE0D
1F43A
1E4E9
010DC
00CF5
033EF
009EE
01462
1D75F
1DA45
1EC84
1EFCC
01562
00051
1F694
1F7D5
1E438
1E63E
015B2
1E440
015D8
1DEF2
1FEF1
1FAED
1EA64
000DA
02551
1D59A
02300
1EC42
1F7D4
01FA6
1DD6B
01E05
00FE0
1FF92
1E83E
0087F
1F1A5
016F2
00602
1F3AF
1F2C5
1F920
004E7
1F56D
1F907
1E40F
1F94A
00F5E
1CAA3
1EB44
0246F
1D8DE
1C5B8
1EEA3
1F824
1D4CA
1ECE7
1F4FC
1DED4
04AFC
01B02
02E86
01763
00822
016DF
00602
004F6
1C4A7
1B923
1E0AB
02653
1BB94
1FD7D
1FE58
1E71F
02690
1E92C
00513
01DB2
00AB4
025E0
1DFF3
1EDFE
1E668
00418
1ED49
03413
1EF37
1FCBF
1F0DB
002D5
0046B
0114B
1F098
0227D
013EF
1F9A8
0152D
00EF2
0069D
1F4EF
00A8A
00845
1E96F
1E864
009C2
00E7E
001D0
1E6A4
01551
0184F
00723
00D22
01BFD
01F30
018C1
02252
1F52E
00B46
00DFC
1E626
0046F
00165
1E754
1F558
1E798
00361
0159C
1F5DA
004A6
1E2D0
00263
1FB07
1D2B3
016F1
0193B
1C621
1E208
02B01
1E01B
1D1C8
1CE9B
000AF
1CA90
0064C
00214
1F473
1F96F
1D177
1F8C2
04E22
1B4EB
1CF19
1F990
0144B
1ED11
1B51A
1C254
1CDBC
02E53
1FD50
021C7
1EFF1
1CC1E
00BA5
00BD5
00F48
19B64
1C491
0054E
00D4B
19F71
0154D
055DA
1FCFD
02985
00B04
03B1B
02615
01DA5
01878
007E4
1F41F
013BF
00436
1ED50
00056
1FF4A
008FF
009B5
00CA8
00156
02D7F
01C8A
00594
0043D
1E62B
1F046
002A4
1FF33
1E7A2
006CA
02764
0179C
1FF3B
018E3
1F2A1
0027B
1E881
1FAC5
1FB2C
1F70E
0043B
00CEB
1FCD1
1D86F
02041
02980
0127C
1ED5A
1D86B
1FEDD
1FAEC
01141
1DB40
1F5D0
1F9CB
1D105
01159
1EFF3
1E71E
1D37E
1E3F4
0064C
1F239
1E7BD
1EECC
00D66
1E5E4
1E1D8
01045
1CBDB
1DBFF
1FDE8
1E4A3
1EDE5
1E1EB
001F9
1F780
02319
01E4F
1F641
00816
01186
1F563
1F7D4
1DE47
1CF8E
1CEAF
0065C
1DE13
008A0
003EE
1DB42
01B4C
1D8E6
01EC8
1F1F0
1D1D1
1DCCF
033D5
00F63
1EE72
02276
1DFE0
00F1B
007D0
01A9A
016CF
0018C
02CEE
1EA2A
1D365
00B18
1EF8F
1E5F4
1FF43
0450A
1F988
0192B
1DC6F
0194C
00984
03BA9
1C70E
01188
1D8B9
00BF9
1CED9
008C3
02282
004AD
1D381
1EDDD
1F5FA
1F661
1FFF2
01F10
1F4BE
03BA2
1D3B7
003B2
1F0D7
01641
01B36
00AC0
01427
1D095
1DBA1
015A2
1EF14
1EE1A
1FFBA
00E4F
0178E
029CD
1EFAA
0134F
1FE43
00D6D
02FDC
1DD70
1FCEF
00BE4
1EC6B
1E908
1F5E5
01A0A
00ED2
1FD08
1C81C
01094
1F02C
014C9
1E4DE
1FF79
1E593
00448
1DDF8
0267D
033E1
1B645
1CFF3
1B059
1DD3A
1EB63
1F57B
1DBA5
0174D
02304
1E264
00351
1E1F5
1C898
01BBA
01D2C
1CFE8
1E97D
1C6C9
1E87B
01C75
1E0AE
1D887
0050E
1E844
024AE
1EFCD
027B5
1F588
01ACF
0104E
1DF73
1E155
1C3B2
1FBF0
1FC00
00483
1C63C
01989
00429
1E499
1EEC3
1FFB7
1D484
0063B
018F9
0259D
1FA0F
00513
1AF05
1EA99
03562
008CE
016A9
1DA52
0046E
00951
02A33
01A93
1E0E7
03D2C
0171F
00FCC
003CA
1EC06
01FDD
0147D
1F562
00B69
00DC1
1FC5C
1CD8B
02B4A
00CFA
01DC4
1F204
0113A
1FBDC
01F94
1FBF0
1DC1A
0464B
1F219
1DCA8
1FCEB
1F7CE
1DF39
00393
0328C
011B9
1D67F
02390
00C48
1D9AC
1D151
1F35B
1F542
004CC
1D917
1C4F1
01565
01A53
1C670
00D70
1DFBF
1F405
009D4
01603
1E3F1
02DFC
00FD3
1E5A9
002DD
00A02
0124C
016AD
1CDAC
1D0A0
013F2
005BE
1F2D3
1F66F
019B0
1F641
00C96
01E01
1E6D4
1F935
00893
1E8FB
004AD
1D41E
1DEB6
000B6
1EEE3
1F81A
02893
1F432
00A06
00C82
0192B
004E0
01853
1DEF5
1F9CE
1EAB2
1ED62
00DDF
1FBD7
1DC37
1BCAB
1E4A3
1EE4D
006E9
1DD08
014EB
1DEFC
02404
1C7C2
1FFB5
1FBEB
016E2
00DC0
00D75
0003F
1EE89
1ECDA
003FA
00904
1EE12
1CE94
013EA
02CA5
1E981
004CA
1E6E0
0118E
1C2D8
1EDF0
1EA34
1E4B1
00DE1
00966
01E2D
0100B
1FBEB
1FC8F
01FAA
0245C
00569
1BC40
024E5
1EDCD
020B1
007DB
1DFB2
1C210
1E6DB
1F94C
1EC6E
1D593
05FEF
01257
04660
0143B
1E8B2
04900
01332
1E6E7
1F705
1F8C1
1A5EF
1F0DB
038A9
1E7E0
03241
038F2
01799
07ED0
1E306
1A4F4
02F24
1F2F2
1DD7B
031CC
1FB2E
1EA54
1F793
1E2CA
00D64
01721
1EDBA
1E6FD
1F040
1EC75
00E28
1F777
00543
028B3
010B2
01379
01269
00470
1F2A0
1DC3E
1F97A
1B73A
1FDA2
1F2D6
0003C
03A64
00B21
1DD9A
01AAC
1F148
1CE74
1F0D6
1E141
0060E
00958
1E17C
1F79D
00AE2
0076B
1EFB3
01732
014FB
1C904
1FFBE
0037F
1D6A4
001EC
00D21
04217
1EFA1
00197
01C69
01F2A
02FB6
1F0C8
00200
1D719
013C6
1D4E0
019C1
1FE38
041D0
1D2EB
1FF92
01EA0
00931
050F0
02E6A
1D1AE
01306
002C2
02FAD
1FB34
049C9
1C921
1A89D
02A1A
1CDB7
1B7CB
1FAAA
0378E
05ADA
033A1
03D57
1D9C0
02F12
04B96
1ECCF
03048
02EDC
1E349
1B3B6
001E5
0118B
1EFBA
020BA
1E812
1F3DA
1C705
1CC66
1F27B
00BCA
1B8A1
1FF2B
1ED77
1B105
000EB
01595
00971
00904
0054F
00661
01631
02394
0095A
022AC
1B8A0
1F44A
1E79F
1CF4A
1F0C2
1E318
01133
1F16D
019F6
04ECF
1BE4C
00307
009E7
1DC07
1F4A1
1AE6B
1D088
1B4FF
1F4C8
1E6B7
0211D
1F23B
1D48A
00178
00166
0155A
1EA5A
1C9B4
1FC38
02153
0172C
1E782
03E73
1DFF9
1FE55
01714
1FB56
05D66
02774
02F13
1DB6A
1E7EA
1C8CC
00A62
1FAFF
05F92
1C036
1A7DA
1F986
04657
0094A
0292B
19AD8
03BAA
1FAFB
03299
1EDE2
009AD
1C60C
1A489
03BA9
1E9C2
1B504
1DDD7
02969
05118
0312F
1EBF6
1EC92
02A66
046E4
00002
01106
01C89
1E2AB
1ED8E
1D594
1F59B
1E6FF
03B46
1CF92
1F5E1
1C94E
1F3FC
1D791
1FB3E
1DE20
1F14A
1D353
1CCD4
02AC3
1F07F
016CE
0189C
1FAA2
00DC7
01BB1
00030
02BF8
0177A
1EB8A
0231A
02DF2
1F795
0126B
1FD0A
1E802
1F2ED
00CBB
00F27
0025C
00488
01026
1E3A6
1F648
01679
01549
00F99
00821
1F093
1F62E
1E438
00C39
02370
1F74A
1FA37
00942
1FE27
010F3
1D696
00EC0
1F06E
1FF54
1FB1B
00A0A
00EA2
02564
1E610
1E549
01E32
1D529
1EDE6
00905
1E65F
1E8C4
1EAB4
0222D
1D083
1FAD9
1BE11
01662
0084D
01F8A
1EDA5
01201
1E0CF
00561
1B6C8
01D99
1FF4C
1CA68
1E6C0
1CCF2
1F6B4
1C8A2
01EB6
1F4C6
01D3E
036D6
1D7DA
00EB1
1F002
1B474
0136C
1E542
1C411
00365
1F894
1E9A8
1E59F
1F3BE
1DD71
00FB3
004BF
03E14
1D297
030C6
1C0DE
01C9B
008DD
1DC18
1D9D2
050AE
1F92B
1EB14
012A9
02E2E
008C7
01885
1F8E7
02790
1EA29
02BFE
1F8A9
1FC63
1E262
1EE8D
1DA12
1E21E
1D691
1E921
02504
007FA
00748
0189C
04CA2
03FBC
01C74
1F17E
1E9AA
1F6FC
1F8BC
1FC62
1CBBD
1FC0B
00475
016E5
017C6
1FFCC
1FCDA
00551
00A63
1DABF
02302
1FF44
00C1B
00621
1C1EA
006A2
1E4D9
02FF6
1FDC4
1E204
01990
0155F
1DFB8
0005E
0262E
1CCF6
1EC7D
0063A
00578
00D0D
017B9
1FC7C
0090A
1E2A8
1EA03
01B19
1FDA2
00B8D
1E620
1EAB7
00029
1DB6B
1EFCB
00551
02492
00BA9
1F3BA
0064A
1E158
1DB89
018BC
02D52
026B2
1F05A
1F58F
1EEF2
1F279
00D67
1E95E
01619
00E76
1FDC1
1FE64
1FB1D
0061B
1FAA0
1F6BE
1FE98
1F148
00CE5
0029F
1FB09
1DCF9
01E0C
0114A
1EBA2
1F7C4
01CD1
01566
01D08
1F61C
1E581
1CDDC
00EC0
1FB0C
012B1
02040
00D8D
01079
03BC1
00DC7
02DF5
1F1BC
1DFF2
1BD74
00C1E
1FA59
1EE0D
1E591
1EACD
0096F
1EA4C
033A9
01C45
01572
00EE4
1F317
021D1
1ED16
0289D
1EE72
1EF40
1EBF8
019BD
1FBCB
02806
02362
1D268
00CBD
1FC7A
1F405
1F115
1FAF1
00A98
1C991
1D1A8
02327
0181E
1DEC5
1E851
014F4
00D7F
1E4F1
00AEB
0019D
02203
01982
019FC
1EDA6
1F3C7
0096E
1EE5A
1F28E
0030F
1E878
1F586
0038C
1F7A3
1E3BB
1F757
1EF56
1EE95
01DEB
1F61D
1F994
00093
00205
02956
1D67A
0084B
1F8FA
1F89B
1E2E8
007BE
1F2DA
005B3
00A9B
1EED0
0077E
01B88
01132
1E66D
008FD
014B1
00995
00AF2
1FC8A
1E86B
1D800
00BFC
1CD19
1E98E
1E4C7
1EF2E
00BA9
02595
1FFE4
1E91D
1EED7
1CC7D
1DBB7
1F63C
1DE93
00411
00E38
1F39D
1BFCC
0056B
1F018
000C5
0293C
01F79
1EF3E
1FA48
1E997
01638
1F25B
1F16E
1FC04
009A2
00100
00996
00F4E
1F590
007E9
1EB88
1FAE9
1E487
00F98
1DA2E
01252
001D6
00E54
1F735
02E63
1F5B1
1FDB4
1D94C
02CB9
1D7B6
1E582
1EAB8
0155C
005A8
00708
00A08
000A0
1D9A5
00C81
1F8AC
00A3F
02272
1FE5B
00CD4
0065F
1EB14
1FCDF
0007A
0109D
1FF60
1EF34
012C3
1E9EB
1E118
1DD17
00852
00350
1E8B4
016DE
1F8FB
1ED2D
1D8D4
01717
1C4C5
0219F
1EE1F
1BA41
0111A
1DFFF
01160
1E665
00F68
04F89
1CAB5
0107C
1E5AB
0275D
00156
1E570
02B4A
1FE24
1E026
1F18D
1DF4C
026B7
03062
1F6CF
00B82
03B91
020DA
008C1
024F0
02254
0057C
02CEA
1E1C8
1E5C9
01486
1F4E7
1F3A3
1F9B3
1FC85
006C2
0119B
002E0
1ED05
017B1
0153A
1FEED
1F66C
031AB
1E3BC
1F43D
018FE
1EA1E
024D4
027AC
05AF5
1F149
01568
1F7E7
00FF6
00674
01EF8
1E3C5
1E606
1FDBE
0375F
017E5
03428
00076
015E6
1E293
1DC53
1CA32
039CB
00C70
0153E
1D856
1EC7B
1E170
1FCFE
01B85
020E2
0154E
019EB
1EF14
003FF
1FE9A
1F1C8
01E8E
1F534
1CBD8
1D562
009EA
1DFB3
1D469
1F812
1E12D
01AD8
01414
02C27
1EF2D
05D92
1BDBA
1E000
01E00
1F4B4
1F041
1BFFE
1F0C2
1EBF6
1FBB9
1CAD3
0102A
1FA6C
00BAA
01B9A
03CF1
1D577
038B3
017C7
00A14
1F72C
1E7D1
1EB61
1B6E2
1FF9F
1E7FF
00548
1E291
0055F
00909
006E6
1D729
016F7
02F03
1F4CB
0095B
1EC3F
1E2D7
1EE7E
1FDBE
1EA01
022B1
1EDF8
00389
1E0F3
0308E
1FF67
0203D
1FAAB
00954
024F7
1EA1C
1EB11
02591
01EE5
1E276
00AB9
00086
1EE2C
1DC35
01492
01E53
00984
1AFBA
01295
1E3C0
00752
0132D
00FC3
17D81
00033
1BC8B
1FAD1
04382
01DE6
00B18
01CA3
1F88E
1F5DC
1F25B
1F363
1DB54
1F075
1DFE5
1D008
1F088
1F225
1D754
00295
0221C
008ED
04B8D
0035A
1F5D9
00640
1F74C
00C93
04389
1E7DF
018E8
0065D
1E9DA
01886
024B6
01AB1
1DACB
0150C
00B52
1EFBE
035EA
026B8
1FF2A
01712
01C5C
00F9B
02089
01BE6
1F76F
00850
1C419
1F3E6
1CB97
1F6BA
002AD
0054D
00212
0074D
1E601
1E9B9
00D34
00EBD
1E3A8
0245B
1F9B9
01665
1F894
1E66B
1DFD5
1F56C
01473
012D5
011AB
1E00D
1DEC4
0183B
0079C
1FB34
00368
0094A
00D44
01C64
1BD53
1C4BF
1FF29
1ED0D
1FF4C
00136
1E63A
1FC3F
1EC5F
1E5F8
1FA77
02156
1CDB5
025B4
02356
1F0D2
01506
1E3C9
1DC91
0172A
1F3F0
1CAA4
1B34A
1EB90
0038E
04E3B
1ECE2
1E2C8
028DE
03DCE
0383B
01B75
0423E
1DAFE
1E670
013FD
1EF89
1F5C4
1D3F7
03A32
03863
1FF64
1B188
1E454
054B7
1D310
04811
1E7E9
008CC
1F604
1D42D
00840
1D737
1F8A6
00C9C
1DB38
014C4
1F92B
033D2
1F358
1F21E
1EF40
03A4A
1E979
1EC79
0278B
01361
00B4E
01ACA
1E9F3
00D01
02269
0051F
008CB
032BF
01D5B
005AC
1ECB6
1D240
1CA8C
1C0F8
1DA1C
00CED
00E03
1F45B
1E2C2
1ED87
0027A
019E0
004B5
1E7A1
1F61A
02E93
01BC3
1C89A
01916
1FAFC
1D14E
1F83A
004EC
1F84B
00538
01F08
00F53
1F2B7
0156A
0180E
002B5
1F4EA
1FDF8
00D17
1FBE0
1EB35
0102C
00858
00200
1D6CB
1F89E
0077F
00859
009A3
01B02
1F33A
1DE2A
1EB2F
1F045
0103E
009F8
0117E
0173A
02674
00C1F
1CBDE
01DEB
01CEF
00429
00125
005A3
1EB7B
00D92
1FFDF
00078
1F410
00A32
01D9F
1E8CE
1F50A
01251
01263
1EDD5
01912
01F33
1E6C4
1F182
1E836
1FBF2
0023E
00932
0206F
1F385
04CCC
002C3
00094
1E25B
001C0
1E104
1EA77
0131B
01089
1E11F
1E943
1F9C4
02C90
1FF6A
008B8
1E2B7
1F842
1FE68
1E5AD
1FA88
0118B
00920
1EF82
1F49F
1FF14
01917
1FCC2
00740
04ADE
0086C
1C9DF
0157B
1D577
1FFEB
03D03
02F1A
1EB4A
1FF8C
03DCC
00017
0315E
1D98B
1ECDA
1E162
00C91
1CD0A
1F51E
1ED0D
01A26
1AE2B
1FA1D
1CD2F
01940
00C8F
03680
1F010
017BA
00310
0339D
00A96
02151
1E7B6
1E8D9
1E7BB
021E2
007FB
1E08A
1DC2B
0048D
1F572
1C007
1F2B8
0118A
1FB27
1E0A4
1D901
1F167
1E693
1E502
1ED72
1E83E
00D7D
01E3D
01181
1F7F5
008AB
1E9C1
1DC5D
1FFB7
1FABE
1E8A6
1F543
1C4C8
02009
1E381
0352C
1EB97
1FBA6
025FA
1F038
1ECB6
1EE10
01D0D
191BD
1FC2F
1ECE3
1F7F4
01AA6
1F6CC
1FA7A
037E1
023ED
1FCAC
009DC
02C65
1F5A2
1F2F2
02ABB
1EB42
1E62E
1F490
1C1B0
1F9CE
02D5B
1FBA4
01D57
01B05
003AD
1FEE9
0450B
1D0FE
1FCF2
04464
00445
00A46
1A412
1D30C
1E49E
00DE5
1C21C
0006D
02535
1FF5D
0127C
001B9
0269C
1EB81
1F84F
0179E
038EA
00AA5
1FE3E
03666
00A9B
1DEB2
014A8
1D5D0
1E104
1E337
1E5A1
1D297
016D6
1DE0B
1EE22
1EE1C
1CACC
01253
1C5CE
01A6B
00AA4
0266C
01BF3
1E898
00552
1EEA9
1F7D0
1F415
0243E
1D27D
00AE8
1D6C0
00EB8
1E1E1
021F2
1C5D4
1D65B
1F866
00D59
1EF3E
0073D
00995
1FCF1
1D5D9
1E65E
1FBAD
1FA4C
00062
0124A
1FF8C
1F2FA
00231
1D9C5
0062C
018C9
01CD4
0047B
1F705
1EAF4
1C6A3
1DBD5
012D7
00EB6
02109
02964
1F9DF
0559E
01288
00512
00A46
00E5F
1C7D7
1E8C6
01253
0033D
1F470
1EE36
01631
1B860
00025
1FE63
018DD
1DFF4
02D00
02416
1F734
01D4A
002AE
1FB6A
1E8C5
018CF
1E1B2
0018E
02F68
00859
1E81E
1E907
1FAC1
1F4F7
00A0B
1FF68
1E700
1F620
0253A
1CACE
1FF90
007A7
01666
1F507
1F42F
00183
1F548
00D81
1F093
00345
0166D
1F026
1F28F
1F69B
1D81A
1D16E
016DA
1DDFB
0038C
1E5F2
010C7
1FBAB
1F29A
003A4
001FE
1F6DA
1E306
1ED13
0259F
006F2
1B159
1F5F4
00D68
1E612
01557
038E1
1E6D4
01229
1FB91
026EF
00EC0
037E8
1F4AB
00961
1DFC6
0133A
0092A
006C1
0000E
1CBFD
1C3B7
0205B
00BA2
1FA9D
1F3BD
0078A
000EC
01399
002D1
00667
1E8DD
1E740
0007E
1DC9B
1DE61
1E551
1E714
1E256
1F6C2
1FA4F
1F504
0056C
0021B
009AF
00538
1DFBB
1D97E
01680
03648
1DB16
000AA
1EFBC
01572
01051
001C7
1FEA8
0069D
024E6
01A78
1E1BE
1F608
1B5BD
0050C
016C8
00839
1DF6D
00DE9
01313
00AD2
1D02B
00834
1F1EC
031A8
00B93
0219C
00817
00F6E
1C283
01114
026D2
1F972
1EC44
1F2BF
01F68
1F0BC
1DA69
00486
1D106
02076
007EF
00B40
002F2
0112C
1F75B
1FF67
1E713
1DF3C
00A60
01BDF
1FC8C
1F5EC
1E2D8
00024
1DE53
03DAD
1EA8C
01A4F
02B0C
1CFF4
067E7
1F793
1B75D
1F9A8
00D4F
03B7B
1D68B
0424D
00FAE
04986
1C070
1EE0D
1D0C1
1F91B
01189
1FF33
00E1B
02901
1EDF0
1F82E
1F5AD
03253
00E01
001C0
03CBF
1D6CE
1E7F3
1D236
1FA5F
1CFD0
1F71F
1F1AE
0367D
02EE4
012A2
03799
0253D
1E7F0
002C3
00C39
029D1
01F50
1CC31
1D5BC
1AEE1
055CC
1FAF3
0052A
1FE9D
1FB12
1F3B0
1DC11
1E658
00437
00FE0
00B3A
1FB64
02E85
1D56A
0258F
004EE
00381
017D9
1E80F
0119A
1F3C3
00432
1F474
029D1
01CC5
1F046
00F35
1AD2E
00754
1FBAE
1FDA1
1E1B6
022A2
01EC8
1F89C
01A9D
1E512
1D900
02D75
019ED
1E1C1
1E547
1C51D
00AC2
002DD
1F384
1DAB2
0100B
1C54A
1F868
0055B
0263C
1E360
00DFD
01AD1
1E470
012CE
1A7BE
009B1
1E3B2
005E2
1CED5
1F14A
1EFD8
1C266
04C4E
03F50
1AAF9
00088
1E162
00E57
012C9
0492E
1C896
1D140
003F4
1A8F3
041F8
1F424
01413
01824
03671
001F4
048D1
04DC8
009A5
1EF4E
1DC6A
0071E
17D6E
1D7FD
1F00A
025C9
1ECC8
1E4A4
1B9FF
04CEB
04FC1
1FE7A
002FE
1F929
02DB0
1D9C6
1E8B9
018D3
1D6AF
1F3B6
1FB30
1F409
0082E
00B53
1F0D5
1D7AE
005D6
1F325
1FC1B
021BB
1E4C2
02D7E
012F3
1CE5D
1F239
1DDE1
1F54C
016BC
045FD
1F99F
03597
008F0
1CE38
1ED05
1FF99
1C21B
1E698
016EB
1ED19
1FC46
1E016
031D5
1E79F
029D5
01C47
01D02
1FA73
03A0F
0107B
1F0F8
01E22
01295
1F43A
01409
00DC0
1C882
01829
03882
1FCCF
003CB
1DB7B
1EB55
000F0
1FF4A
1F157
1FF0A
01845
019AD
01ECD
025C7
1C998
1EDED
1E613
027DA
1E895
1DCC9
1DB2E
1F69E
029BE
1EED3
01DD0
012BC
005AE
01280
1F8E5
1E80D
1F4BF
0145D
008AA
1EFCC
01270
00591
1F539
00AE0
1E9C7
1EDA4
00A0C
014D4
02084
01AC2
0226A
01D3D
1EDCF
0016C
1E64E
00DA9
1E5F2
00033
01A38
1E24E
1E03B
00323
0058F
1FA18
1EB60
01DE3
0110D
1F0B1
1F7DE
1E0BB
1E541
01F98
1F44B
1F7DB
0146E
1F04A
1EC04
1F60C
02FC5
1EBDA
0278D
1EAAC
0095A
1EBC1
00DD6
1D850
009AF
0211C
1F907
00A6E
1FDC0
1F471
1F275
03397
1E006
01515
01630
006CE
1ED3C
00D36
026B2
01BF1
00817
1F430
1DB6F
01800
1F715
1FBBA
1F199
1E8C1
1DA03
1F943
014E3
1FD24
1F25A
1DA14
1E1E5
013E7
018EF
01007
1FDD9
00353
005CF
00224
1FD48
1D434
00EA9
1FDC6
00A4B
1F46B
01248
1E8FB
1EEBB
1F40B
00350
1DD2E
1F694
009D9
1E485
00B87
00A1E
002C6
0071A
00AA3
1E330
1F186
1EFEC
1EBB3
01316
1EFA2
010CE
019A1
00461
0094C
1F83B
1E473
1F105
01563
1F31B
00D44
01F72
1FE22
00A36
1DC28
00E07
00D4A
01634
1EEF7
1FC51
1D868
00F46
1E7CA
1D7CD
00832
1F021
01454
1EC6D
00A2C
01EE3
006D3
002BD
1DD2A
1E781
1E43C
00D91
010B3
019C5
1E398
1F79A
1E97D
1FBF8
01B69
01AD3
0198B
1FB7F
1EFAF
1F102
00443
016C7
0035D
1DF3A
1E3F0
00794
1FA3A
1C1DE
1F64B
007C2
1FB4E
1F96D
1F63F
1CF54
011AD
1FD2D
025BA
1E6F5
01412
1D067
0134E
1F43F
0219B
1DFF2
1F344
1FEA4
02377
009E4
01303
014D5
0085B
1E695
01186
00BC6
1DF85
02083
007AD
1FBDB
1D874
1D41B
01232
00CFF
1FA1D
1E28F
1F928
1EDDF
1F299
031E8
01DAB
1F784
1F51E
02CAD
00864
010B0
01964
1C9DA
010F0
1FAA3
007A2
1CA16
1EEB9
1FC60
1F705
198B3
001F8
00A7E
1F6FE
1B0CF
01605
1F2A4
008C9
1FC81
018E5
1F922
0277E
1E90A
01A90
003D4
021E8
1EE4A
1E009
03964
00418
02271
1E7A5
0030E
001E7
016A1
0005E
1F160
01FD3
1D27C
1EC43
1F683
1FBE9
1FCE1
00F23
01BAD
01D19
1FA7C
1F5B6
01EFC
00967
00D4D
033AB
1E516
02427
01027
1D43F
022AD
1F0E6
02114
00176
1DCA7
013CA
1F0BE
1F6DA
1D9C8
1DC89
00054
0062E
17913
01DAD
1D95E
0012D
1F07B
037A4
002E9
0703E
01208
1E2E3
01983
00850
1F6E0
00BEB
036CA
18E66
19983
01902
15BF5
03731
032BE
1FC5B
06367
0186A
1F9C5
1E6E4
02591
1C4C8
1F36E
0C138
1FE37
1B42C
1B438
1C717
19795
1C9FE
1D10D
04B55
06030
1FED8
05629
1E2C7
1C27F
01938
1FF6B
1E0C2
1FDEF
1F1C9
0186C
018AE
00E46
01921
1ED4E
01E45
1FA4B
0145D
00206
1E1E9
1E73F
1FAA3
0228C
0145D
1CFEF
01B83
01176
01779
1FB5B
1D7DB
1FD64
01A0B
00DB9
00C38
1EB8A
1F799
1DFBB
0269A
1F06A
1F0B9
1E4A0
00FB4
1DF92
01640
0035E
01AD0
00AEF
007D1
0101D
1FC94
1F3C4
00B0D
0226C
00427
1D070
1EEAE
1E8F9
1EF0D
1F5AD
1C95E
0197E
00762
020B7
00929
1EA09
01DBA
1FF97
1B4BD
1F319
1C1BF
1EF52
0081D
03BD2
1DF0F
013B5
00F15
1F656
016FC
030D2
1B847
02B36
01136
1D978
0031D
1F419
00D4F
1C47B
00FEC
1BBA9
02B5C
1EA67
1D8CF
00455
1F0F0
01E19
011A1
02F89
1FF16
0291A
1A274
1E4B5
0294C
1D2B2
1EB35
01FBC
1F02D
1F442
1F68D
0172B
012B5
008B4
1EC7B
1D7C5
1E569
1E819
1F812
1FCC0
018FB
1F1B7
1F550
02652
01573
0025B
1FB99
01591
1F8F0
1E3FC
1D5CB
1F847
1F208
1DD82
00CBA
021A2
001AC
1F38A
02290
00ED4
049BA
0117E
1D126
1E098
0020A
1C74B
012D3
1E775
00C42
010E6
00E40
00F55
028DB
1E4E4
00EEC
1FCA4
1FB2E
1DC93
1FAD4
1F83C
1F252
1E73B
016E8
00CC1
026E4
1D1DD
008A6
1C938
012E7
1E606
02A2A
00ED5
00865
00DFB
01D1F
00B86
013F1
1F668
1DEA6
0297D
1CC25
1B253
1ECCB
1F0F1
03238
02A0E
1EDFB
1F39C
013CA
1F821
01518
1D0D4
1D2DD
1F1BD
1F9CA
003EA
01A39
02462
1E5CD
00514
1F6E0
1FC6C
038AD
1EA8F
005BF
1FDB0
1F940
1E998
00421
01081
1FCEF
006EB
01B73
013C6
1F5B7
1F22E
1FDB2
0036F
02038
018F9
01CF8
1F90A
0027B
1E5B6
006AF
02147
1D83A
1F5FC
1FCE8
1F94B
1FF6B
00054
1D9D9
1F80A
00060
1F2AD
0024F
00F42
01A24
1F9F2
00197
1D91D
1EF3A
1EE94
1F89E
00858
1F5A5
1E828
1EAF1
02B80
00CE1
1FF7D
015B4
00793
1F3AF
0017D
00281
1EED9
1FB79
01339
1F124
1ED55
00EE9
00445
00840
19148
1F55A
024F3
03573
00147
02EF1
0103B
03B2E
00D78
01AF5
00D24
1F8F4
020BC
00FB1
01B24
19546
1AE59
1CE80
1C02E
00F58
010AA
1DF96
02CFD
0254B
1C1FF
01A4F
1FE02
1C974
00AD8
03AFE
1EF8E
1D09F
1DB06
1F504
1C5B2
00869
1F2AD
01E9E
03175
036AF
017A3
1F30B
1E4DE
00758
1F18B
1F401
1FDF8
000BA
1F4FA
1F78A
0032C
00DE5
1CC45
1FB2C
1DD38
1EB47
1F0B3
1FB0F
01124
03327
1D759
00659
1F310
01381
00472
1FEFF
1EE28
1FF7D
03154
1F64A
01636
014B7
1AB93
1E2CB
00C09
1F1CB
1E16F
1E7A9
1F9E5
1D4AC
1F6C8
02664
0317C
1F3D4
010F2
01148
02ABD
01080
1DAC4
1CD86
1EECD
1DF1D
1EDA8
005F5
000A5
1ED35
00774
1ED8B
1F072
00642
03589
1F5E1
1E85B
1D271
1E397
1D92A
1F06C
1F3FE
01A72
1F982
1D583
00723
1E84E
1E93C
1F005
1FE2F
00E0E
1FAE8
01EBB
1F9D8
00BAC
1F714
1D949
1E379
0196E
1C131
1D2AD
1EF71
1DD37
1D1C0
1F9BB
0150D
0144B
1DB38
1FA7E
1FCD6
03127
00433
1E016
008A5
0126C
1E6FD
039B4
1F1F2
1F943
1EE88
1F7CB
1D6B4
1D095
1E4E1
01C11
01E35
0245C
1DA81
0119B
1C853
1EF7A
1FB76
02DC6
009B4
1E98E
02153
01D09
1E95A
1D914
02440
021BC
000FA
013B6
1F3B0
1F3C9
1FB65
1DCE9
0107B
1EB5B
1F870
00A2F
01EC2
009EA
1EDFB
00079
1F104
1F1AA
1D4FD
01FA4
1E6E3
01F82
1B224
02834
04110
1B2C4
00069
00501
1E13D
1E2C2
00C63
1F61E
030AE
1F181
01B19
1E58B
026CB
1F2EA
0213C
016FF
00066
00CAB
003EA
020B7
02308
1EB86
02D3F
1E5D3
1E609
1CB3E
1CEB3
1CD5D
1F499
1F313
01D9A
1FEC6
00D7A
1E411
00455
035A5
00C06
1F48D
1E5AA
01522
1EF6C
1EB66
0358D
00FB1
1EEA0
0103F
007C5
00F47
03EC9
1FF9B
00B0C
01901
1F736
00BA7
00DE6
00BE9
1EFF4
01DF6
1D23B
010C2
1E662
041CF
00386
02206
024F6
1FD65
00F90
00D91
1D8CD
1B620
1E8A7
06B9B
1D87E
1E43C
00D4C
1E6B3
1FF92
1FB43
1EAE0
00216
01736
1E103
00767
0379A
00D20
0141A
1EB8C
1CE67
00CD3
01142
00BB7
02B1A
1CB8A
1CA15
00517
0032A
0096A
1D68F
1F5C6
00AC7
1AC5E
03D46
1EA72
02671
1EA94
1F15A
1E23C
02FEA
00B3B
1FBB5
1BE80
01B03
00A53
02C8C
00774
1F101
1F23D
00BA8
01678
0201A
1E6BE
0480A
1FD4A
009F7
1FE0F
00AE1
1FE77
008F8
1E4C5
00D25
005B2
1AC80
1F258
02151
01A7F
1EA69
03A64
01C9D
05054
1F47C
1EA7C
0340B
1B031
1E20D
1F0B0
1CCF9
1F0BA
016F3
1D9CF
0049C
012A2
1D066
00EDE
1FC48
1E11C
1F854
03383
1F25D
1D4C9
0257D
024EE
007CF
014FD
011EE
00E1D
000DA
031F1
1FF9F
03315
1FAF7
1EA26
1E2FB
00E7A
023C9
00F6A
1FE83
1F858
0014B
0179E
1C1A1
1E06A
027A2
1E0BF
0380C
01802
1DAD5
1FBF4
03899
1EF9B
1EFD5
075AB
02554
1FB59
1BC8B
1DE50
1C73E
018ED
1C99D
1F131
02369
04DE8
02494
01AE9
1EC2F
1E487
1E518
1DCE1
1F195
00712
1E450
1F905
1D26F
1F47B
0064F
01338
001E6
007A5
01459
02C6D
006F3
1FFCE
00B70
00626
022A4
1FFBC
02DBA
1B36B
1D7BA
1E648
1ED3D
028D1
1EB99
00B3C
1FA67
046B6
1D868
01AF8
1F43E
0160B
008B8
01191
1FDA1
1D804
1F740
01C6A
1F8DB
1ED00
1E8CF
01229
00961
011C9
02FB1
01A41
012A7
01403
1E1ED
1D245
000C5
0017C
1EDCA
1D141
03CC3
1F4CC
01405
006BF
01018
1F930
0096B
1FB8B
00684
00BF3
019A3
1E4DD
01DBA
1E713
1E8BC
01663
01B2B
1E672
01EA5
002B9
1F78B
1E707
1F95F
1FBC0
00039
01C15
1FF0C
024B6
1F401
1F711
00023
1F2A8
0190F
1F3CE
1FFBB
1E962
01062
1BEFD
007C9
01FC0
1D30D
1F40C
1F6A4
1F9C5
1F3BF
1D2DD
1F86F
01303
1DE02
1D3C4
1D3D9
1F882
013B7
1F79B
00E34
1E61B
1FD5F
0160F
013AA
02A4F
015AB
00900
00B38
1E194
00FBF
1DC42
1CFA7
00D5C
1D03C
001FA
00ACF
00447
1E54A
1F38B
1E041
1FE0B
00E31
001F9
00448
013B9
1E482
1E9C4
1FA67
01790
1DDD7
1DC09
1FA6D
01DD5
01AF5
00DE7
1E74D
1E36D
1CDE0
1E7D0
1FE0A
1B449
016ED
00DA8
005DE
1E7B4
010EF
1F140
0022B
009E8
1F0D4
0190E
01115
0141F
1EB2F
1F893
02AC0
00186
1F395
1F679
1EDA0
1DDBE
1C48C
1AF07
1F77A
01729
00BA3
01766
01424
014FF
00D95
02856
1F47D
1EEBD
1FD85
03C49
1FBFE
1D6C3
1F1BB
1EE0C
1F61F
1F109
1EB75
01AFA
1FB28
026DC
1F548
0123F
1F052
00780
1FB70
1F892
1F7EB
1ED35
1C30C
0017E
02F78
1FF3B
01FCC
1D27B
1F8CD
1D0D2
1FBA4
1F4AF
0054B
1FB4C
01994
01344
01A01
1F36F
1F2B5
048BF
01C82
1E3E3
020A3
1EEBD
1CF1E
1F222
1FB65
01978
02BC2
1C4EF
00DC4
04374
1E436
1D64A
00B91
00D5F
1EAF6
192CE
00A68
1EAFB
00BB6
1CC02
1BDDA
1D9E1
1F09C
1D67D
1F4C9
1E10B
006BD
1E0B4
00293
1EFD4
1DF7E
1C705
1DFD9
01974
004DE
00050
1EEDE
1FF6A
1DAE3
0093C
004EF
01D45
00017
004F5
1FC42
1F933
1FBAD
1C089
1D57A
1FCDC
1FDDA
00CD8
1ED2D
011D8
1F8EA
008FB
1F27A
00240
1FAE1
1F3FE
1EAA5
0085D
1E7F4
01F80
02F98
000A0
00656
1C942
03DDD
00CE4
1FEED
01E27
1CC6A
00065
00C03
1EA93
0114E
1D881
1F8D2
00082
1DA56
1EB5E
1B78F
00831
0066D
1E687
1F9EB
1EE62
00246
1F48A
01021
01D8A
1DD6C
005A0
00820
002F8
01C91
1B5DF
1AD9E
02371
1EA34
1EFDE
00129
000CF
1E06D
00466
1FEFD
1F6F2
01122
01A53
0066F
00AAA
0151C
1CF77
1EF08
00CAC
1EA90
1D233
00D01
1DC1B
02B3E
02AED
1EB5A
1E176
1F2F3
009D0
010C3
1EF2E
00420
1F620
1F14B
1D8A2
1F4DD
0045D
00078
1FEA4
00A5C
0017B
1DE2A
0072C
1ED41
0053C
00511
1E6AC
006AF
00D9A
1F047
1D26F
1E785
1DF18
1FA90
1EFDA
1D312
1F65F
01115
1F41B
1F1EA
03163
004BD
00C03
0171B
1F851
1FA91
1E411
01942
0049F
01258
1F74F
01BB0
00A8D
00D41
01919
1F39A
1EC1E
00E21
1EDF8
017AF
1CD13
00EBA
1F55D
00F4D
1CE6C
195CF
1B73F
00B91
0284F
00693
0084E
00EBC
0259B
02930
02141
1DA62
00750
001E5
00C1A
02F07
19D29
1BB1F
01BD1
1E8B7
1E3E6
01456
1E719
003FC
01210
1DE58
03D88
00004
1C1F2
00069
05138
1AE6B
1CB11
1F0EB
007E7
1EC71
1EBA5
007FA
043DF
03CD3
03108
0072B
00582
00E43
1ECFE
001CB
012B9
02C8D
0225A
02CE0
1E95C
00EF8
00779
0009D
1D197
00541
1E487
1ED19
1EE4B
001BD
010F7
1D331
005C7
0004E
1F58A
1F559
1FE53
025F7
1DB46
02B2F
1D5C3
007BA
00DF1
00AA7
1FD2B
005DB
001AA
1F681
1E3B8
1F94E
1CA2D
00E50
00F43
1F3DA
1B4E4
02D21
00405
1D1FD
01AEC
1B055
1EE26
1B936
1EA0F
1F47D
1DB72
00599
01F4D
1F804
014C4
1F17E
1FF82
0453B
01D3D
1D7FF
1BB91
002D6
17384
00B8C
1CC8B
1F2BE
016BF
1F2FF
00043
1BD25
01580
1FC8B
02017
01D4E
00280
02535
00FC0
1FB2B
1FDA7
0115F
01FDA
03C00
1FAE6
1F4E3
01132
016FA
1BFB7
002DA
018FE
01B85
1AAE3
02908
008E9
1F999
013B0
1AA76
1B8AC
1E07F
1F079
0498E
1EE25
00CE0
0385B
03060
1E9C2
021C3
02910
01955
00AF2
007E5
1C098
1FE95
1F873
1FB02
0267A
01327
1FE0B
1EAD3
0187A
001F2
0125E
1FB50
1F7E4
00B5B
1D16B
1F244
1EF14
1FFEF
1EF0D
1F995
00F4E
1F01A
1F14F
016F7
002DA
005C2
1F566
1FDE6
01067
006F0
1D5F3
0041D
0001A
007D0
1F485
1FA42
0158E
1C758
1E683
1FDD4
003EF
011EC
015EE
00D03
02A05
01261
1FFC2
00654
0103D
00536
1D903
1EC59
019C4
01769
00375
1EC2F
02BF1
1D6A5
1F6DF
1CE21
1E79E
1D647
1DEA4
1F8B2
1F900
01B98
1E8AF
016FB
1E0F0
1EF5E
00038
02769
024C6
00206
1D8BC
1F6B5
1F5A5
1F626
01702
03449
1D713
02665
007F7
1F37D
043CA
1CB71
1EACB
1C17F
1FEA7
1B514
1EDCA
0121C
0329D
1F58C
1FF7A
009E0
02405
05240
00528
1D082
00957
00804
1F80C
1E0AB
1CA63
1B142
1D642
00D97
1AE40
1E4C6
010C7
1FEBC
04F65
03A26
0415E
003E5
1EEB7
01184
1EE51
0170D
1F1F8
04E77
00CC8
18F0C
0137B
1F003
1D12D
01AE3
1FA1A
1E79F
1D6F7
00573
050FF
1FB91
001D3
1A582
1AA76
01D62
00754
1D2A9
1E814
1E1D7
1C735
1E6B9
1FABA
1EEDC
1EC4C
00F18
1E655
1D975
0265B
00963
1F2F5
1F8E2
1EBFD
1CE7B
01459
00AB3
1E032
007CA
1E4F2
004C3
1F1B4
1DC10
1C66C
1F30E
01BBE
1E005
1FDE1
1F06E
00AD3
0062E
01883
1D917
00B61
1E852
1E8E7
1F147
1F147
01A57
1FC1B
0122C
007DD
1FE5D
018C6
1D00C
00048
1CD4D
1F8F1
1F66B
1FFE1
00898
069EE
1EC50
1C023
04483
04275
199CE
00B52
00BBA
02DDF
002F3
1ED89
00CC2
0234D
02451
1F469
1C877
00ECF
1CD88
1F9E1
0203E
1FC8A
1EF99
0035C
1986D
013AB
034B0
1E190
1F8F3
0121A
17A11
0250C
0065F
1A481
1ECC3
053A8
1CAA5
1A103
1F492
00F7F
1B3EB
04411
00332
1EF80
03C62
029E0
01E0D
1F6B9
1D448
00A5F
1EE46
1D7AF
1ECB6
01681
1CC76
1F00F
0143D
1F784
01C0E
00509
01545
1FCAA
013FB
01408
008F3
00ED1
0129A
009BA
0315D
00BE1
1EC98
1F5BF
1BD02
00E60
1EDAC
00692
1EF99
1FE19
1CAA6
1EC47
1F0F4
01173
00328
0269C
01112
01307
00819
1C6B0
1F011
009E9
1EAA1
1FA6E
00629
01698
0183B
0264A
1FD88
1F7DA
1EE54
1DBB8
017B9
1BCF8
0259C
1E037
007C5
1E63E
01401
1E387
1E2D1
0058A
012CA
01227
1F088
1F64E
015DA
03661
0190E
1DFDB
1FE09
1D559
00AE3
006EA
1DABD
1C53C
0103E
1EC22
1EF97
1F543
00450
1F658
1EB9D
01F50
1E8BE
1F82E
1F63B
1DE1C
00F3B
1E4FB
01CDE
019CC
0153A
1DF81
0184E
1F4B7
0071B
00C8D
1EB03
1E887
01AE8
1E4EF
1E827
1EA09
003BE
00921
1D898
1EC37
1D171
1F4F3
02B75
010B5
1E88E
1F631
1F394
011FD
03C24
01CAD
1ED22
00444
1F524
1E526
1E9DE
1D8D0
1BF40
00D8B
006C9
1DE47
00FC6
1E4CD
1DDBF
0268A
1DC4E
1F045
02570
1D805
1EE77
037F2
01D9D
1E353
01B64
1E881
01C9C
1DC26
03190
00EE0
026B3
051B5
1CFF1
00265
1D0BD
012C0
014E0
1D723
0068F
02927
1F8F0
1ED6E
1EDD8
1E85D
1F18A
002F4
1F8B7
1EECE
1E1BF
1EF15
0233E
00D47
0072A
1D9AE
1E70B
009F2
018FF
1E2F8
1C7E0
1F4A6
1C9B3
00153
1EF5C
014A0
1D762
1DDF4
0367F
0197F
1F3AD
1ED5F
005E4
1EED7
00414
01980
01838
0054F
1F919
002B7
1FECA
029C1
1F798
009BB
004C9
1F70F
1E1F0
00403
00A08
1EE1F
1E102
0314F
1F0A1
1F90B
0415A
039FE
1CBCC
1FF16
1EFA7
00B52
1EC72
1F46E
1D6CF
1EAD4
1E4DE
1F847
1EB94
1F7A5
1C896
0311A
02468
1CFD3
030FB
1F860
1EB7C
1FD5D
1E804
01841
02FC0
1E958
00D21
0224D
1FD54
1A11A
00FFA
0415E
010A8
1D62B
01ECD
1FFA3
1FFD6
010C6
1A9EB
1B392
00653
007C8
1FDE0
1FFD9
1EF80
1E067
1FAC6
00460
00372
1E9BD
1EE79
1FB96
1FE93
1FC8F
1E58F
1FC90
00D7D
01804
1F44B
03401
006EC
0021F
01738
1EE2F
0061C
1E8D5
1E5B1
1F556
0045A
1F6BC
00E04
001FE
006CA
00E61
1FA3F
01020
1E9FA
1D8AA
1F964
02586
001E0
1F78A
027AF
1FB5C
1F2BF
1F220
00592
1F5DB
00C32
01463
003CD
1D8FF
01BEC
015F6
1E469
1E0C3
0143D
008DC
1E9A0
1E36F
1FF35
01DB7
00F48
006AA
1FAAC
0118A
1F589
1F9FA
036CE
01239
00AAC
0061F
00AC7
00256
00598
1F4D0
1D0F7
001F4
1FCA6
1F35B
1FC75
00016
012B3
0051F
1F7C4
01A99
002ED
0102D
1EDC7
1FD87
01E72
1D868
00B67
0201C
0019F
1E5C8
1ED4A
1D8AD
016B2
00157
1EDFA
00CD2
1EF3F
1E3F1
0065F
1EF59
1E309
00CE8
1FA07
1EF81
1EFB7
00281
0040B
000EC
0053C
00E96
1F73C
1D9D7
00B76
0086F
1F786
0077C
00DDE
0016C
1F73A
010F9
1E33B
02F66
1DD4C
0061A
1DD2E
1F843
1BD5A
1EE59
00370
00C11
0029D
0261C
1F0F0
1DF49
000FF
1E8AC
1F7C8
02919
1ED7A
00851
01C01
1F032
02673
1FCD1
0363E
007DA
007E8
1EEC2
00A61
009DD
1D976
1E8F8
1E40C
1EDFB
1A5BB
019DA
1F557
01701
01806
00E75
001E3
0198F
01AC7
01C17
1F0BD
03964
03D60
0169D
1F730
1F95A
1E190
00C26
1D8FB
00E34
1F89F
1E25A
1D197
009CC
1D4FA
011A2
1FA41
01B14
1FD6F
01ADD
1C230
1EF94
01661
0145D
1D0B5
00769
01DAD
18B5F
015AE
02E94
0204F
00140
005E9
1FB70
1FCC9
0029E
1F5F7
02E5E
1EDD8
1F2CF
1F684
1F6E3
0024A
000E3
00DD8
1B9A5
1F4B2
00E3C
00458
00D5D
00F86
0140E
1F9AB
0095C
1D790
00393
1EB8E
1C417
1F5F4
1E3F3
1CE02
00D9F
01487
00BFB
028F9
02412
010A9
01A40
00948
1DD27
0328F
001A7
1F1D3
1F939
1F146
0007F
1E5AD
033AE
1CD2E
006BE
1E54A
1EDE7
1D4D8
00865
1FA2B
1C488
1F167
02DBC
1CF25
1E42E
01335
023F5
0020A
1F1BF
01344
1C9AF
1FE09
1BF0C
1F8EA
006B7
0265F
1FB67
1F9C1
1F72B
1D531
03198
0038A
19CF3
01E0A
00187
1C864
1E46D
011C5
1FDF3
06F5E
02368
1C73B
038FE
1E685
19B7C
0206A
0038A
01349
1FE66
1F957
1E8DB
1CFA8
03CA4
1C021
1B86B
00B46
00804
022E2
0100F
001CC
00E65
00112
1F236
00CDD
0134D
00C5B
0214F
048B2
1ECB9
1F60A
1E5B0
00AAF
00DB9
014C1
1DC88
00BD4
01FE7
01DD3
1D690
00505
0075E
1FD72
1E2D8
1ECF2
00BE4
1E9C7
1E019
1F38B
1C822
1E486
1FA1C
04675
01225
008F1
1FBDF
01DE7
00898
1E7EF
006C4
1D8EB
01145
00253
1FFB2
002A0
00972
1D517
00E7C
1EE85
1F5C3
1EAD2
1ECF5
01CF6
034DB
00450
00A01
1E56F
007C9
012D1
1FCB8
1F51E
1EB39
1F220
1EE6F
01FAE
02915
1CF75
01506
1E659
00D9B
1DB67
1C84E
1EBEC
1DCF5
1FC0B
1E8B2
0028D
015E8
1DA73
00262
0226C
022D2
1E7C6
002FE
1E787
1C582
0112E
00389
019F4
00C0B
00A8E
008F3
00615
02CDB
1E015
0109C
1E2CA
1E8F3
1DBCF
1DD8C
1E415
027E6
1BA0F
1DF5C
1EB09
03CE7
1FFE5
023E0
1FD6B
030C6
1E8EE
026D8
00F32
02ECF
02801
1D05B
01B01
1F10C
1EE1D
1EC3D
00E55
05634
01134
060B4
1F45E
020F8
1F5CA
1FE79
0464E
0387C
01012
1E8A8
031D4
0323C
1FE9C
1CEA6
02DC1
1EEDF
1B811
000F8
1C444
00451
1DE86
02B79
1FB52
1DD82
0182F
00B12
1C30F
1ECBB
1FB7F
1FF3C
1EBE0
1F5EA
00ED2
016A0
0016A
1EFED
1C970
02E54
00090
0124A
00DD9
1EE62
1E5F8
01E4F
1E701
1ED79
1DF3A
000D7
1F35A
1E365
018CB
1CF62
1F2BF
1EBC5
1F843
1F66A
1F970
00378
010A3
02FFB
1E5E3
1C644
0075A
005FF
1FFFB
01E08
037DF
1DCD1
001D6
1FE76
1FB07
01B32
1EB61
1FE53
00858
00A12
01219
1FAC9
01740
1DF12
1FF45
1F4F3
1F243
1DA94
1A074
0171A
0256A
1FAE6
1F8E8
1FFE8
00035
00556
01186
1F0B3
1D46F
00F6E
1E709
00781
1E4BC
1F014
1DFA3
02282
1BEB7
1DEE6
00BB1
00F8F
1FCEB
1F329
1F501
1DB18
025ED
00721
004BA
01DEF
1DE48
1D4B2
1DCAE
003ED
1DAF8
1EE31
01C27
1D686
01AD3
1F753
1E7CF
1FAF9
1DBB6
1FB2E
1F04A
1FFA8
1C7C9
1E860
0002A
1EA39
1FC07
000C9
1EC3B
1FBF4
1FF30
0073C
1EBE8
00516
1E6D1
1EE12
01A58
1FAC1
02745
1F0AA
1F0AB
00063
1F37A
01138
1F422
023FA
1FC60
1EF50
1E543
1D33E
001AE
1E9EE
1F935
00691
015A9
1F670
1F78E
1DF5B
1E735
0163A
1DBFF
1D7A4
0041E
00AF2
0220D
00350
01B2A
013D7
1E500
00CAC
1F7D5
1EF6E
1E381
1FB6A
1D7F1
1DBCF
00DDA
016BE
00D27
00E87
1EA3E
001E4
011FA
1DFEF
00D77
1D743
1EF41
01370
1FF61
0081B
1F62B
0180A
1F977
030A5
1F0F7
1FE3E
1BBA3
1E21B
1C5C4
1FF36
0152C
1EF3C
1FCA6
05476
1EA97
1F59D
1F41C
1DC93
1E93E
03AA0
1DD0A
1ED4E
01DB3
1E175
009B5
1E9A8
0278E
1E2BF
01E23
00953
1E7BF
1F954
1EAE8
013E4
001F2
00203
1F14B
1F14E
01169
1E5C6
00539
1CC00
017C3
1F815
000AB
022C9
1F221
00E94
01DAD
00132
1F666
1F228
1FA15
00339
1C4BA
00A82
1F7AD
1F8D2
1E3BA
1E088
1E99E
00C6D
02560
024AA
1EB2C
00CCB
1E15E
00C24
01155
03382
1E2A7
01FDA
01E35
0117E
00A9C
00C38
016B2
00B45
1FF0C
00042
006CA
1D4FD
008BE
1E5BC
1C722
1C8B5
1ED40
1EEE3
01F36
01F10
1F361
005E4
1E53E
00A92
1E9B0
01DAB
042D7
1DE5D
02A45
1DF80
1D93C
00885
1DD0B
1FCB8
017D4
0139F
1CF9D
00C00
1FC75
0220C
1FD73
02DDF
1EAE6
00F8E
1DD20
00EDB
00A16
1BDDB
1FCC7
0119F
0024B
1C713
03241
1F337
00735
025F7
1EBF0
1FD79
1ED73
00C48
1F115
1D8B9
1F6B8
008A9
00BF8
1E778
0391C
02CA5
1EF9D
1EC05
00C36
1F81F
1E7C4
1EA83
1D1CF
1EC19
1F16F
00B58
1EE4B
1DE12
1EBC8
1FF8F
02F6D
1EC3D
0067A
1F65F
1D8B5
1E556
012D5
1D0C1
01C5F
1E983
1ECD5
01B5E
1FE0C
1A823
02000
038F0
1FF98
00049
1F1CA
1F2E3
1FD12
0197E
1ABF2
1AA2F
005C8
000F3
0074C
1F447
1F596
01244
009F2
1D05C
1EAB5
013A0
01143
1F020
1FEE7
006BF
1EC9B
01683
1FA0A
01AE6
01971
0164F
020C0
1F47E
0131F
1DD7B
1DED0
002A5
1F359
1EDE9
00FAA
00DF8
1F091
00C06
1E424
1EE70
1DB11
1F1B5
1EF01
012A6
1F0B9
038A4
01D1C
1D9A1
01AA6
1FD5F
015BA
1EFE8
01145
1E9D6
02196
00E53
1EA7F
1D7E0
00525
00397
00E98
1F710
011B4
1EECC
0254C
00EE8
00C61
00059
1F769
015A0
004CC
1FEEA
011A5
0197A
1E849
1E681
00B8C
009BB
0018C
002C4
00A06
1FDF4
0005B
1F5B1
1EB4E
1ED48
00F74
1E7D4
1FB6E
01BAC
1E696
01144
0101B
01442
1F65E
0095A
1EEFF
01196
1DBE9
1F28C
003AF
00E81
1F008
0065C
1F261
1F8A9
01A66
1E353
1F0DE
1EDEC
1FEE3
1DF68
0000D
025A9
1F314
1F9BA
0091C
1E016
0023E
1F360
1F19D
1FBED
00F01
1EBA1
00E1B
00933
00CED
1F18E
1E772
003DA
1F3EB
005BA
1F8EB
1F56A
026E9
1FBE1
01110
1F111
1F05A
1F20F
02D26
025A4
1F1C4
001A8
00927
1E7AB
00628
0025D
01E4F
1ED91
02418
1EF88
00146
021F5
1E7A1
1ED28
001F0
001D0
00616
1FECC
1F72E
01116
1E9E1
1E688
01C61
0194E
1E948
005FE
1D0FE
00314
1DC11
01AF9
00FFA
02322
1C893
1F2B4
1D7C4
0086D
017BD
1F7ED
00814
1FF95
1FB59
014CB
1D7C7
01111
1F7FD
015AE
00C94
1E31C
1BDF3
1D8B7
01600
0055F
1E9AD
01BBA
015B7
02077
1E2A2
1F927
1D93E
004ED
1D2CE
1D806
1FF8A
1D39A
01393
1DD42
1DF56
1EFC1
00592
02EEA
1F13B
1E8AF
1FF4F
011CC
1EB7E
1FEE5
1FB5D
1EB22
1DCF2
1EBA5
1EDFC
1D6A9
011D7
1F563
1F68F
1E5D1
1F2C7
1FCDC
1E679
01880
0052A
1D2F7
1C739
1F4A3
010B9
1F873
1E259
0136B
1F9A8
1E71B
1EA1F
1EC6C
1E096
02435
009A7
1BF5F
1E169
1EA14
1C048
1F4F8
01336
1E8EE
014FF
1F9D2
1F0FE
1D63A
00EFD
1D91E
1ECD1
00653
00742
1BEAE
1F1EE
1F9E0
01F73
1EAAA
00482
1FFBA
0122C
00DDE
1E395
1E8F5
02CB5
1EBBA
1F707
1D2D5
1D648
1EB4F
1FA92
04452
025C2
1FE7C
1F12F
1F31D
030B2
1E04B
1E4E0
02E6B
1F91E
1F07C
1C6BF
00722
1F784
003B2
1F341
1FFEF
1FD78
1EE15
00371
1E352
01567
1C533
0098D
016F6
1CDF0
1F6DF
1E814
1D5F7
00D6B
001FC
1ECE3
00F9B
01446
011DB
1EEE0
00E24
1E42F
00191
1E55E
00EBF
008F8
00D9E
1EA95
1FA67
00427
0247A
00440
1E548
1F12C
1EF69
1EE77
1C362
1D223
1E229
015C3
1EC4A
01885
1F48F
01C15
1F8A5
016AA
1F0F4
1ECC0
03777
0269E
1F087
00DE5
1EF0F
1D91C
00D66
1CCDE
02AFA
1FAC5
000F6
1E639
1DA70
00C6F
1FFE9
01087
03FDC
1E6B0
00680
007C2
02FCC
1FBFC
007BB
017FF
014DD
1FC22
1CC57
1FF25
1F00F
0050A
02B8B
00963
1FFFB
1E26F
1E564
000E5
1F387
1FB02
1F07A
1E771
1F49D
1F2D2
001F2
1F124
0092A
1EE67
00821
1EDCA
1E47C
1EB26
1EEBB
021C8
1E064
01D77
1E681
1DD5B
01C0A
01AAC
018D4
1F7B7
1F8B1
1F2CB
00B8E
1F45E
1DEF1
1FD60
1D488
1ED1D
1E08B
1DD02
1C118
01412
00206
00ABA
1E8F8
016F6
1E62D
00BD1
1D41C
00FDF
1FD50
00404
1CB05
1F659
1FE32
003AB
010CA
01338
00D09
03585
02E14
1ECDB
00A5D
1E41B
00E87
006C7
1FD88
00A69
01EF8
01D6E
000A9
1DB28
022F7
006FC
00CA8
0201E
1E0E4
00B8C
1D6D9
001AA
00D69
003D9
1E450
1C4F6
1F2F5
00322
1D8CB
1DDF4
1E8F2
1B469
00310
0220B
023F7
01045
1F8A6
00B64
00E1D
1FA69
1FFE7
1FF94
1F02E
00C08
009C5
017AF
1ECF1
1E869
1F942
1F96A
1F0C0
1F42B
015FF
1D781
1EACA
1EF30
01258
1F757
1F488
003EB
01F61
1E270
1F136
02E2D
1DDDF
1EF4F
00E81
1F7D0
1E4DD
1E744
0033F
00618
00CE3
1E1ED
000CD
1FCE3
1E726
1E775
1E9FD
014FA
01E85
0073B
00975
1DBE6
1F36A
0132F
00554
011FF
0123D
1F4B4
00680
02152
010F1
1F317
013BF
0040B
1FC60
00BAA
1DB66
1CE95
015DC
1ED12
1E658
1FE31
005E9
02554
00388
00699
01189
1F5A4
1E5DD
1F742
00DE0
00AC6
1F573
1F478
1E5DE
1F146
01157
1F569
02836
01CFD
00096
1FB39
1E947
1F286
00FB0
1F8F4
1EF70
1EF36
0347C
0110D
01069
014C0
012ED
007D6
03EB8
1EFD2
1E96B
00970
1E9CC
0174A
002E1
1ED6B
01ABE
1F744
1E083
011FF
00943
00E06
020F1
1E913
01012
00CA0
1F251
1E4B1
1DE7E
0111F
003C0
02763
00BD8
01493
1FB8F
00B16
00D91
1FD16
1FE8A
1E90B
00BCD
1FEC2
00B14
002B8
1F4A1
0145B
1E951
1EBAA
1F913
0122D
1D7E1
1E8E1
1C299
1EA68
1DDA6
02C34
02B08
1D38B
0170F
00465
04617
1F7F2
0058F
1D7A3
00082
02C24
1CCDA
01CBF
1E7E8
1F681
01D59
004E1
1CE28
009C5
02AA1
1FECE
1EBAD
1FD49
014D1
1CF35
1F4F7
1B5C2
1FB9B
1DEBE
01B63
1E190
1EF02
02901
1F8FF
0268F
1BE78
0082A
1DD15
03057
00F21
02002
1E201
0034C
1FA87
1E5A2
01271
1FC0D
019F5
034BF
002D1
1F73D
1E630
00482
00959
0057F
1FC4F
00870
00D7E
1EF31
1BD7C
1FE9B
002F1
1D5A8
00144
1F40F
01481
001D3
1CF30
1DD74
00720
017D9
0005D
01653
1EF1B
0192B
1D6D5
01453
00308
1FBD7
0118A
019B8
1FB5A
1E49A
0086E
00A19
030E3
1D61A
0196D
1EE92
1C031
0018E
1E7B5
012B9
0145B
00A9B
1EA15
019B3
00C91
1EDD5
023F0
019DF
1E3AA
028E3
1D7F2
1FC79
1D772
00C4A
1E11B
02A60
010E9
023ED
01AD9
1E4A1
1F0EC
1F2D9
1FD80
1F23A
03421
01577
1ED25
02906
1EBFB
1DFE3
01228
1EFAB
00C8D
1E6BA
1F24F
1E8E0
01932
1F8BB
00193
0195D
00AE0
00C98
019D9
02801
00C4C
015AA
023A7
00F99
1FADC
0090E
1FD1B
1F2F0
1BFD5
010E0
1B884
18D61
00F55
02DE0
013A1
015CB
1F2E0
1E60B
1F0A4
0047D
1CD02
1FD63
1FD3E
028FB
1DD9D
1ECA1
1F96E
1D4F3
01379
0247F
1EAD3
029B0
1FA07
1ECBA
1ED52
1E878
01085
00F89
1F6E2
1DB3C
00C70
1E4E8
0058A
1F87D
1CDF2
00EC2
00FF4
02324
1A70B
02A25
1C0B7
00BE0
1F701
1FCE3
1E7EA
00DC7
00A60
1E0FC
00A44
1F9D8
1DC52
1E60A
01361
0175C
1CB98
02B03
00DB0
1E5C6
00C48
1F50F
01C60
1FE44
1E04B
1FFD1
1FC53
1FDD9
1FFB6
00509
1F70F
1D8F8
010DE
0024E
00CD0
1F0D7
1FFC5
1EA09
0116C
1FB9B
1ED6D
024B2
015F9
1F12F
003CC
1F79E
1E86B
0099A
01574
1FD3C
1E4AE
1EB5C
1E0EB
002B3
01505
02AA3
00D7D
008EF
1EF0F
1F1C6
1F6B8
01A60
1F38B
01359
1F333
1F273
1CBFF
016B0
01D8D
01820
00401
00E1B
1EFE9
1EDEF
1F8E0
016CC
1E039
000C2
1F306
1F044
1E83D
0094F
1E7E2
014BF
013DC
1E779
1E6BC
1F025
018BE
1FD4B
1FBEC
1E771
01AAA
1E125
0200B
003EF
1DD3A
1F04B
042D6
000C1
00380
1FA92
1FCED
00623
00B46
01546
01537
1D790
1ED79
1F312
1CDE9
1D042
1ED82
1EF8C
00B72
0296D
1EC65
1F71B
1F9E9
00DB6
00C33
1FD68
1F9DA
00E1B
004FE
1E070
1E5E1
1F7E3
00F6E
1FA84
01325
005C0
1EBE1
032C8
00125
02A40
01742
1F38B
01B06
01375
00E15
1CD63
1EDBE
00ED5
00C7B
1F01F
0142C
0250D
1D7CA
04D1F
1DE44
010AD
024F2
1F778
00670
1F6CF
00ACB
1EAED
1FF3D
00A85
029FC
1DC9A
1F89E
032DC
026C4
1EB1C
0366B
1D6C9
01C44
1F562
1D2C8
00875
022BE
1D861
1C718
009CE
03E63
03DAA
1FE00
04C9E
1F61B
0222E
02051
1CFD1
1E830
1F4EB
1E947
00BD0
1E545
003C8
0175F
00FF0
1FC8D
1F04A
1FE45
0211D
005EF
1AAAA
00420
1B354
040E6
1A002
0258E
1E87A
1D272
1F10F
1E34C
1E881
1F572
1E1FE
044B8
1FC2D
0078B
1F58E
013E5
1AAAB
01A39
01185
1EB04
0050F
1EA02
1FBA4
028D9
03B50
1FAE5
1EF98
05DEA
00E3A
1DCA2
02030
1CFC7
1CE04
1E48F
1ADCA
1F4E1
1F265
1E4A7
1ECBD
1F02C
1F91A
00AD3
02C67
1EB68
0011E
01E76
06021
1BFEF
1F647
1ED4A
1C38D
01DAF
1E0B9
006CA
1FA5C
017E3
01C18
1EFD0
1E916
00A77
1E6A7
041F3
1E11E
1FE26
1E00A
023AC
1DA0B
02666
1EE68
1B717
1E9C2
1FA51
1E52C
01BF8
03122
1FCAE
1ED79
07D37
01425
1E283
1F8FB
1CE62
1FA25
1F060
1C9F9
1DF40
002D0
1EDC7
1CD9A
01193
1F39F
1F213
03DB4
1EAAB
003B7
1EDCB
02BB2
1ECAE
1C0DE
1A2AB
1F929
1F74C
1DFCC
003A7
1F93B
00617
1EA58
0080D
02521
1EE63
1E6BF
1E95C
1E6FA
1EB78
1E8F1
00144
1D3EC
0087B
00DD3
1C403
00B83
1DF1B
1F0BE
042F8
0406E
1DDE5
1CCEB
0773B
01421
0093A
03535
1B8B6
1D8F7
006DB
1CECC
1D6FB
1DDD1
0180C
0287B
1D974
00B34
01403
037D7
003CA
009F2
028B8
04A4F
1EAFA
1E53C
1A62B
1CF42
1D03C
1A885
02C01
1FB2B
02C02
1C2F8
1F954
1F07E
014A5
1EE5C
02BCD
1EB35
1E5B1
00879
041E0
1FAD4
0130C
1E973
00583
014ED
004AC
00B06
00AB7
007C8
1FB41
1FCBF
027A6
015EB
1DE38
1FE4B
01991
005DC
1DAD0
1F41D
1FD38
00CAA
0006B
1ECFC
1FEDC
1FB54
1FF93
00523
1FBB6
005BA
1F4B9
01C78
1C1B4
1D92A
1F096
1D367
02BDA
1D59D
01AEF
00119
1EB0F
019A1
1F7F7
1F04A
1ECC1
00636
1F7BA
023BC
1CDEA
1F5C2
003A1
00AE1
016FB
1F57E
00ABA
1E880
1F1B6
1F97C
1D0CA
1D3EA
01882
00D04
1D7A9
1F81D
00F68
00814
0072D
01E8E
1EDB6
01A3D
00733
02231
1F9DC
009FD
00B6A
1F14D
01167
1F0A2
1E295
0118F
022EE
1F259
002AA
01BA8
1FD0F
01CFB
1E698
01FC9
1EA52
00A17
010A3
0063F
1F3F5
004C5
1E046
1DF60
1F237
1F623
1B95C
1D25A
1F1E3
01D59
1F973
02647
1F8DC
1E306
1D271
00488
00D2D
03346
00471
1FB70
02360
01442
1E7E9
1E30C
00A41
1F299
00EBB
1EB22
1F2C7
1DA94
1DF60
1D26E
00152
1E0B3
01BBF
00085
03378
00BDF
0001E
00F00
1C05E
1EC2D
1F5A0
1EFDA
1D2A2
01F60
1DACB
01E89
038CE
1F48D
1E353
1FC99
1DDCE
0139D
0251A
0020D
00AEF
01AFF
1EF44
1F51A
1DB12
0006C
00C5C
1E7FC
01AAD
1FF46
009BD
1F685
1F3E2
01C7F
1FF9A
00C59
1F72B
003AC
1E765
016A0
1F74E
01016
1E80C
00077
00A5E
0163E
1F7EA
00C30
018A9
1FEE2
1DE80
1E886
02493
00AB1
00A9D
00A6E
1F7F9
0237B
00B5E
1F2F3
002A3
1F791
1F6C8
02507
0041B
0201E
1E626
1FCB0
1CA43
1D13B
1E999
1E609
1F17B
003DA
002A1
1E846
032DE
1F0D6
1D59B
1EFD6
01DDD
008BA
1F94C
021E6
04315
1EBD3
02055
02782
02339
027A8
00AB8
1E641
01BD9
1FE44
01913
009F2
1F838
1FDB8
037AA
002C5
1EFC3
1F1A4
1F0E0
00DA1
00A4A
1F740
1E5AE
1CA63
00BE2
1E0AA
01D42
1F431
00BB8
01AAA
00C7A
1E077
00039
1E58A
1D067
00A9F
1BC70
1D0CF
1CAE7
02315
1E2BE
01D6E
00E81
1FBDA
1E270
011F0
1F734
1FC50
001E4
01E8A
1EDE0
1F60E
01460
1FA8C
010D4
0239D
1F56F
02A3A
01C4B
1F207
00137
1E9E0
0079B
0259E
1F4EA
1BEF3
02031
00128
1FA5D
1D6EA
01D02
007A8
0258F
01082
1BEB1
0238A
1B709
02092
01366
0214D
002EF
1C96C
00A1D
1E3E5
0020A
1FFAC
1EB31
00DDC
033D5
01CEB
1EB4E
1E1AB
01A28
1EDDC
0249C
1E025
1EC01
1EC5C
1ED8D
01CB3
1DC16
1D88F
1EE0A
02A3E
1FFD9
02E2D
01A49
02371
0274A
0429D
00DA8
1F9C2
0051B
00109
1FC0D
1E77E
1ECB8
00A43
01DB3
00CBB
00DDD
1E3EC
1E6B9
01E4D
0389E
1DFA7
051F1
1FFFB
1D5DD
047BF
1E9CD
0021F
00786
1E8CF
1EC23
1F11B
01A04
00D41
1D461
00B2C
1E4CE
1F8B9
1F977
0140F
1E677
008B4
1F7BC
00376
1FF1E
003F1
041EF
0085B
1E905
1F37B
1E663
1FB61
1D0CB
014D1
1E7F1
1F9F7
00BB5
00A70
1ECC6
1FC9E
0343A
1FB52
1E8E4
00D1B
1DB7D
1F8E9
0153D
1F5F5
1E105
0007C
01673
1D507
007AA
1F030
1ECE3
1E11C
00CC1
00B1A
00C01
0093A
1FDFA
1DBE7
16432
16EEF
01401
01C90
02182
02604
1DE7C
005BA
1DBF4
00281
00257
02431
1EBF7
0035D
01516
00364
00696
0057F
03059
01B32
1DEEF
1FF72
00963
1E779
1FF87
00538
02F6F
1C21E
1EF2F
00AB9
02192
1EDDE
02DB8
1FD0B
1E235
0018D
1F605
01FF7
1C950
01EBD
1BDDD
0566E
03205
1F6E6
1E657
1EEFA
1DD52
00317
1DC01
1EC34
1F0C3
1E8DA
1A17D
00EBD
1E638
0067F
01D71
1E0F2
00A43
00391
011AE
00007
00364
1F234
00453
0214A
1D9B7
1F4AB
00E7F
1DD69
0012E
01DDE
00805
1E7B8
01491
1F9AE
0206C
1E972
1E2BE
01C5E
01366
1F357
014B8
019EA
007D8
006FE
1EE9A
00B9F
1E8A0
037FB
1ECFA
1FC93
01F8A
1D8A2
1FD27
013A4
1F4BD
1E483
03702
1F944
1FE0E
03A2C
1D4DF
1DF4F
1F91A
1F2F0
1EE5E
1EB24
1FEE4
1EABA
030C2
1F073
1E800
014BA
1FA62
005BA
1F131
004FD
1F33C
1FA09
1D3C4
1EC27
012B8
022F8
1E3ED
02F7A
1E2A5
1BE64
026F9
0059D
1F201
1FC0E
03B19
0006E
1D6A6
003B8
022B8
001EA
0377A
1EC3C
014B6
016FF
01338
1DE55
0043D
1F276
006EC
015F0
1DD3E
00668
1F666
1F928
1E063
01DA5
1F336
1F20E
01946
1FAD3
1FEEE
1F8A4
1FA78
1E025
1F773
0137C
1D795
1F739
1DD9C
1FFC0
007E0
00BFB
007E9
0122D
1F8A4
0049E
1FF96
00ED8
03AFE
1ECFC
0104C
1EE8E
1FB01
1EA7F
012B5
0181A
1E30E
00EF0
01E03
01F17
1DF16
00972
1F352
016AF
01617
1F176
1F56E
1FDD3
01AA8
1F2B8
014BC
1EF83
1BAFE
1F4CC
1FBE7
1B0AA
1E582
1FD25
0130E
010A0
0408A
00302
0372A
00593
009A8
015CE
01A9B
04E2A
1F421
1FFB8
01483
0066B
00117
1DE72
01396
00DED
0069B
1E04E
02239
1F44B
1EE43
02642
1EF42
00947
05A9F
010C1
1FC56
0170D
1F66F
1DCEC
1F0B8
1EB0B
00E05
04193
02A28
0186E
00D66
01554
1EE3B
1FDAA
1CCE8
1EEF8
0000F
1E386
1E787
1F59B
006CD
00BCC
1FA6F
1E13D
1EB43
1E394
1F147
01C2D
1E5A5
1D89C
00EED
0117F
00A2D
1F7E9
01201
1E7AA
1DEC1
1FB2A
1E6A6
004B9
1E7D6
1E77C
014DA
1F9E0
1EF87
023D9
00F1C
00076
1F8B9
00965
00178
1F6E0
1D30C
1F847
00A61
01904
1F8EA
00A08
1EC68
008EC
1EE74
1E06C
1F40B
1F85C
00B3F
1E347
004A6
1E723
00565
01491
026E5
1F383
1F930
1E56C
1CB8D
1E71B
1D599
00575
1F841
1E342
1FC38
0022B
017B3
1FC07
01ECE
02205
0091B
01A8D
00032
1F06B
01387
001E5
1E96C
026C7
00DB5
1EC97
02486
1E662
1B036
0171D
02B0A
1F3EA
1F676
003E2
008CF
02D3C
1FAAC
1AC53
1FB6B
01377
1DC6A
01672
00945
1FAD6
02071
1FD88
1F8BC
0211B
00B83
1F3D0
1F9D9
011FF
1B424
01786
1A95C
1E3BD
1C8CD
1F116
0127F
0007E
00336
011C0
1F1BA
1F5C8
019F1
1F0A8
1F000
1FD47
1F4EF
1DF3B
1F519
01554
1C280
03B69
1DC1D
1DFDA
0239A
005C6
1C9E1
006D2
1DCEF
1E2CE
00017
1FF9F
01906
1EECE
1F075
1FDFF
1E74F
02945
1F75D
0000F
1EC9E
1E5DD
1D4D4
00171
1CA6E
000D5
1A4B8
1FEB2
1F525
0092C
1D469
00407
0141B
1E16D
1E86D
1E63A
1FA32
02D05
1E65C
1E6AF
009E6
1F120
1FCA4
1E33A
1ED40
00C7D
0022A
1D54A
1F875
00857
013F6
00ED6
1F6AE
00061
002CD
1E8FA
00463
1E573
1DD23
1D986
1F9AD
033F5
1EB9B
1F8CF
023F0
01969
1FE39
1F346
1DCA0
019FC
00316
1EA83
1D824
1E300
1FF77
1EE18
1F459
1FD31
1FCD1
1F043
02343
1E115
041C0
016E2
03A8F
1E196
1F536
03BB8
00E0F
1EDF4
1F834
1F043
1DAF3
1D6EA
1F79C
1EE3A
025C6
1D77B
0000D
03D5F
1F918
024CB
1FA3D
015C3
01AD2
1E337
01A79
00E43
1F54A
1F44A
02908
1F67A
1D756
1C225
1FA7C
01C58
1FA0D
02089
018C0
01239
1E6BB
1E6E2
1F6BC
00448
01DA1
024AB
006B2
00577
1BA3C
1F7C5
1D640
01927
1F476
00107
1EB8F
1DBED
1CB43
03942
1FDFA
01415
1F91C
1F239
00190
1D21B
1D140
1D314
00EFC
1AA86
00308
1F7FE
0039C
0188D
1CEA0
0151F
03270
01725
1F78D
039E7
1C2B6
1CD22
00BA9
0096E
02310
1B6BF
1FA94
00A3E
009EE
015F3
00172
1F6B2
01E3D
1E0ED
1EE1C
1B456
1EBE1
19D08
1F384
1C967
031BD
014CA
00CA4
1EFF2
00B0E
1EA2B
077F2
056A0
02F16
1D88C
02D28
01B91
0099D
1D846
1EA88
1EE39
03822
1EA42
03F1C
1F9FF
01A0D
1CF62
023BE
009D3
02B64
032D4
002CA
1E492
1E2F3
001E9
1E0D1
02634
1E8CB
004D5
1F8F2
1FA30
00A93
009BA
04A84
00493
1FA41
1F093
1FC3D
0074B
03373
03A01
01D10
029FF
00CE4
1C818
1C3FA
1E2F4
1D789
00931
1FEE1
009C6
019D2
1DF1B
1FA61
1FE70
00C9A
1FE1D
1E7FC
01BB4
00FEF
1E504
006BC
1AAB6
1D100
1DFE1
1FAD7
01603
1EE6C
00556
1A33E
01D36
1FEF1
1FE4A
02080
01F48
1AA34
1F9C7
028D0
1D45A
1F16A
1A97B
1E134
01B44
1F0C5
1F61B
01B3C
003F8
1EE6B
1E284
0093F
010B3
1EBDC
1E286
1DB56
1F5C7
004BF
00043
023D2
1E639
00432
1F694
1F369
1E33F
1EB4A
00047
1D979
00693
1F3A3
1ECC0
02E98
009E0
1DD03
01774
1FD04
1E423
00453
01666
1FE99
014EE
031BA
0049A
01841
1F62D
1EE02
1FE97
011D7
0105C
1FB7C
1FB07
1FFBD
1EFBC
1EE83
1FFC9
1FF41
1F838
00E13
00778
1E650
1FBB6
00FFD
1E952
1F165
1F959
1E406
0146A
1DD06
01A7F
1F6DE
1FD35
00429
01972
