023E8
1FA8E
1C7A1
1FCEF
02323
01387
1D747
1FF74
02438
1D0B8
00A59
01F6B
0432E
1E9AC
1BD5D
1F6AF
01965
1F0E1
01BCE
1EB51
1FA68
1BC64
1FCFC
1F6AA
0315D
00F28
03CDD
1C18D
00EDC
00B6D
012F8
0208F
0032E
02D20
037A1
1A41A
00856
00F05
007CB
1AA2C
1F829
02F79
01B84
03B14
1F9C9
08623
0485F
1F249
014B1
057AF
02686
0078A
1FF36
039B2
1CC1B
16A44
1F6D2
01912
01095
023B5
02281
1DCF6
046BA
02B0A
1E676
1E458
016EF
1C938
00858
03A6B
0220C
1FD03
0310B
1DE25
1EE00
00AED
0217D
1EFF5
0187C
1C7DF
00290
1C897
1C17E
0249C
1FC0C
1E2B9
1DE81
001A1
0374B
02F6E
1FBBE
029DD
02B16
022D8
1E7F8
0233A
033D8
0299C
04269
01073
1BC92
00787
1E5AF
022AD
1CD8A
1F1AE
1D328
1DA2E
1FEE8
01EEF
021AF
1BBFE
1E62E
00B9D
01ACE
1CAE0
1D9D9
00DB0
1F959
1F61D
1CE99
088AB
1DC0C
1F796
0100B
1F2EF
013F4
03350
1F977
1804E
1BA18
03943
01456
02353
17E03
1B6A5
1C91C
04F4B
1FEDD
0062C
1D5EF
05279
1E2C9
1C6DC
194F5
1AB2F
1EAD9
1FB4A
06E85
1EA37
02556
00DA6
02E5E
04593
1D9F0
1ED0F
02DC5
0470C
009A6
02097
1EEB8
050B5
021BE
028D1
1FA60
05805
01886
0440A
1F22A
07A6D
02D48
0026D
1F46E
03AF4
1DF9B
176AD
00D51
04AC3
04293
00427
1ED32
0336B
00A98
0274B
1F031
05252
01ECE
04BAF
15EAE
1C882
1F6C6
1955E
05533
040B3
12FA0
1F061
02B56
00A14
08F3E
024A5
059B5
1DEB7
1F790
1F272
15709
1BBF4
025DE
18091
007F3
19152
00A86
04B6F
1F889
1E529
1EF03
1BF1B
1FAEB
1C522
1E99C
02817
1C56E
0320D
0237E
08312
16F74
1FF8E
0106A
06642
1D9D4
08118
04E9A
1D2C1
18A75
02359
1762E
1E241
024AA
1A76E
0631A
1FEBB
1B611
08CB6
05681
01996
00E82
065D9
05AB3
05F94
0357D
031FF
1C157
05444
1F7EB
05285
18397
1FF0E
1D047
1F044
1D191
01484
1E239
1F836
1EABD
1AD20
1C100
1DC5F
0545D
1C44F
063B8
1DB01
03C02
03B60
1DEBF
057E7
1EB73
1739F
1C72C
1D88A
1C62D
1CCDB
1FB04
0671E
1FC74
1EF11
185CF
003DC
09A24
04FB9
023D4
1FFD7
00D7F
1BD4E
1FFF5
1D978
03A40
051EF
0716D
04C5B
1CE34
17F55
1BBE4
1CA7D
1E0D9
00389
00FBF
1FEC5
1C665
00A90
1B9C0
00567
004D8
066F4
1BA16
024C3
1FFF8
1CD1A
1FCE8
1CE5A
1D09D
1DBE6
0029F
00620
04034
1CD09
1EC4A
054F3
1C15E
04282
1E569
0586F
09F93
00E95
0065C
02872
1DDBF
1D24C
00791
03733
014C9
1B9A3
1FE61
03235
00DCD
04253
02855
0933C
00E11
1EE27
1ED9C
0426D
1DB10
00D26
02CF7
1E6C1
1FE02
1B0EE
02A44
05172
0125B
00786
1C4E3
1DA41
00F53
02321
1E076
0634F
1B95F
039F0
016C6
05643
03BFA
1EDB2
1C531
02188
1DC33
00133
1E62F
025D0
1F12B
18F75
1E474
1E2A3
01734
04E81
01C73
0204C
04EEF
1D546
1F4A3
1F3B4
1F1DB
1F88D
1F14F
00814
017E8
1E42B
0261A
014E5
00F15
1B839
1C149
1E883
1E718
1F592
038A7
020C3
1F92F
1D9C3
036B3
01A6E
1DEEE
021B5
01A83
03581
1ED36
1E31D
01CCB
1D620
03283
1E732
03047
1D66D
1ECE4
1D485
1C6FD
1F07C
18838
01224
1F893
060AF
03BDE
18986
1C93C
0001A
1E510
1D5C8
1CDAA
015BF
07957
1D5A9
1F955
1F03B
1E537
0883D
1BF5A
04872
1D2CF
197B6
04B00
1DC05
1FCCE
1E1F6
03124
00D49
014BA
02380
026DC
1F68E
1DCD5
1F2EE
1FF5A
02E65
1F9B9
1E070
1EFEB
01109
036EC
1DA90
1CC8C
1D778
1C697
1BDC5
1FAA5
0438A
003F4
1C4E9
01EAB
1D767
00F6A
0277E
00DDD
005AF
1E40E
0227E
0370B
038B9
1AAF6
04A55
1D56D
02A00
01F54
04DD5
1814E
002EB
01E76
1E9D7
1F905
18BD1
06748
00CE0
1CF68
040E4
01EB9
021F6
19062
1C15F
1D170
03C37
090AF
0529A
06655
04C2D
1FCDD
01EA4
1A3E2
06D39
066A7
01408
02377
1A5C8
0045C
02DC2
01FA7
01A2A
0089B
0762C
1DFAC
1EFE5
00A89
1F9AF
1FF03
04487
054E7
003E0
1CC93
1932F
01A7E
05BE6
00C9E
0193C
1EC00
1EB0C
05A8D
1BF93
17A9A
05994
02FB1
00CC1
0066C
1E6A5
1DE8A
1EBCB
00827
1FE93
1EF8A
01230
00AAC
05046
03038
1F6A4
0766A
079AD
0442E
02EDE
04CE8
0229B
1E6DA
02FB6
0011C
1E689
02193
1CC62
1E8A4
03734
16DD6
04419
1A2F6
06FDD
019F1
1D201
1F908
1EC48
1A5E4
1D8E0
025B3
04195
0011A
05D81
1F8B6
1F4D3
1C9AA
016A5
1F352
04457
03F12
05AEF
0400E
1FE1A
1FCA0
0245F
006D7
0874F
006F9
03B0D
000F4
03246
1F951
05499
03415
01183
01B5C
1F91D
00517
023BE
1A402
04801
1DEAB
1F1C0
05330
01A69
1F12E
05A42
1F53E
1C097
1E817
1BD32
00878
1ECC0
033D3
0499A
1C780
1CC16
1E25A
035C2
1721E
01B25
1AE95
1D943
1DD2E
1DFF3
0405A
0017A
1A780
03A0D
1D351
03BAA
1F7C5
1C289
1E08C
19985
00EAB
087C5
04A99
1E96F
02AA1
00485
03FD7
046FE
181D5
03508
0431C
1F551
1F224
0448D
1C2D0
002DC
1B6E0
1F9B9
0057C
1DC8F
1FA41
1DE83
00C8E
1C194
1B3DB
02281
02483
1C098
01A44
01FC3
0092C
1EAFC
1EF44
04514
030E6
1C790
01891
1D1C1
1DCB7
1E13F
1B3B8
013A1
1E522
1C5FB
0387E
1DB90
00DB4
06106
1C739
037FF
1EB30
025D0
00FE8
1FE50
02570
00A97
03BCD
1EB87
1D013
010B2
00B5E
01757
03CB0
1E776
1A31B
0194B
1BBF6
00D02
03BB5
1F8A7
0263E
04435
1F7E8
081BD
0316C
13C00
1B678
1C532
1EB69
001C5
1FD31
08EC9
00A5F
01098
02F53
00670
05BEA
00BB2
02B8D
051AF
1F9CF
1EB41
01066
1D84E
028BC
07560
0793C
01062
1FAEB
19D63
1F09C
0554F
01BCD
071D6
015F1
1B51F
1F01C
1FC49
1FFA2
023A9
02391
06D09
00A44
06BBF
1F4C6
1ECDD
09345
02131
19FF7
05FC9
03707
1A578
1C6E7
00969
01B4D
04541
05A37
03704
1F764
0319F
080E2
04897
05C9C
1F08B
1DD9B
1B2A4
029CA
1EB4E
1F151
1AD73
0961B
1FA57
028CD
050A5
1E949
0630F
04975
194E0
02608
1DB5D
02C5C
1C421
0360A
1D500
01BBC
1E2E6
0159E
1CFCE
1EDD1
19FE5
00889
1AB63
04547
1F54B
1E549
0127C
0016C
1D5E9
01421
18D57
1E1C6
1DD73
044DF
1EEB5
05760
0112D
08258
04FBC
1D43E
03FD2
0382B
1EBA5
02A59
00FA9
0389C
02718
053B4
06C77
1D9F7
1A494
1EC72
1F7EA
01234
1C3C2
1FD91
03923
194DD
03804
1FB47
0244B
05A92
00D21
1C82F
01C49
1F228
1D1B0
02639
169C7
01007
1F0FC
0010C
00A27
08712
1DAFC
058C2
07DE6
01A2D
1E627
032C6
1E274
04233
03D13
00F2E
18DA7
035F8
05142
04660
1CACC
01232
0200A
05402
05035
00E50
02485
018DE
1BFE5
0270F
0181E
1E218
0391D
06AE5
1F72C
038E4
010F4
010BA
05B98
1C67B
01EEE
07475
00FBD
02237
01DD7
02E91
1CEB2
022E0
1D637
1D0F7
1BDDE
02BA2
1E236
1FC5C
03307
1F79B
1F586
03C4B
1C45B
1CA80
1F9EE
1BDAF
1C143
1EFB1
1C30E
03513
004C0
030D7
00D30
01590
008D7
1FFA6
1E5B2
01A0B
0046A
1EB52
02B7B
1EB82
1F0C0
1DFAA
0052A
01DE8
062CB
1F863
00D8E
1D95C
0147A
01689
01432
05E17
04F7C
1E055
02939
1E4B6
02B96
1CE51
033FD
18016
1BCAE
1EAF8
1F871
05EEA
068AA
01009
154D1
1F91D
0085C
1E2AB
00421
1E6B7
03279
056D8
00ECB
00B68
1C200
1DCA5
1C698
016FB
04D28
07B1A
1EF1A
1F155
01A1B
02492
00733
03957
02682
1ED08
024DF
1F513
069DE
0189E
03E25
01B93
05F8A
1E1AF
03225
1BDE4
01C80
03374
1ADDD
00C06
187D0
1F469
1B9CB
074A6
1FB60
1CEC1
1E82D
03D72
08690
04D0E
00BA0
0481D
1E85C
1C19D
1F4C9
1BF04
1E037
05950
03D64
0015D
011D7
18704
1F4E6
044B3
1FE49
1A912
069E2
1DD7A
08ACB
1F4F5
001B0
1FC48
1DEA0
01363
044D0
1C5BE
017B9
1FCA3
0367E
04CCD
1E6DC
03626
0007A
1E5D7
0010B
02C88
02125
006C4
00150
1FC34
0261B
08254
03600
1E183
0263F
006BD
16E3F
1A924
04274
00906
00836
00C7C
021BC
1F54F
02607
191BA
05AA7
1F3DD
1F502
0232C
02640
16C68
06F6D
1D0FD
1C8AB
1B376
1778D
002D0
004D8
02527
028F2
0172E
1E292
1F323
080F3
1A4CB
1D320
16B72
02B40
1FAF2
00E14
1F40D
1DACC
1CFE1
00CF7
1F52F
0536F
02E22
1E1D4
006F7
1DDF2
1CF35
03841
022C8
19C8B
049C2
020F9
0586F
0379C
1CD64
0066C
04478
1E1FD
040E5
1E890
1D074
01EF5
03911
0051D
1ED07
042E7
1C47F
1F422
1F31A
1F288
1F421
032B9
00563
036B4
03E47
1F3F3
1CB57
1DDB5
03655
03C54
1FE0C
1CA80
1C1D4
03123
1EA95
01146
03A56
1D9DB
039DA
1E23A
04D86
04991
1FB3E
04332
01323
021E6
12275
02357
1ADA9
1F56C
17E58
03E21
1E5B2
1E713
1F369
03A47
02091
1F0AD
05C2B
040D8
03E7F
05784
1C115
1FB00
0553A
0220F
03586
05139
1A6EC
06FE6
1A277
0625C
01363
06980
0246F
0127E
1D92E
039AA
1A4FD
1E511
1EF6B
02205
1DFF5
03BDF
1FA87
01E0A
1D77C
0202C
1E79D
1D42D
1A0F7
1A528
0185B
0202C
0022B
1F307
1CD35
02A6C
1F7CD
02995
02A7D
1CC23
00F1C
1DB00
1C173
004B2
1D610
00EB2
00718
06B25
18CE4
17D46
05D5D
02F46
1CDCF
023F9
07D2A
1EDAE
1F349
1DBC9
02A55
05019
1E582
075EE
095A2
0149F
1F9FC
01264
06ACB
14C65
185CD
04097
012C2
1EA2C
00201
03CE0
0094C
0019E
035CE
1D93A
1FF09
1FA1F
00BBE
03B49
1F4F0
1EDE8
02A1D
1E543
05D5B
04F64
05554
033A9
0677C
0261F
0021A
1C6FD
00971
04BA8
02774
02CE0
1B692
032C4
1BD57
1C0C9
1EDA3
1C62F
06841
1EE66
0337E
05E4A
1E102
089AB
1EF4B
1B36F
041B2
1779E
1BB05
05834
0C174
1D918
08801
035E5
1DC9D
1BEA3
1A714
1B6AC
015E6
175DA
01DA4
013D1
1CFB6
00A7D
01358
1C4CC
03E02
1EB9E
1F6F4
03485
012EA
1DBE1
1F752
03B2E
05643
060EF
1E523
01391
04F5C
1D580
1F390
04CFA
051C5
0616E
0041E
041DC
0056C
1E365
027D6
06A80
05A56
1FBF7
1FC1B
016A2
04D8B
1B90E
187B0
00F1A
1D911
005EC
023A3
04978
18812
1DFC8
01BD9
044A0
06851
0253C
1E02F
031D6
1CCAC
1FB3C
1D5E9
1DEF7
037D6
16E8D
03B18
17887
0189A
0549A
02EB2
02205
1B273
01EF0
01620
1DAB9
1FDF5
1DDEC
1CD1C
004AD
04B9F
19D03
03C24
01FFB
1F8D1
1DC0D
03E18
1F21B
03036
01955
0858B
00C7A
070AF
036A0
009A3
00B24
1D717
1C263
1CF88
029E7
0104E
189E8
01280
06DBF
01FA9
08991
024D3
1F7AF
034B6
1CD3B
02580
009D7
011E3
1D841
1FEC6
031BC
1D7D2
009B5
03800
1D50A
02D27
04852
1641E
1E785
0191B
1FFC7
04EAE
1E484
06B4A
008FE
0081A
01652
1DAF6
0106E
1E4FF
007FF
1F67D
01320
01297
0011F
01BC3
1F108
02366
06F8E
1EBEF
16FB9
06286
1F74D
0078C
02E26
06A69
05442
05033
01127
1EC02
00253
00081
035C8
1B98F
1DFD1
007FA
1E8D6
19BBC
01B8D
0367D
01F7D
1D302
01046
1F25F
025B1
16E28
1ECA1
00F14
06070
1C78D
19811
1DF28
02325
1EA46
05373
007B6
004C1
0B28B
1F66F
1E19C
03518
1A0DF
1F53A
05EED
06CF9
0075A
1F9E5
05476
059BF
1D45A
1EC08
01977
06C9A
06C06
1F0B3
00917
026EA
014BA
1CA0C
00B3D
1D9D1
05273
1E319
1BC40
04C49
04596
1D901
0011C
0294A
03787
19A42
01605
00CC8

