BAD9945B
3DAA3C64
3E14A87E
3E91FA55
3E48C7E3
BE2ED634
BD25E679
3D5C304D
BE9C903F
BE3A49C3
3D6EEFA2
BE334507
3E626A66
BE89205C
3D4F7EC3
3C6353F8
BDD65DC0
3D6A3DF7
3E602752
3D99702E
3DCBD662
BE8A10BF
3DD4C09C
3E1B6849
3CC532A5
BE1CB89D
BD43D684
BE6B9A17
3E16848C
BE419B91
3D6D4A1B
BE0832FD
3D60F5E4
3E215A8E
3CADD9C2
3DCF3450
3D97D06C
3E805554
3DE0C847
BD733EBC
BEBC5CFF
BD8DC65C
BEA1DA9D
3E862563
3DD1E42E
3E1796C0
BA8B1141
3E610D39

