BE5EBBBA
BE9573A8
BF0D4DA5
BF23E404
BDB66278
3DA25F20
3E4F3A9B
BF20EF35
3D9904B4
BEE38866
3AA5ACCD
BE637DE9
BE0837B5
BDB0E022
BEA606B8
BDC2ADC5
BE175DDD
BEF08228
BE99BB49
BC8C88A4
3F02ED9A
3E8A0C28
BDCE453D
BE0C386D
3DCDB9C7
BEA4816F
BDEC0DF6
BE9A13C2
BE0A5094
BF1AC69B
BE83CF92
BE271DA3
3C5E2EF5
BE0CA1CF
3E390710
BE19DF55
3E86581D
BE47A850
3D3D2FA1
3DB67A96
3D47789A
BD928AE7
BE80E6B0
BE8F64AE
BE2CBDDC
BF2FCA00
3EC3532E
BDC9D27C

