BE7F5A96
BC2CA362
3B61D649
BEA841AB
BE033F42
3E6B8FDE
3F0643BB
BF110B52
3E72FC69
BF08DEA0
BE1BDE40
BE7CA4F4
BEB5E0F8
3E438434
BF6BF78C
3E62BBAA
BE4ED395
3E835DCC
BE8E5CF6
BECB2F88
BE74FF43
3C4F91A3
3BFD1138
BE37BBF9
3DD21D54
BEC12275
3E307A29
BE1428D4
BDB3BC0A
3E0B8280
BF3E83D3
BCD22425
BE5EBBBA
BE9573A8
BF0D4DA5
BF23E404
BDB66278
3DA25F20
3E4F3A9B
BF20EF35
3D9904B4
BEE38866
3AA5ACCD
BE637DE9
BE0837B5
BDB0E022
BEA606B8
BDC2ADC5
BEDB8E2A
BD173A79
3D198394
BE07852F
3D7164C7
3E934268
BE6027D9
BE1AC92A
BEAD1761
BE840AD0
BEE4829D
BE81D9D3
BDB62CFE
3EA35F5F
BEE88E7A
3DEBE836
BE697C3D
BEA320DA
BDC9E5E2
BF937ACC
3EA10D17
3E909AAA
BC2D538B
3DE3DDDB
3DB97DD0
BE6E8FB0
3CD3910C
BE49BCBA
BDCDDCE8
3CFFCDAB
BF31F538
3E489A89
BE175DDD
BEF08228
BE99BB49
BC8C88A4
3F02ED9A
3E8A0C28
BDCE453D
BE0C386D
3DCDB9C7
BEA4816F
BDEC0DF6
BE9A13C2
BE0A5094
BF1AC69B
BE83CF92
BE271DA3
BDF5E84F
BE0F8594
BE10767D
BF015326
BD9CC7D2
BDDD8F0C
BE419371
3E90F81F
BE6935FC
3EA90ADD
BE242246
BE957D7C
3D3DDCA5
3CA9B6B3
BD9C9A35
BD082492
BEA7F36B
BEABAE68
BE66B096
BF2414C6
3E13A42F
3D6C59FB
3EA6696A
3E477532
BE8445AA
BE652935
BE22FFD2
BD38B9BB
3DDEAB36
BE4D249E
3DE1AC58
BE91E258
3C5E2EF5
BE0CA1CF
3E390710
BE19DF55
3E86581D
BE47A850
3D3D2FA1
3DB67A96
3D47789A
BD928AE7
BE80E6B0
BE8F64AE
BE2CBDDC
BF2FCA00
3EC3532E
BDC9D27C

