BD409C3D
3D906812
3D8F51AD
BD24228A
BE1BCD79
BBEB80ED
3DDEBB77
3C511BE7
3CD37C13
BCB08787
BE9E9D0F
BC91E215
BC05F06F
3D027B70
BD875B3E
3D0E24BC
3C38023A
BB1EFD87
3DDCBBC3
BCC0D6F5
BDE4191A
BE0EF391
3DDBD2FA
BDE991FF
BD0E24BC
BC8817FC
BE8CFE7A
BB7E4799
3B4BF2B2
BE0E29B7
BDB5EFA6
BE04F93C
3C93AF75
3E2AF1CC
BD5D0636
BD9E0A42
BE155A3A
3DB5D1C4
BDA99F1B
BDCDEEBB
3D5DA05A
3DB7214F
BD8E07E6
3E473040
3D1741D1
3D5DFCA0
BCDB8994
3BE7E62E
BDA486AD
3D6822FF
BDB1EF31
3E3A604E
BD25DD09
BC8B0F28
BE4B98C8
3E5ED99D
BD8BDFD2
BE882108
BD358299
BDE0C283
BE9C22AB
3D6979E1
BD0D3177
BDD172EF
3E311C2A
3C820A31
3DADC098
3E35C4A8
3DD2E72E
3DFB5FA2
3C0A6549
BE59D7FE
BDB19158
BD0A7610
BD867AD9
BD95E4A4
BDB819D2
3E54CD75
BE2599AA
BE1A686E
BD88E79B
3E8209AB
3DCDE11A
3E4E57DA
BC41E796
BE003FF7
3A712C28
3D03ED96
BD3037D6
3E0C5975
BE42E87D
3DB43633
3D9C90C5
3ECACEEE
BE1A0BE5
BD1C4439
BCD3AE68
BDDDB014
BDCEAD92
BEA724FB
BD836113
BE16A7AD
BD9A6480
BDEB8E8F
BE1EDE55
BD94C6E7
BE1400FC
BCE9B9D8
BD6687F4
3DBE08AF
3DDCE960
3D1E0F80
3E1375C9
3DCC5B08
BE103600
BCAEFB2B
BDBA8F7E
BDFC2D28
3D0F3344
3DB8B8AE
BD18244F
BCDEA466
BD523F68
BDA0852B
3CB6262D
BD896E59
BD407BBB
BC4D9A52
3E20E4DA
BE23482C
BD7BDBE4
BAD3F184
3DBD7343
BDB789A4
3DB4C5DA
3D3B9064
3D914A90
BDC991FF
BD2D86EC
3D8F7A0B
BC01669D
3DED2029
3DBA5B10
3D088E7A
BDEFC611
3DF35DAB
BE1D434A
BCA2D949
3CA28FE2
BDBDB22D
3C8C6D61
BE62F2FA
3CFA7222
3CF442C8
3CD7D7C3
BE045415
BE4878FB
BEABF9C6
3C371FBC
BE0AE4B0
BC966384
3E5053E3
3E3A9CDC
3D905D10
3D7EB5B3
BD3F67F5
BD201DE2
3E371AC1
3B7D6D7F
3D545953
3E19307B
BC33397E
3CF32DF5
BD2BA494
BCE7D135
BDA1ED5B
3CE21D97
BB3DCAD1
BDF35DAB
BE2FF5C7
BB1EA9A4
3DA38F36
BD899525
BD1EA67F
3E6E0653
BE319115
BE88DCFD
3C38A5CE
BBEE6320
3E01E7DA
BEAD9B3D
BD91098D
3DA3B603
BD24723B
BD80DB27
3E07F3CF
BD70DF9C
BE45F677
BC9DDA06
BBA172AC
3C272EAE
3EA7F2E5
BD96FF3B
3BF69446
3E807E7C
3E871D3F
3DF38CDA
3E8E2889
BD74E11E
3E117EBB
BE184125
3E68F6CF
3DD08BB9
3C59988D
3B12AB69
3D521683
3E1787CF
3B5477BC
BDF41206
BD020D56
BCAD9AD8
BE244F1A
3B67FF58
3DF2FA0D
3E669CED
3E2AD9F1
BEAD9BA2
BC94898F
3CF52FC2
BE4FA7EB
3CD7F306
3C88E150
3D7DE2EF
3D3445ED
3E42324D
3DDFBB51
3DB5208E
3CE4ABE7
3D8B6523
3D1B0037
BE43B1D1
BE550E34
BDC55F35
BC282A56
3DDB50F4
BE76B767
BCDF84CB
3DD2FC26
3C05CAB0
BE084D34
BE136934
3C244849
BCDD3FE2
3D7FB58D
BD227BF6
BDA0E94F
BD7A4724
BDF837B5
3D3F0AA2
BE12F0E1
BD855DA2
3E04A3C6
BD239A39
BDD439DE
3D528284
BD6C7A7D
3DB6CB53
BD1D82FD
BE8072B0
3D8AD70E
3DC67169
BD9D9FD3
BE0A2C67
BD921251
3DBE108C
BCE56EF0
3D8AA21A
BDA8754F
BD127E52
3D7A0408
BCB2D4D4
3D84B988
BDB9F5E0
BDBCC187
3D6E6A77
3DEA619E
3D2B2BFE
3DAA6C1A
3D925D4A
3DB4A4D3
BE5E99E9
BE1B06C4
3DAB9CB7
BDD8AB93
3D7BDBE4
BE4F2389
BE6F46AA
3B9E236C
3DA23C86
3E24C3C2
BDCC5543
3E0E77D5
BDDF7C67
BD046D83
3D120AFA
3E4BA1B2
3D330835
3D4F8940
3D52E515
3CE1AA3F
BDD89481
BB28198F
3E1B6673
3D9B05FB
BD0CA2DB
3D8460EE
BD75F916
BD6AC96D
BD40DB27
BD460CBF
BE3E325D
BDE4FA8B
3BAFA2F0
BCCF8D71
3B24E37A
BDD491F3
BE177037
BD1AF9EC
BD9341E1
BD6FA3FD
BDBFD157
3E3F02C5
3DECCE5F
3DC09DD0
BDC295A7
BCE62FE0
BCC28D43
3D84E832
3D5A37EF
3E0667F9
BD824C40
BD25B963
BE05DF22
3D7250B5
3D823290
3C9E279E
3CFE004B
3D2E8188
BDBC7582
BD1935FC
3C92CF10
3E806AF4
3DAA6E33
3DF6C615
BDF61ED6
3EAF6599
3E800304
3CAA9B4A
BE51CBCD
BDCEA183
BE3CFC40
3E9427A6
3E31D713
BD4094E6
3CF0CFE1
3D75B2D5
3D1FCE31
BE0FEEB3
3C9960FA
3E2117B5
BDCCD20B
BD71D81F
3D967C28
3CCA9EF5
BE0B45AE
BDC6D15B
BDFB1B7A
3DAB9991
3D3D71B0
BDD5A7D2
BDB63C32
3E9D27E5
BD1C8649
3DB5C316
3D8DB489
BCA62025
3DB130E0
BC131013
3D4FC71D
3E47963A
BD06088D
BE79DD7F
3CFAB10C
3D78D0CC
BD9E38EB
BE1F7D31
BDEB990B
3E2C3CE2
3DB4E337
BEA659D1
3CD53CDE
BD762D84
BD87EA60
3C403361
3D83B470
BC0BDA94
3E02A5E8
BD93FC01
BCF68598
BD8195CD
3B9E5E24
BBD42C3D
BDC2424A
BDE23F25
3D97B4A2
BE0C64FE
3D77AD4B
BDB2D341
BD9C1ACE
3D4BE729
3DFFE2A4
3DE8FA7B
3BA6A876
3DA55DA2
BC1CDC44
BCA600B0
3E021AB5
BD8A62AA
3C8B32CF
3B1539B9
BB21F080
BC986552
3D8FE36D
3CCCAB3F
3CD1E753
BD03E857
BC80218E
3C356324
3E13C361
BD7C6003
BE15510D
BDFA0C6B
3E1E2479
BD7B17CE
3DC671EF
3D05B4AB
BDB1B4FE
3DCB3461
BD33269E
3DA512A9
BDB7FE8F
3D7E8251
3CEB5B2D
BDD388A9
BD931C22
3E83E35C
BDE26245
BDA1EEEE
BC69B38D
3DBAF6C7
BE876D98
3E340896
BE192685
3D84DFCE
BDFED8D3
3D80AE97
BE6E6B40
BC4F91A3
BE080842
3BA411C3
BD93E35C
BE548F11
BDD9085F
BDFC0D2C
BBC42E99
3DCE05CD
BE4821F3
3D8974A3
3B086163
3DB0563F
3D961672
3E16FD22
3C9DABE2
3E79FF50
BCDEE350
3D959AB7
BE2B0D52
3D475F70
BE147F56
3E4E236C
BDC1BFBE
3CDD6388
3DE66E44
3D4EE17A
3E09F384
BD9FB82C
3E0ADE22
BDEDC550
BE4F2021
3D87DCBE
BBAC5C14
BD2071C5
BDC8A611
BDC32EBE
BCA4B557
BDF60BF6
3D7C0C20
BD5627BF
3CCAE42A
BDF5C39C
3D42EA96
3E1F7404
3E805D74
3DA5308C
BE0F969E
BDE1D085
3DA290EF
3D273C4F
BD28A0D3
3E0793DE
3E486DB5
3C0F0414
BDA896DD
3C7266BA
3D2DB61C
BD9DFA01
3D9009B3
BD0B912E
3DB185CF
3CFC115E
BCFBA66A
3ADA5DAF
BE312EC7
BCB85E81
3E623E5C
3D99F128
3D9A00E2
3D84C61E
3D902795
3D5B77C0
BDBA4617
3CB419E3
3D366D7A
BD8EB463
3E319589
3E094C01
BE10E304
3E8CD185
BE0310DC
3EB78727
3C24B125
3E523FAB
BCA291FB
3C0E8EA4
BD9F26F2
3E58D5C7
BE28882F
BDBB17CE
3DBE8816
3CF89A46
BDC6D04E
3D8D7519
BCFB2EE0
3D23C85C
3C8096FF
BC41ACDE
3DE1E0C6
3D99C1F8
3D781627
BD0200C1
3DF3ADE2
BDD2BFDB
3D03925C
BD0B0293
3DEFC3F8
BD6960B7
BE2FE543
3E25AC47
3D852157
BDC56580
3D2E264E
3E934EDB
3C4C1CA4
BCF190D1
BE12E48F
BC8BC7B4
BC5E2AC3
3D2E2542
BDF7DE0D
3E2BBECB
BD00B674
BC82E44B
BBC47A18
3E5951C6
BDCEF241
BD994AF5
BD2AD70E
BD57EFE1
BE2E7DDD
BDD4D0DD
3D19780C
3DA1B08A
BD91C64C
BDD92967
BC1CE8D9
BDBF6F4C
BE01AE71
BDB99913
BB8B6523
3CFEB8D8
BD5B8024
3D234656
3E4D7236
3DCF0069
3D0192A7
BC585DFB
3D8FE9B8
3D4152B1
3D13E921
3D8FFD1E
3D106035
3C47CD8A
3D10F1F5
3D8A9585
BD38FEEF
3C9B499D
BDCD85E0
3DBD11BE
BD0408D9
BDA2A2C2
3CC7F349
3DC4FB12
3DA68E3F
BDCCD8DC
BE0635A4
3D89B307
3C04CAD5
3D18EB89
BD9A36E3
3D937E2C
3DC08FA8
BD1EEFE5
3C9D6063
BE2A8EF7
BDA53C15
BDCB9D3D
3DF00D5F
BCB0941D
BDB867F1
3C21FD15
BD3191DE
BDC32FCB
BDC30878
3D41B973
BDB285A9
3D4D3283
BE7CAFB4
BC0B0D0F
3A4FE154
3D84A7B5
BAFC9364
BDF93815
3E4A8B8F
3D68166A
BDBE774F
BDEE2C99
3D293187
BD1E646F
3D512989
3E904EA5
BE3C4E72
3E29DB23
3D3D3C36
3CDBE1A8
BE18D2E5
3DAC74B8
BE5AB756
3E005426
3CD39757
BD867169
BCB53501
BD4573A8
3DBCF462
BD11E96C
BC0D7E02
BD2D3E92
3CDC2D28
BBE8EA3A
3C6A3162
BCD2849D
3D98AC19
BD43D89D
3E0EA4EC
BD132724
BE58769F
BC51569F
BD893C8A
BCD1C3AD
3E0845DD
3BB10BA6
3D672A7C
BD8DF82B
BC493A71
3D03AFB8
3E14091C
BE0A88AD
BD80E7BC
BDB8BAC7
3E193DD9
3CA11234
3BCEF673
3D99D239
3BDBCEC8
BDD8665E
BD9D9D34
3D0024B3
3BC154CA
BD5CFEDF
BE6BD274
BE567169
3E61DD1A
BE0636B1
3D5BE4CD
BDCDA7F4
3E1B7803
3DEBAF10
3CAF1ED1
BDDEEC39
3DF97D4A
BD71140A
BDCF850E
BCFA11A9
BE45D895
BDC09AAA
BD35E52A
3DD2C732
BDD6605F
BDC41F64
3D6596C8
3CCD7061
BC6B7CBB
BE10AC7E
3C0316A0
BE17CAEA
3D88B19A
BD5B60AF
BDCA0D35
3C959A31
BD93CE64
3D9F27FE
BDDAB53D
3E1C85C2
BD0E0DAA
BDA28DCA
3DFD55E7
3D2FF6D3
3DA2DBE8
BB4532A5
3DBFF1D8
BD82F167
BC418F82
3DFC5932
BC4AE643
3DF80D3D
3E0B4AED
BC390215
3AA6DACB
BE296F22
BE763E08
BD83FAB1
3CD592DA
BE9E6E65
BD7D449A
3D91E8E6
3CA28566
3CF481B2
BCEAA2A1
3D209CC3
BC7394B8
3D7FFEF4
3C536B4C
3DCEC072
3D54FBDB
3E331F47
BEAAD6ED
3D8982CB
3C89A240
BB6C3116
3D85C3DF
3D29973E
3D91BC56
BDC79AAE
3D548DC1
BE24BD77
3DAF8940
BE3C5500
BC1F7B5B
BD17214F
BE374C4D
3E2903A7
BE333CE6
BE6018A4
BD7127F6
BDD0A138
BDE0CC79
BDCA9CDC
BCAD0A24
3D4750C2
BE02A51E
BD8A48F9
BE23443D
BC84A948
3C9F6449
BDB37FBF
3C983516
BDB21A2E
BD168837
BDFCDD51
3CDD206D
BDC36E2F
BE488377
BCF7CAA7
3C4E6C09
BD8415F4
BD811BA4
BDC15875
BE0CA601
3D909F1F
BDE7B0B4
3DD9FC2B
BDD9E732
BE043915
BBC74B84
3DE9A565
3B9784EC
3D014834
3DBE53A8
BD126FA4
3D695747
BEADA2D7
3E397FE9
3B9AD42C
3CD0C3D2
3DC83E42
3D918330
3CB4549B
BD50331E
3D110D39
BDE19978
3C430D30
BE0164C7
3E1A960B
BDAAAA7E
3D6887A9
BED6006D
3E06F9BA
BDF80CB7
3BB430F5
BDEF6F09
BDACFBFC
BE23A366
3D97FD82
3DB0C1B9
BD582129
3C5349BF
3DD82FD7
3D406184
3CC5308C
3E561E93
3DF5B4EE
BD36A0DC
3E0BC87E
3DA5753A
BE200DE5
BD29A2C6
BDD126E9
3E4BAFD9
3E35B079
3D2787CF
3C8EB463
3DC90BC8
3D03D89D
3D822920
3A345AE6
BCDA2941
BD4C2E77
BC8663C7
BDDCDC44
3DC1CBCD
BDB8800F
3E0DA017
BD07FCB9
3CF3E682
3E7EB9E5
BE3E4F76
BE25CE9E
3C6D740C
3E82B453
3CEF5233
3DC32EBE
BC9018E7
BDD11BE7
3DAA6A87
3DBA3E3A
3E339820
BEA56020
3E104578
BE4AB7DC
3C0F3238
3DDFC86D
3D5230BA
3DCD64D8
3D8577D9
BE01D799
BE0DFC5D
3D44E725
BDD73C92
BD48850A
BE4A6FC6
BE01650A
3DA6EC9E
3E0246BF
BDA5BD0E
BCA934AD
3E61FEEB
3DCB3A26
3DACD424
3DBDE3FC
3E0E5ABC
BD1A059A
BBF123C4
BE37BAAA
BD8486AD
BCAD4D40
3C96C82E
3DBBCA10
3D9969E4
BDA9E343
3C34B72C
BC32D0A2
3E17B070
3CCC20D5
3DE68017
BE039B45
3CE54B49
3DE5521A
BDC0F0A6
BC1C779A
BD4ACAFF
3CEFA616
BCEB52CA
BD8E89EC
BDF16DB1
3C9EFB6E
3DD12663
BE0DD1A2
BE9288AD
BE49E9D1
3DF0A809
BDAC8DE3
3D3A4724
BDC5B079
BC19C38B
3CB69DB6
BCCB4070
3C8ADEEC
BD94A7F8
BCFAAAC1
3DC6FC59
BD43BE66
3E122899
3DC1A049
3DD13511
BD71593E
BCAE1049
BD1CD812
BD954FBE
BE33D295
3C6BF65E
BE1CD467
3C1B0681
BD84C72A
BE4F86A1
BCC5718F
3DD94749
3E75D5F5
3C1118C2
BDE1615F
3DF44FE3
3D7A7979
BDDF4CB2
3CAA1D75
3D1ABC0E
BDF286B6
3D83FD50
BDE37F7C
BE0EE7C5
BD01908E
3D058BC6
3DF3C3E7
3D4A3726
3E5B52CA
3D5B994E
3DB73D19
3D571088
3E420924
BEA4EAF2
3DE14AD3
BDF50B95
3D62EC29
BEA6BD2B
3E45EAAB
BE011CF3
BD5B317F
BE4651F4
BDAAB3EE
3D4C2B52
3D530271
3DE21859
3DCCB189
BC951C5C
3D95989E
3D9DBA91
3D81F7D7
3C78A8F4
3D55E4A4
BE4C3A00
3E1A63FA
BE93382E
3DAF86A1
BD54AE43
3E3E6256
3CDF3733
3E053EB4
3E03F35A
BA943E10
3DBA4591
BE0A415F
3CA604E2
3DB59818
BE3B9778
BE26D656
BEACBC27
3DB4C986
BD433722
BE547779
BD1AA609
3CF20429
3E20A1BE
BEAC11A1
BDEEAE19
3C83CF2D
BC0305D9
3D9121AB
3E300D1B
BCFD4174
BE227B2D
3BBD230C
3E452828
3E2D8666
BD92E276
3EAAF1ED
BD53D428
BE034C1B
BDB13059
BA0AAC97
BCB7E6F7
3E64DD2F
BE60FFDA
3DA4E8B8
3CDB6E50
BD8D23D5
BC29DE8B
BB712C28
3E0F4ECA
3E493B3A
BD8AE297
BE262CBA
BD7A615B
3A8A697B
3D84A490
3D037718
3D9173FB
BE14FBDB
3CCB5350
3CCB7910
3E1420F7
BDB98740
3DB3CA32
3E3879C4
BE0E1B09
BE6A0BA2
BE27D6F9
BE4D3027
BDEAD363
BAF12C28
BDC46845
BBC08312
3B8E7147
3DA0A06F
BDED2B2C
3C6E2435
3C8C996B
BDD1D367
BD044BF5
3E239581
BDB89D6B
BC39CB68
3D9A1CAC
3DBE2153
3D242BFA
3DB3B9F1
BD809D49
BE21CEAF
3C873DE2
3D8A4DB1
BDB422CD
3B87E38F
BD82B7BB
BDBE2D62
BD106AB1
BE000475
BD16CD6C
3E2E32E4
3D20B806
3DF12EC7
BE44DB59
3C91BC56
BD9859C9
3DE59B80
BDDD1B2E
3DCE4B02
3BE78184
3D76DDAD
BE2C79F6
BCA5D6BF
BDD24420
BD4FA377
3C625C81
3CA38FBD
BD26ACA8
BDD73B00
BDCE38A8
3D90E779
3D671045
BC52A62B
BDF4B0E2
BDD48B22
BDAC1A05
3BA465A5
BD9B29A2
3E67D029
3D0D1B71
BD4E8B7E
BDA5A1CB
3E50C4DF
BE03C46E
3B8DB057
BDE7C0F4
BD912C28
BE08127B
3E046E8F
3D2AB368
BCE978D5
BD4D349C
BD70B5AA
BE0C1E36
3D3A8501
3BC00DA2
BC29E6EF
BE102FF9
BCD3AA37
BDB52EB6
3D944B2B
BDDE8039
BD64E9C4
BE42DF50
BC33D4AE
BCCF80DC
BDA72C95
3DBE9A70
3DCFD19A
3DE89332
BB1CC31A
3D064A9D
BC6FE500
3DABCF0B
BD8E52DF
BDA0FA16
3DF67558
3D54152B
3DAA3CEA
BE94A6A8
3D34F723
BE27AEDE
BE0246BF
3DE15012
3A0D4BAD
3CB14877
BE5BFDF8
BDBB1077
BDE1E2DF
BDABBF51
BCF034B1
3D76AF8A
BE2349BF
3E568BA0
3C308DD2
3DC921CD
BE0818C6
BE7A3A8E
3DB1A3B1
BCC794EA
3D911948
BE108C82
BD81A155
BB1B1FAC
3EBFEB4A
3D7A0408
3D9CE39B
3EB54FBE
3D2B8844
BAAE5365
3C23DB3C
BD4B5DCC
BD203F70
3D8F4E01
BEF1BBCF
BD1858BC
BD4E368F
3DBC3611
BE86659D
BEB7E996
3E8C217D
3E3A4441
BE1C0F02
BDE219EB
3D81919B
3C926A66
BD7AE148
BE8E73A3
3CB87379
3DA199FE
BEA1083E
3E8F2A7C
3D2AB042
3DB3293D
BD97AFEA
BCD360D0
3D6E9CCB
BC828A1E
BD45B079
BCDF351A
BDE88052
3E13486F
BE225919
BDC77AB3
3D560B70
3D784988
3DC84513
BE081E04
BCCE8FB0
BD88C155
BE0C347F
3DB78F69
3C6E02A7
BCA24895
BDB63F57
BE167EC8
BB87F456
BDFE0829
BE2BF1E9
3D95CAF3
BDDAC2DF
3D68997C
3DA09B30
BD8F4491
3C645C36
3D862CBA
3E1A26E5
3DDBD72C
BD903E21
BD0023A7
3D05F06F
BDEDE871
3D1C5D64
3D9E9EA1
3D1BAE47
BE1ECA68
3C88DB05
3B2BE6A3
BE00A958
BDA2B7BB
BE14039B
3E10F840
3D92F556
BDB123C4
3C06E7E6
BD62AF57
3E23DA30
BD70F495
BEB17636
3DC34331
3BC41DD2
BB4A0C28
BE19FE87
BE05A965
BE8456F7
3DAF71A8
BE445E92
BE62FA94
BDD3D74D
3EBA2446
3CB97DD0
BE8BA4F8
BE0C5500
BE801062
3EAFEF39
3EEADC4D
3E80B370
3DF5CB79
3E294424
BD4EED03
BE702E66
BEC7928E
BE5169C2
BE26A11F
BE3BADC1
3D8541D9
BE970457
3DA544FE
BE2874C9
BE173F31
3D3E48A6
3F13D902
BE261BB0
BCB14A90
3C3BD7B2
3DBEE914
BD9B40B3
BF043BA3
3F094DD7
3E98A505
BE24D7F1
3E116B98
3E84E28F
BE2FA4C6
3CF03AFB
3E56A6A0
3D97867F
3B58DBCF
3D55BBBF
BC08BDA9
BE019546
BE39C7BD
3DAFBEBA
BCA04D12
3D25FFA4
BDE203E6
3CA62670
3D6DD7AA
3E5027D9
3D3B0A2D
BCF737DA
3D548883
BDB39FBA
3BF5FD48
3C4CBC06
BE291362
3E1B1A2A
3D0AC7DA
3E1301A8
BB83E426
BD79CA5C
BC599CBF
3E08997C
3E201FB8
BD472E27
3D8F1562
BE36ACA8
3C94EA07
3D8AAFBC
BCBF8B9C
BD9A1661
BE21F794
BD103969
3B8DB057
3D09E881
3D62D624
3C868555
BC062F5A
BE1F123C
BE289E77
BD38A3B5
BE4F954F
BE0984E4
BB9A88AD
BD16E371
3E061177
BC04E400
BC99B6F6
BE056C51
BDEACD9F
3BBF11F9
3E1D9664
BE37DB6E
BD666128
3DC5CFEE
3D9C358B
3E3BEA0C
3E6E9C45
3C6A5721
BE64FFC9
BC2FC04D
BDCF4C6E
3DC9E2BD
BCE7DFE3
3E3F8876
BDBEF6B6
BE1FBDF1
3DCF00EF
BDA58CD2
BDE704BC
3D5DC832
3E60A958
3E7486AD
BD234118
BD1974E6
3A9F40A3
BC27EF9E
3DA7F349
BE063E8E
BDDAFD97
BE0E9E1B
BDFEBB77
3D875F70
3C5EBD90
BE0CEB79
BD5B7E0B
3DBEE914
BD4D9946
BCCED917
BDE53DA7
BD4C814D
3E0743E9
3D7708AB
BDE5DA6A
BD1C6195
BE3B4D05
3D9F8C22
BBCE703B
3E4D3E0C
BD0AD795
3D05931D
BC42B0EA
3E201B00
BBCD9620
BD62BCF9
BCBFA2AD
3D994FAD
BDAF598A
3D9B938A
BE052935
38FFDA40
BE1FA58F
BC9AE0C1
BDC0BA1F
3DC8E25D
3D28B7E5
BDE88616
BD896A27
BCDF2CB6
BDB71D1D
3E159792
3D65BC88
BB4447C3
3E022186
BC44D22D
3DE0FCB5
BC2F6C6A
BDACEC42
3D92D98C
3D96F32C
BD17481B
3DD192EA
3C350B0F
BC544567
3DCA07F6
3B38E087
BC843809
3D39D2BF
3DBD32C6
3E06F75E
BCDF58C1
BD7BACB4
BB62C12B
BD4B3E57
3D7A2AD4
3CFD5886
3DADD15F
BDF49518
BDF0B392
BD8EC205
3D46EF3D
3E824378
BEC4F93C
BE82F3E4
BAA45D42
3E631A4C
3E52FA51
3DE9906D
BC9704FF
BDE8DDA5
3D04534C
3D097204
BA80303C
3D682E88
BD271AC1
BEF34B30
BC0D0460
3DA5796C
3E184838
3DCE0C9E
3AEF1349
3E557EAA
3E610BE9
BDC060FE
BDE600B0
3DA0B806
3D69D734
BD3B1AF4
BE3EFDCA
BD4C575C
BD9158B8
BE5A311F
3DB35C18
3E6BA94C
3D8AE297
BE5A8BD2
3DA42B73
3E006530
BDFF9C63
BCB53B4B
BE9140FF
BD4ACE25
3D167FD4
BE920514
BE42274A
BE0C9CD4
3E1A9DA6
BD13F8DB
3DFA9E2C
BB7AACDA
BE06F7E4
3E093815
3D81ECD5
3C04FD2A
BD98433D
3DF77AF6
3DB543AF
3DC55971
3C067F0B
BE306FEF
BDB7B203
3CDFCE31
3D6146A2
BCC03DDE
3D1614E0
BE107033
BD273B43
3E3AB14F
BDF42E55
BE08E2E3
BD79085F
3E0B83CF
BCAA0A96
BE4D82FD
BE119F3C
BD81094A
3DA76C8B
B8388CA4
3C87E7C0
BDFB6D44
BE068017
BD8EDFE7
3DB97E56
BD88B19A
BD0ED3D8
BCA72431
3E30DBF0
BE5C1D6D
BE084DBA
BE4CCFF2
BDAC1C1D
3E3821F3
BDA06184
3C3CF91A
BD0CF4A5
BD8AFA2F
3E0E32E4
BE12D517
3D5B5958
3C59231C
BCB49BE9
BE39CF9A
3E4C2B95
BCC34A02
3E21372A
BD9F7597
BDB4DBE0
3DA57D9E
3DB2630F
BE0D4739
BDC09CC3
BDB3D6C7
3DC4F334
3D6B5C3A
BDCF1BAC
3B99285B
BE2140DD
BD7F1E8E
3A0B75EA
BDB4152B
3E5DDB98
BD258E65
3E20B956
BD345283
3BC2480F
BDDE53A8
3DBA871A
BD867F91
3DE1ED5B
3DD4D50F
BD16605F
3CF359FF
3DD1E7DA
BCCE5F74
BD82AD3F
3B02F0E1
BBD234EC
3DC4D552
3D132B56
BD4E23AF
3D10B1FF
BDFCAD15
BE1F1D3F
BDBDFB0D
3C9CB03A
BA666CB1
3D3E670E
BDA8F9F4
3DD839CE
3D191DDE
BB958D9B
BE100820
BCB7F173
BDD0BB6F
3DAF0A5F
BE837AC4
3D0F3882
3D0BC59C
3D991E64
BBB912DC
BDF81627
BE2292C5
BD6C0E7C
BC25614E
3D718A87
BB8C5005
BD666235
BE159E1F
BD927781
BDDD65A1
BD05D313
3DE49CB2
3CA5DD09
3DD93BC1
3D4C5A81
BE23A9F4
BE0AB4FA
BDBC3D68
3E3AB4B7
3BF722E2
BD32D6ED
3CC8ADEF
3E0BECAB
3E1487BA
BDFCEB79
BE158AB9
BD7BABA8
3D975C07
BC2E89EC
BC4AAFBC
3D999136
3C155F78
BDEABFFD
BDB01C93
3D738716
3DE88ACE
3D479C41
BC9799E5
BDA1D4B7
3D860CBF
BDA52A41
3E396074
BDF95D4F
3E845155
BE6AE9AB
3E6BA83F
BD13250B
3C199DCB
3DDDC055
BDB92535
BD310881
BE7F6556
3D9F572E
BD699D88
3E48C500
BE2FB7A6
BDDA5871
3E897375
BE14DF48
BDEF5665
BC1D7FD8
3EA47326
3E15E354
3D861848
3BC7863C
3D8C75C5
BDD43C7D
BDE9899C
BDE5CFEE
BE011905
3E3DE11A
3DDB8FDE
3E27ACC5
3D9C3A43
3BE91C8F
BE8C3351
3DAB649D
BE270436
BD5C065B
3D1CAE21
BD8E8F2A
3E149BE9
3E30ECFA
BD2BB129
3D7B7521
BDA67382
3E105F6C
BD8319C6
BE3B8D82
3CFCB4F2
3BE59AFA
3E659792
BE7F950C
3D810A57
BE720F2C
3EA911AE
3D873605
BD836113
BCD2AE8E
3D0F93BC
BD56A162
BE0F0A5F
BD8EBAAE
BDD6AF8A
3D89ED39
3BCE8965
BDBBC44C
3E4D6388
3B95D0B7
BD87F456
BD7A28BB
3DFB1E9F
BD153261
3D931DB4
BE3E2A3D
3E214728
BDFADF2F
3C4EAF25
BEB9B3D0
BE8306E6
3DA0F2BF
3DEEF805
3C95FEDA
3DA2F273
BDA1D756
BE3A8E2E
3D09F1F1
BD6A9B4A
BB99F1AE
3E0D7492
BE753D21
3E2B6391
3E8AADC5
3C254C55
BD8039AC
BE39EE46
3E7FFC98
BD38609A
3E873ABD
BC377C03
BD289B95
BDB24D90
3E352A41
BEA6D1E1
3E428E50
BEA6616B
3D4E9B39
BDD97C3D
3D88DC12
3DA1B2A2
BD28F8E8
BBB3AABD
3DD48E47
3CE68E3F
BE231833
BD7CEA6C
3C832767
BDCA643D
BDB87054
3DAE9F6B
3DC9ECB3
BD73AEEF
3DD0F063
BE226AEC
3E387C20
BE0D0353
3E3D5AE2
BD62834D
3DCA9692
BCA0D563
BDC365CB
3CD66278
3E0C0160
3D82E0A0
BDA66CB1
3DBAA476
BC77EC35
3E15E28B
BD48B114
3C88F217
3E09F623
BE1B27CC
BDE3C9EF
BE0B97BB
BDAA59C0
3C6C0F88
BDC5C24C
BB3FB15B
3D9C408E
BE014595
BAE71477
BD8F598A
3E2ADF2F
3D9F18CA
BDFCD24E
BDB58E22
3E83EEA2
BBA61177
3DBDF091
BE420968
BD477037
BC25B531
BDA0D994
BD00E8C9
BDD740C4
BD747842
3DB3D74D
BE392E1F
BE4EF5A9
BDD7928E
3E0475E6
BDD93FF2
BBDC768E
BE765CF6
3DFE6794
BDC7546D
BDD26959
BD8584F5
3E86D480
3DBDF43C
3D32AF14
BD5A9C99
BD3DD335
3DD9C9D6
BD12D55A
394D8559
3E596F22
3E066D37
BDFA9197
BEB8C79F
3DD4ABA4
3CB925BB
BDE9F40A
BD0A8B09
BE4C49FD
BD1716D3
BD8131A9
BDA61E93
3DE5069A
3D8B4FA5
BDC01041
3CD89CE5
3D4CDA6E
BD50FB65
3D78A8F4
BDD3F5B6
BBD4FDF4
BD4FBEBA
3CC5D207
BE2F4B62
BE1155D6
BAAF8162
BB602214
BD550657
BC828805
3DDCB924
3D08C1DB
BDE7F77B
BBFDF3B6
BC5DE7A7
3CB43958
3D051B93
3D5B6F5D
3C979182
3E2E1438
BDE8815E
3DF42A24
BDA0114D
3C9FBC5E
3E1DF7A5
3D385B5B
BDD1CFBC
BBE3F78C
BC98DEF4
BD4FB118
BDA4CA4F
BD9C17A9
BB09F40A
3CC61D86
BE113DB8
3E297742
BE0BACB4
BCAC0A4A
3D768167
BD862A1B
BCCFCC5C
BE54FA48
BDEFA2F0
3D84DD2F
3DD846E9
3D0AA64C
BE01CDA3
3DC3F466
3C9E55C1
BABC382A
BE31476B
3E050FC7
3D854584
3E1EC072
BDAF6F09
BE1AE07E
BDE984E4
3D18D79D
3BFA1E3F
BE28622C
BDBDE8B4
3D657860
BCA8E92D
BDBC2331
BD3C6A7F
3D9870DA
BDA9C12F
3E326F61
BDEC6A3C
3E361028
BD9A5E35
BE513554
3D548238
3D26DEFC
3E1C7C95
3BEDD484
BD4255B0
BD8DF04E
3AE97072
BCD53261
BD544135
3C876C05
BCBDE3FC
3D8AD1D0
BD2D0E56
3E1BB518
3BC49BA6
3DA9A3D3
3C16F651
BDDB9496
BCF18EB9
BE055476
BDE8BF3C
BE918091
BC131CA8
BD7B5BF7
BD998B72
BDEF301F
3E2C0D2C
BE3625A7
3BC729F6
BE44E337
BE1110A1
3E3CA3E8
3E474107
BDDC03BC
BE663A19
3DB3FAF4
3C88E369
3EA3DE61
3DFB3D08
3EFA0104
3DB65C2D
3E3E9C02
BD22AB26
BE088B11
BE2C67E0
BEF257EB
3E4A1661
BE6C9D9D
BD783DFF
BE936B90
3DBFDCDF
3DC412CF
BDC35936
3E49CA19
3E222C02
BD44DCA9
3E976641
3BF0C77E
BD8A8F3B
3ECA1512
BECB7953
BD8B990B
3E9B3355
BEA6E17A
3D5C1C61
BDE11DBD
3E2EA290
3CD40896
BCEEDAA9
3E11FD15
BD67210C
BD086BDF
BD909BFA
BDB1C326
BD365775
BD5F6BA0
3DEE9814
3DCBDE40
BBE618CE
3DEFBA88
3D0BE404
3D929D41
BE8A1A93
BD85FE97
BE19018E
BE021922
3B9F16B1
3D764064
3CF86A0A
BDC67BE5
3B9C23B8
3B7B1184
BE0D04A3
3E1D14A1
3D310236
3E18C198
BC82730C
3A4ED4E5
BDFE6E65
BD1C3AC9
BDD6A2F5
3BB777D1
BDDB6135
3DD60F1B
BE0C093E
3C4D35A8
BDC052D6
BDE4C37E
BE197AAB
BCCBF099
3DE6F694
BC0EB463
BE2817B9
BDA36D22
BBF3CB3E
3D1D3459
3D2773E2
BDA4B1AB
BD362307
BD9EA2D3
BD4E4862
BE520F2C
BDA8C500
BD5170D6
BDCB72C5
BDF5E84F
3E9D8BA4
BF1776C5
3E1DB121
BDAC7970
BEBB1034
3E017B96
3E633871
3D387161
BEA6CA8A
3B42A455
BE007FAA
3D74B839
3EE6B096
3EA0A86D
3E088052
3E322A2C
BC117508
BDECB429
BE8F7553
BE969FF1
3CFC8D19
BC61D649
BBF0E0A8
BEE82E23
BCCD7F0F
BE12AE4B
BE5D9F90
3E3B866E
3F0C1E79
BD588F43
3E452B91
3D29984A
BE2F8940
3D185272
BEE3A323
3E70F495
3E9F1ED1
BDA4E50C
3E178BBD
3E6BDBE4
3C1B3073
3C70E4DA
3E7D7FD8
3E0017DB
BD163CB8
3DA10731
3C8A73F7
3D94299E
BCC7A398
BCEE47DC
3DEF2735
BD8A7B4E
BD6B990B
3B360F1B
3D7CC07B
3DB98E97
3D687D2C
3DAB3DD1
BC6FF9F8
BDC85F4A
3C1CAE21
3DD3E469
BDE86AD3
BDAFF434
3E06F156
3D53B6CC
3DA5B318
BCF1D1D4
3D2D5F14
3D08D6D4
3D330C67
BDFADC0A
3D715B57
BC34B72C
3BB4F1E5
BDC3DCCF
BDBC3DEE
BDB4506A
BE71E18F
3E07D999
3DAA84BE
BCBEF8CF
BCEE3715
BCC88E7A
3E1FB4C4
BD5084E8
BD5F15A5
BD0BEE80
BCD63ED1
3C15E9E2
3B7E8AB5
3DA47E4A
BE1BF940
3DD88A05
BD3D47BF
BD4D0DD0
3D46CCA3
BCF633CE
3C267E84
3DB0DC77
BB2F4F0E
BE27CED9
3DB39EAE
3C4A4F44
BE11A71A
3DB7891E
BD7481B2
3D82888B
3C378898
3C215981
BDD6427C
BCB65A9B
3D11244A
3DF05AF7
3DFEBE16
3D946B27
3CCF5D35
BD9B3637
BD9A1A93
BE0A8FC1
BCD76684
BE2A68F5
BE1A1230
BDCBDBA1
3CD3825E
BD21E0C6
3C0F7553
3D7672B9
3E8187E8
3DC75B3E
3C8AF5FD
3CAD3C79
BE01E471
3D50795F
BE1EBC84
BCE74D16
BD820254
BD9AE686
3E16B54E
3D783BE6
3C13FAF4
BD00AF1D
BDAC1B11
BD4982CB
BC83968D
BDA0A7C6
3C44CDFB
BD8697AF
BDDC43B3
BD581ADF
BD45F395
BE3B76F7
3D04E50C
3CB9E8C4
BDF87054
BD9BF37C
3D6699C8
BD4C88A4
BDFF0E4E
3D34F3FE
BDC699C8
3D835697
3E46AA4C
BD77995F
3C92146A
3D1D4845
BE08094E
BE053544
BCD53261
BDED666B
3DC4AE00
BD480842
3CF77293
BE2D1CC1
BD077575
BDB17C5F
BE3EDB2F
3CE75148
3E22A737
BCAED56B
3DD8C8EF
BDA4C8BD
3D192104
BDCE3CDA
BDBCA537
3E7C7F78
3D2D9381
BE24959E
3C8DF373
3E5806AF
BCF7FCFC
3E64E26D
3DFE8A2F
3DFA80D0
3C663A5C
3CCE8102
3D88533B
3D66A338
3D4306E6
BDDCE6C1
3D7530CF
3DBADD16
BCB4245F
BC2F9A8D
BDC76AF9
BD4DCB9B
BE003FB3
3D2C00DA
3E0BFFCE
BDA52589
3BE5CD4F
BD2A6D26
BE253FC0
BDCF8833
BB7EBD0A
BD886BDF
BD380779
3D26CA04
3E2293D1
3E1AF35E
3E13D4F1
BD41C92E
3D8F3F53
3DEB7AA2
BBA63B69
BC96FEB5
BCAC42EA
BD27DBB1
BDBFB0D5
3E04091C
BC962281
BDBA2941
3D075E63
BDB182AA
3E106A2B
BE5AD9AE
BD8F97EE
BDE3BEEC
BD9498C4
BDAFA15E
3D972820
3DE44285
BD89DCF9
BC912770
BCB5D895
3DFF9D6F
3CDF8F47
3D26F502
3E211BA4
3DDCFAAD
BCA4BFD3
3DE5B7D0
3E2EC95C
3D7CD899
BD1F8C22
3DE075F7
BE743A64
BE09C843
3DDD2524
BDE2413E
3E29D2BF
3D2F3D3A
BE4AC14C
3CB3B539
3C607E5A
BDB98959
BDA7F0AA
3E09E908
3DB88CA4
3E051090
BE40D5A6
3C67C4A0
BDD7EBAF
3E2E464A
BD5F7836
3DB5EA68
3D129DC7
3D413986
BE24994A
3D0D90E2
3D58C08B
3D066B1E
3DBEB639
3DAC6A3C
BE0FCE74
BE1296B3
BE65BD51
BD12D01C
BD1DC1E8
BD15A7D2
BD59E83E
BE0187E8
3BCAAB8A
BD6E264E
BE10C954
3E498FA3
BD895960
BD9653CA
BCF292C5
3DB0F388
BD0AA540
3C08722A
BD9918A0
BDDFAB11
3BC9C90C
3DCF3FD9
BCF240FB
BDEA009F
3E13E575
3D9D6ADF
3DC9A134
BE18BB90
BD88B3B3
3C4D9E84
3D090E67
3D859E1F
BDE8C932
3DD4BF90
BC9D6495
3C39C737
3D206962
3CAF0E0B
BD17214F
3E676790
BD9F17BE
3D5D69D3
3DB2D98C
BE0C219F
3CE66CB1
3E298394
3DBE4580
3C510B20
3E7484D7
BE017508
3E004966
BD3B9AE1
BE1C4220
3CF266BA
BE472218
BDE41A26
3CE4C943
3DEE4218
3BDEC1C2
BDD95CC8
3D5FFD61
3BE8EA3A
BDC82624
BD91337F
BE5E746D
BCE28CBD
3CDFA659
3A999DCB
BDF12989
3E71C0CA
BCF38A3B
3DAAC9F3
3D50C910
BDFE9B7C
BD950EBB
BC8DC337
BD9524C0
BE0C9C0B
BD746ED2
BD473040
BDBDE2EF
BD07EE0B
3D3BCB1D
BE41322F
3D8DDA49
3E428134
BC56F545
3BB734B5
BC936A40
BC8C197E
3D96C051
3BA4DB16
BC62B8C7
BE000A7C
BE1EB9E5
3DD7FA5D
3E20242D
BE0C80C7
3D8984E4
3CB2A066
3D9D1C3B
BE29CE8E
3E0FB2EE
3D10624E
BC94F8B6
BE0008EA
BCB21816
3D90025C
BDC33376
3D938EF3
BB53176A
3D891F2E
3D9B05FB
BDAD106F
BDC61B6D
3DBEFE0D
BCF8B370
BE54E11E
3D465E89
3DB1AC9B
BEB57C0B
3EA821AF
BCBCD573
BDB653CA
3D95F99C
BDF820A3
3E6CBC49
3EAC2742
BD97EB29
3E0A46E1
3E5D4E09
3DA9856A
BD3F583A
3D10D068
3C959A31
BDD24E16
3D98609A
BE5BEF8D
BE09491F
BD2172AC
BD4EC850
3D94DCEC
3DC70436
3E2F2E49
BDA78C87
3E07EAA3
3E868FB0
BDD44C38
BD87A95D
3E51CE6C
BF040E7C
BE660BB3
3D53E3E3
BE247885
BBFF6D33
BE2CC533
3D8B495A
3E0DE8F7
3C78DF7A
3C185F07
BDA9F16B
BE97FB05
BDA74FB5
3D90B06C
3E1E40C8
BEAEA5B5
3E4B51BD
BE67C676
3E7EEB2D
BD65C3DF
3C6A4A8C
BE854046
3E112B1B
BDD76BC2
3DDEA466
BD4F2E06
BDB29DC7
3DA8C587
3DC3C07F
BDEA411C
3E55C572
BD56D3B7
3BD05F29
BD671EF3
3DE7210C
BD0726D0
3DBEED46
BE6172EF
3E725248
BDB0BD88
BB87C201
BF0A8B09
BE77C0F4
3E26F438
3DDA3337
BCEB5914
3D1B8ED2
BDE77B39
BDD327AA
BDBB035C
BDF92AFA
3E28C3F4
3DECDEA0
BE8B39E2
3E5D4E4D
3EABBE01
3E1013A9
3E3AA327
BE170D63
3E8CCD75
BC5AF4AE
3DA30F49
BDE2EA96
BDE57753
BDB4E011
3D046B6A
BDBA47AA
3E2F53C5
BE785A0C
BD2759AB
3CD0917D
BCFEDC7F
BD807A29
3DB37543
BD995704
3D7E175D
3D9BB1F2
BDE09918
3D9632C2
BBA326E1
3B91C087
3E002CD4
3CB851EC
3D3AA68F
3D064239
3D46455F
3D881A9C
BD2EF6F9
BDA71B48
BDA26B2F
3DC658C5
3D4D099E
BBAF4F0E
BE630596
3DE24FEC
3D3D3911
3D1CC20D
3D171C11
3CB46562
BE2C9082
3D9729B3
3E32DECA
3C446D83
3D6786C2
BE12C626
3DB50E34
BE213F07
3D2A9E6F
3DB569F5
BD2A0CAE
BCB6F7E4
3E2D349C
BDBBCA10
BDBE8F6D
3D1D2392
3DC6099A
3DEA5ACD
3DCACC92
BE28BAC7
3CFAFC8B
BCD35EB7
BE8842FA
BD826245
3CA0C6B5
3D4E25C8
BDF67126
BE05BDD7
BE82C55D
3DDC6003
3D6ED45F
BD36188B
BD6FBA02
BD9C8FB8
3E2358F3
BDC378AB
3DE6E760
BD8B545C
3CD1E109
3BC59FB2
3DA30DB7
3CAF8BDF
3DC8A698
BE026890
3B6DA22F
3DA5DD90
BD5375C9
BD1F3F96
BD7D5561
BDF6A37B
BE823162
3D6CABC5
3DB55369
3C2AE297
3D1AA92E
3E61E860
BE2DD54E
BE0A7E74
BE6AC604
BE48ADAC
3DB531DB
BDAA8651
3E6BFF04
BE137EB3
BCF398E9
BDE3A10A
3D240FAA
3C8C64FE
3CCAAB8A
BCE9F490
BDD206C8
BD9E175D
BC6F6B5D
BE39378F
BC05553F
3D8DCA8E
BCB8FFFC
BD12B5E5
BDB3A0C7
BDEF73C1
BD564A5A
BDBDAD75
BCDB7282
3D3CB2D9
3D8503FB
3D5D6BEC
3E0F3669
3DC0C62E
3E454DA5
3C85C033
3D6CE465
B9A17B0F
3D0E28ED
BD356862
BBA832BA
3C604C06
BD3C42A6
BD5A6938
BDC0980B
BCA2AF57
BC52DCB1
3E66C227
BB684274
BDAFB19E
3C7B97BB
BD38B04B
BDCB87BE
BD6E0D24
BE2368F1
BDAFC82A
BDD8982D
BCBEF49D
3CD0ACC1
3C4B1034
3DB401C5
BDCF77F2
3DA1943A
3C578C43
3DD25FE9
BD97DA62
3E32845A
BC11BC56
BC6731D3
BC03D35F
3CF02E66
3DEA5050
BD0A89FC
BDA132B5
3D9821AF
BDFA9436
BD56CD6C
3BD4DC66
BD1D4D83
BC586A90
3CAF5558
3E0F6B5D
3C733871
3E0FB331
3D2C3761
3D971540
3AB8066C
BDF36934
3716FEB5
3D1EE350
3CE0BB2C
BDD3E35C
BDE0BF5D
3D52F2B6
BCAF31B1
BCD55608
BD4F7447
3DC642C0
BBE95747
BDA4EF89
3E0A6CE3
BDA7368B
3D2174C5
BD020C4A
BDB8D046
BD88AA43
BCB9FBA4
BDF54DA5
3D0285EC
BD0F0A5F
3D8A7B4E
BE30285F
3BC8C500
3E22FAD7
BD753E70
BD35AB7E
3D5275EF
BE496207
3E0EC4A4
3D3A28BB
BDFB5FA2
3DB2C7B9
BDC50BD8
BDA6C00E
3E2B317F
BDF61BB0
3E3F7BE1
BD3DCF03
BDFCFE58
BD7E8683
BD88A7A4
BDA7DD44
BDFF84CB
3E0EA034
BD8DA448
BE3DF7A5
BE517B0F
3D72F87B
3DEE171A
3C7676EA
3E5421C0
BCA502EF
BD9C1590
3D0407CC
BD6C5B08
BCF55582
3DB0C804
BE38AFC4
BDD73861
3CC471B4
3BD85DFB
3AA54824
BDDB8801
3E03A861
3D7A0514
BDBBF488
3D3CA85D
3D1A87A0
3D01DF33
BDD3C819
3C576EE7
3BE618CE
BD0BA1F5
BC8B4BF9
BB23D70A
BD57B95A
3CF25A25
3ABBB1F2
BC95E7C9
BE46A401
3D4FF21B
3E1C62E5
BD916441
3C9F7D74
BD365237
BCC0AAEB
BC90FB65
3C147065
BCEF1FDE
3CC59FB2
3D6F8488
3DCA92E6
BC51D042
BCA2424A
3DAB8950
BBF8BDEC
BD74BC6A
3DB3061C
3E109247
3DBC6DA4
3DB7A4E8
BA9374BC
BADC981C
3B61A3F4
BD805CCD
BC84F4C7
3D51C7DE
3E06162F
BDEFCD68
BE0846A6
BD003793
3C221A72
3BA1059F
BDC0C176
BD35D56F
BE0BEE3D
BE0D4E09
3D543D04
BD2F6944
BCFFED20
BCA9E908
3D1934F0
BD06A8FC
BD064884
BE3BD2B7
3E64EF89
3CAA8651
BECD0C80
3DE2B303
3DC600B0
BD6D6A9C
BE5FF045
BE09068A
BDD764F1
3D4F9E38
3E0FBA02
BD2E5040
3DF67770
BD2137F4
3CB0B392
BDEBF4CB
3DB4256C
BDCD0EDC
3CB358F3
BD3161A2
BD800DA2
BE018F3F
BB41B973
3A1D0636
BE84BAB6
3E868A50
3D3D4174
3CA43782
3D424F66
BDECDC87
BDC88C61
3E37B02D
BE98A6FC
BD0C9FB6
3CB3EFF2
BD59D346
3D5D8E86
3D601CD6
BB7F0026
3D5F8C22
BC230DB7
3E2B8FDE
3BD3AE68
3CF59AB7
BD98C3B1
3DB441BC
BA82278D
BDC404A7
3DD8DB49
3DC23077
BC9EA78B
3D190AFE
3CD8F2E0
BB88D6D4
BD99A8CE
BDCC7A7D
3DE112BA
3C115BDD
3D423D92
BE5DE4C5
BEA3CB3E
BE2F2841
3DA99A63
BC2CC4F0
BD8FAD6D
BCDD462C
3E26FC16
3E2CD6C3
3D374BC7
3D9B035C
3E108206
3E789375
BDF3A0C7
BD0E0978
BDB34613
3D8CC921
BE9F9AAE
3D890BC8
BDA6B26C
BDAE54F8
BDCFCF81
BD82D8C3
3E1F926C
BE0C386D
BBC857F3
3D16C93A
BCF5D9A1
BD486057
BCF68DFC
3D82717A
BDBDCD70
BCF5D9A1
BE0D898B
3D7E6B40
BBA18BD6
BD7AA68F
3E26CFC8
3D28A0D3
3CDE84F1
BD68815E
3C09CA19
BDF62520
BE938BF0
3E04B05B
BCD334C6
BBF81E8A
3CC373F3
BDF0B285
BD9EB314
3E3C868C
3E1DF091
3CC03BC5
3DA04E1E
3CBAEAB8
BD729803
BBA91D9B
BE2A4D2B
BD890ABB
BD0F6BE3
BDB2B6F2
BCD781C7
3D918655
BCDAA4FD
3D3760BF
3E00489D
BC138DE7
3D4039AC
3DBE2C56
3CCB380D
BDB19E73
3D0536D6
3D35BF6A
BD77585C
BCB1A4BE
BB6A0770
BBFD8F0C
3E06AB15
BD4217D3
3D58537E
3C33A68B
3D3BD274
3C2A21A7
BDCAE536
BE29EE03
3D02352F
BDEE05CD
BC4AEA74
BED2D4D4
3E40DDC6
BE9D7364
BBA686E8
BE69CE07
BE07A56E
BE9B3AAC
3D79170D
3C11A75D
3D737111
3CE1AC58
BE971D1D
3D37B9E0
3E151EB8
BDDEBBFD
3CAFA93B
3CF2FDB9
BDE5332B
BDF25F63
BDB72043
BE50E8C9
3E407D0B
BE1AECD0
3E87A440
BE348BA8
3DB14552
BEF15E5B
BE74BA52
3E6AB8E9
3DE1A1DC
BDC55433
3DF4D940
BCD946C3
BE4E6B83
BE807C20
3D6F3B21
3ED16851
3E4FB225
3C78D2E5
3DA97529
3EE67EA6
3E37B0F7
3E58D435
BE063E4B
3EAADBC6
3D142E55
3E07F2C3
3CA4FEBD
BB6032DB
BE85B22D
3E053006
BE256042
BD017A89
BE6D462C
BD86EB0B
BD914877
BCF35C18
BE07F456
3DA8DF37
3E2CC07B
BD0A59C0
3DE96788
BDC72325
BDAF2E8C
3D2C83ED
BD45CEE1
3D6C7C95
BBD22425
3E2B91B4
BC99C9D6
BD318CA0
BDA74AFD
3D937FBF
3DA83B1D
BDDC5BD1
3DA5510D
3E09806F
3E30D307
3CBB0814
BE5B29A2
3D8A172B
3C0665E0
BDE53FC0
BC729D41
3DF5C960
BD2FCEFB
BE0CC7D2
BD1098D4
3D0B6523
BE0CEE18
BE838499
3C6E9574
BDD48777
BB64A7B5
BD4CBAF9
BDBE468D
3E04766C
3D043915
BDD78EE3
3CD5C960
BCA1BE2B
3D62AE4B
3D629308
3A74D7AE
BCAEF0AE
3D2830A1
3D815012
3CCE5B42
BE0B7AE5
3E18EFFE
BCEE6538
3E1839CE
3DA0CE92
BDF5D13D
3C4B5350
BD078C87
BD144242
3D4DAD32
3E0C6195
3C12FB1A
3DEACC0C
BD8FE9B8
BD1BE1A8
3B80E065
BAB19A41
BDDDDB98
3E2AFD11
3D39AAE7
BDE488C6
BDDDFCA0
BCD1FA33
3CA13A0C
3C5FA872
3D91E7DA
3D02ECAF
3C67A312
BDE65061
BD34CE3E
3DF58C8F
3C981BEB
BE05AC47
3D0BE1EB
3D112125
39EF9980
BE0F127F
3C3C5586
3C8C0CE9
BD80064B
3D9BD945
3C5FB0D5
3E36F694
3E05AE1D
3DE6876E
3D5204B0
BE2C02F3
BE17DCBE
BC2CB429
BD85260F
3D436113
3E4257C9
3C84406C
3CD79AF2
3CB03C08
BDDDDB12
3DCCEA29
BD554973
BD47F130
BDA54AC3
3C8969A1
3D8075F7
3CDC981C
BB8A7A42
BD0E7EE9
BD767E41
3C2921CD
3D8B65AA
3D86687F
3D0D9514
3D88C79F
BDF79B78
3CD58644
BCB55476
BDA40853
3D9D40EE
BCF062D4
3D5A31A5
BD7B5393
BDF3825E
3D753719
3DC9C023
BE4C4695
3E774107
3D35D788
BC7227D0
3CEB2075
3D2AD3E9
BD25EEDD
3D9A93AF
BDB6F113
BE0E9C02
BD35B1C8
3D3C6434
3CE6E86C
BD7ADD16
BD5235F8
3E5ED2CC
BE159818
3BB24A6B
3C186339
BE0AAE29
3C20FD3B
BD92FBA0
BE0492FF
BB5DD6E0
BCF329C3
BE0698FE
BD0BDA94
3D8AA865
3CEAE18B
3DB6AD71
3E52F1AA
BE1DD441
3D3163BB
3DC26BB5
3D279464
3DB99B2C
BDCCA9AC
BE69DA59
BE5FFF37
3D9C347F
BCBFDB4D
3D0814D7
BD71F03D
BD98A223
BE0293D1
3E929C99
3D9455A8
3E7D651B
3D945CFF
BDAD349C
3B97D8CF
3D93E3E3
BAE0C9DA
3C6C84F9
BD1E108C
BCD1B2E6
3EB10BA6
BDB6ACEB
3D14C122
BC0F648C
3EAC1073
BE1C5EB3
BE9DE6FF
BD413448
3D99B670
BEDE1954
3EDBB5E1
BD9EF6B6
3D80D1B7
3C0E6D16
BDD3BD16
3E8DDBFD
3E78609A
3D8053E3
3DCFFDA4
BD1044F2
3D2A7EFA
BD31DF76
3DF4994A
BD897529
BE85DBFD
3D83193F
BE0A7696
BE845198
BBF7E3D2
3D91F1D0
3EAA72A8
3E2D37C1
BC87229F
3B813448
3E595FEE
3DB88F43
3D8ACB86
BC643244
3E8321A3
BEA8C8AC
BE4B8E4C
BDF74A34
BD87B6FE
BE191DDE
BDB7ACC5
BD470B8D
3D4B3E57
3E37C30D
BDF72A39
BD1F59CD
BE2CAF2D
BDC6E654
BCC34A02
BD145309
BE08B2A7
3D617A03
BE85ECE5
3E410774
3D183F92
BE80CB6C
BDB4F26B
BDA779A7
BA067AD9
3D90EE4A
BD9AD29A
BE99DC51
3E1691EA
3DF5AB7E
BE85DC1E
BC8D7E02
BE7E410B
3D2B9B24
BC76F08D
3E202FF9
BE438327
3D5F7510
BE0FE197
3C44827B
3AF94C88
3D471609
BED8AE32
BDFA8A40
3E0D1BF8
3D1BAB22
BE2DAF4B
3C6EBB34
BC884A51
BE6318FC
3CDC981C
BD974D59
3E5042D9
BC64D1A6
BDBECC3E
3DABEF07
3E850EDC
3E8F3DE2
BE12FEC5
BD0828C3
3E37C06E
BDD6312F
3D30691F
3DAA9931
BD8EF45A
BE2FA2F0
3DD48A16
3DD87AD1
BC867AD9
3E0FCA43
BD52007E
3D89CED1
BE40CED5
3C9C90C5
BC9FB3FA
3DE1437C
3D30813D
BE8B8BF0
BD12A305
3D92DCB1
BE4935FC
BDDAC68B
BE2EB24A
3DA651F4
3E1CD8DC
BDB75A75
3D68B8F1
BE2B1184
3D824F66
3D32E169
3E3B3EDE
3D666CB1
BE97F328
BE52FDB9
BE8FAE79
3DE6338B
BE244178
BE969985
3D80B674
3E5B53D6
BE8C063A
3E5B12D3
3E3B9885
BC06B9C3
3DACF28C
3D906FEF
3E79331A
BD17939A
3E2DCA08
3C002C0A
BD8E3DE6
BD0FD2A6
BD1ACFFA
BCA0BE51
3CB7E4DE
3E31D713
BD55421C
3D1F926C
3CBBBE88
BCC63066
BDC0AE10
3CEFF7E0
BE2571D2
3D2C29BF
BE042D49
3D38F9B1
BCC8B86B
BD9FB69A
BE2FB331
BCE7F0AA
BE1348B2
BD55464E
BDD3F078
BE019A84
3D9F1173
3E0B40F6
3DBCE63A
3D42CD3A
BDCA41A2
3D85C465
3D9FDAC7
BB6E392E
BD950764
BE2E279E
BE109D49
3DC4F2AE
3D6707E1
BE552503
3B186FCE
3D8070B9
BDCAE968
3D4F483D
3E3596C8
3E061BF3
3CC0181E
3E308894
3DCFF10F
BCD1FA33
BDABE271
BDB7952D
3E0970F8
BDCCEA29
BDDA7C18
BD8DA09D
BBD4562E
BD11372A
BD921AB5
BD8B75EA
3C7FAC1D
3DC2E6EB
BDB69F49
3C1A73B4
BE0BE1A8
BC1F9CE9
BD767A10
3CDACCD5
BDB9F128
3CEDFE76
3D8B7132
BDE9A672
BE870E6F
3C969A0B
3CFCC9EB
3CB6E936
3D0023A7
3C67296F
3C86748E
BB4B7D41
BCB9085F
3D4AA759
3DF01F32
3DA718A8
BDBF4906
BCB0FCF8
BD9B4F61
BE1E5EEE
BC31FEEB
BE0E65BF
BDE50EFE
BD3BA55D
BD8F3776
3DFF17BE
3D67557A
BE882624
BD89374C
3D6B074A
3D45AA2E
3D2EFE50
BDE4BB1B
BDF6F3B2
BDF00EF1
BC371B8B
BD615B9A
BC9C1722
3DC3A084
BE80CA1D
3E05260F
BDB50B0F
3DB01A7A
BE44EDB3
3C3E8BC1
3E4EA24D
BB741F21
3E259EE9
BD2A044B
3D08BB90
BE03BF2F
3D53836B
BD808BFC
3DC82CF5
BDBF9DF5
BDA83FD5
3C40E7BC
BCB8151A
BBDDBDB6
3DB07A6C
3E1BEF4A
BE1148BB
3D018E75
BD77E0AC
BD5FB939
3D788EBD
3CAEAB7A
BCEA875D
BE0BA882
BDCD5D81
3D485D31
BE0A2D30
BD059642
3DABC276
BE2F4385
BD73BFB6
3C9A048E
3C79378F
3E1631F9
BD7A3982
3D5CE5B4
BD94A904
BDBAB5C4
3DA90364
BDB8476F
BDD837B5
3D2263D8
BDDA75CD
3CC625EA
BD7C419A
3B421E1D
3C90EA9E
3DB8D2E5
BD3DA61E
3D1EC1C2
BDBFEB07
3DBD041D
BE132831
BBF16F44
BD220685
3D1BC127
BE093B7E
3D1AEB3E
BD5E236C
BD1DDD2B
BDDA69BE
BDBD0C80
BD16F976
3C85CEE1
3D91F1D0
BD1E28AA
BDD3300E
BD836B09
BD808AF0
BE36ACEB
BD8ADEEC
3C474752
BD12C9D1
BCA2595C
BD7609DD
3D0CF180
BDB5A294
BD8ADEEC
BDE1B6D4
3DC8A47F
BCD73648
BC50F627
BD678290
3D206A6E
BC783BE6
BD903212
3B61932D
BCF2BA9D
3DA064AA
BDBE43EE
BE006EE3
3CEDA87A
BD3327AA
3D968DFC
3D2FD652
3BC8ABD6
3D6961C3
3C5FFC54
BC0D7E02
3D6BB01D
3D282F94
BCE3C537
BDEDA448
3D8AD57C
3E0E7254
3D3C243E
3D9ADF2F
3DA17CA2
3CA2F8BE
BBE4B87C
3CE3F9A5
3CA9FBE7
BDFFADB0
3DEFFC11
BCC1E796
3DC7C06E
BBA350D3
3D517508
BBE3582A
BCEF672C
BD5A0275
3DC22036
BA4564F9
BA1AED57
BDC1C92E
BB97F1FA
BD74DDF8
3D81D862
3C1C0EBF
BD46DE76
3C548883
BD248B65
BE43686A
3DC85B9F
3D97F306
3D9D5992
BDBFA11B
BBBD9019
BD71D606
BC8F14DB
BE1928E1
3D8610F1
BD2AF145
BDAB60F2
3C0D5411
3CD701DA
3D2C0725
BD254930
3DF3311A
3E3AB607
BE8D6B66
3D1AAF79
3DE7381D
BDE3A190
BDF1FDDF
BD72F76E
BD0EBEE0
BD95F1BF
BC1A415F
3E04ABE7
3DE7E7C0
BB295853
3D76DEB9
BD52BC30
3DA88616
3D6E5797
3CC72192
3D84B33E
3D95714C
3D80029F
BDCDBC66
3D6FED63
3B30AF60
3C83382E
BD1C4DA9
3D486F05
3E071B48
BC18FA37
3D6A4A8C
3DF4D270
BE202A35
BE1AAC97
3D098B2F
BD26F2E9
3DF650A4
BDCA82A5
BD35D356
BC37D849
3D4EFDCA
3D675CD1
3DA61D00
3CD6DE33
BD908BB9
3D3677F7
BCCC2939
BD2DE00D
3DA723AB
3D50BFA1
3D253EB4
3D8E53EB
3D7D6F97
BDDE260B
BD4D338F
BDDDAE82
3D86E979
3D97D391
BD2DE00D
3D3544BB
BE0AB9F5
BDD910C3
BE1C054F
BDF97FE9
BDEDA6E7
3D246AE4
3D3D5561
3D0C9214
BB62C12B
3DD81C71
3D232F45
BBE8C048
3DB21F6D
3DE6B617
3D2E642C
BE2B441C
BE5F1412
BAB6D86F
BD4BE729
BE084838
BD421C04
3CDF56A8
3DA141EA
3CF9A283
BDCCC576
3D876102
3D894035
3CD5C0FD
3E1914F5
3C9C0443
BCD8DDE8
BD80B5EE
3CF8A090
BE06E9FF
3DA8509C
3CE4712E
3D116FCA
3D913F8E
BD1DB878
BA7ADF2F
3C9348B2
BDC1D756
BEE4CFD1
BB451117
3E4F4F0E
BDEE746D
3DABA733
BDC20818
3C3C48F1
3DF45F18
BD9D5348
3C659AFA
BE34D877
BE1CD899
BCF2FBA0
3CBEEC39
BE380A18
BECCF638
3D6236C1
BDDF0B28
BE0FB939
3CCC78EA
BDC93426
3D0EC52A
3D94727E
BD487B9A
3CA95209
BDBA2510
BDD9CE8E
BD925CC4
3D63DD55
3CB93AB4
BEEBAB00
BDE1A9B9
BDB74FF8
BDAD5736
BD900CD8
BBBB1AF4
3DF2CCF7
3E2D21BC
3C955715
BD2481F5
3DBD9C28
BF375EC8
BD267E84
3C499286
3E669F06
BF503937
3E3BABA8
BF063B69
3ECC4370
BD49FB61
3E6718EC
BEC76C6A
BD7FAB11
BD2A65CF
BDF101B0
BC9A4BDC
BED5FE76
3EF45932
3E7EE99A
BED5A5FC
3EA97332
BDE9D40F
3DB99FE4
BD4FFC98
3CAE3609
BDB73754
BC576252
BE8EA077
3E275CD1
BC0DC982
3C177425
BF034613
BE9E3A5C
3E231D2E
3D8FE0CE
BD9353B5
BE10F66A
BD1FA872
BECB3893
3CE1DC94
BE37A0F9
3EE97FC7
3DF4B6A6
BE82F3C3
3D27BF62
3F51CE7D
3E6D8C6D
BE7E542E
BE87CB4F
BCDF00AC
BCC8C719
3E144391
BD97C88E
BD55B9A6
BDB240FB
3E213BE2
3C0ADABA
3D69D628
BE833ACD
3D8EC41E
BF134C2B
3D9DAF08
3E0DC875
BD9CC74C
3E2420F7
BD0E3476
3CF8FABE
BE88B9DC
3D0D1202
3E6E47DC
BE6CD4AA
BE1C2C5E
3D0A9585
BCACD7CF
3BC95BFF
BDF84663
3D12A51E
BD015E39
BE4E6AFD
BD3722E2
BC7D4BF1
3E1F1887
3CCE4EAD
BAB69553
BB8B4396
BE143244
3D99E94B
BCF6F08D
3E567C28
BD61E0C6
BE18259E
BD749CF5
BB028C37
BC89203A
BDD53B4B
BE0BAF96
3E32CB64
3C78C21E
BDDC86CF
3C4C575C
BDA3C105
BD61CBCD
BB59C6B0
BDB0D9D7
3CF531DB
3D6DDBDB
3D94CFD1
3D463E08
BDDAA583
BE010FD8
BDFAE9AB
BD8FD7E4
BDB18B93
BD603C4B
3D56A162
BCC1E796
3D820DDC
3D880496
BDA30121
BD8197E5
3A869C67
BCF42353
3CD831F0
BCFF36AC
BD629521
3D2071C5
BD4AD256
3D34959E
BBDDD6E0
3B103EA7
BD271BCE
3E1A322B
3E7F3238
BDAD0A24
BDC9741D
BCBEB39A
BE319546
3BB55EF2
BD906706
BD664B23
BD53BAFE
BDA0ABF7
BE43265B
3DD8AC9F
BD98A223
BD22BCF9
3DCE8534
3CE77B39
3C999BB2
BD5AD42C
BC9B089A
BDD86983
3DA79A28
3DBAC8A3
3D831E7E
BDFF8EC1
3DB5464E
3E05E743
BD34E981
BE977E1C
BDCCE033
BD815D2D
BD8FAF86
3D3C5BD1
BDAF2A5A
BDE189BE
BE033A47
BDE44285
3CA31401
BE85043E
BE134374
BDE5F17C
3CBDAF8E
B58637BD
BE05510D
BE14534C
BDE1083E
BD8D3309
3DC67408
3DA726D0
3D95FE54
BE164E05
BCF533F4
BD07ABFC
BE2B267C
BD474A77
BE96312F
3CDE2260
3D81E471
BDBA9110
BE31ED5B
3D25E248
3D8ACC0C
3E199DCB
3E30181E
BCD8C8EF
3DD8E326
BD16DF40
3C28D21C
3E05BFAD
BC72D7F9
3CC9ADC9
3C9897A6
3DC27393
3CD0FC72
3CDD6388
BE1A47AA
BD8D4456
3DEF733B
3D0C9EAA
BD88D5C7
3D0FE9B8
3DCA6091
BDD9DB23
3E144B2B
3DB947D0
3D3296F6
3D616C61
BE271F79
BD40F990
BC288F00
BDA9784F
BDB9C1F8
BCE11559
BD9B0CCC
3D5E7A74
3D11665A
BC10DE09
BE088723
3D3A5D29
BD8488C6
BC82C6EF
BE063F57
BDA4D877
BE3D6A59
3E03B0C4
BE39FD37
BE0BB1AF
3D8FAEFF
3CCE26D5
BDA91D15
BE3D86EC
BE16CC60
BDB89ACC
BCED3B6D
BE6A847B
3D87A744
3B08509C
3D04EA4B
BC892AB7
BDE81F54
BCA83B1D
BD4EFAA4
3D822BBF
BD1B09A6
BD7BC1AD
BE1407CC
3D71E6CD
3DB123C4
BD8EEBF6
3E612989
BE7179C0
BD734938
3CA9D628
BE1522EA
3B5FCE31
BDC15443
3DDD041D
BD1F17BE
BE5B3D8E
BDE26352
BD835C5B
BD8A222D
BD56F007
3C85DB77
3DD17269
3C2558EA
3DE75BC4
3D37D73D
3D8B95E6
BDA03A32
BDD2FE3F
3C7C04C9
3BB53D64
BC9E4F76
BD2641B3
BCD17614
BD89AC36
3DB92EA5
BE12480F
3DF8EC10
3E0EBD0A
3CEBFEC1
3DCD6DC2
BD9C981C
3E83D2D8
BDA64ECF
3D0FBDAD
3D421294
3D15C316
BDA77AB3
3E118BD6
BDE2B1F7
3C44156E
3DF81301
3D2EF3D4
BDC9B520
3E165B64
BE3A964F
BD137E2C
3C6FE932
BD8A0664
3D4E5604
3D9F3626
BCDFCA00
BDA22B39
3DEA1837
BDACF6BE
3E2E3FBC
BDD8C112
BE1EE4E2
BDC51D26
BD85E786
BDADF1E1
BD314120
3DFEE675
BDB226C4
BDE0A8D2
3E25B74A
3E7B5244
BC8B0D0F
BDC127B3
BD864346
BD86490A
BD8EF88C
3CA03C4B
BE3DC487
BDEC4A41
3CB4677B
BE806163
3E1D0E13
3D5E41D5
3DBCD3E1
3D923D4F
BD1F6556
BD89C4DB
3DBAEA31
BE044780
3E0AE968
3C4B31C2
BDAEE5AC
3D939086
3C451DAC
3CB6177F
3D866CB1
3DA34F40
3DDCA212
3D956A7B
3B7ACE68
3CF6FB09
BE923422
3D714877
BD0BC59C
BDB6555C
BD0B1DD6
BDB10D39
BD9F6018
BDDB3F21
3E22F7F5
BDC28A1E
BD834F40
BCD3A1D3
3DA02A78
3D27E1FC
3DAB8C76
BD70489D
BD607703
BD2EC398
BEA40BDD
BE101B43
3BBE1EB4
3D0AAB8A
BD681BA8
3D7AC4F8
BDDA96D5
BD9CEAF2
BD8A98AB
BD15A07B
BDB1F927
3CDBE3C1
BCB033A4
BE62B496
BD83E319
BD3B7A5F
BA4FE154
BE36F007
BC89CC32
3B0626F6
BD76E2EB
3C85E80C
3D2606FB
3E0092CD
BE087486
BDE1BB8C
3CC5E2CE
3E3E45C3
BD8163FE
3E31D7DC
3D8E5B42
BDFA6BD7
BED8C7C1
3DCC63F1
3D67DFE3
BD6B27CC
BE52EBA2
BDD1593E
BD75CD0C
3DB7CAA7
BD0D7E02
3C8C825A
BD02517E
3B22339C
BC30FADF
3D8C1334
BC118A01
3BC6AC21
BE445027
3C966E01
BE4CF206
3D670197
BD040182
3DFA415F
BD863E08
3D172CD8
3DF2A27F
3DF6744B
3D9267C7
3CBFB9BF
3D83B2DD
3D726289
BD34F2F1
BEAA3465
BC886DF8
BCF61028
3C7D4BF1
BE8B252D
BE9842FA
3D3748A1
3D3227D0
BDAB5782
BE107B78
BE05C854
BD3A96D5
3DC6CA8A
3D23EC03
3D44998D
BC8DA7F4
3DC4E93E
3DCEF5ED
BE864628
BDD55150
3DEA0A0F
3AD045FE
BDAF1B26
3DFA9D1F
3C688590
BD344C38
BD1F71EB
3C5E0935
BB45C9A3
3D0C0054
BDE5F17C
BB1D16FD
3E07DA1F
BD6DF1E1
BD06EE31
BE2B5782
3A30F27C
BE2CAF71
3E0054EF
3D4303C0
BDD36A40
3D58F92B
BBC06184
BD0AE85C
BD2279DD
BE61E18F
3DB56B01
3DA883FD
3DBDDB12
BC0F8A4C
BE1FA69C
BDC867AE
BE2AE89F
3CCBF099
BE3C88E8
3D8E46D0
3E53D817
3E2ECA25
3DA43CC0
BC43CE21
3E2B6C7A
3D231A4C
3CBEBBFD
3DDDCF89
3E188440
BDD107FB
BC79AD00
3D01ADEB
3D16BB99
BE8B341E
3E161D86
3E1F4E87
3DDB41C0
3D29B5A6
3D3B4917
BE18CDEA
BE46D549
BE82836F
3D432874
BDC14B5A
BE1785F9
BDC58D58
3E430510
3DC406C0
3DE8ED5F
BE5B54E3
BB10F734
BE8B6C59
3E13EDD9
BDDBB8C3
3DC8B652
BD199674
BE01D085
BE569015
BE51819D
BE1445AA
BDCEE957
3BC81D3B
3D3064ED
BD77574F
BDE363B2
BE24CBE2
BD0D8A98
3DD5F1BF
BD5BFDF8
BE28DDA5
BE52B2C0
BE1BA1B2
3E436502
BDA66BA5
3D016F00
BE066A12
BD386E3B
3E4EC17F
BDD4DB59
3C4BEA4F
BA8919F0
3D44ED70
3E0E2542
3E35696E
BD8A0B1C
3DB3D8E0
BD84CDFB
3CE62995
BD5987C6
3D8743A6
3C41DF33
BE3518F4
3CF68DFC
3E4BBA99
BD18E64B
BD9511E0
3D0C8BCA
3E32D730
3E33B928
BD2F0069
BDB034B1
BD660807
BE116D2B
3DB60AE9
BD665CF6
BDEC83ED
BD2EFE50
3DAC3EB8
3D13F184
3D80C0F0
3DD4C87A
BD1A9329
BDADBF8C
BDF5525D
BCD9578A
3DDB1D93
BDB53587
3DAC3D25
BDF7F8CB
BE09A6F8
3C79D6F1
BE7516DB
3DAF0175
3DAA161E
3D6F5665
BD88D4BB
BC773C0C
3D96F976
BD013016
BDD84902
3D736CDF
3E05FD05
BE247842
BD8D90E2
3D96E829
BE271434
BD83F91E
BAFF9724
BD92CA58
3CA24463
BD94CB19
BE4C5975
BE2FF1D8
3CFA8F7E
BDFEA4EC
3DBEC3DB
3D4A148C
3E0054EF
3D7AD6CB
BE152C9D
BDD4141F
BDE4B125
3E8C3FC4
3D1D91AC
BD973C0C
BDFECF64
BE11565C
BD57F306
BB41333C
BD645B29
BD188B11
3E8B41E1
3D611340
3DAC63F1
BE85E5F3
3E26933A
BDDB1077
3E97BB0E
BC65DE16
BDAC6E6E
BCC6E2A8
BC58EC96
BD40B34E
BDE557DE
3DB53D64
3DB19BD4
BC1131EC
BE49BF16
3E403C8E
3DF43394
BE670585
BEB6FFC1
BD8C6D61
BDF0EE4A
3E78C08B
3D2E6EA8
3D13293D
BD989E77
3D03A42F
3DDC48F1
BE3D0E99
3E254C98
3E806402
BCA43351
3E0717DF
3D6B7FE1
BD7FB374
BE1EF5A9
BDA133C2
3DA217D3
3C6ABBCB
3E9311E8
BEA2E515
3DBA4591
3CF1172F
3EA3FE5D
3E5B93CD
3D1BAE47
3E2F39D2
3DBA9F38
3DA682B6
3C1AD85E
3B9973DA
BD1611BA
3BDA554C
3EB6019B
3E15E0B5
BE988095
3D540DD4
3CFD933E
3DB7C137
BD683904
BD375643
BDC496EE
3DB122B8
BD3927D4
3CD7B41C
3E3E175D
3DC5BC88
BE1DD6E0
3D20A73F
3DB29803
BD180B24
3E29B307
BD88626F
3E055F78
3DA214AD
BD1E15CA
BC8C692F
BCBE7297
BCB0EC31
BE0A30DB
BE142FA5
BD7BADC1
BD784018
3D82235B
3DDBB518
3D7B5287
3DF70EF5
BDE2AA9F
BE13E857
BA9D6ADF
3E79B1FB
BCE29B6B
BD562281
BE15FBB5
BE71D92B
BCBFDF7F
BC8CF7CB
BCAA8651
BE026634
3D3B9171
BD4EA39C
3DE5E02F
BDC78C00
BDE7589F
3CDD97F6
3DAE1CDE
BE1A2489
3DCFA051
BD5490E6
3B974A34
BDFCD680
3C98E758
BE18EA3A
BB9203A3
BDB6F21F
3C03BE66
BDE239E7
BDC88D6D
3DA08744
3DF35D25
BCB4B2FB
3D9EC4E7
BE0D7CF6
3CEC3116
BDC00B03
3CC8E8A7
BDF46AA1
3C5FA00E
BD113405
BD535760
BDEEEB70
3BA5C5F8
BE0C3DAB
BE0700CE
3D41387A
3D74506A
3DD25DD1
BE001B43
BC9DC93F
3DD53CDE
3E1E6F2F
BD25C91D
BE2248D8
BD48DE2B
3DDEAE5C
BD88CA3E
3CBD31BA
BD6DC5D6
3CF8897F
3D856ABE
3D67D34E
3D96AAD2
3E02ECAF
BC9DBA91
BDA7DA1F
3E1211CB
3D54DD72
BD3D5A9F
3D23DE61
3DC681AA
3D493965
BDA4CCEE
3B7FDA40
BDF54C98
BD31ED18
BD9B6241
BC39884C
3D94EF46
BD212620
3D5DDA06
BDDA6613
3BD54110
BDC7EE0B
BC9C2E34
3D4C1FC9
BD3967CB
3C2B8E8F
3D247347
3D384A94
3E40F40E
3D8D8772
BCEBAADE
3D9A98EE
3D03A42F
BCD8A116
BD3B99D4
BD91BEF5
BE88C650
3CA3486F
3DA1ECD5
BDAD50EC
BDA496EE
3D4D1633
3CBD2B6F
3CCA5376
3DB6B3BC
3D8CA687
BD112770
3D01C3F0
BBE820E6
3CBAF74D
3C9465E9
3E08E582
3DF033A4
3D4430B1
BD90AFE6
3DD0489D
3C992EA5
3DABBECB
3E27A4A5
BDA77C46
BC9E5C0C
BD91C087
BD4B3A26
BD5831F0
3EB1FFD6
BE3B34A4
BE008C82
BD4C8CD6
3EA64495
BDA917D7
BD0FECDD
BEB6A4A9
BDC055FC
3B417657
3D5B5C7D
BE01C9B4
BE1F7404
3D523C43
3DA38327
BEE521BC
BCA03600
BE65DC83
BDE5D52C
3DF524C0
3D9AA25E
3D8B92C0
3D9B97BB
BE3D16B9
3D585165
3E6E07E6
3D67B6FE
BE93DB1A
BE967BC4
BE24A383
BDB75968
BE278B37
BEC7D0F2
BDBBC1AD
3DA8AE75
BDA29F17
BD907853
3D7E835E
BE0825E1
BE3EE88E
3E5C896E
3CF82B1F
BD9B0143
BC883559
3C40D2C4
3E39B995
3CADC098
BDC429E1
BB19AE92
3DA290EF
3E885165
3DA9ABB0
BD8093D9
3E4FDDA9
3E297AAB
3B9EC2CE
BE75768A
3E3F84CB
3CF3E682
BDA62802
BD4D2B2C
3D91BF7B
3DF9DF55
3DD3122B
BEA085B2
BE47D49D
3E1563AA
BD872F34
BA13964A
3D9246BF
3D579AF2
3DFEE137
BE51ECD5
BE91C971
BE2E310E
BC6BA27B
3D91FFF8
3E5A7AC8
BE2BD7F5
BE0EFB2B
BCC881E4
3D3020C5
BE2BBF0E
BB524E16
3EAF5771
3E226D05
BDA56F76
BEBD8B82
3D20125A
BE6E9F27
3E14C122
BEAE3BAC
BE0E64F5
3CE0A41A
3E45AAB4
BD7572DE
BD94306E
BE8282C7
3D879D4E
3DA17870
BE4CDAF5
BC959E62
3E069EC3
BDAB5D46
BCE13F4B
BD8D19DF
BE057DE1
BE28AA86
BE64573A
BD445671
3BCCF6BE
BDB24639
BE2A16E8
BC63150E
3E506424
BE588723
BE13E5B8
BDEE9E5E
BDE64CB6
BD71348B
BE60D6B2
BE323A6D
BE20DED3
3E55E84F
3C1F340D
3EA3E4EF
BE023AF3
BE7A4F44
BB15E17E
BCA9A5EC
BD570E6F
BE35E41D
BE147065
3D85B424
3E014F48
BE8DA661
BD218DEF
3E24DA4D
BD629521
3E46AFCD
BC6C918E
3E144B6F
BD16B010
3D44E0DB
3D2075F7
BDC9563B
BCF079E6
BCB05101
3D29C993
BD07BDCF
BC9A005C
BD47BCC3
3D87B891
BCD7C4E3
3DA4EE7C
3D840A6C
3CF1B25F
3E3ACE68
BC6F73C1
BD7A0B5F
BDA7B246
BC8BB0A3
BC1B994E
3D3300DE
BE0A8BD2
3D9BAFD9
3D10C4DF
3DCBC7B4
3D5F266C
BC92E408
3E2CEEE1
3D579F23
3D1492FF
BE032A8D
3DADFACA
BD84C6A4
3C7F0457
BD27D567
BDD510D4
BDC0980B
3D18E326
3D882E88
3E222C88
BD45F06F
BD2920C0
3D6CF41F
3D02938E
3D145415
3DC6C094
BE4118C2
3DD1C10D
BB434C1B
3B2F709B
3DB39B02
BDD67DBB
3E22B4D9
BDAE2DA5
BE91B175
BDFA7B91
BD879D4E
3DB0AB2E
BDD61911
3D4EB032
BD346994
3DDB823D
BDA3F91E
3DD1AEB4
BE677037
BDD7EED4
BC097204
3A7A9C13
BD52135E
BC4F2496
BC4A361A
3C538045
BE8374BC
3A4ED4E5
3D05AA2E
BDD0CC36
BD7D6302
BCAB0425
BC380A9E
BD83A7DB
BAFBEB9E
BCD62175
3E1A7EB7
BD8BA83F
BE93B949
BC8F8833
BE09D6F1
BE21A006
BE055D5F
BE28A090
BCC1461B
3DB56FB9
BE12DFD7
3D44BA0F
3DC20579
BDBFE436
3CD96A6A
3DA23D92
3E605858
BD0C9A78
BD63736D
3CAFE60C
3D9EC99F
BDBB3FA7
3E42BAE0
3DC29739
3D9269E0
BD4793DE
3DFA8156
BB28E2E3
3E38090B
BD92B23A
BE2B4246
3DCECE14
BCD490E6
3D164734
3DB8CDA7
3CCD2B2C
BA13D966
3D49F623
BE3FCB92
3DB3B7D8
BE1C22AB
BDC89657
3D89528F
BD9F37B9
BCE93E1D
3C11EA79
3D9D8948
3D8A8B09
3CA24463
3D61D218
3DFBC0A0
3CE5ADDA
3DC79703
BC99E0E7
3D7A4B55
BCE0D888
3E11CC96
BE057710
3D7DF3B6
3E1B0B7C
BDBE6CD3
3DC34656
3D675DDD
3E0B2F23
BC0B2A6B
3D138CDA
3E0503FB
3CBED95A
3D87485E
BC273B43
BE0D9F4D
3B50FE8B
3E25097D
3B8AF816
3DADFBD7
BB91AFC0
3D6D4802
BB4F8D71
BD84F5D3
BC2E2974
3B442635
BD93E575
BA97635E
BD3CE52E
BD912BA1
3C18D478
3D690BC8
3D4BB2BC
BE5EE8D1
3B101D19
3D7BA55D
3DD7F7BE
3D4CD424
BDAB167F
BD2CEDD5
3CE59AFA
3CE40E9D
BDA69510
BDC2E4D2
3E253CDE
BC6FA1E4
BCA8AA43
BBFF7DFA
BDBA34CA
3E066BE8
3C202B84
3CD8537E
3B420D56
BC952D23
3DE91D15
3BBB1290
BD26D15B
3DD66623
3D244A62
BD6E49F5
3CA02321
BE1241C4
3D9594F2
BDC72757
BDD844D0
3CBC3611
3CB59FF5
3E68FBCA
BBBC83A9
3CEC3DAB
3E0A2DB6
3D8D0C3D
BEA1C609
3D54EB14
3DFE0AC8
BB583409
BE88433D
3DA7D135
3CDBC01A
3C8C1DB0
BE1600F3
3D0F29D4
3D4A46E1
BD9923A3
BE3379B7
3E306B38
3D967558
3DDA1555
BD2FF9F8
3DB6323C
3D3A9C13
BD1C7582
BE485A0C
BDFB21C4
BE91D7FE
BC776A2F
BD7B7F9D
3DEAC109
BD5A4485
BCB0403A
3E8B8477
3E14E6E2
BD722079
BD9D9989
3E14EC63
3E5A7760
BEA10F95
BEA014D7
BE5548AA
BD9EA140
3DBD3565
BEAB5782
BE8DEA25
BE627C7C
3D16ACEB
BC5AD752
BDF4DE7F
3D4EB032
3D28A0D3
BD016590
BD2516DB
3C96616B
BDA1DC94
3D6C460F
BD525892
BD18958E
BDDDE376
BD17939A
3DA2C6EF
BE02FBA0
3D6B8A5D
3CF301EB
3CFB938A
BD3340D5
BC35B707
3DB63FDD
3D16D4C3
BCFCE747
BD507853
3D3B352B
3C22339C
3BEA747E
BE1C93A7
BDD165D4
BC97A67A
BD9F9054
BDB5568F
3DFCF91A
BDCC5E2D
3CE9CCB8
3DF7ECBB
3D6C52A4
3D8877EE
3DBB8455
3DC126A6
3DE12F90
BDA33ACD
BD94CCAB
BD2B3248
BDAF7985
BD5BE2B5
BE66FE72
3E3E8B7E
BD54D728
3CC2C3CA
39D6F545
BD731D2E
3DB4F0D8
BD80EAE2
BC30531A
3E0A2D30
3C92684D
BE65AAF8
3D31B478
3DDCC63F
BCB8FBCA
BC66D9BE
BB0711D8
BD9D7668
3DA5A922
BD1FBE77
BE05FA22
3DA42D06
BE2D7625
BE660675
3E0C579F
3E0F37B9
3D22089E
BDF718EC
3E7E5E24
3E527DCC
3D535DAB
BD963800
BE5B40B3
3D685EC4
3DAE2110
3CDD3133
3E21B110
BD9B9F12
BD852935
3D19E40D
3D615A8E
BD8DBB5A
BDF8E8EA
3CE9EE46
BC5E69AD
BD1D3FE2
BE49F98B
3CE58601
BEA2E2FC
BAED3D86
BD26BB56
BE5C4EF9
BC8574B4
BE00EED0
3E09B845
BDAED5F1
BEC57881
BCF9B995
3D96B4C8
3E6A36E3
BE8DBC23
3CCDC444
BE721B7E
3E9FC1BE
3E8558A7
BE1E496F
BE3A600B
3D32EF0B
BD71C10D
BE33CE64
BCDB8994
3D43B928
3DCD551D
BE36A9C5
3DE52696
3EA8954A
3E64FA48
BDECE24C
BDD0196E
3E2D9A52
3E176C05
3E73486F
BE92B5C4
BDA754F3
BD08B75F
3DC1A71A
BC736263
BEA61E4F
BAE496EE
3DECF41F
3DB7D391
3E4A682B
3D71CDA3
3CF967CB
3E11DA7B
BE802ECB
BDEF5D35
3E8CD595
BE99E710
3E336263
3E5FDC16
BDBAB96F
3E489870
BD65D9E4
3E012C28
3C94A4D3
BE3DDF87
3D6D70E7
BDFA81DC
3E3C896E
3CC2B303
BD6B8306
3DE611FD
3E8AD730
BE3BC2FC
BD1B7AE5
BCEC050C
BD8A7BD5
3CD72368
BE01CA3A
BD13BC0A
3DA4E93E
3CE4DA0A
BDE4191A
BE738CDA
3D4A233A
BD4C1B97
3D494D51
3CC317AD
3E066278
3AA43BB4
BD55B467
BD961AA4
BD09C0A9
3E29246C
BD7D8BE7
BDC7DAA5
BDCDE6DE
BD8D959A
BD6A3AD2
3D144AA5
BE50C88A
BDFEFE0D
3E74299E
3DAA5050
3D5DE58E
BE39A30A
3A8C3F3E
BDC1A693
3DC426BB
BD209891
BDB27568
BD11537A
BC96E9BC
3E1D1EDA
3CB65CB3
BDDFF92F
BDD9CC75
3D59A954
BE099CBF
BD3CD899
3DBD6ADF
BCBC6003
3D212407
BDCE5471
BDD01B86
BE0955F8
3D8560C8
BC9702E6
BDCC269A
BC999BB2
3C342CC3
BE14228A
3E92DD37
BD77164C
BD369878
3D9810E9
BDC322AF
3C520F2C
BE80A2A9
BE1C679D
BE5D70A4
BD848F11
3DC4B125
BD385F8D
BCA13C25
BCBF0BAF
BE2147AE
3D47CA64
3E2291FB
BE036C16
BE64F3FE
BDD9FE43
3E294291
3DE31DF7
3D7C0D2C
3E05097D
3DDE2718
BDA509C0
3DF7C676
3E5EBBBA
3E5F2CF9
3C5E0935
3DA1B435
3DACEAAF
BE12962D
BDE35E74
3C582BA6
3B1BB6AA
3E98B0AF
BD615FCC
BE201F75
3C9BE8FF
3DFA74C1
BD5288CE
3E807CA6
BE4C675A
3CB0318C
BDBF58C1
3DAAD4F6
3D167989
3DFC2A88
BD33F0FE
BE2E1D65
3D8FC9BC
3E0359BC
3DA914B1
BDF47E07
3DAF1CB9
3E0847B2
3D997C3D
BE2CF9A0
BEE12FF5
3E197E56
BCE54930
3C5F3301
BBB58080
BEA7C73F
BECC0F67
BDFCA212
3D49ECB3
3D2B4E98
3D494B38
3E49F517
3DCD7519
3B1C6F37
BCBC33F8
3D931444
BE968406
3E23161A
3D11D580
BD1E939F
BD4AA21A
BDF5F02C
3E4425AF
3D755369
BE2B773A
3D37E6F7
3C8E9B39
3E44D50F
BC01E03F
BD8B9021
3DAD9AD8
3DE0724B
BD2C13BA
3DCD7386
BE2A6ACA
BE81244A
BDA7A8D6
BD3ACF74
3D889CA2
3C5BAD3A
BDA49ECB
BE015E39
BE8FEC14
3DF2B66B
BBDB8349
3D631833
BC93A92A
3D64C0DF
3DC50C5F
BDA54584
BDDCD3E1
BCFA17F4
3E370A3D
BD890E67
BD930C67
BE9966BE
BDF8B1DD
BCEDA017
BDBCF462
BE4A9153
BD29D841
3E2CA149
BDB32831
3E148E47
3CAAB25B
BE274A77
BE039A7C
3DFE7642
3CD097C8
3D005A2D
BD638327
BDA9C1B5
3E2616B5
3D4A7935
BDD5D895
3C5D97F6
BDD6E2EB
BD5F7D74
BCD3DEA4
3DBB44E5
BCED783E
3E0C2870
BD81F645
3E1C3611
BE348733
3DD76C48
3CC857F3
BC71DC51
BDB7AD4B
3D9EA140
BE0AB192
3E113B19
BDB40EE0
3CF9207D
3D899C7C
BD959792
3D8C9E23
BDA97C81
3DD8B1DD
BDC09AAA
3CCC2B52
3D73A798
3DB9841B
3D63076C
3D926FA4
3CF9B77C
3D074D9C
3C4ED0B3
BD4D3F18
BD2AA8EB
BDC216C6
BDE46BF0
3D2CCF6C
3DC6E43B
3E22DB1F
3CFB5D03
BD3FB58D
3DDBCA97
BD056D5D
3E00AF60
BE5FC0D3
BC8BE511
3D9DB6E5
3C85D0FA
BBB228DD
3D84CB5C
BCF22E1B
3C4F52B9
BD7AC1D3
BC3B83CF
3E76A594
BD9CE209
BE77D955
3E8946A2
BE54959E
BE0526D9
3D634CA1
BE52B66B
BDBDEDF2
BDB3482C
3C94983D
3DA413DB
BEFE2802
BD99085F
BDEC95C0
BCBBC0A0
3D9F88FD
BDFEA1C7
BC955715
BE6DD8F9
3C8A1166
3E0D230C
3E655150
BDE8D196
BE9037F8
3D8E325D
BE45B707
BE527AA7
BDE412CF
BEAB4EDB
BD51F2DC
3DF1E42E
BE82582E
3E16323C
3E9F1FDE
BDFFFA3C
BD0DD617
BC916CA4
3E023034
BBA3161A
3DC9FC6E
3E5595BC
3CA046C7
BE35614E
BD3D0BFA
BCFC6DA4
3CE22A2C
3E8451DB
BCCFBB95
BE7CEAAF
3E6F2303
3E0FFBCE
BCCF95D5
BD4CB7D4
3C4FE154
3C9131EC
BC58F92B
3D985165
BDD4FACE
3DC74C90
3DC4C511
BE0A8156
BE02DDBE
3DF32053
3CECD4AA
3C3C83A9
3E07DE51
3D83BFF9
BBDE657C
BE58C2A4
BDC25D07
3C7E4367
3DFD4739
3C742BB6
3DECB535
BCB6CBDA
BD8470A8
3C0259E2
3E332DF5
BDC0B45B
3CC76F2A
3E3353F8
BC35A640
3D4A07F6
BE1C8E69
BE346067
BE3C22EE
3D65321E
BD6F08CC
3C09331A
BD3C2CA1
3DC16F87
3D134268
BE1DAF08
BDD62C77
BDAD37C1
3D063F14
BE10E779
BA90D5A6
BE14341A
BDF6909B
BE469729
BDA658C5
3BF5903A
BE106035
BD8FADF3
BCC2A887
3E0B65AA
BD2E43AA
3D503644
3CA13A0C
3DB37004
BD40FBA9
BE6CF3DC
3D3BE447
BD6A3162
3DF729B3
BDC81A15
BDB255F3
BE1BBE44
3E2EDD48
BDA0C49C
3E8B8738
BD40B999
BD253EB4
3E321FB0
BE1855DA
BD045ED5
BE8D1809
BE640315
BD94BC6A
3DEAE85C
BE3AC2DF
3DF00A39
3C9F383F
BE0F93BC
3E09A997
BE13D2D8
BDBF3387
3D82E5DE
3CCA4B12
3E275EA6
BDDB5526
BE39D51B
BADC11E4
BDC6DEFC
BDDC37A4
3C2DD15F
3DDAE686
3D8427C8
BD1946C3
BDA9FCF4
3DE79464
BE0CC294
3D29270B
BD9B4AA9
3C543D04
3BD77319
BE055D5F
BD22467C
BD834F40
BDF7B203
3E84D7F1
3BB484D7
BE2748E4
BD2F5DBC
BD059967
3DCC1D2A
3C499AE9
BC1741D1
3C4E39B4
BE0F394B
BE4CC576
3D86B485
3D374688
3D8003AC
3E255971
3C9626B3
3DB57A35
3E195315
BD629A5F
BE13B03E
3CBD07C8
BDF6A37B
BDA71EF3
3DA09CC3
BD2C4C59
3D0E8427
BD00346E
BD181494
BE29E061
BDAB8CFC
3CCC447C
BD3910C3
3D9E4BCB
3D9107FB
BD72990F
BCDFD8AE
3D9A2941
3CDCB9AA
3D72ECF2
BCC2A23C
BDD19610
BD4CCCCD
3C8B8067
BE706898
3D94BBE4
BC8183F9
3D1E9079
3C9FF0CC
BB7398E9
3B23B57C
BE7919AC
BB78726D
BDE73D5C
BDA6C97E
BDE9C993
3D839CD8
BD0050BE
3E645176
3DE4894C
BE29029B
3E9C0B78
3BD3F9E8
BD8E5040
3E0A5A47
BDBCFA27
BEA94339
3D4EA9E7
BD44B902
BE0332AD
3E213CAC
BDA48CF8
3E2D7F0F
3D1C2A02
BE124CC7
3DDC9796
BDA9E237
3D5BFF04
BC9FF4FD
3D81CCD9
3CB4091C
3B8826AB
3DB546D4
BDCAAF36
BCBD5992
BDAB24A7
3D669271
BC54A1AD
BCC5CBBC
3E051F82
3E0214AD
BE761954
3DACEB35
BE9CA9AC
3D5BEE3D
3D199AA6
BBAFCCE2
3D4AB4FA
3D37C45D
BE791D15
3E0F30E8
BE18DBCF
BB347C74
3DCF37FC
BDFAF20F
3C61EF74
BE54B8BF
BCF776C5
BDFA365D
BDC63AE2
3E76759B
3DA6F2E9
BD33E9A7
BD052B4E
BE332B99
BE00F6F1
3C040182
BE05D0B7
BD9418D7
BDDEFB6E
3DDF23CD
BE2F7DB7
3E4CC187
3E424E9C
BA28D21C
BC630CAA
BA8A04D1
3E098AA8
3D95B35B
BDE82E02
3DBFCEB8
3CFC3505
BD888BDB
3E6276B8
3C61C9B4
3BE1EF74
3CEC2268
3E01144D
BDFD73C9
3DBEEA21
3D5289DB
3C0BB906
BD020C4A
BCBB29A2
BCBE8790
3D6D8B1E
3CD40CC8
3C1374BC
BCB5A640
BE60F3CB
BBE58A33
3CD7B41C
BDEB6955
3DEE275B
3D8CFD09
3D8EF912
3DF333B9
3E112019
BE17B528
3C52BB23
3D9F86E4
3E78AB50
BD8BC7B4
3D9DC26E
BE09E343
BE3D9A95
BE16BD2B
3E1DFD26
BCB7AA26
BDF9231C
BC3DB1A7
BD83B470
3E1D35A8
BDD5000D
BD6337A8
BCD60E95
3D50A56A
BDFCEFAA
BDF2178F
BD3CD142
BD29D734
3D56BDB2
3CEA2F49
3DA40FAA
BCAAAE29
3BFD1138
3E50B524
BD0CF6BE
BE2F5F91
3CC2C3CA
3E1FAC60
3DAAE8E2
3D66C2AD
3DABECEE
BE6055B9
3C838195
BCB5DAAD
BD9A43FE
3DD1BE6E
3CAFDFC2
BE88E3CE
3BB1AB08
3E5D3283
BB8C154D
BDD29DC7
3DE4399B
3DDC022A
3D6E04C0
BE6C7043
BE3CA81A
BC83D578
BDFD3ED5
BD7BA451
3D0E50C6
BDD7BE98
3B305B7D
3D4D130E
3E155150
3E32EE85
3DBFF2E5
BE0A4229
3E00CA60
BB770154
BEA5A48B
BDD53719
BE20EE07
3D5E1D21
BDE62DC7
BE5FF64D
BE36D938
BDA406C0
3C1BD838
BE25D9E4
3DBAFC8B
3CD47E07
BDBF0FE0
3E1FC0D3
3E1979E1
3C808851
3E0EE4E2
3C8A5482
3E0AC322
BD763D3E
3DD7B4A2
3D54CA92
BD3F6E3F
BA74D7AE
3C8D801B
3DFD5F57
BE4A2270
BDB79FA9
3DA6FE72
BDB9B5E9
BD3B2570
BCB300DE
3D9D523B
3E598F60
3D68D75A
3D00F345
3D2F4385
BDB2B346
3C7CB4F2
3C92923E
3E2D1AEB
3BB44A1F
BDA168B6
BD9BD2FA
3E12D0A2
BD76F08D
BD296E59
3CC78855
BDCB430F
3D90E0A8
BDB5BDD7
3E125A25
3C19BF59
3D0858FF
BE3379FB
BD89F278
BCCFFEB0
BE411CB0
BBE581CF
BD1E98DD
3E7EC99F
BD811127
3D42B628
BD463CFB
3D41B867
BE244E0E
3CA9EF52
3DA86CEC
BCF9A283
3E396C40
BBB92C06
BE3288CE
BDA075F7
3DCCFAF0
3D18E864
3C7D71B0
BD9DE69B
BE3D9EC7
BDE29F17
3C92AD82
BDB0F94D
3C855DA2
3D99D66B
3E2872B0
3E6602C9
BE41975F
3C6785B6
BCCD4456
3E56D374
BD5EF955
3D2A0A96
BD99C94F
BE5746CC
BD157FFA
3C8A808D
BBE6FB4C
3D5B4891
3E0B0A2D
BD3F0BAF
3DEF587D
BE065A9B
BE1F6CAD
3DB4B6A6
3B8D3AE7
BD627286
BE26A37B
BBD94079
BE02E621
3DEE4324
3DB1D1D4
BE9068BA
3D772B45
BDBDD335
3E1C8798
BED68427
3E428AE7
BE023FAB
3D6B4741
3E732831
3E567AD9
BD183D79
3E603105
BDC898F6
3DBA072D
3D94506A
3DA155D6
3C5655E3
BE840B35
3E8FCD03
3E82A6D2
3C94141F
BDAAEE20
BDB73D19
3E14B8BF
BCDFB939
3E860371
BE3FBBD8
3E42018A
BE5E5F74
BD86B50B
3CA3B363
BD9DA943
3E57B289
3D81DD1A
3E154930
3EA78C65
BD9B5B70
BEA8941D
3EB17FE9
BD8B08DD
BE604DDB
3D8AE297
BE6972CD
3CAF8594
3E2B8E08
3E504791
BE27BBB6
BE86EC39
3EA08FC9
3C81EABC
BD5F1CFC
3D7C5261
BDEC22EE
3E38EA7D
3BFB1184
BD49C4DB
BE490471
3E15E679
BE5D551D
3D8ED99D
BD49A672
3BBB0A2D
3D90FC72
3D0C74B8
BCF33440
3C09C5E7
3CB50093
3E21600F
BE25903A
3D4CF6BE
BE1F709B
BDABA0E8
BD9C7B46
BCE77B39
BD56451C
BE1BBF51
BDB3B7D8
BD862BAE
3E6042D9
BDC0F239
BD8C27A6
BD3AB218
BD5551D7
3D5F5AD9
3DB73322
BE620EE9
BDB566CF
3E0A747E
3CBC72E2
3D9526D9
BD358AFC
BE4C4695
3C8153BD
3E27381D
3CA37048
3E22AED1
BD56CB53
BCF5C8DA
BD60A958
3D0E64B2
BE5A5D29
BCCD8BA4
BD828D43
3EA04125
BE3DC550
3C5DD2AF
BDAEBB34
3E46A833
BDCC8BCA
3D304146
BDDECCC4
3E0B7415
BE0C0A4A
3C9F4D38
3D25A145
3E03E89B
BD01BC99
3BB8F14E
3D308BB9
3DF25CC4
3D6C9D17
BD86EA85
3DA81238
BD422036
3CFB267C
BD82C450
BE2487BA
3E22DBE8
3D5E939F
3D8D6A16
BD88BDA9
BE88DF59
BC919CE0
3D5C7CD9
3E4952D2
3CB01861
3DA18ACA
3E02D624
BD76B4C8
BD5D701E
3E441462
3C09374C
BE3875D5
3DDA9197
3E8B56FC
BCCD24E1
3DFBE1A8
3C17F1FA
3E2457C1
3D69F05F
BD494D51
BDFD102C
3D91233E
3B627E0F
BCB24852
BDDA6A44
BC53C793
3D97BAED
3D4A9EF5
3E22D517
BD656CD7
3E0D5454
3D5E5C0C
3D938F7A
BA5306A3
3D8F10AA
3D26F502
BE82089E
BDC491B0
BB39FDBD
BD2CECC8
3CA09678
3D7AB64A
3DD4A87E
BD29AB2A
3E2C2939
BE191A76
3DC2D0E5
BC87032A
BDD7D6B6
BC2A9B4A
BE4F0026
3D371002
BD79EBEA
3E0A8AC6
BCF9A6B5
3BCB5BB4
BD822CCB
BDCFA0D7
3D126959
BDF0C0AD
3E1C0FCB
BE115DF6
3DB4D1E9
BDA12945
BD370AC4
BDF78034
BE70BD45
3D949B63
3D811234
3E1FEE2D
BD3EAB36
BE071E6D
BDCC4B4D
3DC2F2FA
3D037825
3D9C3C5C
BD85510D
BDB81D7E
3E0264A1
3CF583A5
BE3AF6C7
BD68997C
BCB4D270
BD071A3B
3D148345
3CD592DA
3E1E5604
BE684BA1
BD9FB939
BDDF7DFA
3DD80779
BC4FDD23
BE483559
BDF5FF61
BD872086
3C8FA377
BD222C45
3E437C9A
BDD41206
3D705EA2
BCED9168
BDE5ECC4
BE0E3151
3BBCF0B7
BE29CF9A
3D7BD48D
3E379B35
BE1D2807
3DDC1509
3D54B168
BE06BE38
3DC3CEA7
3C0BF3BF
BDF62BF1
3E7C7970
3BB0856E
3DB3660E
BDEDD2F2
BE133227
3C111CF3
BD4A43BB
3CEDC7EF
3DE49DBF
3D82CD3A
3D23E39F
3DA15A08
3DCF1349
3DB6B65B
BD8DE6DE
BD8E7D56
3DA611FD
3D2CCF6C
BD589ACC
BC7255F3
BCAC710D
BE2D9275
BDEC38F3
3DB9F773
BCF5E636
3DC7503C
BDFEDAEC
3CCBC48F
3D7D34DF
3AA6B93D
3DF4F69D
BD09CC32
3D5D2179
BD0DAF4B
BC1FC2A9
3DC5015C
BE25931D
BC624FEC
BCA9717E
3DFAF188
3E0CFAAD
3B969A0B
BD0FAACE
3D990C0B
BD2E73E7
BC8E23AF
3E3DC6A0
BD6225FA
3E0B70AC
3C2A21A7
BD47314D
BDCBCF92
BE381A58
3E44AC6D
BDBD156A
3CF034B1
3D6EEE95
3CBBBA56
BE07820A
BC4EE9DD
3CA593A3
3BBFCA86
BE106078
BDEBAB65
3DE46413
3D4F96E1
BE3E57DA
BC4DA2B6
BD05D420
BD01615F
3D77A1C2
3E0CE182
BDC453D2
BEA1EB64
3DD02364
BDA312F5
3D178705
BD5BD945
BDBD5D3E
BD74D595
3D4E3583
3D3AA476
BD954003
3E4F722E
BD399A20
BDC73797
3D4867AE
BCB28F9F
BE4609DD
3D057F30
BDED84D3
BD9D41FA
3D37AB32
BD9764F1
3D477250
3C8CEF67
3D43ED96
BD674AFD
3C77121B
3D8FFEB0
BDD6F545
3D8A0664
BD6A087D
3D1BFBDF
3D5CF356
BD68DA7F
BD802C0A
BD295422
3E79A9DA
3D9DD3BB
BE298AEC
BCEE7C4A
3DE1D53D
3D3C07EE
3CD37C13
3C85143C
BE05ED4A
BC904B3C
BE16A9C5
3CA1AD64
3D7D08D5
BC712C28
BCFBBB62
BE7F8B15
BD369FCF
BDE58AB9
BD7A6480
3D2B4C7F
3D9B1C86
3DB3F855
BE06E547
BCBD017E
3BF0E0A8
3E16D091
BD15A9EB
BC9CED0B
3D58A43C
BE0DF698
BCA57860
3A8D6D3B
BC453F3A
3D3D7D39
3E130EC3
3BC55C96
BAEF1349
BC1A0F0A
BE0F483D
BB0E043A
BCE71690
BBF7D30B
BD84F3BA
BC8E92D5
BD941E9B
BE0EB80F
BCC156E2
BD05B39E
BDCDA5DB
3D970CDD
BDEA11ED
3DD947D0
BDB5019F
3DFA33BE
BDF52652
3E28FA7B
BE6D6777
3E4AFA2F
BDA60243
3D41F751
BE11E81D
3D8F177A
BDC6B617
3CF7403E
BCCD727A
BDE5C359
BE2BDC27
BDF1897A
BE20A56A
3DF7D6B6
BDBA6F82
BC19DCB5
BC4B923A
3D8B302F
BD7C7D5F
BC225D8D
3D90D951
BDA562E1
3E1DDA8C
3E2B8D82
3D535654
BE87AA8B
BD90CAA3
3D97B203
3E11A0CF
3DAE1156
BCA5F202
BD42517E
BCD985AD
3E0F41AF
BE25B63D
BD95E4A4
BDEE70C1
3D5058DE
3D3C6C98
BE180B24
BE1FBE34
3E093C04
BD1930BE
BCCF6BE3
BD72F230
3EB04C8C
3DEE1DEB
3E6D9DBB
BC39BAA1
3E320D56
BE8D6A59
BC0815E4
BDE983D8
BD96DDAD
BE0EECC0
3D528177
BE0D5172
BDCC8DE3
3D5463D0
3DC30DB7
BD3C610F
BEC11F71
BD9D0397
BE26CE79
3E0F23CD
3DB3CCD1
BCAB7132
3E5263D8
BE96F502
3DBC66D3
BC9CDA2B
3E5DEEFE
3A915BDD
3E6F0C78
BE0C3116
BDA99392
BDE23F25
3D906E5D
BD0E874D
BC3827FA
3D581BEB
BE3167A9
BD560A63
3E402646
3DDD102C
BD94677B
BB169A0B
BCAC8C50
BD89C3CE
BE322574
BB04E832
3E1A005C
BCBFFCDB
3CB1F03D
3E146F58
3DB74602
BDB2F4CF
BC87F66F
3DC114D3
BE32424A
BE38EEAF
BA07442C
3C9DCB58
BDC39607
3E0636F4
BC94B7B3
3E4EE73E
3D66B830
BE229B28
BDCB26C0
3D417226
3D0E3DE6
3D294899
3DD2684D
BC2FB7E9
BCF0B6B7
BDB446FA
BE37457C
BD539863
3E40C415
BDDE78E2
3E3CCFF2
BD1F83BE
3AFB00BD
3D84A9CE
3E12A066
BD87A205
BE00691F
3E4FEEB3
3E00E66D
BD627D03
BDEAC6CE
BE7AB8A6
BDAC2EFD
BCCEEE0F
BE2ACDE2
3D3E7AFA
BD0D5B68
BB60C9DA
3CEF4385
3DB6D7E9
BE5C8E26
BCABCF92
BC159A31
BDD17508
BF00485A
3E31116B
BEB78705
BD4EA39C
BDCAEC8D
BC1B8024
BC842D8C
3BE92D56
BD976A2F
BD07F024
BCCCD962
BDC73F75
3E808E58
3C967CAF
BDC68FD2
3DB5FBB5
BC30531A
BD01C715
BE37AA26
BA68C8AC
BE6C1765
3C5017DB
BE9B81D8
3D04662C
BEA1C2E3
3D9FC32F
BE7822BC
BDD62E90
3DBD77FB
3E285C25
3D068230
3DA1719F
BDD99243
BE46CB96
3D86F71A
BE7BD8BE
3E86EB70
3DE5A815
BE28C543
3E480842
3EB58A33
3D63A5C2
BD8DD830
BE4345D0
3D939B89
BC1F9054
3D1EC2CE
BC8B630B
3D0C0486
BDF8AA86
3D870436
3D112A95
3CAE2329
BDC950FC
BD677814
3DF81840
BDBC7608
BD630660
3D9DC7AC
BE50B6B7
BDC071C5
BDEDAF4B
BD54C448
3E0739B0
BE37D780
BDD13CEF
3CFEE2CA
BD8AA433
BDBF2991
3CFE2C56
3E13BA77
BD3F5409
3E3D2D45
3DA1016D
3A0BB906
BC547BEE
BE1FB268
3D4841EE
3CB6D86F
BDAE696A
3CC4241C
BCF37DA6
3D917508
BC39E493
BE907BBB
3E5C7C95
3E15DFA8
3D91CC96
3DD49ADD
3C78AD25
3E553198
BD62834D
BCD75C07
3B31465F
BE33C2DB
3DA1CFFF
BDAC5975
3CDFACA3
BD1D2D02
3DCF5771
BE98FFB9
BD36B1A3
3D7446FA
BB47192F
3D68BD23
3E8CD2B3
BEA11C2A
BD78E5C5
BE09BB6B
BD96FEB5
BD58E001
3D6D1BF8
BE08F8E8
BE846C12
BE21E68A
3DEB7564
3DEF1B26
3D63E07A
BBFA4830
3E296E59
3E22BB66
BE5A07B3
BC4EE17A
3E667F91
BD3FC979
3D99CE07
BE1C8B44
BEB9B0EE
BE8EBB56
3DACDD0E
3E334763
3C37AE58
3D964495
BE4F7660
BE411127
3E180E8D
3E479A6B
3DBC5155
BDF264A1
3E35A4AD
3D8A4F44
3D9C3159
BE17BAED
BE3B239A
3DF0BE94
BDFDC9C5
3D9FD502
BC042FA5
BE0733EC
BD402D17
BE0ACC4F
BE30F990
3DA4C272
BE116A05
3D5272C9
3E5C38F3
BDF57364
3E3F212D
BCF3B85F
BDBB5C7D
BE0FF089
BD705101
BEC1F601
BE14EEBF
3E1EE632
3C40C1FD
3DC0D0AB
3CD9C6B0
3D11697F
3E9DDB77
3E163C32
3E7914F5
BBFFF36B
3EAE70C1
BCAFFB05
3DA8E475
3C40D6F5
BE025461
BE3E4C0E
BE2EBE9D
3E25A145
3E6708AB
BDF8904F
3D926202
BDFCE076
3D38012E
B9723897
3EAA0D35
BD7A6699
BD1AFAF8
3DD0AD47
BEB43A00
3DBDCF03
BDC2E558
3E503361
3C883772
BD4D3F18
BCD933E3
BDF0DC77
3DDE7B81
3C8068DC
BB6E06D9
3DE28F5C
3E08A32F
3DBE1438
3E2003AC
3D4373F3
BC946E4C
3DA23C86
BDFDE615
3D83A10A
3D3544BB
3D34BC6A
BBCBE1EB
BE29014B
3C5D1E54
BC373083
BE17E5EB
BCCB124D
3D93D7D4
3E1F7D31
BDA36439
3D70F9D3
3DC4DEC2
3DF425F2
BDE90D5A
BD8D5065
3D8544FE
BCDB7CFE
BDCF0E91
BD95DAAD
BDC5B318
BDDC297C
BC0AFC48
BD7C18B5
3CEF826F
BCB26E11
BDCBE271
3C1D40EE
3D750E34
BCB33B97
3D29A0AE
BC2CC4F0
BD6149C7
BB1D388B
3D342FE8
3E4D9A0F
BDDF16B1
3CCE1826
BDD864CB
3E6DF3B6
3E7D2E51
3CC03148
BE1BC8C1
3CDD4C77
BE44A87E
3D11FC4C
3CB09E99
BD939A7C
3DD0068E
BDEC069E
3E4E514C
BD319F80
BE52B778
3E8BAEAB
3D7E9425
3D867382
3AFEAC43
3D0AFE61
BD127A20
BD98DCDB
3D24F228
BDB4A3C6
BE052370
BEA817B9
3D97060C
3EB6147B
3CC5564B
3E8AE2FC
3D0B61FE
3E3C8217
3D9B677F
3D337DA6
BD96249A
3E0691A7
3D763B25
BEEB68F1
BD69930C
BDA08D09
BD0B1141
BE4B3743
3D62A0A9
3CCD3BF3
BDF64C73
BDDBEDB7
BDDE13B2
3DD53D64
BDB30165
BDE2845A
3D1B65ED
BDA17DAF
BD23EAF7
BBA77A2D
BA4CFF22
BDA37692
BDEE086C
BD81F7D7
BCAA7BD5
BD92E6A7
3DB4E7EF
BDBEC3DB
3E28D152
3DADDA49
3D04523F
BE59F1AE
BDD6B6E1
BE352DAA
BD206D94
3E174107
3C1C27E9
3E1C204F
BD034092
3DA05E5F
BDF7D49D
3E81A62F
BDE909AF
BD89E1B1
3D66EFC3
BDF1ED9E
BE04D09A
BD920104
BE27FC33
3DA1DC94
3D42CF53
BCDBC87E
3CDC0768
BD924D0A
BE50984E
3D9A3098
3D95158C
BCFF0457
BD892C49
3C488A48
3D276428
3D09F517
BE263886
BE1EEE95
BD1EE569
3D1802C1
3E117093
BE084C6A
3DC1650A
BE1097C8
3DE826AB
3ADCFCC6
BCC508B3
BD4CF8D7
3D72085B
3DB6D00B
BD00C309
BC361BB0
BDF82A13
BDD6EEFA
BBAC6CDB
3E04D940
3DD96E9C
3C90385C
BD14D61B
BDF409A2
3D02D9CF
3D2413DB
3CB7542A
BCC3DAB6
BD209EDC
BDD6C3FC
3CCBFD2F
BD4A82A5
BCAD538B
3CC65C70
3D56BDB2
BC6A3593
3D6337A8
3CFA6BD7
BD8542E5
3DDDEF85
BDE9ABB0
BCDCF894
3D381301
BDF6E265
BD3ACE68
3CCD0FE9
3D3CCAF7
3CD7E458
BC0A3F8A
3D6B7CBB
BD7F4ECA
BDD4FF00
BD5F00AC
3D3FF8A9
BD58969A
BE4096FF
3DCDD1E5
BDA6ADB4
3D1A8049
3D9802C1
BD2A7696
BCC3CE21
3D4B5137
BDA182ED
3E3F0BF2
3D867621
BDA3ED0F
BE875643
BE692642
BDF0D307
3D0B5CC0
BEA6236C
BC17FE8F
BD11AA82
BC80E27E
BD600193
3E651698
3D1D10B2
BD3C2763
BDC14595
BDC19546
3D8301A8
BE84E076
3DE15A08
BE852285
3D00C0F0
BD0B9778
BDE3D35F
BE49307B
3C2BB01D
BE2D4281
BE2E1438
3E3726D0
BCDCBFF4
3E2CE91D
BDD7531E
3D7DCF03
BE997B31
BEB02C4D
3CB295EA
3CBE1A82
BD2394FB
BCAA92E6
BDA30553
BD4B3B32
3D9036CA
3C4EE17A
BA55E8D5
3E0A172B
BE4DDDF4
BD83B689
BD5117B5
3DAA3487
BC8AE105
3DDB0D52
3C154A80
3E340BBB
3D94E981
BC4E95FB
BC9BE09C
3DA44630
BDA21D11
BD3BE33B
3E2FF477
BE1AD7D8
BE00420F
BE956606
BE4EE569
BD74AA97
3D102257
3DBA1B19
3C86FAC6
3E0AD688
BD007464
3CE4302B
3B753C58
3C73F0FE
3D4E6080
3DC24AAE
BD971B04
BD3AF102
3CC5C140
BE5D64D8
BE158FB4
BDA6BD6F
BE067E84
3E04EAD1
3DC847B2
3C1F05EA
3C2936C6
3D687B14
3D426784
3DB79FA9
3C34F616
3DFE353F
3D52A844
3D6641B3
BDD28F9F
3D7BC7F7
BC9F9054
BE87BAAA
3E298A22
3DA55087
3CA23183
BE0A9047
BC0201CD
BDC2A561
3E132CE9
3D544780
3D4DD0D9
3E3BBCF5
BC4C5FC0
BCE29B6B
3D76C58F
BC56494D
BCA22707
3E37DB2B
BDE2ADC5
BEDE1DA8
BE98AB50
BCE12E84
3D8469D7
3B48BC9D
3E165ECC
BCA6B0D9
3DFC6328
3E523183
BD561911
BE15E918
3E4C7D5F
BE23FA6E
3D5ABF34
3DC1D96F
BDB37DA6
3E273A36
3D9D0071
3D9B4352
BDC45671
BD991F71
3C92CF10
BDCC0E7C
BE042BFA
BD579075
BD6FB092
BE34AE43
3D00B567
BD8C74B8
BCE1E2DF
BBAC3223
BBF7CAA7
3DF45E0B
3DC7A637
BD8EC7C9
3CFBD6A6
3C176790
3DCAB368
BD7EAC43
3DE237CE
BD9F1BEF
BD963561
3D2ED784
BE6198AF
BD2AA194
3B9EECC0
BDD1C10D
BD441355
BD754F37
BDAEF45A
BDEF1DC5
BB8CD63D
3DC7A850
3CE62FE0
3DAC7B03
3DC486AD
BDB87619
BE0859C9
BCD6C93A
B84D8559
BD8DD484
3DBC22AB
BDA0BCBE
BDEE70C1
BE03111F
3C11C4B9
BC97B0F7
BE44959E
3DA4D014
3DE2CC2D
BD57279A
BD93EAB3
BD052503
3B933A04
BD78A19D
3D1FF823
BD156191
BBAB5808
BD0D4995
3DF8561D
BE5AFB3B
3D3191DE
3E53E89B
3D4895D1
BDF0CAA3
BCD77100
BDED7519
BBAEFB2B
3C8817FC
BBBB0A2D
3D661BF3
BDD368AD
BE1ABEF0
BCFB0D52
BDEEEA64
3CCA05DE
BB66C094
3D513E81
BDA15769
3DA8AEFB
3CF2D1AF
3DBAC797
BDDC0768
3DD1BC56
3E2C3B0C
BDE5EEDD
3D2B2D0A
BC0D434A
3D84FA05
3D43E964
3E0A27AF
BCDA9867
3DF14120
3B8826AB
3D11AC9B
3E00F51B
BDA0DC33
3D9A0514
BDB0270F
3D977293
3D274F2F
BD384231
3D6771C9
3E05A35D
3DB76252
3C7EAC43
BD9AD3A6
3E20DE8F
3D867F0B
BD22E1AC
BE6010C7
BE12D667
BE5509C0
3E5162F1
BD3D4F16
3CA6EDAB
3E2A78AF
BDACEEE1
BD572474
3E7667B6
3D1B3398
BDDF71EB
BD1798D9
BEAB7846
BDE6C333
BE241F64
BE1CD4AA
BDFD2285
BE0B7E4E
3DF3764F
BE806445
3DED39DA
3DBAD7D8
3DFF3D7D
3E598890
BCD2F3C3
BDB6FDA8
3CBB2BBB
BE561954
3CF867F1
3D1C1C61
BDB3775C
BE8574D6
BE0C42EA
BDAD4456
3E3EA748
BE31A60D
BE5E48E9
BC9A8694
3E632C62
3DD4CE3E
BE35729B
BDA053E3
3E568F8E
3D702C4D
BCE703B0
3CD3FC01
3E987E5A
BD97928E
BD360392
3DA23077
3E163455
BE64AA11
3E13F141
BE29EE03
BD7F8FCD
BD768167
BDF15726
BE0FD827
3DDE2EF5
3DB03D14
BD3E78E2
BCE63E8E
BE794706
BDFC829D
BE1F8551
BB9F9CE9
BBC64FDB
3E15F6FD
3DAAC754
BE252589
3DFD2524
BDECBD98
3D0064AA
BD875FF6
3E354C98
BE573797
BDD37868
BE43B9F1
3DB5A5B9
3D206FAC
3E28EDA2
BE4E4EAD
BD6C6477
BE47AD8E
3D8542E5
3CA6C3B9
BA00F990
BBF2AE08
3D1F6A94
BDA178F7
BE4B4A66
BDAB27CC
3E036E2F
BDF9042E
BDAE6D16
BE6E518F
3DCCD424
BE62962D
3C9BF594
BDC8B86B
BEC3C5DF
BECC1850
BB8626F6
3CC34E33
BC39FDBD
3E748063
3DB784EC
3E5C50CE
3D2A5A47
BCC6C333
3D8E0A85
BE069CED
BD9E3FBC
BE19BA5E
3DD25BB8
BE43F91E
BE880325
BCEBEDFA
BDADCB14
3D42B303
3D52CADE
3D770CDD
3E9A4767
3D2A1512
BD60B6FA
BDB8C5CA
BDB7C569
BE4892EF
BD97D7C3
3ED9F7B6
BD86466B
BE137974
BDDD4AE4
BE3FBC5E
BDA64021
BE3197E5
BE6AD81B
3E809375
3E8FDF1A
BD7F9618
BD3E9425
3DA9E01E
BE89CDA3
BD9DB09A
BDE8BC9D
3E7780BB
BEE406C0
3E686E7E
BEA0917D
3E6FA8B5
BE4DF86E
3CD7C2CA
BDAC84F9
BC144674
3D8F8162
BE334D27
3C5CF462
BE394531
3E9A1F8E
3E26466B
BEACC2F8
3D46C43F
BDEA4229
BD608BFC
BE8FFDA4
3BA79BBB
BDF8BF7F
BD404B7F
BEAEC3B9
BE2E774F
BE07E49B
3DAFC505
BEB89CA2
BDC0713F
3D800DA2
3E372C52
BE08C198
BDDD3459
BD91BB49
BECD2BF5
3EA1FEA8
BEA1A3D3
3E3A0D78
3D2DA87A
BDE62457
3DFA311F
3EC00A18
3E7D2999
BE946ED2
BE5B9991
3E3A921D
BE08AF3E
BE01C6D2
3DBCB791
BDB3037D
BD3EBD0A
BE211666
3DEC8CD6
BD5A5A8A
3C70ED3E
3DB17CE5
3E3F7271
BD2C9AFE
BC6BB774
BDA2FD76
BDD9F6EC
BD00D6F5
BDFB3F21
3E221A72
3E48116F
BEE31748
BCE7EC78
BDD5BBBF
BD6006D1
BCAE642C
BE23CAFB
BD1204B0
BDFED30F
3C47A398
3D09DE05
3D794EA0
BD57C4E3
BE92D2FE
3C25DAF0
BE4AA327
BE5D0A67
BE698AEC
BD2C7FBB
BDF5C209
BD496DD2
BE099F5E
3D7CF1C3
3EE2411C
BDB1FC4C
3D1F43C8
3D0DEF41
3E66AE3A
3D95FC3B
BD27B80B
3DF1AA82
BE6391D5
BDE4D120
BDC72EAE
3D40192A
BCDC13FD
BDB476B0
BE21AA82
BCDA8BD2
BBB191DE
BE0DC11E
3D978898
3DDEF73C
BED26E33
3E14D270
BE086CEC
3DB3E814
BD627F1B
BE9BB5E1
BE9E1AE7
BDF67BA2
3D137D20
BE94FB55
3EA04125
3D657321
BCB78EE3
3E671EF3
3E095853
BE5BF594
3D078423
3E8C7086
BCCD1C7E
BCD03969
BEB4DFCE
BEB1D9F5
BF18664D
BCD06573
BE460525
3E039CD8
BD56A8B9
BE0DAB5C
BEDB497B
3E49A77E
3EC55BEE
3E2937D2
BDFA09CC
BBD3CFF6
3E7B8E4C
BE3AAFFF
BD82070C
3E432D2C
3E19B90F
3D99A954
BD57EAA3
3D371865
BCEF75DA
3E39641F
BE77967D
BE85970B
BB8101F3
BB8D3283
3D16909B
3DFA1FD1
3CAF123C
BD3A93AF
3D9D11BE
BE2288CE
BC232B13
BE038A3B
BD97939A
3D698677
BC8023A7
3D6E99A6
3E68066C
BC5B0575
BC9D2392
3E357BC8
3E344391
BE3A8B4C
3D3075B4
3E0D690A
3D36F9FD
3DCD5B68
BE38D089
BE6C5B08
BE528F5C
3CA074EB
3CF69A91
3D9E61D0
BD5C054F
3B69A2C6
BD9288CE
3D8C471B
3DCD3847
3E73D790
BD7CFF65
BD659D13
3E9E87F4
BE89C886
BDCBB129
3E48D3F2
3E54052D
BE102470
BD6F6C6A
BC2DC4CA
BDD0F6AD
BDE67621
BDB5A8DF
BD374795
BD9763E5
3D48301A
BCCE4C94
3E624D0A
3D68E3EF
BE5AFD54
BCFB506E
3CEABFFD
3CD7060C
3CCCE810
BD452935
BCEE3B47
BE014B16
BD68D64D
3C978F69
BD961B2A
3D1EC1C2
BD7DFE33
BD170825
BD00F020
3D505C03
3D27A637
3E07585C
3D3125DD
3C510F52
3E3B5E53
BE30639D
BE0F4B62
BD84C9C9
BD8A569B
3DB06CCA
3DC63AE2
3C499AE9
3C467169
3DC34A02
BE07E5A8
3E1A582E
BDAF0953
3E130A4E
3C5E1E2E
BD82235B
BD5DB984
BD0C319C
BDF9A0F1
3D8F5771
BC248733
BDAF0F17
3D59D66B
3DCDBF8C
3D079F66
3CF2F76E
BC9EA78B
BD9E73A3
BE6B367A
BA86BDF5
BDE3A4B5
BD46C658
3E4946C3
BD24BA95
3E0DFE33
BD3E5D9E
3D3D6E8B
3C7F865D
BB8461FA
BE12B51C
BDA7FBAD
3C736695
BDE52589
BD2B1B37
BD812839
3DC03793
BDCD666B
3D69AE4F
BD8239E7
3E384988
3DBBE8FF
3D652DED
BDD30404
BD8DC098
BD04EB57
3D946FDF
BD8CB967
3DFE553B
3D1A9C99
BDCD0353
BE74DC23
3C461D86
3CE8DDA5
BE8D10F5
3E06E1DF
3D414E7F
BDD6B229
BDD7C45D
BE2CD2D4
BCFB762E
BDE46F9C
3B8E4FB9
BCE5DBFD
3D971972
BDA22920
3DAE0D24
BD44F8F9
3E14E443
BC61DA7B
BD9D1B2E
BD38A2A9
BD83D146
3DD6CC60
3C397BB7
BD94384C
BD706812
3D09656F
3DAD959A
BE26045C
3D8C89B1
BD8AE3A4
3B94DD72
BDE63950
3C0C154D
BE2A3012
3E0C8A7A
3C82DBE8
3BF765FE
BD72A8CA
3D86088D
3E455193
BDA29F17
BCB380CB
BD7EED46
BD9B1E9F
BE027243
3DF3311A
BD5627BF
3E050D28
3DB25E57
BE2B0920
3DF718EC
3D3499D0
BC23AD19
3CB8B04B
3D68576D
3DAA0F4D
BDD764F1
BE2C06E2
3D4F66A5
BDCEA7CE
3D123D4F
BBE71CDA
3E08A2EC
BC1BE8FF
BD1B4DCF
3CE2AA19
BDF63ED1
BDD9B77C
3DCE4FB9
BE00DBF0
3D865CF6
3D75696E
3D8DB7AE
3C97B310
BD6B3355
3D1B77C0
BBA5A46A
3DFE85FD
BDC962D0
3A06BDF5
3CED5497
BDB8B934
BDCFF9F8
3DB22F27
BD0B7803
BE6D2956
BC09D6AE
BD4814D7
3D5592DA
3D4BEC68
3E215FCC
3D1F41AF
3CC8FDA0
BD901084
BD4DF04E
BD61CEF2
3CE6362A
BD9CCC8A
BDE7CC7D
BE049060
BCD4866A
3E0113C7
BE455EAF
BD2DDBDB
BE5B81F9
BDC1101B
3DAC27A6
BD6C8A37
BDE9F16B
3D6938DE
BDC9FF0D
3D8BD76F
3D6616B5
BE0B163C
3DBEAF68
3C1B5E96
3D778BBD
BE4866E4
BE0A0C6B
3E3E9963
BDC1376D
3DE22BBF
3C1CFDD2
3D06EC18
BD2CAEEA
BD44C597
3B4B9ECF
BCF49F0E
3DF0941D
BD87557A
3E43C793
3D2EF912
3D1BE2B5
BE1C4652
BE0C2614
3E22A561
3CD2391D
3D0A979E
3D68C261
3C84EC63
BE0DF612
3CB3482C
3DEF2A5A
BDE40075
BC3F5515
3E0AAC54
3D75E311
3E3B58D1
3D7A0E84
BD7965B2
BE0A01EF
3D5BE1A8
BCF820A3
BCCEA6C2
BBDF71EB
BD8E32E4
BD956E26
BDEE06D9
3CAD03DA
3D22BF12
BDE8ACE2
BE29C66D
3E0D6D3B
3DC578E6
BC2D9F0A
BDC3F91E
BEAF2FBA
BEB0D79D
3CC1D8E8
3D815875
BD3B3D8E
3E8E6D59
BD18383B
3D4779A7
BD455B8A
3E24F11B
3DFC2657
BE0C0C63
BDBB9171
3A37C350
3E79FCF4
BE989D49
BEDF21F7
BE8410F9
BCD694CD
BE0B484D
3D72E382
BD67BB30
3DE5CE5B
BC9949E9
BD80AE10
BDDCE315
BCBB4B30
BE8C2870
3D647454
3E9EC509
BDA9F1F1
BE078184
BDECE13F
BDE6BCE8
3D4F6CF0
3D50214B
BE08F862
3E8E6517
3E8258B4
BD91FFF8
3DA2E126
3D9827FA
BC885D31
BC3923A3
BDBEAA2A
3E6F709B
BD847347
BE05D702
BE97557A
3E909AED
BE92EC07
BE4EA9A4
3E3279DD
BE15BE5E
BDC9D1F6
BC0B2E9D
BD30EE4A
3E3771C9
3EAA4788
3E12DDBE
BDAC3DAB
3E716E7A
BE61C3AD
3D613900
BCFB352B
BE9B2FA9
BF062670
3E089375
BE9DB09A
BD8B85A5
3D9CBAB6
BDE089E3
BDDBE447
3EB449BA
3DF3FE19
BE95099E
BD0E68E4
BE4FBB95
3DC908A2
3D0C729F
3E9B7D63
BEE321C4
BE69B414
BE8242D0
BE55F2CB
BDB57ABC
3C577B7C
BCD462C3
3E0996FB
3DD5B707
BD4F7015
BDDF82B2
BD4C026D
3D90F063
BDB83C6D
BD8364BF
3DCAF46B
BC8E8640
BB761672
BD331C22
3D247779
BE61A198
BD1CA7D6
3EA41E36
3CE8CAC5
3E26C15D
BD923A2A
BCC7A398
BE095571
3D0373F3
3DABB129
BE45974E
BD80C8CD
BD6E008F
3D455EAF
BD8BF877
BC8D66F1
BE0046C7
BD158538
3D492CCF
3D7A2AD4
39BC382A
3CE05EE5
3D55EBFB
3D2556D2
3DDBEA0C
BE60470B
BC2E7D56
BDB0DE8F
3DF1611C
BD23E07A
BE039BCC
BE1EC786
BD1BB060
BA9EBA6B
3D3BCA10
BE1AB6D0
3D2C7000
3DB803CD
BE41259A
3DFE6C4C
BC6E7818
BD400DA2
BDECD185
3C79053A
BD8F76E6
BC1F9054
3DEB0F28
3DC66D37
BE2EA034
BD8C5B08
3D8FBC1B
BE5064AA
3E0E425B
BDAF3FD9
BD32CB64
3D5F97AB
BCEC7000
BDFAFC8B
3DA5C0BA
3D16DA01
BE39E343
3E4A9931
3D5DA7B1
3D882ADC
BB259C06
3DFBBE01
BDD314CB
3D52F09E
3E1ADE65
BD355AC0
3CC3B4F6
BD217B0F
BC83FD50
BDB7AAAC
3E921A0D
BD90E779
3D8290EF
BE04F15E
3C064CB6
BE3EB3DD
3DEF0414
3E92426C
3DCCA81A
BC8E9F6B
BD3123C4
BCC5436C
3D8769EC
3DA0535D
3E6C3D68
BDA0B674
3CF0EB25
BD378573
BC55AE1D
BBB6A61A
BE59B5E9
BD8D4888
3E367A53
BDCC1659
BE0C4B90
BE802081
BDA77EE5
BD1347A6
BD940789
BDF3EDD9
BD0940BC
BB88722A
3B8CD63D
3CD31B9B
3EA058DE
BE37FB6A
BE1D86A9
BE152E30
BCFBBD7B
BE0A68F5
BDE1A1DC
BD8B167F
BD63D2D8
BDA108C4
BDCFE9B8
3D722D0E
3D5D3BB0
BE5A83B2
3E2A3487
BBD948DC
3E2EF8CF
BE0A1F4B
BE51CC10
BD8F6944
3E358EEB
BE558794
3DCFA7A8
3DD1FDDF
3E6D09E1
3E2ACB43
3D097204
BC5CB578
3E027BF6
3E5F74CD
3E5420F7
3D6CE67D
3D75E95B
BE17D6B6
BDB887EC
BD4CBE1F
3E3462C3
BE4DF8B1
BD465E89
BAE9B38D
3E56E760
BE7FC936
3E40AF1D
BE060525
3DC44E0E
BDDF19D6
3E21083E
3D83033A
3DF471F8
3C44DEC2
3D14D50F
BE51EF74
3E343526
BE00A6FC
BB220147
BDA85122
BD9477BC
3D891750
BD4A4E38
BE8B14A9
BD385A4F
3D7A3DB4
BD05CDD5
BE0107B8
3D54D728
BD78A7E7
3C4957CD
3DA8DFBD
BE58D25F
3D95B78D
3C4E4218
3DCA9479
BC85BC02
3E1B20B8
BDA2224F
BE0E8295
3C4C9646
3D418E75
3D905AF7
BDFB4246
BE02F72B
3DEF05A7
3D520E1F
BD4892AB
BE13ECCC
3CB606B8
BC87075B
BDCFD007
3D587619
BBB3892F
BCB211CB
BE34E8B8
3E11A650
BE10B6B7
3DDD47BF
3D815CA7
BCED80A1
3D1CA5BE
BDA0F1B2
BDDF4DBE
3E06EF80
BE05436C
BDE0D888
BD3FEC14
3DBF3D7D
3DCD5305
BD833DF3
BDADEA03
3E0CAB3F
BB8ABD5E
3E0921CD
3E444178
3CCEAF25
3AF38822
BD90B84A
3D898AA8
3BF861A6
BDD496AB
BD72F76E
3D836B90
BD3314CB
BEA23209
3D99CAE2
3E7587D7
3C59E40D
3D1C8C93
3DB91D58
3D5656EF
3D9CE63A
BCF8DB49
3C84B1AB
BD25CF68
3CB1D713
BD97A0B6
3DDA31A5
3D9C2763
BE08B589
BE025919
3E00CD85
3D8D0D4A
BD6AE4B0
BEAFA8B5
BDFF822C
BE3E0008
3E03269E
3D182774
3EAA32B1
3D2B94D9
3B3BB1F2
BE5E8EA4
3C93E3E3
3E516335
BE49CE07
BDBD1D47
3BF7DB6E
3D89F623
BE896F22
BE745F9E
BDC7F130
BD8CE0B9
BD054CDB
3E4EC28B
3DA8954A
3CA9ED39
BD6E8F2A
BCD017DB
3DE66BA5
BE853006
BE57BAED
BBAA5C5F
3E6BEB9E
BEAE3DA3
BDBBF1E9
BE1BDCF0
3E033EBC
BD3D4BF1
3D8F71A8
BD891AFC
3E6230BA
3D98C650
BE19D9D3
3E57FF15
BE01372A
BD80D131
BE112168
BE1C710D
3DD9207D
BD8F5A96
3D4101F3
3DA445AA
3C9BB060
3C8BA83F
3BAC42EA
3DB9420B
BE42F48C
BCF28A61
BD8C857F
BDF245B3
3D8C5A81
3E2751CE
BC450481
BDA9984A
BCDC810A
3D858927
3C9F1F15
3D1BAA15
BDAA41A2
BE18F430
3B8D5411
3C2426BB
BD9FB268
3D8DC11E
3D998288
BE388ACE
3E058299
3D176DDB
BDFA14CF
3DDD9F4D
BD1157AC
3AE29F9D
BB99524C
BDB5286B
BD10D6B2
BDCD9AD8
BE80E68E
3D8D0679
3DBD3C36
3D1BD406
3B851223
BB0E25C8
3E10E6F3
BDD72B45
BD47BEDB
3DEFD19A
3D2411C3
3C1845DD
BC8EB463
3E0908A2
BE7E935C
BDC908A2
3C893101
3C6EBB34
3BDAFD11
3E845DEA
BEA969A1
3B9CCB7D
BECE96C4
3BA02B84
3D2D3E92
3D6C8D5C
3D424E59
3D5B994E
3DD91926
3E47357E
BDCAC322
BBA85447
3D9D47BF
BDF6F007
BDED92FB
3C19FE43
BD490603
BE1ED84D
3C50B73D
BD129DC7
3DC750C2
BBC093D9
BE86BD2B
3E70B73D
3E9E889C
BDB7963A
BDCF8162
3E0797CC
BD7D566D
BD49F72F
BE4C0831
3CA08BFC
BD26B617
3CDB9629
BE4990B0
BC8AC9F3
3DB6B1A3
BE19CA9F
BDBFFCDB
BE077D0F
BDF67232
3CCAEEA6
3DD2E8C0
BCD10B20
3B8E25C8
BD1FA872
3DC2E558
BE64DDF8
3C0F10AA
3DE3BCD3
BDB59B3D
BC68AF81
3C4E2D1F
BC813448
3DFC4FC2
3E9E3D60
3D616617
BC6DB2F6
3E94284E
BC280065
BCC8ECD9
3DD4E65C
BDC2B27D
BDE7EF9E
3D359147
BEA95F89
BE18DB8C
BDB7ED42
BC40C62E
BD98C869
3C334613
BDA1754B
3B1118C2
3DD7EDC8
BCA55D1C
BD9B4784
BC278290
3E74790C
BDF9346A
BDCD9CF1
3D4358B0
BE4760BF
3DB3F63C
BD975C8E
3DA2F512
3D59B1B8
3E723077
BB792AFA
3C022FF1
3D392D13
BD4894C4
3D23DA30
3C8296B3
BE300DA2
BA345AE6
BDFD449A
BD090B41
BE42DB62
3E6FE154
BE09D40F
BE1CBFB1
BDE8C587
3DC03EEA
BD7A1F4B
3D954973
3DA90258
BD657647
BE87B4E5
3DD54DA5
BD247992
3D21FF2E
BD779746
BE15E5B0
3DAFD6D8
BD8EBBBA
BE000B89
BC86034F
3CD004FB
BCA8997C
BDEF355D
BDC0EA5B
BE17674D
3C4814D7
3D314CA9
BE0A7009
BDC0E411
3D167DBB
3C41D6D0
3CB23BBC
BC1D51B5
BD6177EA
3CCDCCA7
BD013EC4
3DA4E400
391A2403
BD8B3AAC
BDCE336A
BD3C3F81
BE01E860
3D91EC0B
BE1426FE
3C055971
3DBFAF42
BC917B53
BC87D6F9
3E005921
BC9E0A42
BDF593E6
3D9C7475
3C42A023
BCD2849D
BD61C25D
BDC17B0F
3DE8F8E8
BD260914
BE6F0CBB
BE8D84F5
3E498B72
3D194AF5
BDAB71B9
BDFEEC39
BDB6CDF2
BDB71EB0
BD7B83CF
BD705D96
3E2DBEC2
3DB6659D
BCB3226C
BBE0C9DA
3D872C95
3D0A57A8
3E2B40B3
BE14E7AB
BE183CB0
BDAA73F7
3DB9A390
3E15E1C1
BE0BD05B
3C0F4F94
BD8175D1
3D0C61D8
3E0623D1
3E130EC3
BDB39B02
BE4B313C
3D7BA01F
BE85CCC9
3E4DBD30
3D30C34C
3E0B291C
BD80F990
BDB0281C
3E0B3C3E
BBB6E936
3C1463D0
3CF950B9
3DB9F01C
BD76AF8A
3D1FC4C1
3C8B1572
BD516766
3BA1F080
3D28EA3A
3C0F9B13
3B33D4AE
3DBFE005
BE702E66
3D95B574
3E4F9FCB
3D371759
BDEFAEFF
BE1080B6
BDDE4580
3D97A5F4
3C6CC3E3
BDADBD73
3D99E8C4
BDE318B9
3DB8F25A
3D86DD6A
3DB45847
BDDCD4ED
BDB459DA
3D0B007A
3E00678C
3DC13123
BC109AED
3E4B8412
BE114A90
3CABE271
3CDF8D2E
BE6E60C4
BDC7357E
BE28D691
BE1BC409
3D5579AF
BCDBF488
3E36494D
3D89F72F
3E2B62C7
3D9F811F
BD7EE6FB
BD2E5DE1
3C8AA64C
BC3DF8F4
BE30B49E
BECCA16A
BC903A75
BE7476F3
3E2EBAAE
3D8DCA08
3D298CC1
3E0E7CD0
BDC26F61
BD5780BB
BD964303
BE5F10ED
3E6944ED
BE63F2D4
3DF695D9
BC7D2A63
3DC89B95
BDCFC2EC
BDB393AB
3DEB7564
3DA934AD
BC0AF3E4
BDB79AF2
3D7E6602
3E519AC8
3D9523B3
BDA63C75
3BCFB763
BD77707A
BD1DA7B1
BE034A45
BD081C2E
3DEFD6D8
BE005B3A
BEA4F4A5
3E4FF8A9
3D5ACCD5
3D3482BF
BF032C1F
BE4B97FF
BE00999E
BDD2C40D
3DD626B3
BDA8A15A
BD547BEE
BD8A31E8
3D26BA49
3E05CC85
BE286F8B
3DAE8AF8
BDF59FF5
3DFCBA30
BDC7852F
BD8A7935
BE3D477C
3D4E4862
3C9C0EBF
3CA91750
3C1A3098
BE01BE2B
3D2E4D1A
3DD12DBA
3D8941C8
BD811772
3A502470
3D6874C9
3D98BA41
BE10995B
BDBD1CC1
BE1554B9
BE57F173
3E0EA20A
3DB118C2
BDAD8341
BE1852B5
BD8DA5DB
3D38B589
3E49BCFD
BE8676A7
BE5F4129
BDEB24A7
BBC2B51C
BDF20C8D
3D212D77
3DF5AD10
BD55E6BC
3CDC24C4
3E44F616
3E010BE9
3C900608
3D8F6274
BCB760BF
3D2BC409
3D5C5A3E
BE38FC93
3BBEBE16
BDEDEF41
BE357AFF
BDEA704C
BDB5AAF8
BD172474
BD51AEB4
BE5A95C8
3D9D6A59
BE1278D1
3D2F34D7
BD3585BE
BCF2862F
3C9F7510
3DAE9E5E
3D56084A
3DC2BA5A
BE46A8B9
BDC7192F
BE08E1D6
3D26E115
BD0A1AD6
BD8683C3
BD8C22EE
3E229F9D
3DD27CBF
3E3FDB0A
3E1BE7F3
BD709310
BE03AEEF
3E2965B2
BC3E37DF
BDDC8DA0
BC382C2C
BC6C7000
BE093815
3E36B378
BE611CB0
3DF014B6
3C7F5409
BDB980F5
3E55870E
BDB369BA
3E2C3CE2
BCF2D7F9
3CDFE75C
3DDC0CA6
3DEC2614
BD6CA149
BD32C301
BDC22574
BDFFFA3C
BD8CDB7B
BE27DA62
3B536B4C
BD0F3BA7
BDC9784F
BDD210BF
3D4639D6
BD5B8DC5
3E16B69E
3AA06EA0
3E00CA1D
BDF5CAF3
3D97110E
3BF112FD
3D5ADB83
3D092BC3
3D734613
BCB6933A
3C94E1A4
3CF9FCB1
BCC0C415
BCE01BCA
3D03675E
BAFA15DB
3E2D47BF
3D1CB791
3DA97072
BC7FF36B
BB8626F6
3D76BE38
3D928E0D
BE12DB1F
BD3485E4
3D8C17EC
3DE4C9C9
BD684CF0
BDA63E8E
3B59A522
BBB21816
BDDCEBFF
3D650721
3E033227
3CF5D788
3D30E4DA
3D0D91EF
BAA86D72
BC81FB83
BE1B024F
BD294899
BDBD10B2
BE307BFE
3C959E62
3DB29A1C
3D46FDEB
BDF207D5
BCB26395
BDD1B047
BE85F091
3E3EEDCC
3D8729F6
3DB400B9
3D982A13
BE309B74
3CD58EA8
3E0F351A
BE645AA3
BE892D13
BE0E3609
BDC30015
BCE21FB0
BDF7DA62
BE84152B
BD694CCB
3E5FDD66
BD0B09EA
3E78A3B5
3C38305E
BE46CEBC
3E0F483D
3D955AC0
BC111490
BEBC3F3E
BE1937D2
BCDF3B64
3DCD8BA4
BEC12210
3D8DD93C
3D854B49
3D888E7A
3E247C31
BE1D8B61
3D37878B
3D6369FD
BD1FA97E
BD91EEAA
BD330C67
BE0D8ADB
3E92682B
BA56B229
BCF23034
3D7865D8
3D857860
BED162F1
BE1888F8
3CFE542E
3E69C94F
3E02D8C3
3EAB63D4
BE3A9B8D
BCB85836
BD3B352B
BD733B97
3D8E0008
3E9280F1
BDFBA451
3E478E19
3E2831AD
3D1E19FC
BD0F2F12
3D89795B
3DA0B5EE
3E050EBB
3DAE1F7D
BC4CE5F7
BE168555
BDCEC0F9
3DBD7D39
3DF2D44E
3EBAB389
BE58155D
BDE13E3E
3E1574B4
3E748FDA
3DA46413
BDD20D99
3E13EF6B
3C761AA4
BD955FFE
BE52CFD9
BD1CE6C1
BDDEDD05
3D929ED4
BEB5F916
BD705964
3DDF3626
BDCF6274
3D1E3758
3D65247D
3C4C20D5
BD75FC3B
BDE86595
3D457F30
BD1E53A8
3E50C240
BDB44674
BE566DBD
3CB9A9DA
3D036220
BE077A2D
3D3C297C
3D2F9DB2
BD2CBFB1
3CF5E41D
BD1FAA8B
3D584F4C
BE710060
BD806424
BE3E5754
3D94BC6A
3D089D28
BE8DF9DF
BD3CDEE3
BE10C522
3D81CDE6
BD0C3090
3E2C8798
BC0FB43E
BD397460
3E225BB8
BD182BA6
BDED8772
BCC57C0B
BE649E02
BD3A908A
3DDDCF89
BE913FAF
3DFBDF8F
3DB6ADF7
BDA54DE8
3E92161E
3C1246BF
3DA55758
3C9FE005
3BBD1AA8
3DC8094E
BDAE2D1F
3C241E58
BE215CA7
BDA9EF52
BE03B470
3E4687B1
BE293BC1
BD9B8E4C
BCAAA194
3DA9A240
BDBC2CA1
3E1DA1A9
3D0347E9
3D1EA572
BDA0AA65
3CD9817C
BBD37C13
3DD73A79
3C8B545C
3D5EF848
BE81C6D2
3D7DF7E8
3D194079
BD7548ED
3CBA3444
3D13532E
BCF10ECB
BD43A10A
BD977857
3DBCAD15
3DC3AFB8
BDEA1944
BE77952D
3D0BEA4F
BDFC4A84
BC698DCE
BE1FD827
BE30281C
3BA07F67
3D869B5A
3DA63C75
BD90A02C
3C18A223
BD3EE3D6
BE75D207
BCC7C526
3E4AD96A
BDEB5E53
3E344806
3E55FC7E
3E4C069E
3A477DD8
BC383CF3
3DCEB3DD
BA6BEDFA
BDFCFE58
BC85E3DA
3CC16590
3C2393EE
BDC29CFE
BE102D9D
BC4C8DE3
BE1645A2
BD938BCE
BCEA5B53
BE09D4D8
BDB1E18F
BE169942
3CD66F0D
3E835350
BE6EEE52
BD994EA0
BDDEAD4F
3D394749
BE49F72F
BE5BAC2E
3CBC9CD4
3C8461FA
3E0CD3E1
BCA6F1DC
3E220CD0
3CEBA494
BE51A71A
BD9B58D1
BCCC9EAA
3CD640EA
BEB64324
BE3776C5
BE0D0A24
3D30A0B2
BE8D1915
3E5831F0
3E59E4D6
BD22E6EB
3E22B841
3D0DD2F2
3E7799E5
3DAB87BE
3D60AFA3
3D40D2C4
3C8BFC22
3CE14595
BD893187
BDA7D567
3CCE4431
3D01FD9C
BDA065B6
3D946888
3D969B9D
3B958D9B
BCF0BF1A
BCE5625A
BE828651
3E51E710
BE09B670
3D59BF59
3D0181E0
BDEA22B4
BD979AF2
3DBCC20D
3E206291
BDB0CED5
BD3EBBFD
BCF41D08
BC244C7B
BE2F9A4A
BD192967
3A08509C
BB942D49
3E14E337
3E05D4E9
BC10470B
BC9465E9
BE30895D
3D058AB9
BCD3BD16
BEA9B739
BD5BDD76
3CDF4C2B
3E0DF43C
BDC0218E
3D67CAEA
3E77D34E
3D71001D
BC362C77
BC2FFB05
BE0DC93F
3E009891
3DA90ABB
BDA27D89
3E1BA301
BCF7707A
BE057604
3C91C4B9
BDFF70DF
3E0233DF
3C0E3AC1
3CCB89D7
3C688590
3DD21145
BD27C7C5
3E0E670E
BDB184C2
BE6AB713
BB623AF3
BDD7EED4
3D8C929B
3DD12989
BD3D3F5B
3C543D04
3C6B2D0A
3D95DD4C
3C9C7BCC
BD65A576
3DD93251
BDEB9CB7
3D1842B7
BDE05682
3DEF9F45
3D05ED4A
3DFED17C
3D6A0A96
BBD87725
3DAA5B53
3CB1D713
BE72EDBB
3D158FB4
BDF2D55A
3DB62307
BB87CA64
3AA7C5AC
3DE815E4
3D6DA448
BEC747B6
3DB023EA
3DA0B34E
BE29802C
3E00CE0C
BDBD8F0C
BD4893B8
BE02AF14
3D575297
3DC584F5
3D1780BB
BC8FCF81
3D7FE2A4
3E297636
BD6EFA1E
3D7CFA27
3DCAC96D
BD50B418
3D4BE836
BD11C6D2
BEA08D09
BDED62BF
BEE9CD1C
BDD16A05
3D50CB29
BC9057D1
3D1DBDB6
BD59B5E9
3E147779
BCC7CB71
BCB9F98B
3DF7E34C
BE2C16DF
3C5FB507
BD4538EF
3D50507A
BE0E0371
3D4A6762
BD050ACC
3DA1248D
3CBA0E84
BCE8294A
BE1AD539
3D901861
BC8A2878
BE05F740
BD75FF61
3DBC8DA0
3D935E31
BD8F7A0B
BE8280F1
3E02491B
BC08A8B1
BE372431
BD1C7BCC
BE6B3F21
3C91D580
BEA99AA6
BCA43782
3C8B75EA
BD2F965B
BDF417CA
3E39B1FB
3DD36B4C
BE6285EC
BC3CC294
3E59656F
3D418A44
3DD5B4EE
3E8A7A42
3DEF0282
BCB54E2B
BCC9949F
3B8094E6
3E8EE9BC
3DEA886A
BE89539C
3EBEE200
3DCE264E
3E637F39
BE32C6AC
3E163023
3E1C99F2
3E18C005
3DFDCE7D
BE764D3C
3DFA5E35
BE0F8C22
3D1BF594
3E753D21
BC874C90
BE94855E
3DD654D6
3E9F4880
3DB22079
3D216E7A
3E14202E
3E32D773
BE49EDC0
BE82CECD
3D20F5E4
BE757860
BD378898
BE6D2AA6
BE092791
3DC8A15A
3DA902DE
3DA509C0
BB8DDA49
BE49DCF9
BE027AEA
BD855A7D
3D937E2C
BD8E7BC4
3DC808C8
BD3BF834
BCA469D7
BD14C87A
3D384CAD
BE46B2F2
BE9EF71A
BCD53CDE
BDDDE0D6
3D9F2C30
BDD68E82
BD0C35CE
3E51AEF7
BE88E9F7
3B47D1BB
BD891D15
BD858F71
3D839DE5
BE23DE1E
BD9D755C
BDDF2346
BDD7E458
3DF52B91
3DB0EED0
BD88DEB1
BDF589F0
BDEFD5CB
BCBE7297
3E254691
3C13B3A7
BE205C03
3CE57109
BDE30EC3
3C109F1F
3C3C8C0D
3D4B7F5A
BDE650E7
3C032336
3C7255F3
BC118A01
3E01700D
BE19F01C
3D630CAA
BDD05858
3C85F288
3E3E8640
BDBAB085
BCA6DEFC
3E9B3D8E
BDC18698
3DC4DA90
3E4AF966
3E1A31E8
3EA77F28
BE3050BE
BEAF6FB1
3C39628D
BD61D324
3CAA758A
BD7C115E
BDBB0CCC
BE1C52E7
BD8A6CA0
3DE74AFD
BE57A13C
BE97EA1C
BE088723
BCA2BBED
3ECEE547
3D872C0E
3DC3150E
BE75347A
BB4A3E7D
3E433D29
BDDD1A22
3E0281FE
BDC02081
BD037A3E
BD301648
BDFB1B7A
3D481E47
3D17CB2E
3D4C6C55
BEA542A2
BDCDEA89
BDB2A737
3DE28241
BDDFB58D
3E6C8798
3CEC2EFD
BD57F51F
BB63FFEF
BE9B8B69
3E299FE4
3CC47E4A
BDAC397A
BD42070C
BCD6FFC1
BD886595
3DCDFDF0
3C6B1C43
3CC82385
BE37913F
BD964CF9
3D995FEE
3D83AEAB
BDBBAA15
BD6E6D9C
BDE7EF9E
BE0975B0
3D8C996B
3D11AFC0
3E396FEB
BE267E41
BE019696
3D4B5DCC
BDA76966
BE4D07C8
BCED783E
3D46BDF5
3C227F1B
3DB545C8
3C6D2029
3DCF4ADC
BD2BD902
3BFA69BE
BDB1B717
BE5B152F
BDEAE211
3D177EA2
3D5A35D6
BD088F86
BD0AA540
BC8B8067
3C75BA2C
BBBDCAD1
3E224895
BCB1CA7D
BDFD7881
3DE71CDA
3B4A70D2
3D2F1CB9
3DC7C287
BDB3A366
BDB233DF
3DB25C3E
BD447E4A
BDD96638
3E01BA80
3D9DDC1E
BDC98138
3D250721
3E1C981C
BD620360
BE579FED
BDD3BE23
3E5F7C24
3DD5C0FD
3E3EB52D
BDE70C99
BD31337F
BE6FC159
BD2F4E01
3E1BBC6F
BDA71583
BE872218
BDC908A2
3DCE7DDD
3E8E2FBE
BD19CCFB
3D003AB8
BDACF41F
BCF9A6B5
3DA0B1BC
BDB1E215
3DE7AD8E
BDF74FF8
3CF0A3D7
3DE6644E
BDBEE4E2
BDA3810F
BDDF340D
BD1289DB
BDDAC3EB
BE3776C5
BDA0FBA9
3D98572A
BE0316A0
3E5D490E
BE251C9F
BC8A43BB
BDB74ABA
BE38101F
3E5EAF25
BB781E8A
BE03C600
3BFF64D0
3DCAFBC2
BB698138
BE606D94
3D918A87
3D3F023F
BCDFFC54
BCC3BB41
3CB3DAF9
BE5E85BA
3D4D1D8A
3D4C111B
BCAD70E7
3DB530CF
BE07CB71
BD3C5155
BDD8B503
3D86E009
3D4F51AD
3E4FBD27
3D1EEBB3
3DA312F5
BE2282C7
BE16E86C
BD9BDBE4
BD819E30
3DAB1141
3AA222D5
BD16BB99
BD02A561
BDDE3A7E
BDCE0EB6
3DAD97B3
BDDDFA87
3DAEC7C9
BE04341A
BB877681
BCA24463
BDACDF26
3B5AE3E7
3E1544FE
BE2996B7
3E0C03FF
BD9DEB53
BD02B51C
3DFD3240
BE0A5050
3DF0281C
3D7E09BB
BADBAD3A
BDBE0DED
3D07F024
BD65A576
3DB79746
3CC054EF
BD450269
BD53A81E
BCDBF26F
3C9CFFEB
BD292C49
BCDF06F7
BDDF8338
BCD6B010
3D75E52A
BE5572DE
BDA5D9E4
3E11BFBE
BE1C8755
BE691D15
BD8AE4B0
BCFB677F
BE2CD467
BD98C5CA
BD303D14
BE04AE86
3E95F82B
3DD81388
3E3A1AD6
3DBB1B7A
3D022142
3DB6F9FD
3CC05D53
3C9ECF64
BE6D63CC
BE8DB941
BDFAA476
3E194F6A
BE88D64D
BC20B1BC
BBD3AE68
BDC70004
3E1A42F2
BDB69B17
3CA27D03
3DED96A7
3D2B4E98
3E17820A
BE0030C2
BD900BCC
BDCCBEA5
3C830A0B
BD95B036
3E504D12
BD864021
BC500714
BD724852
3C35525D
3C8D7386
3D8A593A
BD767C28
3E09F7B6
3D9F7AD5
BCCAF923
3DA96CC6
3D6F2F98
3CD3BF2F
BD310774
3D28AB50
3D045AA3
BDB481B2
BDBCD9A5
3D1C2D28
3D67EA60
3BE87D2C
BDCADBC6
3DAA8B09
3DC27B70
3CE47779
3D522A6F
3DDFEF39
3DF985AD
3DC60D45
3E094B38
BD2D106F
3D346349
3D5FCF3E
BDCECE14
3C8DFDF0
3BB2BFDB
BDC55DA2
BD2A7696
BDC33ACD
3C58409E
3DACE571
BD225205
3C94D728
BDE97E13
3C18FA37
BC9F01B8
BE3532E8
3DB78DD6
3DC9D94D
BE677B7C
BDEFBDAD
3E2C04C9
BDFF25E5
BE38DCDB
BE4593E6
3B2F3E47
BE55BE5E
3CC981BF
3C05058E
BD38C005
BCD2007E
BE3A2058
BCE7AD8E
3E9C44E1
BE962930
BE439B89
BCCDF8B1
3DA25D8D
BD9777D1
BE95CAB0
BE76ACEB
BE490D17
3E394C88
BC2BFFCE
3E071EB0
BD807464
BE4F850E
3D3A54C5
3D3D523B
3D7486F0
BEC93709
BE6DBBE0
3CA9CBAB
3D54B59A
BEC11CD2
3DAA6DAD
3EABB5E1
BC408312
3E2614E0
3D304578
3E6C6F7A
3E1857F3
3DED2F5E
3DC3C537
3CFC8084
BD3E0158
3D9DFB0D
3C86C871
BD957E67
3AAC3A86
BB3588E3
3D0FF972
3D1B530D
3D4A84BE
3BAB25B3
3E35FD8B
3DE45565
3CB29C34
3C87BBB6
BDCEA0FD
BD7B9496
3C291538
BB4CDD94
BDC2EFD4
3CD95BBC
3E1D91AC
3DBCE5B4
BB4447C3
3DC7192F
BD55E4A4
3C1EECC0
BDBBF7AD
BCA743A6
BC9A79FF
BD0F1F58
3C8763A2
3D4EB24A
BC4BBC2C
BE1E42E1
3E010625
3E260286
3D93E2D6
BD95286B
BE1E529C
BB914B16
BCA263D8
3D8A0903
BE12FF4C
BD22F8BE
BCC69510
BE3BEB18
3D8ACAFF
BD8064AA
BDC70868
BE3204B0
BDE05F6C
3CC99AE9
BD5C6195
BDC2107B
BD899E0E
3D566ADB
BDD0DA5E
BDF13E81
3D822813
BE509204
BE10025C
BC05C67E
BDDAE361
BD90D307
BDF0A351
3BFCE747
BD07FFDE
3E0C64BB
3DF27ED8
BD1BE4CD
3D0167A9
3D8C3116
BD29CA9F
BD02BA5A
BE06E009
BE41C5C5
BE454328
3CCB9453
BE07B2CC
3D0A05DE
3C7BB949
BE12F7B1
3DDA60D4
BE1C660A
3DF645A2
BD60FB22
BE38B978
BE0CC187
3E4F5771
3D76390D
BD8C6CDB
3E09D8C7
BE007E9E
3D71B8AA
3CFA17F4
3DD4D61B
3DB67989
3BC61D86
3E33BBC7
BDAEA8DA
BE32680A
3D318330
BD838002
BDD05C03
BB3C8C0D
3E8A1577
BCCEE393
3DC95C85
BE0E40C8
3DCA63B7
3D184A0E
3E6EA5F8
BE63C793
3D8C4263
BE1D1B71
3D3F9831
BE449ADD
3D0C3B0C
3E0A0A0F
3C95B9A6
BE31F9AD
BD911516
BD205250
BD19E83E
B95B2703
3DF8800F
BD3418D7
3E6E89EC
BE3121AB
3C6C9E23
BD728955
3DB20AFA
3DD9B6F6
3D2C03FF
3DA13EC4
BE3DAB19
BE1179C0
3DAD130E
BD875CD1
BD8F2B67
BA8BDA94
3D64FEBD
3DBC725C
3E27357E
BD82AFDE
3D9A78F2
BBDE657C
3D56DB0E
3E3F7015
BE0A3CEA
BC442635
3D3E4CD7
BD9CA3A5
BDB7BA67
BD21A2E8
3DD0563F
3D6D2ED8
BC3DDFCA
BE5F8C22
3D84A622
BD7D31BA
3DA6490A
BDD90AFE
BB06CEBC
BDD36502
3C890D5A
BE081DC1
3E19F773
3E4F87F0
BE937586
BE40303C
BE9F4C4D
BE0B178B
BDA4E26D
BD28448D
BE116ACF
3DBA68B2
3E0C11E4
BDECDA6E
3C544DCB
BDF0520D
BE5D9C6B
3DDDD00F
3DE96463
BE405D53
BDB4152B
BE64DBE0
BDBC27E9
3DE3AC0C
BDFA8F7E
BE1DE1E3
3CA1C68F
BDBDDEBE
3E12B9D4
BD8195CD
3E1ED41B
BD277708
3DD6787D
3D827200
BE0231C6
BDF550CA
BE713405
BC81E8A3
BC7FDA40
3C907B78
BE670C99
3DCC4934
3C852B4E
BDDB35B1
BD89E12A
BA90F734
BE2DEEBB
3CC76AF9
3DC7C9DE
3E16759B
BCBE1A82
3CA265F1
BEA1F517
BDAB367A
3E55881A
3D0CE0B9
3DB54F37
BE16B54E
3C8DC769
3D1511E0
3E28CF7D
3DD49F0E
BDF8C21E
3E74B33E
3DB8F9B1
3D7CCD10
3C7294DD
BD9FCE31
3DFEE914
3DA3E8DE
BD29DF98
3D369985
3D5C12F1
BC68FB01
BE49D020
3E2D2BB2
3D4FABDA
3DEE23AF
BD5FB613
3D89D628
BC84790C
3DFCA42B
BC81FB83
BE0F9592
3E8C9603
BD5E6363
BE0D5F57
BC453F3A
BD031AD2
BE031BDF
3C64DA0A
3E4A3337
3D8DC8FC
BE2601BD
3E0E41D5
3D44827B
BE194CCB
BE3AB863
BD4A4F44
BD2BD6E9
3C99934F
BE1BA238
BE6C3937
3DAB2D90
3DD29BAE
BE663E8E
3D570825
BE010300
BD3FA2AD
3D1D4C77
3DB01A7A
BDE07571
3E37F280
3D7D32C6
BDD2B453
3C377C03
3D202752
3D926528
3DB56C0D
BE494F27
BE3D7E89
3D9F9618
3CB7D1FE
BD52C7B9
BD190C0B
3DCD8234
BD1BE6E6
3D496463
3DF00E6B
BDC959E6
BCD95BBC
3D09320E
BDB826EE
3C95B35B
BE2F865D
BE0527A2
3B364170
BD88E608
BCFCAA76
3E224E16
BD3CDAB2
3D20620B
3D482279
3DC95F24
3C9C0EBF
3DC29CFE
BE04295A
BCC63CFB
BDAA6E33
BD94EA8E
3D5DF224
BC85058E
BE0F223A
BE86A9A4
BDDAE792
BD8D959A
3CDD3565
BE0BDC6A
3DA75C4B
BE040D0B
3E10129D
BE60F734
BA94812C
BC828E50
3DB714BA
3D5C0CA6
3D575297
3A7F9724
BD8BB44E
BD9928E1
3C7EA3DF
3D1043E5
BD8F6BE3
BE45AF6C
3D9F5409
3E3295EA
BDB3F078
3C994C01
BDC8F9F4
3D8C7000
BE749CF5
BD907FAA
BDAE5ABC
BDDA7547
3D5E1C15
3D16616B
3DF16DB1
3D805D53
BC829069
BC5C054F
3DFD5022
3E117050
3CAD2BB2
BE877FAE
3E1397DD
BD9197A2
3E02C7B9
3CFB6998
BE013554
BE77BDCF
BDC92791
BCD66F0D
BD9C8C93
BE29B3D0
3EBFDE2F
3D92BECF
3E8CC1EC
3DA1D9F5
BDBA6E76
3E9201CD
3D9992C9
BDC8C47A
BD0FA8B5
BCE7DBB1
BEB42118
BD724C83
3E62A6F4
BDC0FC2F
3E490796
3E63C89F
3DBCCFAF
3EFDA017
BDE7C9DE
BEB617A0
3E3C9108
BD50D5A6
BE0A1166
3E47329C
BC9A38FC
BDAD5AE2
BD06CA8A
BDE9A88B
3D564E8B
3DB9085F
BD922D95
BDC817FC
BD7BFF8B
BD9C5155
3D628566
BD08850A
3CA860DD
3E22CDC0
3D85907E
3D9BCFD5
3D934BD7
3C8E0221
BD55FAA9
BE0F04DE
BCD0A45D
BE918A44
BC1741D1
BD529AA2
3A738822
3E699179
3D321922
BE0997C4
3DD56191
BD6B734B
BE462FE0
BD729A1C
BDF5F0B3
3CC1DF33
3D158538
BDF418D7
BD0621B8
3D2E2004
3CED7625
BD8266FD
3DB9902A
3DA7D912
BE5BEF07
BA8333FD
3C5FC5CE
BE256F33
3BF62F9D
3D521CCE
3E842F83
BD82F61F
3BCBF2B2
3DE34FC6
3DF954EB
3E3EDA66
BD73764F
3C001B43
BE2398A6
3D9E3433
BE2C7FFE
3DCE08F2
BBE3DE61
3E83A1F5
BE345176
BADA3C21
3DF5000D
3D131551
3EA1E083
3E39A911
BE3946C3
3D98316A
3C30813D
3E3EB639
BC9960FA
3E93923A
BE5B79D9
BEAEC43F
3E286B9C
BE492210
BE9068BA
BCAABEF0
3E5E3BCD
3EB5B446
3E4E8709
3E755D5F
BE18FC0D
3E3C49FD
3E972CF9
BD998288
3E412168
3E3B7308
BDE5B185
BE989310
3BF2A5A4
3D8C5C14
BD822FF1
3E02E83A
BDBF6988
BD425F20
BE63EAF7
BE4E670E
BD5847F5
3D3CAB82
BE8EBDB2
BB5466F5
BD944780
BE9DF43C
3B6BBBA5
3DACA926
3D171F36
3D104D55
3CA9E2BD
3CCC22EE
3DB18A87
3E0E529C
3D15A3A1
3E0AB042
BE8EBFCB
BD3B56B8
BDC302B4
BE42D667
BD73DAF9
BDE73C4F
3D8998D0
BD692F6F
3DCFB43E
3E9D9EC7
BE8366B6
3C41EBC8
3D1E742A
BE0FE0CE
BD35E743
BEA3291C
BE3DDE7A
BE9601DE
BD337DA6
BDCA454E
3E0477BC
BD5C486B
BE2DD65A
3BBC6A7F
3BB31C22
3DAAD57C
BDAD2AA6
BE592E62
BC71DC51
3E054DA5
3DB965B2
BDC3E8DE
3E79CD81
BE001B86
BBD538AC
3DB8A223
BC953587
3EBACDE2
3E1DD1E5
3E3C4D66
BE1255F3
BDC0AD04
BE5CCC47
3D262FE0
BCA0125A
3EBF2453
BE7F27BB
BEB04BE4
BCCF3FD9
3E8CAEA7
3D14AC2A
3E24AE00
BECA4FA9
3E6EAA6D
BCA09460
3E4A65CF
BD90EC31
3D1AD645
BE67CD46
BEB6EDAB
3E6EA4EC
BDB1E860
BE95F612
BE08A1E0
3E25A640
3EA23012
3E44BD34
BDA04A73
BD9B6BB1
3E299956
3E8DC91D
381B3073
3D883233
3DE44BF5
BDEAA088
BD938CDA
BE29ADC9
BD264A17
BDC80410
3E6D1B71
BE41B542
BD21E604
BE5AC4F8
BD40303C
BE21B8AA
BC982880
BE077D0F
BD6B52CA
BE32B0EA
BE4CAC8E
3E2B0FF1
BD78023A
3DB675DE
3DC4E7AB
BCABBA99
3D5C7DE5
3DDD8948
3A438F36
3E2FE197
3DBBD2FA
BDA3AD9F
3E0C69B6
3E37CA64
BD06A7F0
3D935B0C
BC3D6A59
BDBFE975
BD512232
3D4BB0A3
3D727781
3C170B4A
3C911CF3
3D8135DB
BDE2CECD
BD1B749B
3DB3CC4B
3DAA4CA5
3D7991BC
3D0214AD
BD76CCE6
BD1D11BE
BDDE3EAF
3D439EF1
3E0DC2B1
BD0B5DCC
BCB90A78
3D142E55
BBEC3116
3D879D4E
BE25A683
3D6C050C
BD79170D
BB2BD5DC
BC9C8430
3D20A84C
3D6A22B4
3E159253
BDCF7EC3
BDD5B1C8
3DF190D1
BE2B5B2D
BD90CAA3
3D105E1C
BDCD06FF
BDB9DB23
BDAA5D6C
3E08B71C
BE3DF091
BCA4D2B3
BE83DD55
3DB316E3
3D04DA90
3DFC50CE
BD92D5E0
3D900BCC
BDF9841B
3CAC3A86
BE926E11
3DECC921
BB331C22
BE565C70
BDC9FCF4
BE4C35CE
BD14B9CB
BE5D7668
3DF5B142
BD3395C4
3DE9F623
3E5B5B70
BE2096FF
3D6B1811
BD7FD1DD
BE971690
3D9B65ED
BDD5EA68
BE6FBACB
3C5948DC
BCED71F3
BDB2BA17
BDD30271
BD441893
BE0A3B15
3D7B395C
3C97EFE1
3E785272
BE35A145
3E4318B9
BE7C84B6
3DE4DEC2
3D0DDD6E
BE0F9F02
BE18B439
3EA15DF6
BCDA8588
BDA75BC4
3D9548ED
3E38BB90
3D0C75C5
3DC42F1F
BCE30CAA
3E1E429E
BDAEB463
3E2FFA3C
BCEAD927
BC6718A8
BDECEB35
BD8B9453
BE17B741
BDEF0F17
BE25BB7B
BDB6F08D
3E141249
3CFF5621
3CE9185D
3DC4E161
3E9945B7
3E7EF241
3DE3A4B5
BD68112C
BDB2AF9B
BD103B82
BCE87097
BC674F2F
BE5108C4
BC7D2E94
3C8EB463
3DB72BCB
3DBE353F
BA4D8559
BC497529
3CAA3055
3D26351E
BE1500D6
3E0C0A4A
BB3BD380
3D41B542
3CC432CA
BE78561D
3CD4434E
BDD9346A
3E3FDB4D
BC0EFFE3
BDEFDF3B
3DCC857F
3DAAF923
BE011C6D
3ABDA943
3E18BBD4
BE4C2720
BD9C1377
3CC7496B
3CAF09D9
3D50DBF0
3DBDC93F
BC60DED3
3D10A351
BDEAB820
BDAFE60C
3DD8CA82
BC177425
3D38D3F2
BDCEFB2B
BDAA45D4
3A241A26
BE125397
BD81A262
3CAA3487
3E124895
3D3A92A3
BD445458
3CC94D51
BDF53AC5
BE11D9F5
3DC5E5F3
3E354930
3E1AC8E7
BD7A57EB
BD2705C9
BD886F05
BD58665E
3D567A96
BDB50C1C
3DB0CE4F
3D676534
BC0F9F45
BBCDA6E7
BC9C4B90
3CC36545
BCABECEE
BD141637
BBB3DD12
BD6B7FE1
3D4E5604
3C27D242
BC9EDBF9
BE0C182F
3DF06141
3D8A57A8
BDA2ED35
BD03BD5A
3DE68B1A
3DAB356E
3DE84381
BD1E310E
BDD3F423
BE488EBD
3D6C0B56
BC9E6256
3D95885D
3E01012A
3D58D36B
3D83C85C
3E6F05EA
3D5C7EF1
3E37D49D
BD643ED9
BE0034F4
BE851698
3D41EBC8
BCB4CA0C
BD8F965B
BDD3732A
BDA9973E
3D16F545
BDAD9AD8
3E4EA5B5
3DE22B39
3DAB97FF
3D6E46D0
BD4E820E
3E07470F
BD974B40
3E227675
BD8C6DE7
BD85FAEC
BDA038A0
3DCDE871
BC868FD2
3E20181E
3E0D887F
BE365F52
3D4BDDBA
BC61719F
BD3FAC1D
BD6EA748
BCA1CAC1
3D298DCE
BE59BBAE
BE395D4F
3E0C9F30
3DC0F66A
BE04E93E
BDBD72BD
3DA7A41E
3D57F844
BDD8726D
3D2EBC41
3BCECC81
3E080F13
3DCC17EC
3DCFE3F3
BD92CD7D
BD438E2A
3D16E371
BD8D2913
BD571088
3C43D684
BDBC3937
BD279570
3C630447
BD05C572
BDE22036
BD0A87E4
BD854CDB
BD8B5782
3DEF5DBC
BD1E2AC3
BCCD76AB
3B1320DA
3C017332
3E255A3A
BE2615A9
3D04BF4D
BCE0B6FA
BCEC9E23
BDE8BB90
3CF7C88E
BD52599F
3CB673C5
3D29B5A6
BD897AEE
3CEFD652
3DDC4546
3D899525
BDCC942D
3D0FD2A6
3DA58CD2
3D195DD5
3D2F20EA
BC5D7A9A
BDBCA42B
BE1FFEF4
3D3FCEB8
BE4B9AE1
BDB38BCE
BDD9C0EC
BD868987
3D3A99FA
3E165450
B9DCB9AA
BDB71540
BD894142
BE4E0829
BE11209F
BD1C3266
BE05B39E
3C823E9F
3D638866
BD462F5A
BE806680
3CAD7732
BD7E7AFA
3B45974E
3E24F15E
3DFBCA10
BD860FE4
BCB6EF80
BDB340D5
3DB1C326
BD5A4378
BD691212
BC7EC56D
3D1A21EA
3B8051CA
3D196851
3D74EEBF
BD26F1DC
3CFD30AD
BDA3BE66
BCA2DF93
BDDBC665
3D79884C
BE174470
3D929132
3BEB67C3
3D654D62
BD0CA2DB
3E398D04
BD24EAD1
BC12D98C
BE1ACC0C
3E32E664
BE2124D1
BDD3ECCC
BDAA3F03
3DAAE42A
3CB519BD
3CE11DBD
3D208D09
3B202B84
BE196BFD
3D4812BE
BCEA747E
3D23FFEF
3E09C9D6
BBD234EC
3D4D4131
3CCBE1EB
BDA75819
BC480C74
3AF40E5A
3D84EF03
BB1F0E4E
BD865F0F
3D961E4F
BDB0A5F0
BDF73D19
BE0BA344
3D052828
3C540EE0
BDBA5B96
3DB6F08D
BCE088D7
BD9691A7
BE1CAEA7
3DB8BC5A
BE6CEB35
3E067F0B
BD8F0308
BE8B7D41
3D88D21C
BE000043
3D8B07D1
BDCCD424
3D7687B1
3E9F125E
BE5529BB
3D83E07A
BDD2A498
3E1D74D6
3BAB14EC
BDD47F13
3E2D2A20
BBED9168
BDFEC80C
BD672431
BE02CE46
3E1ADC90
3E418ACA
BD130AD4
3D382F51
3E6E4756
3E036B90
3D0C1227
3E13C105
3E095358
3CAF9011
3E33AA37
BDF1B8AA
BDD1B25F
3DA434E3
BD31897A
BD45C033
BCC996B7
BC5E82D8
3CD84D34
3D8CDEA0
3C380A9E
BD97D391
3DBD8B61
3DA9D0EA
BB892AB7
BD193F6C
3E46AEC0
BDE21AF8
BD3C2B95
3DC7F1B7
BDAF08CC
3E135009
3E1EB314
3EB5EA25
BD6B6D01
3DAB4396
BD018B50
3D7F62B7
3CCE8965
3DF7C782
BDE1D649
BDCFC8B0
BC1042D9
3E5D7E46
3DBF2ECF
3E50A244
3AEDE54B
3DAF37FC
BDEB630B
BE0EB13E
BE57357E
3E672F77
3D470542
3DA9F16B
BE1EA4A9
BD9C2331
BDF479D5
BC40767D
3DDC2B0F
3E038A3B
3DAA758A
3DCF5A10
BD875B3E
3C7FD1DD
BBB2D0A2
BD637AC4
3DF47497
BD2CB210
BE509F1F
BE2A747E
3D1EA78B
BE01337F
BE2E59F3
BCFDBF48
BDF696E6
3DD6C58F
3DA0A17B
3E309E56
BD8696A2
3EBB25B3
BE848ABD
BDFFFCDB
3DF0068E
BD34BA52
BD7BE015
BE8002E2
BD73D6C7
BDA04C06
BC88CC57
BE54B018
3D815337
BCB2788E
3D3AA68F
3DDCD680
3E73C6C9
BE2A2058
3E62CD7D
3DBE3A7E
3D214270
BD0D39DA
BDC1700D
BDA4F11B
BE923B58
BAC0F020
BDC00193
3CA908A2
BDEB777D
3CABF983
3D109BFA
3CDCD2D4
BE235A42
3DB7BB73
3E3C0E7C
BD3341E1
3D15B680
BD9E0264
BDE94035
BD8C0E7C
BC106CCA
BDAFF434
3E0AC68B
BD9039EF
3C626D48
BDF86013
3E4239A4
BB188095
3E00F734
BCAA9931
3D154B8C
3E13DE1E
BDAF1E4B
BDA770BD
3E1646AE
3DF72D5E
BDEC4828
3D2B9E49
3B0626F6
BD8E9AB3
BE0F2BED
3DA4944F
3DF29D41
3D184C27
BEA08AF0
3D94ABA4
BDE1FC8F
3CEA4873
3D996AF0
3D7C3D68
BF027E0F
3A4E4EAD
BE86E88E
BCA5C3DF
3E870457
3DEF312B
3D318FC5
3DE51DAC
BCEE2A80
BD223290
BD5A49C3
BD49CA19
BE12AD82
BD78AC19
BE0069E8
BE3FDEF8
BD7775B8
BD5DA273
BE22AF57
3C255087
3E087400
3D0ED5F1
3E971BCE
3C56909B
BD2265F1
3CC81B22
BD0B3E57
3D493A71
3E8712C2
BDC107B8
3DC74320
3CCBBA13
BDB12B1B
3DC43351
3E12DA98
3DD58A76
BE14D0DD
3DA86727
3D352A84
BD820AB7
3E57AB32
3E1AE31D
BB5594F2
3DB89481
3DE2E44B
3D79BCBA
3E0226C4
3DDF3301
BD090D5A
3D0507A7
BE6F9831
BD419B0B
BE51A2E8
BD14562E
3C2B7DC8
3CA9B6B3
3C0487BA
3CE9B5A6
BDCFF21B
BDB2324D
3D534480
3D6BDC27
BDE2BA5A
3E116CA4
BCC8CF7D
3DB32F01
BCED6DC2
BDCCA601
BE00ABB4
BD2939EB
3DA39CD8
3D96AAD2
3D8D594F
BDFF9379
BE04ED70
3DC1DC0E
3CF38E6D
BC99652C
3C5A0DFE
3D14AE43
3D544674
3DE32229
BE855864
BE6D0204
BB56E47E
BD979421
BB33A259
3B9B5200
BDCE2C99
BC701755
BD9D0636
BDD03AFB
BCB11623
3E055821
BE492AFA
3E16D3B7
3E0D5B68
BD72D906
3DA83559
BDE1B003
BE0DBBE0
3DB95033
BD40FBA9
BE556E69
BE996A27
BDA37F7C
3C63AC0C
3E9C7608
BD98EA7D
BDE9BA5E
3E237974
3E773861
3E60EDC4
3DDBACB4
3E847C0F
BE1406C0
BDCC7864
3D9FEA81
BD83B2DD
BD23B8A2
BE302364
3E68C8EF
3E618EB9
BB1B738E
BE9CEFED
BDDD5886
3EA96EDF
BE33BDE0
3E902364
BDC0B780
3D0CCFF2
BD1FB507
BE2F48C3
3D0405B4
BE232379
BCEB26C0
3D49C2C2
BE131C22
3DA62670
BCDA9436
3E4F4BE8
BD4A73F7
BD5E15CA
BD85F84D
3E69285B
BDB434A0
BD9C3266
3E1E2D62
3D9B0D52
3D34E981
3DD6512B
BDB06035
3D5014B6
3E09A459
3CA3F24E
3D0CB7D4
3E4AFFF3
3DEADB40
3CB59792
BD9A4C62
BE36FE72
BE55CFAB
BE7C1CE7
BE178EE3
3D4ED5F1
3D6032DB
BD3A41E5
BDE9EFD8
BD93C255
3C1E94AB
3DCF01FC
3C96AF04
BDC2F2FA
BD1E5F31
3E3A4C1F
3DDE1B09
BE5D94D1
3DC8B75F
BCA06A6E
BE3AC472
BCF8B9BB
3C9D8A55
BCF68167
3CA7136A
3DF8409E
3D753F7D
BD54812C
3DAB5244
3DC071C5
3C2D4B27
BD315A4B
BC01CB47
3D517E78
BC83F0BB
BDA6540D
3D8161E5
3D058BC6
3C001B43
BE24D22D
BCEC269A
3CEFEB4A
3D059104
3D1A31A5
3DD81388
BD4C5EB3
BE075793
BDA687F4
BD7BAFD9
3D81F213
3D1F8D2E
3D8BF1A6
3DB9D452
3E19D12D
3D41FB83
BE5084A5
3DEF5A10
3DE779A7
3C853E2D
3B92923E
3CB4677B
BDA4241C
3D592EA5
BA0398A6
3AF0E90C
BD3EF9DB
3D2321A3
3DECF9E4
BDB989DF
BD2F5DBC
3D928848
3D931983
BD915619
3DC8900C
3DF9988D
BDC9DF11
BD67D029
BDBE4ABE
BC81B435
3C0FB86F
3D132831
3E01BE6E
BD47A17F
3E9998D0
3C30D520
3B145F9E
BDED245B
3BE02A78
BDF7DE0D
BDAC43F6
3D98DBCF
3D844C7B
BDF701DA
BDB5E072
BCC76AF9
3E324207
BB15BFF0
3D0B8BF0
BDEA45D4
BCF7B7C8
BBCBE1EB
BDD295EA
BCAEF6F9
3D8C5C9A
3D1206C8
BD83EE1C
BD36049F
BB6BBBA5
3DC8BB90
BC4F4624
3CE81ECD
3E95BD30
3D06CEBC
BE5883BA
3DABD902
BE2A23C0
B9A63305
3E740D4E
3E3C68EC
BDA5AF6C
BAE79AAE
3E773216
39BE5109
3E457AFF
BE19D1F6
BD992D99
BDF4EF46
3D491D15
BE4BD76F
BD2E147B
BD9795B3
3DD13511
BEA3A8A4
BCBC44BF
BE4B417D
3DCA0232
3D48FC93
3E5A0232
BD7EF178
3DBDD767
3C443F60
3E4E74F3
3D296C40
3E054478
BDC24E59
BDB93144
BDC223E2
3E078AB1
3CFF77AF
BDFBA98F
BE0F5126
3C91B3F2
BD28D21C
BE7FE261
BD54738A
3D8C5111
BC9B10FD
BDFAD96A
BE1BFAD3
BD698EDA
BDCB673C
BDD7EFE1
BD946D40
BDBE09BB
3D57D6B6
3DF1EFB7
3D8C0D6F
BD00A9DF
3D0ABE6A
BDB1F57B
BE0E8AB5
BA919EF9
BCA83F4F
BDBACE68
BD2BCE85
BE6CDE5D
3E0026CC
BDE3F706
3E54B05B
BDA3400C
BC8B30B6
3E17EAA3
BD7C7F78
BD9A48B6
BD8F7B9E
3DE86DF8
BEDC8451
BC740A28
BD98E758
BD00BED7
3DD53261
BD133D29
BCB0A6FC
3E5F85D7
3E0FB69A
BC54D402
3D1DCB58
3E31975F
BD25D8D8
BD50D499
3E2AEFB3
BDA5EEDD
BDCE8B7E
BD36F2A6
BE793FF2
BCC63498
3E356E26
BC8B73D2
3DEABABF
3DD82C2C
3C6B4E98
BB8B2208
3E8A161E
BE3C065B
BC434C1B
3E88C8EF
3C88B75F
3D246280
BEB7DB90
BE33CF2D
BDDB09A6
3D5E56CD
BE778C43
3ADAA0CB
3E14D61B
BB22877F
3D93E708
3BDCCA71
3E1A7009
BDA3F78C
BCF61CBD
3DBCF1C3
3E63A8A4
3D2A5721
BBE0FC2F
3E599A20
3D29B281
BE0536D6
