BD15F783
3D22B064
BC72BECF
BC820A31
BCEBD09E
BD371EB0
BCA350D3
3AA71DE7
BD81E03F
BD039043
BCEF3D3A
3CAC7DA2
3BD63CB8
BC66601C
3C4F073A
BC6581CF
3C71F57B
BCBDD335
BD78CA82
3D3779EA
3C87D2C8
BC89DF11
BD2A25D9
B81F6230
BCCEFED6
BD2BFB9C
3B981388
BD40F55E
3CC5C140
BCC0FCB5
BC48711D
3D2134CE
BCB6BD2B
BB8B9778
BD2FAB54
3D3163BB
3D2A582E
BCB71759
3D68D541
BD0664D4
BD3E64F5
BDCCB189
3D4DC012
BD29B175
3C7AA8A8
BCBDEC5F
BD54EC20
3D88DDA5
BD7165D4
3DBF7CEE

