3E81F299
3EAD4717
3E97ADD1
3E1A6656
3CC9BE90
3E3E5DE1
3EB4115E
BDBD4E90
3E8A14F0
3DEE48E9
3EC404EA
BD0488C6
3F20BC7B
3DE9BA5E
3F0D4B5A
3E2D4DC6
3ED604C0
3E325B75
3ED79F66
3E4476B0
3EC32831
BD4828C3
3ED5CFAB
3EC42D8C
3E407571
3E804641
3E58C543
3E0C710D
3E89C0A9
BCBF4ECA

