BD3036A8
BD04ABF7
BE3D4EF5
3D8C9814
BD9901AC
3E021DB7
BC9EA043
BD377719
BCC79597
BD350B36
BC8E4B19
3E139252
BC61971A
BD5B4DEC
BDC49D9E
BCDB1F87
BD5C6E1E
BC931230
BDA6CB04
BE0BD334
BC449DEC
BCB200C7
BB4C7242
BE307616
BC0F2A13
BE4807FE
BD2573D2
3D2AA2A9
BDF8FF75
BE3FC5EC
BBB7B864
BB85C491

