BF111D6E
3E89705D
BE0C1012
3D886972
BDA61EDD
3E56B9B7
BDA3449C
BE81F1C5
3D8A151A
3D8B128D
BEACF0A5
BEFC3720
BE375770
3E9B66C6
BD2895CA
3ECA33C9
BE160B21
3E7993C8
3E60E663
3E29D7C4
BE1CACAA
BD59EE6E
3D18797E
BE96CD6D
3D733290
BEBBD866
3DEC6A8D
3EC31795
BEBD36CE
3EC11537
3EE45E8B
BF0B986E
BECFD014
BE43E4F5
BE896105
BE1234FE
3E939A3E
BE5A9B81
3E20976F
3E88C895
BD924804
BBA838FB
3E7564A2
BEEC3F40
3E88D09E
BDAA97E2
BED77193
BDA9FB5A
BCE4AFB9
3E269329
BE303436
3E34CA01
BE62A80E
3E9F7A6C
3EED1C8E
BE32220E
BE96A1B0
3E27847C
BEC71601
3E9BC0BE
BE90476B
3EE0AF7B
3C37AA0E
3D9D8BD1
BD95550C
BE970916
BEBF0654
3E41477A
BECC4AFB
3EBB7E95
3E2311A6
3E5B32E4
BF067241
3E3068E5
3E58AE2C
BC882A6D
3E8B0816
3E691B5E
3E0868A0
BE8044C9
3E1849E0
BD07E837
3E855D3D
BE181B10
3CC1EE73
3E9C1E93
BEACFCC9
3EAEAE1F
3E82E309
BD11F74A
BC862804
BC01F707
BC9E6BA0
3DFAAF67
BB816C8C
BDD948EE
3DA71324
BCF085F5
3E5E289C
3DAD0330
3E7E2C37
3F2B5D76
BEA5452D
BE608848
3D527695
BEA99637
3D83DB9C
BE88D7F2
BDC6DE40
3F1D23AF
3E70A840
3DB6CF8D
3EE272F9
BE66215A
BDCA06B6
3D52917E
3E058C6B
3ED67E90
BE9DA7D3
BEED9086
BC077C5B
3E9025F3
3DE28A29
BE640058
BE8288CC
3D48169E
3EB591D1
BF135C71
3E92691B
BD9B892E
BEE9559C
3D8BB36E
3EAE2826
3E39A6E6
3E47950F
BC820BAB
BE8EECAE
BD49E4DE
BF058CAC
BE8BE37E
3ECCAB66
3EA0D05A
3E0CABEF
3D0D146D
BEF156C8
3E1D8D0A
BE298CD3
BE8F635D
BE3711DA
BE6FD413
3E9C3B68
BD6E82E4
BEE9A00E
BECD2082
BE5374D8
BDB35A01
BE775E94
3ECC3AF5
3E582AA4
BD8C1471
3E0424D7
3E1CF7FF
BEB3B44E
3E40C5A0
BEA4C68B
3ED0F998
3C075B6C
3ECFEA07
BC206E2B
3E922706
BF1101C7
3E84402F
BEB1B085
BEDA9E93
3E79902E
BE1B261D
BE9D7B8C
3E95472A
BF0B1F7A
3EE82209
3E918EE6
3E2ACC7C
3D2855AE
BE564E74
BE04D804
BF12B7CD
BEAA5E87
3E938BC0
BE451017
3EB1BF16
BE3950DD
B927B308
BE9CC1D1
BDF5AC5B
3E9F7515
3F20AEFD
BD9890C6
3CE4B1B9
BE0CB5B6
3E52518D
BE690E34
3E00D522
3C177E6C
BE3126EF
BCCF50E5
BE624964
BEFDAAE5
BDD82F53
3E57AB1C
3DE32E2D
BE6E5293
BEDBBC0E
BCCC91B0
3D93F290
3E9BE908
3EB35E70
3E88FF5A
BD6C840D
3E3B8D9C
3E3D2242
BDB17896
3D2E4094
3DC4EF1C
3E8E69F4
BD6F1309
3E7C0012
BEE5A8BA
3DDE22F0
3EAF4ACA
3D422EB3
3E91991A
BEC9EEF4
BF0ACF88
3E93D7E5
BECDECFC
3E4953D8
3E6EE172
BE9D8F45
3E0BD3CA
3D954982
BD88E150
BDD51E8B
BD2CBA20
BE03371E
3E75C71F
3E88873D
3E79D9DC
BEACAC09
BE60EBB7
BDF39F29
3E5F413F
BE87A5C8
3D23669A
3E84934C
BEB29619
3DF8006D
3E489D56
BBB34ABE
3E07D33A
BE3E427C
BE40CD00
BD6FA001
BDC79190
3E9F561B
BEB99453
3E286775
BE1E33D2
BDB93384
3DB21E7F
3D69C1DB
3D858688
BE8CA6D2
3CDC9698
BE19F838
3E247E96
BD957D97
3E91FC03
3E080A7F
3E2E5EC5
BE4EDB83
BD72AFD9
3EDC1F9D
BEFFB806
BEFDDD10
BEB90549
3D2C30BE
3E40D806
BEF2CFF9
BED1A31D
3D8400CE
BC5E7B89
BE004891
3E3EBB03
BECEA1F6
BD76A6DA
3E68379D
BDEE6DE5
3EB128A7
BEEF05DB
3E2CA55E
BE87C69A
3E1D173C
BDF96F90
3C7290CF
3C8CD3CA
BEB4BFC3
3F090CC0
3E833700
BE600319
BF07A26B
3E4B477B
BEC7E438
3E3B0A84
3D7A57CD
3E0EBEE4
BD1E7FD0
BECF56B8
3DFA0EEC
3D83EE75
3E99BF81
3E7B81F3
3ED0C4DC
BE99B352
3E2A6397
BE605B83
BE1A5CFD
BECDF124
3EB8A6A6
BE146A01
3CEA3AEF
BE9F5140
3E9B983E
3E261D11
3E8C64DC
BE873AD0
BE92D9BD
3CADCF13
3E76C5EC
BDEABB9B
BF1BAAC1
BE86275C
3D39531A
3DFA5654
3E4379BB
3E8E68AD
BEADDD71
BEAACE89
BDC08659
BD178B67
3E42D894
BD8A747E
BEA69224
3E86B7B8
BE0EC767
BE8D350F
BE960D20
3DC9E446
BE2BE24D
3D0A6972
3D3CC5A0
3D2D7B78
BDCFF8A1
3ED782DE
BC92FF6F
3CB74524
BDC1A4B5
3E90AC12
3E78AFFD
3E7EB9DF
BEB3DE86
BE350EE0
BE071EC4
BEAA20A1
3E70A060
3D557521
BE35DED6
BD247305
BE2F7DE3
3E65AD83
3E8BBD96
BE3B502F
BC618993
3EB82A5B
3D7C46A8
3E567BE1
BEC4BDF5
BB934A22
3E77A794
BE09B51F
BD2BB286
3E8783D1
3E4F4B27
3E5C7159
3E5617E3
BDE7492E
BE28CD07
3C034780
BEC73B24
BD8FF1CF
3DB0D221
3E674A63
BE15E263
3E631A10
BE4B7139
BE4266E8
BE467921
3E1CF234
BE936867
3E7E24FA
3E49BC09
3EE5448D
3ED2B0E0
3E36CBA5
BDF22510
BEF2CD53
3E906E4E
3E363C98
BD1C32B6
3E85CE13
BEC38A30
3E3A3E5A
BD406D8D
3D87EBD9
BE1FBFCF
BE18E006
3E502F35
3DC4392B
BEEA0052
3DFA9A4B
BE99F774
BDF257DA
BE1D7BFA
BE4D1F3C
3DC88E66
3AE54E21
BC04D1A1
BED0422A
3E8F1E70
BDF5EE9B
BDFF6FBB
3EB89911
BE18F538
3E94F33E
3EBB7F68
3BD1A471
BE421323
3E96D83C
3BA5D964
BEADADC7
BEB4DDFB
3D240C0E
3DC5A4FD
3ECED37B
BE4FA9F2
3E4BD8A3
BE1D8255
BE1F8FD0
3E024F61
3EAB8D1D
BEA16C7B
BDA52DB7
3E72132A
3E53EED5
3E4F9135
BECB4460
BE8CA067
3D9C5801
3D2297B4
BECF8754
BDB9A68F
BE4256FF
3E265118
3E829A18
BEFD1882
BE1AE505
3D55FEB8
3EB88C25
BF098940
BE497EE8
BECA7BF3
3E4D97F6
BE7131FA
BEABCA48
BE77597D
3EAB1F93
BE40FECC
3E0FE02C
BE8D76D6
3DD431C2
BD36C370
3E5DE15D
BE73A87D
3CC26D32
3E87FC44
BE484115
3D0FB708
3E9256C0
BCA0F93E
3DD93DB3
3E462422
3EA4919F
3EAE1DAF
BD7382F1
3D7B779C
3E1B8467
BD025070
3E22E08E
3E839F98
BE590E42
BE8450ED
3E3DCC6C
BDEDA5B3
BD65A739
BD878497
3E2A6303
BE991AA5
BE41CBA5
BEA0C70F
BDFC4C17
BEB9A758
3E164B39
BE97D6C7
3E7038C1
3E006427
BF0B67C6
BE7926F6
3DADE1E0
3E5F5F45
3E318477
3E7DFD55
3D6F0A9E
BE125234
3DB85F12
BE7C5B95
BE5E33C6
3E95CA06
3DEAFA17
BE87ADC3
BBA699DE
BD8997B6
3E56C064
3DEFA482
3EB77231
3E0F8401
3D8F7312
3D0B141E
BE44980C
3E80FC0D
BE88093C
BE6140A3
3EB95018
3EB5312C
BE93E49F
BF0B1956
3E2B8F9F
BEBD3C6C
3E136A7A
BE2245D6
3E93712A
BE0EF4F2
BE145552
3E0817AA
BD8B5776
3E6B5FDD
3E9A1B47
BE76267D
3DC29E70
3E5FE24D
3E700329
3E4F3160
BE03F60C
3EAF95D7
3AD4C963
BE9A9DB3
BEDCD6D2
3E8E20C0
3A8F7784
BDC42E29
3AC06FB1
BE2E675D
BE9E9181
BDB1F4FE
BE248554
3E18E30D
3D6C49AB
3EA722C8
BE396980
3D959995
BEEEC67B
BCDB40AE
BEEA1329
3E9131A3
BE42B085
BEE2AE89
3EAB4DE4
BDF82028
BE7149B6
3E1806E4
3E118737
BE339B62

