3E7
024
023
3EB
3B2
3FC
037
006
00D
3F4
361
3F6
3FB
010
3DE
011
005
3FE
037
3F3
3C6
3B8
036
3C5
3EE
3F7
373
3FE
001
3B8
3D2
3BD
009
055
3E4
3D8
3B5
02D
3D5
3CC
01B
02D
3DC
063
012
01B
3F2
003
3D6
01D
3D3
05D
3EB
3F7
39A
06F
3DD
377
3E9
3C7
363
01D
3EE
3CB
058
008
02B
05A
034
03E
004
393
3D3
3EE
3DE
3DA
3D1
06A
3AD
3B2
3DD
082
033
067
3F9
3BF
000
010
3E9
046
39E
02D
027
0CA
3B2
3EC
3F2
3C8
3CC
358
3DF
3B4
3D9
3C5
3B0
3DA
3B5
3F1
3E3
02F
037
013
049
033
3B7
3F5
3D1
3C0
011
02E
3EC
3F2
3E5
3D7
00B
3DD
3E7
3F9
050
3AE
3E0
3FF
02F
3D2
02D
017
024
3CD
3EA
023
3FB
03B
02E
011
3C4
03C
3B1
3F5
00A
3D0
008
38E
00F
00F
00D
3BD
39B
354
005
3BA
3F6
068
05D
024
01F
3E8
3EB
05B
001
01A
04C
3FA
00F
3EA
3F1
3D7
00E
3FE
3C3
3A8
3FE
028
3DD
3EC
077
3A7
377
005
3FC
040
352
3DB
028
3EB
3DF
043
3E1
39D
3F6
3FD
005
0A7
3DA
003
080
087
03C
08E
3E1
048
3B3
074
034
006
001
01A
04B
001
3C2
3EF
3F5
3AD
001
03C
073
055
352
3F6
00F
398
00D
008
01F
016
061
037
02D
00E
022
013
39E
395
3CE
3FA
036
384
3F2
034
004
3BB
3B6
005
3F2
01F
3EB
3D7
3E0
3C1
017
3B6
3DE
042
3EB
3CA
01A
3E2
02D
3EC
37F
022
031
3D8
3BA
3DB
02F
3F1
022
3D5
3ED
01F
3F4
021
3D1
3D0
01D
03A
015
02A
024
02D
390
3B2
02A
3C9
01F
398
388
002
028
052
3CC
047
3C8
3EF
012
065
016
019
01A
00E
3C9
3FE
04D
026
3EE
021
3E1
3E2
3E7
3E7
3A0
3C6
002
3F3
001
3CA
3B4
3EC
3DB
3E2
3D0
05F
03B
030
3CF
3F1
3F3
021
01B
043
3DF
3EB
3BD
01E
020
009
00F
015
3D0
3EC
009
080
02A
03D
3C2
0AF
080
00A
397
3CC
3A1
094
058
3E7
00F
01E
013
3B8
009
050
3CC
3E1
025
00C
3BA
3CE
3C1
02A
017
3CA
3D2
09D
3EC
02D
023
3F5
02C
3FB
019
063
3EF
383
00F
01F
3D8
3B0
3C5
056
02D
359
00D
3E1
3DE
006
020
3FB
041
3DB
3F0
3DF
002
3FC
3CF
3C7
025
3B9
01E
3D3
3D8
019
03F
03A
002
029
3FB
3F5
041
3DD
008
001
3FE
3F6
023
00C
00D
3EF
3F7
005
049
3E0
3B5
3C1
04F
3E0
031
010
3D3
032
3E9
029
3D2
01F
00E
3CB
3DB
083
3C7
3D7
3F8
02E
378
05A
3B3
021
3C0
020
388
3F9
3BB
002
3DB
395
3C9
3C0
3FC
033
39B
022
001
02C
025
04B
009
07C
3F2
025
3AA
018
3B5
067
3CF
00D
039
019
044
3D8
045
3C4
398
021
3FD
3EB
3CD
3CF
3F5
3C2
01F
3E5
00C
3C2
018
04F
080
029
3B8
3C7
028
014
3EA
043
064
004
3D5
007
015
3D8
024
3EE
02C
00F
3F0
000
3A7
3F4
071
026
026
021
024
01B
3D1
00B
016
3DC
058
044
3B7
08C
3BE
0B7
005
069
3F5
004
3D8
06C
3AB
3D1
02F
00F
3CE
023
3F0
014
008
3F9
038
026
01F
3EF
03C
3CB
010
3EE
03B
3E2
3A8
052
021
3CE
015
093
006
3F0
3B6
3F7
3F9
015
3C2
055
3EF
3F7
3FC
06C
3CC
3D9
3EA
3E5
3A8
3CA
013
028
3DB
3C9
3FB
3D0
3BF
3D1
3FD
00F
3E4
014
066
033
010
3F9
023
018
012
023
012
006
012
022
3E8
009
3CC
02F
3EF
3D7
00C
031
029
3CC
3BC
022
004
013
3D9
024
030
3EC
009
3AA
3D6
3CD
03C
3F4
3D1
005
3E9
3CF
3CF
018
3D3
019
381
3FB
000
021
3FF
3C1
065
01D
3D0
3C4
015
3EC
01A
090
3A1
054
017
00D
3B3
02B
392
040
00D
3DE
3F4
3E7
02F
3ED
3FB
3EA
00D
3FC
007
3F2
026
3E7
047
3ED
393
3F9
3DD
3F2
044
002
01C
3DC
3F9
010
04A
3BA
3DF
3D1
04C
00A
003
026
003
3C9
3D8
010
003
3E4
38A
394
070
3BC
01B
3CC
04D
03A
00A
3C8
03E
3E1
3CC
3F0
39D
3CF
3E9
034
3CA
3CE
01C
00C
3F8
3B7
004
3B4
022
3E4
3CD
009
3DB
027
3C9
04E
3EE
3D7
03F
015
028
3FE
02F
3DF
3F9
03F
3F9
03E
045
3FA
000
3AB
384
3DF
00D
361
3E0
024
00A
00F
3F1
014
3F8
01F
006
033
01A
059
355
022
008
3FE
021
015
024
3CE
01A
3AD
02B
3A1
3FB
3ED
3A4
054
3A6
38F
3E1
3CB
3C7
3CD
3F5
018
3BE
3DD
3AE
3F7
009
3D3
009
3D3
3ED
3C0
00D
3CF
39B
3F0
006
3DE
3DF
3CF
3B9
024
3C6
036
3C9
3BD
3FC
03A
002
010
02F
3ED
01D
352
05C
002
00D
032
024
00B
3E5
012
3C7
006
3BF
04D
3D5
01D
329
043
3C1
002
3C4
3D4
3AE
025
02C
3E4
006
036
018
00C
06B
03D
3E9
045
029
3AF
3EA
3CB
065
05A
014
008
032
010
020
000
3F2
3E6
3F7
3C8
030
3D1
046
3EF
00F
07F
3A0
3AD
007
082
00E
030
3F6
3CB
02A
02E
059
35A
048
39A
004
037
01A
033
021
3BF
3B9
018
3CA
3E6
39A
3BF
029
041
3D6
3F5
070
032
02B
02F
047
3EC
3FC
3A4
3DE
3F5
009
02E
026
3D5
005
3FA
04B
00C
039
3BE
00E
039
3CF
3FB
3E6
00E
3F1
3DC
3C3
009
034
3B9
36D
39B
03C
3D4
017
3CE
3FB
00B
3F3
008
3DA
3F0
031
3E7
049
030
034
3E1
3F5
3EC
3DA
3A6
007
3B1
004
3DE
398
3F3
036
07A
004
3C7
03D
01F
3C8
00A
013
3C3
020
3C7
3B8
3EF
010
03C
019
06D
01B
02D
01A
061
35B
038
3C2
01C
359
062
3BF
3E4
39C
3D5
019
01A
038
033
3F6
025
027
020
007
01A
399
04D
36C
02B
3E5
05F
00D
042
041
3FF
02E
3BA
00A
02D
3A2
3AC
353
02D
3E7
395
3EC
00F
050
353
3C4
008
3FB
024
058
3F0
3AE
002
062
056
3DB
0AA
3E5
3BE
3D3
3FF
3F4
072
38F
029
00D
3DC
3FA
3FE
047
064
3DD
3AC
3E0
000
021
010
024
3B5
00C
00C
04A
3D1
02C
05C
3B8
38A
3AC
399
3C5
3FF
3CE
3FC
002
028
3C4
007
008
3CB
3EF
051
3D1
3FA
026
02F
014
02C
3DF
3AF
008
022
3D2
002
3DF
3D0
3ED
3BF
3ED
057
014
03C
39D
009
3D9
039
3C8
033
003
01E
3A9
3F5
3CB
3E6
007
00A
3EB
3CA
3CC
024
01C
3F9
3C2
3CA
3D4
002
3D9
073
011
3E6
3D6
068
3BE
002
3C6
3DB
3BB
042
015
3F1
3E6
3E1
3B9
017
003
3FA
3B7
3F2
3D2
025
3C8
3E3
39E
3FA
3F3
3D6
02F
033
03A
3FE
010
3F8
02A
3DC
3D7
03D
01A
02A
36B
016
3AC
3BE
038
000
00B
392
3D1
3C7
3D5
3F0
01E
3AE
06B
005
032
3BB
382
02C
3F3
024
3B7
3DF
3FE
0BF
01F
027
0B5
015
3FF
005
3E6
3EB
023
30E
3EC
3E6
02F
379
348
08C
05D
3B1
3C7
020
009
3E0
371
00B
028
35E
08F
015
02C
3DA
3F2
01D
3F7
3E7
3F2
3C5
049
3AE
3CE
01A
01F
032
3BB
3F3
3DD
3B9
02D
007
3F5
3D2
3B4
3FD
3C0
3AA
025
3C9
01D
028
3DC
007
021
04D
036
3DB
3EF
010
3C4
013
027
013
3B0
008
001
3BF
3D7
3B5
048
024
3D3
004
3E3
051
3E1
34E
030
003
3FE
3B3
3BD
37B
02B
39D
38E
3CB
0BA
00B
374
3B9
37F
0AF
0EA
080
03D
054
3E6
387
338
397
3AC
3A2
021
368
029
3AB
3B4
017
127
3AC
3F4
005
02F
3D9
2F7
112
098
3AD
048
084
3A8
00F
06B
025
001
01A
3FB
3BF
3A3
02B
3F5
014
3C7
00A
01D
068
017
3F0
01A
3D3
003
006
3AB
04D
011
049
3FD
3E0
3F9
044
050
3E7
023
3A4
009
022
3F4
3D9
3AF
3ED
002
011
01C
008
3FB
3B0
3AB
3E8
398
3BB
3FD
3ED
043
3FB
3F6
3BD
3C5
002
04E
3A4
3E3
031
027
05D
077
007
38D
3FA
3CC
032
3F1
05F
3D0
3B0
033
3D6
3C6
01B
070
07A
3EB
3EC
000
3FA
029
3BC
3C9
3B8
3C0
021
006
3B9
3E4
02F
3E6
3F3
3C6
3E6
043
01E
3C6
3EC
3A2
027
3FC
066
3EE
010
3F9
050
3FC
3E3
3F4
026
3D4
026
3BD
000
3B0
3F6
3CF
032
015
3C5
3DD
3F2
3D2
04A
01C
3FE
041
3F9
038
3FA
3D4
024
025
3ED
034
005
3F9
032
001
3F7
017
02F
043
3F2
3E0
3FE
3E6
01F
00F
02B
3C2
3C3
3DC
018
082
33B
37D
3FF
071
069
03A
3F6
3C5
010
011
3FF
01D
3EB
30C
3FB
029
04C
033
000
06A
070
3CF
3C6
028
01D
3E8
3A0
3E6
3DB
392
02C
075
022
392
029
040
3C0
3F4
36E
3E6
012
36D
39E
3B9
04D
3ED
03E
3FE
3BC
044
020
004
3D9
03D
02D
031
004
3A7
3D2
00D
01C
3F3
012
3B7
3EB
05D
3C2
3BB
3E0
045
3F5
399
3B7
3DF
029
3FF
008
3C1
3BC
3DC
02E
3DD
3EE
3F5
058
391
3BB
399
3D4
05C
3D7
005
3EE
3DD
047
3B6
01B
006
3F4
3A3
066
3F3
050
3D8
3D2
029
02C
3B9
3CF
3D3
031
01D
3CC
002
3AF
3E0
000
3D2
06E
3EB
050
3E9
003
3C8
02E
3DE
038
035
3ED
00F
034
3F3
3DF
001
3FC
031
012
3E6
012
3C0
3B0
3D0
009
3FF
017
3D5
036
013
3FD
3B7
3F4
3CB
02B
37C
011
011
026
3FD
3C1
3AE
3E2
3FA
01E
3FD
3E3
3B5
3DB
3C8
3EF
039
00A
036
019
3AE
3BA
3D0
05D
003
3E9
00C
045
04A
3C0
3B5
3E0
025
3FA
3F9
026
004
3C5
3D3
01E
03A
018
3F6
3D7
021
3D6
05C
3C1
084
38A
075
3ED
004
037
3D1
3E9
380
027
3E2
064
3A8
3C9
089
3B5
3C4
3FB
0A4
04A
021
003
023
3CA
3C5
3C6
3BF
05E
036
053
027
003
373
02A
3AC
3E4
013
3DC
04A
058
3EA
01F
3D6
048
3DF
3A2
00F
003
072
380
020
386
0A9
021
3DF
3F2
011
3E5
3B8
3DC
3CA
022
003
3D1
066
002
3DE
3E0
03E
3ED
024
3A0
050
3C1
006
346
37C
028
03B
009
028
3D7
3A2
011
3E2
3FD
046
385
055
08A
005
3DF
3A3
07F
3E8
087
3FA
3EA
3D3
05A
359
061
359
019
3C9
022
028
3EA
3FD
035
00E
3AE
3E0
008
3CD
3D1
02B
032
3E1
034
3AE
05C
3B9
05E
3E3
032
3F5
3CF
00D
046
020
3D6
02E
3F8
04A
3E6
008
044
3B2
3C7
3BA
3D5
007
3CE
3FE
027
3BF
3FF
3DC
055
027
3C0
3D2
083
3FD
02F
39E
3E7
3FA
3D7
3EF
3CA
3E1
02C
3A3
398
3CA
042
3C9
3FC
384
03F
3CE
3CB
3DE
086
02F
016
3E4
3E8
036
3ED
000
06C
043
3C1
347
035
00B
3C5
3EE
399
3ED
3DF
3D6
039
022
3CF
00D
019
3E5
01F
3CB
3FC
3E6
00C
3A8
3B7
3FF
3FE
3E5
3F7
037
011
3C6
3FC
3F9
00B
010
01B
009
057
3C5
03D
3D7
009
04E
017
3CB
3FC
3F6
3E6
3D6
3D8
3FE
00C
3B7
054
3BA
3F5
01E
3DE
3F3
395
3C4
021
036
011
3BF
030
009
3FF
3A7
042
021
04F
3D4
3B2
3C5
013
003
3AB
3D0
01C
3F5
3D0
3E8
026
3D5
059
3C4
05B
3D9
397
01A
014
04E
003
3E7
3DC
000
3F2
3E5
008
3F4
022
3EA
04D
003
02A
004
3C9
3F0
3BD
3C5
36E
3FB
3E0
3D9
3C4
056
3A4
003
39D
3B7
05E
063
3C8
38C
02C
008
0A3
03E
0FA
02D
05F
3EB
3BB
3A9
30D
065
389
3E0
36C
02F
031
3CF
064
051
3E7
097
003
3DD
0CA
334
3DD
09B
359
01B
3C7
057
00D
3F1
048
3E3
3EE
3DB
3D3
3E9
3E4
03B
032
3FC
03B
011
024
375
3DE
3B3
3BE
002
01E
00F
3CE
002
001
3B9
04E
016
04C
3F7
000
3C0
3EC
3CA
002
3C9
035
3B9
006
3CF
3C6
3B3
3F3
039
3FB
3AB
3D7
3FC
013
014
3D6
3E9
3D8
3E6
396
3D5
3E5
3CD
3C2
09D
2D1
04E
3D4
344
040
071
017
359
001
3BF
01E
0E6
0A0
044
059
3FB
3C4
370
369
00F
3F8
3FC
317
3F3
3B6
391
05D
118
3E4
062
015
3A8
013
31C
078
09F
3D6
04B
075
004
007
07E
040
3ED
028
008
025
3F3
3F1
03B
3DD
3E2
001
01F
02E
01D
02A
3F8
3CD
004
034
3C5
3D4
043
01A
029
3F0
015
011
016
3C1
01E
3FA
002
3CF
3D0
3D2
387
043
02A
3F4
3F1
3F3
04F
3E5
3E4
3EE
3F2
004
001
029
3B2
036
3E8
3E6
018
3F0
005
02C
3FE
3AC
02C
006
3B7
02D
3E1
020
005
005
3CA
3F4
012
03C
03F
025
00C
3D9
3D9
3BA
3F2
3AA
3B2
3CD
00D
3EB
004
01E
081
031
008
00A
3BF
01A
3B0
3F1
3DF
3D9
04B
01F
004
3EF
3D4
3E6
3F7
3D7
006
3DE
3C8
3E4
3E7
3A2
010
00B
3C1
3D9
01C
3E6
3C0
016
3CE
020
063
3E1
009
013
3BB
3BD
3F2
3C4
031
3E6
00F
3A9
3EF
3D3
3A0
00E
051
3F5
036
3D6
013
3CC
3D0
07E
015
3AD
008
06C
3F0
072
03F
03E
007
00C
022
01C
018
3C8
01E
02E
3F4
3FA
3CE
3E6
3BF
015
045
3D6
003
3EA
3AD
3CC
3FE
3DD
3E8
014
051
04D
049
3E7
023
03A
3FD
3F6
3F5
3EB
3D0
042
3F6
3D1
010
3D3
048
392
3DC
3C7
3DA
3D4
025
039
3DD
3F6
3F4
03F
00D
014
050
037
3F5
039
057
01F
3EC
038
385
3BB
037
3C7
054
015
39A
00B
007
3D1
3D6
044
02E
042
39F
007
3CA
057
3E4
02D
012
018
3AD
011
01B
010
02F
02B
3B8
3B6
38D
3ED
3EC
3ED
3E4
3BF
003
3E2
3B7
064
3DD
3DA
3F0
02C
3EE
004
3D9
3C8
003
033
3F0
3C5
049
027
032
3B3
3DD
006
011
021
3C5
035
3F6
005
014
00A
3ED
073
3D8
01B
02C
3B9
00E
054
02F
006
07A
3BF
040
3E8
3B1
00F
39C
3C6
00E
03B
003
3C9
01B
003
3CD
3DB
390
3F1
00D
000
3C3
078
3F0
02A
01A
3C0
3DA
3F7
3DA
3B9
3E1
3E7
3D0
3EF
017
39F
023
061
3F9
002
3F6
3F7
025
002
3F8
3BF
3B0
035
050
3B9
022
00B
027
3AB
047
012
3F6
3BF
3F4
024
3CF
024
3FE
022
026
3D4
3CE
02F
3F0
395
018
02C
34A
0A8
3F4
3D2
025
3C1
076
0AC
3DA
045
06E
02A
3E8
012
009
3CB
026
392
3BB
3EB
3E6
025
031
057
3D6
043
086
3CA
3DE
068
2F7
38C
01A
3AD
3FC
3A9
022
046
007
004
3D5
368
3D6
024
04F
351
065
38C
07F
3E3
007
37A
048
3CA
037
3E6
3D3
02A
030
3C5
06A
3E5
003
3E3
039
3EF
02F
38F
079
3D3
3FD
2EA
384
053
036
3F1
013
3C6
3CB
3D1
3C1
054
03B
374
06E
0AB
048
05D
3B4
08C
3F9
028
3C7
3C6
3D2
010
3D1
057
383
3EB
00D
3F0
3DF
02C
3D9
01F
026
3C7
025
3FD
002
040
00B
017
010
018
022
3EA
3D6
3D7
031
019
3FD
38E
038
017
013
012
00B
3A9
025
059
006
01C
3B6
02D
3AF
015
02D
3EA
3F4
056
3D1
3D0
013
031
03A
032
3AB
00F
3F2
377
3DF
00A
019
3C2
3BD
37D
037
01D
3E9
3E2
3D8
051
3CF
039
3DD
00D
003
028
00A
032
3BE
001
029
3E5
3EC
3E0
3C2
37D
01D
02D
005
013
070
3A9
3BA
38A
39B
02D
3D5
075
3B6
3F0
3C7
014
008
00C
3F1
3CB
3D8
3F8
3A3
3FB
023
3F4
3ED
3D3
3C4
3E5
3D0
3F2
017
021
01B
047
030
062
008
01D
3FF
011
3E9
3FD
007
3E8
3E4
3CF
3F5
3F9
073
3FE
3D4
007
3E8
3CD
3E2
3AE
3D4
3C9
3F4
00D
006
02D
3CC
028
006
034
3DA
059
3FB
3F8
3FB
00F
03A
3EE
3D7
026
3C1
3E5
003
3EC
3F9
00A
047
007
047
015
025
000
3C3
000
013
00E
3CB
3C7
01A
3F5
3F2
3E6
031
3FC
3D6
045
3D6
014
3EF
3D1
3DD
3F4
3C2
010
3EE
022
3A7
003
051
3E1
3E9
01A
39B
047
017
3C1
02C
3CE
3D6
055
3C2
05F
3E8
3C0
3E0
3DD
3D6
3C0
047
3DC
3A1
397
01E
03B
007
06A
3F5
3D8
010
3E2
3F0
02C
3A3
3CA
00C
003
000
3C9
041
01F
3D1
017
013
010
3CB
006
003
3EE
3F7
3FE
3E5
00F
000
3F6
39C
019
04E
3DB
009
3E9
3F3
3F6
004
3F1
00C
01D
032
3F9
3F5
02A
3FC
3E1
02C
048
02F
02D
3FF
3FF
001
3DF
3F7
01A
043
3C4
3BB
3EF
005
002
3CF
3E9
3BA
3B9
01A
3EA
3F0
3F5
013
3EF
3EF
3A2
072
00A
332
038
031
3E2
390
3BB
3CA
019
047
3EA
03D
3EB
00B
3C5
02D
3CC
00B
3E9
3DF
3BF
3FE
000
37B
086
017
00A
018
3C4
3CD
05B
367
3EE
00B
3E4
01B
01C
3FE
01B
3FA
055
003
00F
3D9
02D
3FF
3CE
036
030
3F6
013
00D
3FD
3D9
3CC
038
004
018
391
35C
3A8
02A
3FA
3DC
3F2
053
056
016
026
048
07C
3C3
3EE
3D3
023
360
022
3D6
3D4
3CC
3DF
04F
3B9
3FC
012
3F0
3E6
3F0
020
3D0
3F0
3B9
01F
3FD
3E0
053
015
00D
3E2
004
3C2
36C
042
3F2
3FC
00C
3C3
3D8
05E
04E
00C
028
00B
3E1
3FD
3AA
3DD
3EE
3D3
3F2
024
3F2
016
040
3FB
018
02F
00C
3D3
010
016
3E1
3F4
3FE
3FC
043
3E7
01B
005
017
005
3CD
3AB
010
3C4
3F9
32D
060
362
3FD
38B
3BC
364
01F
004
01E
00E
368
016
04A
3C8
00A
00F
3C6
3C3
3D2
397
060
3B2
087
3A5
02C
30E
385
075
038
3CE
03D
3F2
398
37F
01D
0D1
067
007
02A
0E6
05B
06C
3BC
0AA
012
043
00A
3FE
37A
042
3AD
3EF
389
3DE
3DB
3F0
3BC
02A
056
3EE
03A
3CE
3D4
015
3E7
01D
3FC
055
3F6
3E9
3D6
024
02A
3C8
029
044
058
00B
392
022
004
3C6
3F8
03D
3EA
3B9
3ED
011
3B9
37C
007
3CA
3FE
3E6
3D0
042
010
3CA
00D
3F5
01C
01C
000
3F5
015
020
00C
3BA
04C
3F1
04C
028
3C2
006
3EF
3ED
019
046
004
03A
3DC
3EC
002
3FF
3C8
055
017
3C6
3C8
3F2
00A
006
024
010
007
3C6
3E9
03D
009
3BD
011
012
000
3B8
005
008
3DF
026
006
05B
042
039
01A
3A9
3B4
3FA
3DE
018
061
008
00D
00B
3C8
033
3E5
3E7
3D6
008
020
00D
3FD
3EE
3E1
005
022
021
011
022
3C2
00D
3F4
3D6
027
3F0
01B
3E0
3C3
01E
032
399
07B
016
3F8
00E
015
3EB
026
3D2
3B8
3E9
017
00E
3E0
3E5
06F
3B5
002
004
3BA
005
3DB
3BD
3FE
3F0
3BC
3EE
022
00E
02D
069
3B1
016
030
014
02E
3CC
38B
390
027
3F4
011
3E1
3D9
3BE
092
025
07E
025
3D4
002
024
3FF
007
3EC
3F2
0B1
3D2
012
3FB
0AC
3B1
362
3E7
026
321
0DB
3D8
020
004
3CB
08D
07C
020
033
3ED
015
3E9
03D
3DD
37A
020
3BA
37B
3FC
024
0AA
056
3F7
002
06C
02E
022
3F8
083
357
39A
3C2
3DE
3B3
3D2
3E7
019
05B
3C2
3EC
3A9
3CE
3F3
3ED
3BB
01C
37A
060
013
37F
3D2
3D6
3FF
024
3D9
366
04B
03D
37A
3F7
380
015
3F8
050
39E
01B
3B8
006
000
018
327
3C1
046
013
3A9
007
3F7
38E
00D
3DA
068
3F8
3D0
02A
085
08F
3B6
3EE
05B
3CA
016
02A
3DC
3A8
035
036
3F7
047
3E5
022
39F
009
3F6
038
016
374
3ED
024
39B
3C9
3A8
029
04E
3D2
01D
3AA
020
016
05D
01C
368
396
370
039
3AD
369
020
06D
373
06D
05D
3FB
02B
024
07C
3ED
056
004
3DC
3EE
3EC
3F5
00B
058
3E5
013
00B
3F3
3CF
00E
3AD
015
3BD
017
3F3
3D8
3A8
3F1
3B6
3E5
3CB
3BF
027
045
02F
018
3CD
021
027
3FE
3DA
3A8
3B7
031
01C
395
001
020
3CD
019
05A
043
00C
058
033
3F2
3D5
3D2
044
3CC
3C9
3DC
3FC
3ED
3DB
3DD
007
030
3D2
004
3BA
3FB
3E1
00D
3D1
00E
022
3C5
378
009
00F
00B
010
007
008
3FE
3F4
019
03C
029
3D0
3F4
3D9
3B0
3FA
3B8
3C6
3E8
3DC
03F
01C
377
3DD
01D
018
015
3C6
3C2
3C3
3FA
3E3
3F6
030
37F
042
3D2
02C
39D
005
067
3FE
052
3EA
011
3BE
01A
3DF
032
3D0
3D5
006
3F4
3FC
02C
04D
3B7
010
3E1
3E4
01F
00A
3F1
3BA
3CC
019
3BA
3EF
02A
3A8
3E1
009
007
04B
3E0
01B
3DA
3D1
02A
3D1
3C9
014
3C9
00C
3E0
001
009
02E
3E8
013
3D0
02F
3B6
3FC
3EB
013
3BB
013
3E4
3EC
3C9
3D0
3ED
008
024
3EC
3CB
3DF
3DF
3A4
3DD
006
3ED
3F5
3E1
011
3D2
3DD
3C7
032
3F2
3F9
3E3
014
3F8
3DB
001
3F0
028
3D0
3BF
00E
3E9
025
015
003
01D
006
3FB
01D
015
3F1
3C4
022
047
017
026
028
00A
3FC
00E
00A
3C0
03B
3F3
031
3FD
01A
3FC
3F1
3E4
030
3FF
3FF
3CF
3FD
3E1
020
004
3E7
006
3EB
39E
032
025
027
3D0
3FD
3E1
3F7
3B3
021
3EA
3D5
004
00D
015
3EB
03C
05D
372
013
039
3C7
3C3
3E1
3EE
3DA
3FB
042
039
3FE
01E
3E5
02A
01D
00C
021
025
020
3CC
01D
001
008
3EC
019
043
3FB
01D
03D
3AF
3B2
011
3EB
03D
3CD
3E9
3FA
019
01C
029
00D
3DB
016
3F3
3EA
029
01A
014
023
01F
3C8
3E6
3C8
021
025
3EA
016
3BA
3C9
3B1
3C1
3C4
014
017
011
3FE
036
014
3FC
02C
039
015
3AA
390
3FF
3E6
3BB
3E7
00D
028
00F
3CC
021
022
00D
04C
009
3F2
3DF
00F
3BC
02A
00E
012
024
3EC
3FF
009
3CF
31B
3FE
067
3C4
02A
3CF
005
03D
3D8
007
3A5
3B1
3F0
00B
3A3
333
01C
3C8
3B8
00C
3CD
011
025
3E6
00A
3D1
3C9
3DB
01C
00B
314
3C7
3D2
3D4
3DB
3FD
03C
056
009
3EB
02F
291
3EB
006
073
25F
05D
2F3
0CC
3E6
073
338
3E0
3EA
3C3
3F6
32A
0F4
07F
32A
0A9
3C5
02E
3E6
00A
3D2
3F9
371
053
3FB
004
2F9
361
051
023
3DB
3B7
3EC
334
00E
3A4
0E9
03D
37D
014
1A3
076
380
378
3F2
3F3
04A
3DA
3E5
3D3
050
004
01D
37C
023
2D9
027
046
3D8
052
3EE
00F
377
011
077
389
3B1
011
3F5
003
3C1
012
3EF
398
3E9
3F8
04F
00C
3FF
3FD
3B5
026
3F0
06B
3E3
3B3
3E1
3FE
3F7
3CA
3BA
059
007
3C8
006
3D7
3E3
3FE
3D3
00F
01D
025
018
3C9
3BF
3C1
3DC
3D3
3E3
01A
3F3
020
022
3D7
3DF
000
3F0
00D
3F0
3E3
014
3E6
016
3FC
001
3EB
04D
07F
3D4
3CD
3F4
3A7
002
3DB
3E3
3E5
3D7
39E
036
3D9
3EB
033
00E
009
3E4
3F6
3C9
029
02E
020
3C0
02D
042
3E9
368
3CC
3DF
3DC
017
3D4
3C7
3BE
3C6
00A
37A
3B6
3C6
00B
3FF
3BD
3B5
3C7
3DC
031
029
025
3B4
3F0
3EF
3AA
3E7
369
00D
020
3D1
3A7
014
022
04C
058
3F2
036
3ED
005
042
3F8
00C
009
030
00D
00D
3B2
3DC
03B
011
3DD
011
032
3C9
04A
02E
016
01C
3AC
3E7
3FA
3D5
3D1
3F1
3D9
01B
012
3FB
3BB
017
3DE
3F7
3BC
3D6
3A1
041
3A3
3BA
023
00C
3D5
3A1
3B4
3D1
3F1
38A
021
001
010
3F7
3C5
3F5
3E6
020
3EC
3E0
3B5
01E
02C
3DC
070
387
3E1
00A
3B5
001
3CF
037
3EC
392
3C7
3DF
3DD
3E5
008
034
005
039
016
022
3D7
3CB
007
002
3F6
3EB
3F2
3DD
02E
3B6
03E
047
00E
033
3D8
083
3D6
011
018
012
3D6
048
3C7
006
03E
015
3CD
04B
3A2
3ED
007
3DD
019
027
3F2
3D7
03A
3D4
057
3C9
3B0
3CE
3DE
3D4
3E9
03F
3D3
3C7
052
07D
3F7
3CF
3DE
3DE
3DC
00A
3A1
3C4
00B
37F
04E
01B
02F
024
3EC
3DD
02E
3BD
045
006
3D4
024
006
00B
021
028
037
025
001
00F
36D
01E
3EE
3D2
3EE
3D3
3D8
3C9
051
3CF
3DF
3F2
028
014
02A
3E1
3E3
3EA
35B
3B7
002
011
3E2
01F
3C9
3D8
3DD
3ED
3D3
00D
3F4
38E
3DF
3E8
3FF
3A4
3F7
001
3E1
008
014
040
3BB
3C7
00C
05F
3DF
058
023
3C1
327
033
01C
3E2
396
3CB
3E1
02D
3EE
008
3EF
001
3FA
023
3FB
003
39D
009
399
01C
3EF
03E
3DE
012
03C
03D
024
00B
020
01E
3E9
355
3F7
3F0
007
374
367
016
016
3D5
3B7
3BD
3E8
031
014
018
3F7
031
033
379
3CA
03A
000
3D4
03E
007
3E9
3EC
006
3FE
011
3C6
3FE
043
3E2
3EF
3AA
000
3A9
040
018
3CB
01B
3FC
3EE
3EB
38F
02D
02A
02F
3FB
3B0
3CD
3AA
00C
3A1
023
069
057
029
3F9
055
014
00B
037
04C
3CB
3F8
010
012
374
04B
04F
036
015
017
3B3
39C
37D
018
3CF
3B4
3CE
061
031
03A
392
3FE
374
049
3C9
032
3EC
3BF
394
397
3B5
3CC
003
016
3E1
3C7
3AD
3EE
035
3E4
3AB
396
3B2
061
3D6
010
3BC
3E8
067
3CA
006
3FF
018
047
05A
3DD
02C
3DE
00E
3E4
021
006
3A5
00F
065
3EC
3DA
011
059
059
3EA
3D3
3E3
3B7
02D
3E3
3C4
3EA
02B
012
020
035
3EC
3D4
3C2
3F2
036
3D2
02B
3C2
3BB
007
385
02B
02A
01D
3DD
3F8
025
3EF
3C9
01E
042
3AD
3DC
025
3AC
3DF
3FF
3DB
00A
3DA
399
3A8
00F
3C0
02F
019
040
01F
3B5
3CA
3C6
08C
013
3DA
3C0
3B7
3E5
3FE
3E3
3EC
08B
01C
02B
37A
053
3C9
097
3F8
3D4
3F3
3F9
3E7
3C6
02D
02C
3FB
39B
060
03D
38C
349
3DC
3C3
07C
015
012
3D9
010
037
3A1
052
080
3F5
043
01D
3E0
3B0
3D7
028
007
093
35D
02E
00F
0A3
06D
013
057
02E
029
004
002
3ED
003
0B6
04A
367
01A
00F
02D
3E2
3E9
3CE
02C
3E8
00D
05F
031
3B1
014
02C
3EC
054
3DD
042
028
3EC
3F7
3F4
3F4
3BA
3B5
3E0
3E0
020
036
01F
03D
3C7
3B6
3FF
07C
3F1
3E5
3B5
387
3F4
3F7
3F5
3BE
017
3E6
039
3CE
3C6
00D
02B
3B2
033
3E5
002
3C0
009
3B3
3FD
3D2
004
3C7
3CD
028
03C
3F4
027
3B9
00E
3CF
00C
3C2
006
3ED
3E5
3C4
002
3B9
3BC
018
01E
034
3BF
3F6
035
04F
3EB
3AE
3E6
037
3DD
00B
3E2
00F
021
01C
025
041
3F6
3D6
049
01A
3E8
014
031
019
3D6
001
3C2
3E9
3D9
3FA
025
3EB
01B
3C9
003
3CE
3F6
019
3E8
005
014
017
060
023
3F1
026
010
3F2
3E8
3DB
377
00A
028
3D4
3D6
019
00B
00C
02D
023
3ED
010
3FC
00B
009
044
03C
018
3DB
034
009
02A
053
3D6
3F6
3DB
3E6
3E4
0B1
3A2
3BF
3E6
0A6
3D5
3EE
349
3CF
001
01B
3BF
3B0
01A
028
31A
3F5
38D
3C6
03D
026
022
026
3A1
01B
077
01C
36C
369
3AD
3D2
3AC
338
3D1
02A
3D7
3DB
01F
3BB
3A0
06E
00F
3D9
3F7
006
05C
00A
3CE
3FE
028
088
02A
3DF
067
054
002
385
05F
00F
3D6
3E6
024
03E
034
35F
39C
04A
3DE
3FF
024
01A
03F
397
36E
3A8
3F8
024
06D
3AA
3B8
3F3
016
3AA
3FE
0AF
051
3D6
342
014
388
04A
351
3B8
00E
062
3E1
3DA
37D
021
028
399
3F6
043
3D5
3F1
3DC
3BD
3AB
38D
3E7
003
3D3
3AA
3F8
068
393
3B6
3C4
3C6
3E1
38F
3A6
3AF
06A
004
0A3
3BE
382
3FE
3F5
3E5
3A5
3B5
021
040
372
3EB
052
3E3
063
3F8
04A
3ED
018
014
3CD
3F0
3F4
015
3EF
3F6
3E7
021
3F2
029
021
00F
05D
3F8
3E0
3D6
3F7
3FB
016
3BA
026
012
032
01B
3F6
056
01A
012
3BE
02B
3DE
007
3EB
3CA
3CF
013
022
051
3E7
3EA
01D
010
012
031
39F
034
3FE
001
02C
3CA
051
3D4
36E
3C1
3DE
02C
3CA
019
3E9
036
3D7
034
38C
3CA
3FB
000
3E5
3F9
3F9
006
37C
000
010
3CB
3E0
3F5
3FA
3DF
3FF
3F2
04D
3DD
36C
3F7
3BB
3AF
3BD
3AB
3F3
02D
3B6
018
030
3D0
00D
028
070
3EE
3E3
00A
027
3D1
061
030
024
3E7
03E
3FE
05C
3DB
3AA
033
3F2
012
02E
00C
3FF
019
3A0
02C
3B1
3CD
022
3D8
3F1
004
027
022
00A
01C
03E
00E
031
3F6
01F
3F1
048
3BD
01F
04D
3D0
030
01C
045
3FB
012
042
00B
021
3FA
3B9
001
052
002
02B
3FD
01D
3FE
3DE
3FA
001
3DB
3FF
3E8
3DB
004
01D
019
390
001
01F
035
019
3D5
3EA
00E
00E
3D6
3CF
052
3F8
3F5
3FC
3D1
043
005
00D
001
3F6
03A
002
3EB
035
014
3E2
00A
3B6
025
3CE
3C9
00B
00B
074
3FD
00E
045
023
35E
01A
03F
3FE
377
029
00D
008
3B4
011
019
3D9
3A6
058
025
036
3EA
02D
017
3EC
39B
3C1
36E
3F8
3E0
03A
3E4
3F4
08B
04A
3E1
3D8
04A
06D
35E
35F
395
3D8
02F
354
372
38E
012
3F9
3C2
019
015
3EF
3EB
009
3D7
01D
3E5
3EC
3C8
3ED
028
3BE
01D
00F
00F
3E9
3FA
02D
012
3F0
3E5
017
005
003
3B1
3CB
3F6
3D8
3D2
03F
3CC
00E
03D
01D
022
02E
030
038
3D7
3DA
3EA
3D4
3E4
38C
05F
3E5
00C
000
3E1
02D
3DF
3FA
045
009
38D
016
037
3F4
3F8
3FE
3D8
029
3EC
3BD
029
3A9
38C
046
047
014
3C2
07F
069
01A
3DA
392
01D
02B
00D
050
3D9
3DE
013
01C
3DC
3C1
00E
3F9
3EC
39B
00E
35D
3FF
3EB
391
3F7
3BF
044
3D4
33A
3F0
025
075
372
00C
386
09F
085
3B0
3A2
016
3E1
3A6
3F2
018
033
3A4
039
0A8
072
3C4
3CB
056
04B
079
36D
3D6
3EE
030
3F8
359
3FF
03B
02D
065
01E
00F
048
37F
3C4
08C
366
059
06F
3D1
064
3E3
040
009
3A1
01D
3C1
05E
00C
3E2
039
08A
3A2
3EC
3F1
3DD
00D
3BF
3ED
029
00E
3C6
386
019
3E6
019
00C
043
000
3E5
3DA
3EE
054
3E0
3CE
3CC
3DC
3E2
012
397
3C0
07A
02A
01B
3A3
000
3CF
031
3EB
3D3
3ED
3F6
04E
00B
3C8
3C9
01B
3BB
3E8
02F
3F4
014
3CC
3CB
3BB
021
3F6
3CC
3F6
005
3B5
092
3E1
3E9
026
3CF
006
37F
3B1
391
3DE
031
3E8
3F5
3F4
3AF
018
051
3BE
38D
3C9
054
038
01F
042
037
3D6
03D
06F
06F
006
028
02B
3B6
3C7
006
001
098
3E3
3AF
009
03E
3E5
080
399
00B
3D0
02A
012
03F
3E9
3A8
023
041
02A
3C2
02B
044
026
3A9
31E
04C
3F1
006
3FD
358
333
3C0
019
015
019
064
033
001
3F4
024
369
051
012
3EC
3E6
3C2
062
01E
3AA
016
008
062
3FB
3DD
02B
038
3EA
033
3AA
37E
3D6
3E8
022
006
3D6
3BF
370
03C
3FC
01C
3F6
01C
031
3D6
3C8
3F0
05B
3DD
3DB
366
3C1
3F1
3D0
39A
3EA
056
3D3
04A
00A
3AC
3BE
03F
00D
010
3E3
3D5
053
019
3CA
006
3CA
3E4
3F2
02E
3F1
046
3DF
04E
3A5
035
00C
3F8
3D2
027
3BA
048
3D2
00F
022
3DA
023
3D5
036
3CF
00C
01E
02E
01C
024
00F
010
006
3E6
3EA
3CF
3C6
015
031
051
00F
3E8
036
3EF
040
390
3F7
027
008
3FD
021
3F0
006
3E0
3FA
07B
3D8
384
089
395
3BD
01C
396
3D0
3D3
009
029
301
3D9
3C4
3F4
027
3C0
3F6
389
008
046
072
3C5
36F
023
39D
396
3C6
354
3E5
03C
37D
04B
09F
3C0
3EE
3F6
041
3FD
032
06A
00A
3A5
3E8
3F0
00E
084
3F3
381
077
047
3F3
3E6
006
009
3F9
026
3CA
031
031
3BA
3BE
03C
00E
005
043
020
3FC
393
3CF
007
03F
007
03B
3F4
3DE
004
059
3CF
00C
059
3FA
019
3B1
3A5
3A1
01C
3E2
004
3E8
030
012
3B1
3CA
3D4
010
3B7
3FF
3B5
3C2
39C
3D6
003
3B7
3DC
3F3
045
3EA
01A
00A
02C
3E7
389
017
3E2
03D
3CD
3D3
3B2
057
3D7
08B
3E7
3EB
059
3B3
3EF
372
38D
3DA
03A
3A2
03C
009
3B8
044
3B6
3D0
020
00C
053
3C9
3A3
3FF
3CE
3C8
005
036
021
3EC
3D5
039
3B9
015
3D9
006
003
3BD
3EB
3DF
3C2
084
002
3AC
3EA
3EF
033
006
3FB
006
3B8
399
021
016
020
052
009
02D
04C
3E3
3B6
00B
3C2
3D6
028
3EA
011
3EF
3EC
3AB
3D5
00C
3E8
027
024
3E1
3F2
026
00D
01E
3F3
3CB
3E6
008
387
025
3F7
013
009
3FE
001
383
3FE
3C6
3D6
3C5
020
3EF
072
039
3AB
09C
003
3DC
045
3D0
356
019
3E7
3BE
050
3D6
056
013
3B6
037
3D5
01B
3F6
020
00B
002
02D
3CD
3F4
3D5
01C
3F9
3F3
042
041
384
02B
363
01B
013
3FD
019
016
383
047
3B3
3FE
033
3C1
007
395
3F0
3C1
3CE
07B
029
3E9
3EF
3A6
3BF
004
3BD
3DA
3C8
037
3A8
066
061
3FF
3F8
3FF
044
025
3C5
02F
00F
3DD
071
007
003
00E
040
3C0
02F
01A
004
3EF
3F4
3F4
01D
00D
004
3F4
38F
3FC
00D
3C5
03B
023
023
03C
048
3B4
006
027
07C
3DD
027
3BB
3A1
3B4
04E
3F4
3C1
3FA
3DF
04E
3CA
3E3
3F2
01A
3C0
3C3
3E8
3EA
01A
00E
029
3F5
003
068
3EE
3A8
00C
04F
02A
01C
02A
38F
008
3F4
3D9
034
00A
377
002
06E
3FD
3CB
039
037
01D
389
3A1
3F7
3C0
3E0
011
3CA
001
019
04A
059
02F
3BA
040
3FE
35A
3CA
3AF
01B
3C6
390
3A4
3D6
004
3AD
02E
00D
3D0
04F
04C
008
047
008
045
3E1
035
01A
3E8
3FF
008
03F
39A
3D2
029
3D1
3E8
3F4
027
06C
01D
010
015
3D3
007
009
056
002
3D7
3D9
049
3E1
3EA
00C
3CD
024
3D2
049
004
011
3A6
3DD
3F3
39F
3FC
3EC
07F
3DF
018
3E7
018
3AD
00A
02A
3F0
05C
3FD
3A6
3D7
033
013
007
3D8
3A1
3C7
009
3D3
008
026
054
073
39F
007
3F3
06B
3E4
015
3D9
394
3ED
008
3FC
01B
045
3E8
03B
3BC
3B0
02D
002
3E3
3AC
3FC
3BE
03B
02C
36F
01E
3D0
04E
329
061
3BE
01D
079
06B
3EC
070
3CD
02E
025
028
006
37B
08F
082
009
3D5
3D2
04A
3F2
086
3A0
061
390
3DE
00A
3D8
06B
020
04A
0A7
3D9
357
0B1
3DD
38F
022
38B
00A
055
068
3AC
379
0A0
008
3E4
01F
3C4
05C
003
3E6
39B
04A
391
023
3E6
002
024
011
3F0
004
00B
050
3AD
019
3B0
3D5
3D8
3F1
3E5
3B2
3D3
3DE
070
3CF
3DC
3E8
3E5
01B
02D
38E
3D2
045
00B
025
3E9
399
008
053
00A
051
3E5
3F0
3E3
011
392
3F3
3DF
0A0
3A1
006
3D4
063
3CC
016
3C8
045
3B9
009
014
041
3EF
002
016
03C
01D
3DE
02A
3E7
00F
3DF
3AD
051
01B
023
3DD
377
3F6
01B
064
00B
028
041
3E1
3E4
062
004
3A3
036
08B
3F3
03E
004
052
01D
3E6
3C0
024
001
3F4
3C9
3F9
025
019
051
3E3
046
01B
024
3FF
023
014
37D
3CE
3FE
3EA
00A
01F
035
3EA
056
3B3
030
3F7
3CA
3FA
398
016
3E0
045
3F0
003
3DF
3CC
012
3C3
04E
3B7
02D
3D7
3E9
3C2
387
025
020
04F
3E8
3BC
3CC
030
010
027
3DE
3D1
041
00F
3A2
3E2
3F4
3EF
012
00D
04F
38B
3D8
3C8
036
3F9
39B
3C2
3DE
008
3EB
061
3CA
01E
3F1
3C6
3B8
002
3AB
01F
05B
3B1
037
01A
3BC
030
004
3C2
07E
002
02C
3C4
3B6
004
3E6
00E
039
020
014
028
033
02D
3DC
3DC
029
015
3E4
3F8
3F5
3A9
3C4
02E
3F0
031
3C0
00C
01F
000
03D
3EE
01B
3EE
3FB
031
3AD
3F8
3F5
03E
046
002
3EE
026
3EA
3F7
05E
3E3
045
005
3E7
3CD
3A3
062
3D0
00F
01D
00B
3BC
3F9
00A
002
3B7
3C5
039
019
3A0
3F9
3EF
3EF
01E
046
3CE
35E
034
3D7
012
3E4
3D0
3E1
019
017
3DA
067
3E8
3CE
019
3F4
39C
010
3C4
3D8
016
3DA
018
008
018
3E3
007
023
3CA
022
3E2
013
01B
3E2
3DF
3EA
07C
027
3AB
3F1
038
017
00D
008
3BD
3F6
3B4
00A
01F
3F8
3F0
380
3E9
3C6
3E0
015
026
02C
3BC
3F4
003
04B
3ED
3F6
01B
3B9
3F5
000
3F9
017
049
003
3FF
3FB
3B8
3FE
3F1
3FC
3DE
3F7
3DA
3B8
3F3
3EF
3CC
025
3C5
036
3D2
03E
3C2
054
389
065
3D6
018
3B7
023
3CE
00F
3F3
3C6
3AA
3C3
3AF
03D
3D1
3FB
3F9
022
3E0
3FA
024
3D6
04E
055
01A
378
3DB
025
048
02B
3F5
3E7
3F2
047
3AD
3DA
3C4
01A
017
3B3
3B0
044
3EC
3F3
3E1
0B0
03B
076
3FA
059
372
3FB
3C5
3DA
3B8
01A
3B9
3CC
01A
030
3E8
33E
3D8
3AC
047
02C
3F5
069
369
02F
3F6
06E
000
077
3B9
3D5
3C7
024
3EE
3FA
01B
3A7
3E5
060
037
3DA
3FE
3F5
3DD
3A6
3FE
04D
3F4
00B
04A
02D
3D3
3F7
030
3A6
3A3
3FF
009
3CF
043
3F6
067
01C
3AE
3CD
018
011
015
034
3FA
3F0
3D2
3A4
3E5
060
3C8
05E
3EC
000
021
049
3DE
3BF
067
040
3E3
3C5
382
3D4
3F3
3AA
017
3EE
3FE
00E
02D
391
3F5
3FB
3CB
2FF
058
348
3E6
3CD
3FB
3F7
003
3DA
3EF
3F3
3CE
080
009
3CE
02D
3FA
3EF
3A4
3FF
389
006
364
010
35E
027
383
3CA
02F
054
010
028
3C9
39C
021
382
086
039
3AB
064
0B5
01C
3DC
39E
024
3FB
013
3F7
011
3C1
021
012
00A
3CD
3E3
03E
3D0
3E3
027
397
3CF
3C4
3E5
043
3A4
3CB
00F
3DD
3D0
00F
049
3E8
05E
028
000
3F9
3B0
019
00B
3D4
00C
3F0
024
3FA
36F
06E
04A
024
035
007
06A
3E3
3F2
001
3A6
028
3D4
00D
3EC
033
367
3E9
01E
3FE
01D
08C
35E
3E0
3BB
3DA
3E4
01D
3BB
37B
3AF
03A
03B
01C
3FC
054
051
392
3F9
073
3E8
026
3B1
346
371
02B
059
005
025
398
39F
04C
063
02F
3C3
05A
022
027
3B4
3A2
03C
3C0
027
3FB
3BC
3E7
3BA
3A7
029
3B7
01A
06E
3C2
05F
3F0
3D1
3B8
3E1
33E
3B5
04F
006
030
00D
012
09D
04B
07C
3FC
0AE
3F5
02A
006
3BE
3A0
3A8
052
073
3C1
024
3C0
017
3FF
0AA
3E0
3EC
034
34B
02F
3CF
068
008
3E6
3F2
3C3
037
008
3FE
038
044
02F
050
018
3F6
028
3C0
020
016
016
3FC
3AB
006
3FA
3B4
3F3
024
04F
3D7
01E
031
03D
3C5
3DC
021
3F2
3CC
3DA
3CE
3C8
3FB
3E0
00E
3F4
3CD
004
01E
3F4
015
3FA
3E3
3FE
016
066
3C8
00C
3C9
076
07E
00C
3B2
00D
39D
012
00B
3DB
034
3C4
067
3E9
396
08B
01F
021
000
011
3ED
3D9
014
3D2
3BD
357
025
0B6
00C
08A
011
05E
026
016
3DA
043
01E
314
3E2
3D7
3EE
39A
01C
00C
3C2
3C9
3C8
035
3D3
3C7
013
3D7
3EB
3FD
3FF
3D7
3C4
3DF
3F5
3DB
02D
3D0
054
02B
010
393
3CA
3A5
3EB
04B
004
04E
3EF
028
3C2
081
3C5
3DD
01C
3C3
3BD
3DB
3AC
028
018
3F2
00D
3DB
397
026
025
3F0
3DD
006
014
011
3AC
3B0
3EC
013
048
3BB
030
3B7
03A
000
3F3
3E6
01E
02D
3EF
3FA
3C1
3CA
3FD
042
036
009
3ED
3C2
010
014
00B
3F3
3EB
3CA
00C
3E6
3F5
00C
01A
3F8
01C
00F
3DE
037
3C5
3F2
017
3C2
3E8
00C
017
00D
3FB
01D
3E0
3CA
3E4
017
3E4
39F
033
3D6
013
026
3EA
3F3
019
3D7
05F
021
3D7
378
38B
3C3
011
359
3FB
3ED
3F7
3E3
072
013
3E8
3CF
3CF
020
37B
038
37A
010
3EE
3C7
39B
005
3A9
3A8
05B
3F2
056
3CA
01F
366
34F
00B
00B
3EB
3F5
3D7
3E6
024
006
3FF
045
399
3DF
3E5
02A
3F7
036
004
05A
025
3F9
3F6
029
3D7
3E8
057
3B2
3BF
36A
398
3E1
012
02E
008
045
3EF
00E
001
007
019
030
3DA
3E8
00C
391
3B5
3D6
3BC
042
032
004
005
01D
018
02D
005
03F
01A
01C
3CB
01F
3F6
378
054
029
00A
3BA
3FB
3CF
049
01A
019
05D
3F9
3F1
01E
3F9
3F5
05B
3C7
321
367
3F1
021
001
04B
3F5
03F
069
3E5
3B5
066
3AE
01B
030
3D3
053
027
026
3CE
3D9
009
3CC
3BD
3E5
3E2
3A5
010
3DC
3F1
3FD
3FC
03D
031
3DC
00F
004
032
3E0
038
3D8
3DA
015
38F
3EA
002
3CB
3E7
3E1
3D4
3C4
3FD
031
00E
02B
031
3D1
3BB
3F2
3FF
3DC
02F
3D7
3C4
3BE
004
3F6
39D
029
038
3E5
3DB
3EF
002
3E0
013
3ED
3FD
3EE
03E
392
016
069
019
3C3
3F2
3C4
3FD
008
3FD
01C
3CB
3B2
3F0
3C4
00C
3FE
01A
3D7
02A
00F
02E
3C8
034
056
3C6
015
3FB
021
018
045
3F2
03C
002
012
040
3D7
026
3D3
025
014
3E8
01C
042
02D
007
3D9
050
021
3EB
38F
3B6
395
068
3E8
00A
055
3D4
3E5
07B
013
3C8
3ED
354
3C6
3AD
3B1
3C0
3BA
03C
37F
03B
02E
03F
06C
3F2
3D2
00B
394
00F
013
3D3
37A
3B9
3D4
05F
3A7
390
3F6
071
035
3A5
3D7
06B
01E
3F1
00D
098
3DA
3E9
028
04B
38D
049
3AB
3E0
3E1
3C3
3B8
037
02C
3E8
3F1
383
3C0
3B0
3FD
3FC
04A
02A
3AD
03F
3C4
010
3DE
05A
394
3CB
39E
02D
014
054
398
3E2
39C
021
00A
3FF
3FC
013
3D7
39A
3D5
041
3C1
3D4
388
033
38E
009
3CD
33C
333
3FD
00C
3FA
07A
02D
06E
015
3F3
023
3BC
3D8
3B3
034
39E
377
3F1
3D4
018
01A
01E
09A
015
3E3
3D1
3D2
39B
3DA
0D9
3DE
3B6
3C8
3A0
3D6
3A7
38A
080
08F
3E0
3E8
02A
376
3D8
3C5
07B
31B
074
35F
077
399
00D
3D4
3FB
023
3A6
006
3A3
09A
053
353
018
3C5
3E3
370
002
3C1
3E7
351
3A8
3BC
02B
347
3CF
020
05B
3BB
3C8
3DB
332
0A1
35E
05D
015
3C6
03E
0C0
07E
36B
392
05D
3BB
3BF
02F
3D3
3E8
3AF
03B
3E4
007
02C
05F
3EA
3F8
3D7
3C9
3EF
3C1
051
064
31C
3F1
3CA
3E3
3F5
3AE
3ED
3C0
006
011
01F
3E5
36D
005
39A
391
38B
3EA
3C2
3E6
3BB
01F
0E2
3D3
013
011
073
025
3EB
03C
38E
3C6
3CE
018
3F2
3D2
3AF
3F2
3FD
3B9
025
037
32D
04A
3BB
02C
3E3
364
361
3C2
012
36B
0A0
01C
3F4
073
044
392
010
08C
3F3
3F2
34B
34E
2CF
3F2
39C
041
3E5
3B9
324
064
0C5
054
3C1
3FC
07D
3A2
3DF
061
04C
026
3E5
016
3F1
05C
384
37A
3FD
3FD
012
03E
00A
3E8
027
3AE
3FA
3BE
3DA
01D
3F7
01D
074
3F9
3F6
05A
05A
3A2
016
046
016
033
3A3
389
396
00A
00F
027
3E4
001
3DB
023
033
079
3E0
3E3
09E
376
3CD
064
06A
3B7
3E2
3FA
3CB
3C6
3D2
3E9
3DA
019
3F3
071
01D
392
3F0
00E
00D
00C
3E7
3F1
3BF
3E2
009
3DA
013
3E0
3ED
3EF
01A
014
043
016
006
05D
3A7
3B8
3DE
3DD
02C
031
006
006
030
3BC
04D
3D4
049
006
3DF
3E4
3EE
3C1
023
3FA
3D4
01B
033
010
00F
3F6
3D8
38A
3FF
3C7
3E7
064
3EB
046
3E8
017
007
3FD
3B6
3D6
007
3C6
3EA
3DF
030
3CC
01D
3DF
05C
02E
01C
3CB
3DC
3EF
025
3DC
03F
013
3CC
385
006
00E
372
043
018
3CA
3CA
3A9
3F0
3C6
002
3F1
025
3D7
02B
3E7
04A
3F8
3D8
3E8
3DF
035
005
3DA
3E1
011
02B
3AC
023
3DD
002
3C6
004
3AA
046
008
003
3E1
021
062
3D7
3F4
3E0
3D9
3BE
03C
3E5
042
02C
3AA
03D
016
3FA
00B
01D
02A
3CA
3A9
019
3CC
012
3FC
044
3FB
3EC
00E
3C2
3C9
033
3BF
021
01E
023
009
3E2
013
3FD
03F
3CD
000
00E
3D1
3CC
02C
3EE
389
3FB
3E6
01A
019
050
013
00C
3DB
3E6
3E3
00E
3D8
3C6
3BD
3F2
040
39D
3EA
392
3CF
02B
3E2
3C5
01D
3CD
022
01C
3BA
02F
004
01E
39B
3BA
05F
3CF
038
004
010
3EA
3E7
001
3F0
03C
3DE
061
015
013
3B1
3B9
051
00D
011
01D
008
3B9
00B
03B
3C6
3FA
045
01E
05D
01F
3E0
3BA
01B
3F0
3F3
3FC
3DC
3DA
3C4
00A
014
3C5
3AB
046
031
3FA
3CF
350
34F
00C
020
3E8
08E
3EC
018
3E7
052
03F
3B9
3D1
000
07C
367
320
37B
3F2
3BA
01E
3E3
039
3F6
3DF
3C8
3F4
373
01C
09E
3D5
3BC
3C4
3C6
019
01A
3BB
08E
082
3DB
028
026
3F7
3FA
3D0
077
3DE
3BD
368
090
36D
398
059
3B5
3CD
3FB
3E9
05B
0AA
049
3D4
078
38F
01C
3F0
364
2F3
044
362
3DD
027
3C7
3C9
0B4
03C
36A
3EE
398
032
011
09B
31C
38B
37D
395
3D2
006
3F2
044
035
3E6
3C8
3E6
024
3D1
3DF
032
3F7
3FE
3E9
014
38F
3EC
0A4
00E
053
3DB
3F3
3BB
010
02A
39D
3DF
3E2
018
3DD
3F7
3BF
3ED
019
01F
000
00E
01A
014
036
38F
3FA
3D3
03C
3EB
3BE
3B0
3EC
3FF
017
3B2
015
02E
39F
03F
3F8
3E7
3C4
007
3DC
3FB
03A
031
3A8
3DC
023
397
047
3D4
3E9
01B
3F1
3C1
029
012
3A3
065
01B
022
3FE
03E
3CB
01A
04D
3E9
00C
3EB
3F7
3D2
092
3DB
020
3BD
004
3A0
03B
092
033
3F7
3E9
3F3
021
028
076
3D7
00F
3E9
3F9
3FD
393
3DC
05B
3CC
3B9
37F
3D6
3ED
3DA
3C3
3EE
3FD
002
00D
0A0
3A4
3B1
3B5
3F0
3BA
3C7
3DD
3E3
3D7
3CC
01E
01B
392
055
3FC
057
3BA
397
3DC
05A
395
033
034
076
055
011
3F9
041
06F
06A
01D
01E
3B4
3D1
3E6
05A
399
3E7
3FF
06B
380
060
3BC
031
3C8
050
020
03D
006
012
397
05A
3BF
3FE
3D5
3DA
022
3E6
374
3E8
01F
3EF
3BF
01A
3E0
006
02A
393
025
006
032
3F7
04D
3D7
3B8
006
018
024
3C1
3BE
03B
01A
3E6
3B6
00B
3F7
3CC
01B
3FD
3F4
3A5
048
3B7
037
020
3F1
013
3D7
3C8
043
3BD
3C7
3E8
02F
033
3DF
3D4
046
3FD
044
062
00C
000
3DB
022
003
3CA
3E1
020
3E9
35D
026
07A
006
013
02E
01A
027
3F0
008
3EB
00B
3DA
036
027
3BB
3BE
040
023
3E2
350
3C0
3A0
041
013
0AA
015
001
390
009
068
39B
3D0
003
022
376
385
3CE
3DC
3EF
067
02A
00A
3E2
3F2
039
37A
394
3FD
075
351
3D1
3B2
041
3E8
023
3DD
071
026
3B3
06B
3BF
3DF
3B7
3B1
036
3DC
018
029
009
008
002
02E
39E
3F0
3DC
3C3
023
053
3F9
3D5
3F2
021
009
013
3D5
3B3
002
005
3D8
023
026
3A3
042
012
3C1
037
3ED
000
3FD
3D2
3ED
3CC
37F
023
02F
013
002
3FE
048
3CA
3E7
03B
014
004
3F7
044
380
3CD
008
007
003
084
356
002
331
002
015
01D
018
01B
036
063
3CD
3FD
027
3C2
3C4
004
3E6
3B0
006
3ED
031
3FC
379
078
09E
3D2
3CC
043
3E0
3E6
399
00A
3EB
00D
39B
3F7
02D
3B3
3D0
3BC
3C2
00C
034
3F2
002
3EC
030
38D
004
038
3D2
3F8
006
3F7
03F
09E
01C
3F8
094
3FA
3F3
035
3CF
3C6
016
356
3B3
3D2
3F9
3D9
005
3D7
001
035
3F5
3D9
3FA
07A
3C1
3CC
018
39C
02C
3DA
028
01B
079
3FE
004
017
3E6
014
008
3A7
3FF
3C0
3EE
39E
077
3BB
3B1
3C5
030
3E0
025
02A
3E3
378
035
3EB
014
3E1
3B5
02B
3DC
3BF
3F7
00D
3F5
3C4
3CF
3B4
006
016
3BA
3CF
012
006
00B
3FB
3E3
00C
3EF
029
000
3DD
3CC
3E8
3BF
024
3B5
004
02F
3F6
3F7
040
3F6
3C2
027
006
3F2
3E3
3CF
03A
3EB
388
372
064
013
3D5
3C0
3D2
3D2
3E0
3E1
056
02D
3F4
3FC
021
011
055
3B5
3B3
3D5
02E
04A
3BA
004
3DF
011
043
049
3D3
39A
01F
37A
066
016
045
3DF
3D3
045
3FD
004
00F
02E
3E1
013
008
3E5
002
015
004
001
02F
387
025
067
016
3C4
3B7
3C8
025
007
3D4
026
3C7
02E
021
02D
3C8
3D2
011
040
030
3FB
065
3B7
00A
00D
388
3CE
3AB
3B2
01A
3F2
05B
022
055
027
3E0
3EA
008
3FA
3A7
333
3F6
385
057
023
015
047
3CF
3E5
3DA
390
074
38E
03D
3F8
032
3CC
3D3
03A
02A
3FB
3D2
01F
068
025
3D6
003
3E1
3EC
3BE
3EE
03B
3BF
35B
067
01B
016
2F9
39A
3BF
3CB
035
3D5
3E5
3DD
014
042
3AB
02B
3C2
03F
3CE
3DD
3A1
019
009
00A
004
3BF
015
034
022
3DF
000
01D
026
3B7
3D0
3B5
394
047
02C
3D4
3B3
3DC
017
064
379
390
3C5
3FC
3C3
014
03D
3E5
00D
062
040
009
023
3F4
015
01B
3A3
002
3C4
3A5
3C5
3D2
3ED
3E5
392
027
3B6
015
3E9
3F0
009
02B
01A
030
39C
3CE
3BB
014
3EE
3DE
3DC
051
034
05F
04D
3E1
3BE
054
3FA
3C8
3FA
3F8
3BB
05B
38F
03C
007
3D1
06A
3D3
056
3F0
00D
037
03B
3E2
3E9
3CF
3C0
3DC
3AC
001
3EE
3CD
3CB
018
3E4
04B
000
040
3C2
025
003
01B
011
01E
3F4
009
00F
3F3
3F1
010
3FF
056
013
02A
3F8
3FD
01E
024
3B6
3E9
023
039
3E2
3D6
001
3FD
3C8
01C
041
00F
016
011
3FF
3F7
3B2
3EA
3D0
3A7
009
02C
018
3C3
3F4
3CB
37A
05F
021
02D
026
3A7
00D
047
38D
376
3B8
3CF
3F1
3C2
37B
3E2
06F
3EE
07C
005
39C
047
025
3FB
343
3B3
3F2
033
33E
023
021
022
052
3B1
016
01C
3EC
3DB
3E9
3B9
092
3FF
3F0
01F
021
32E
3B3
00F
074
041
0AB
3A2
3F4
3E8
3E1
023
092
3C1
063
054
013
3EE
022
028
042
02B
3F9
3B4
3CC
02F
03C
0BA
393
3C7
04A
07A
029
3CB
049
007
3DA
396
3EC
3C8
024
34A
3E1
037
3CC
013
01C
006
3E1
3C5
018
3EC
068
3D2
394
00B
010
3BC
017
015
3EA
00F
3EC
01B
387
3DF
3A0
025
011
372
3E8
3B7
020
3EE
056
3FB
3E8
051
3EC
3C4
3F3
38D
3E8
037
36E
03E
02D
3D6
092
004
029
009
002
032
3D4
005
3AF
3D5
3BE
063
3AB
3D9
3F5
02A
3D0
04E
010
013
3D7
00D
3FC
035
008
01B
37E
01F
013
3E1
00B
012
3F0
3E7
3DA
02F
030
3C5
384
011
3C0
3F8
3B0
3A7
002
021
029
3DB
004
3E8
385
3F3
065
3C5
05A
06A
066
000
3FA
033
3FF
3C0
3F7
00C
005
3CF
3B7
3F9
3B4
3DB
3F1
3BB
3D3
3B4
00D
083
388
3D9
3C8
017
39B
392
00B
008
046
3F5
051
00E
397
3D9
3F3
00D
349
3A4
3B9
016
372
06C
06C
3EB
051
011
07B
02A
01C
018
008
00E
3DD
3D6
00C
010
3D7
025
025
002
3F0
3F1
37D
068
3BB
01B
010
3C5
3DA
02F
050
3D3
3E8
3F0
3FA
3A8
3EC
000
3FD
04A
042
3FB
3F6
3A7
010
3F2
356
3E4
00D
046
3CF
01C
07B
01E
3FA
3FA
3B9
040
02A
3D7
04D
3F0
3BD
009
3C0
041
004
00C
007
034
3EB
047
3D3
38A
3FE
3CA
023
034
3E8
006
007
025
009
3E3
036
3C5
013
3C7
03B
010
03F
01D
3FC
02A
00B
386
012
3C3
02D
3FD
000
03A
01D
338
02C
028
3AB
040
3D0
3E6
3BE
01A
031
012
3F7
01F
054
3E2
01F
032
3E5
019
3ED
35F
3C4
316
3CB
01A
3F6
013
3E4
04A
3F3
3F4
03D
3A9
006
3E7
01A
3B8
019
3EF
028
00B
3F1
3B2
024
3F7
3BD
3E1
02F
024
3DC
37D
041
3FB
3A4
3EC
38A
009
356
3F5
008
3EA
3C2
05C
034
38E
3FA
06C
018
035
08A
03B
3F4
3F3
002
08E
03A
376
0BE
033
071
3A6
04B
04E
04C
03F
384
03E
3B8
013
07A
3F7
36B
035
09F
02C
014
04A
059
39B
37D
014
385
3E9
389
3BB
032
02A
029
3FD
39B
3BE
3DE
024
3DC
032
3E8
3F5
3ED
017
39C
361
3F2
3C8
027
3CA
3EE
068
377
001
3DD
3DE
020
3AE
3D8
3C8
3CA
03D
02C
3DD
3C2
3C4
3F4
052
004
3AF
00E
3C7
004
005
019
3C6
004
007
3FB
040
3B3
01C
3CB
008
05F
3D1
3F5
09B
3CF
031
065
04D
0A7
3A7
350
005
3E3
00A
3E0
3D1
3B1
3DD
039
394
368
3BB
3F5
0CE
021
030
385
3FE
061
3C8
041
3CF
3EF
3E9
3C1
019
012
019
35A
3CC
3D3
038
3C8
076
00E
3E5
3FE
364
054
00C
3D4
3E7
3F2
3DD
033
007
00C
3A4
3DA
026
020
3D1
3E2
3C6
3BB
023
012
05C
3AC
3BF
019
3D6
399
3F1
018
005
02D
007
033
3EA
003
3D3
392
3C5
012
01B
3EE
3EE
3F7
007
3FD
051
3F4
3C0
039
001
015
031
3D3
3D3
02C
3E7
3C9
040
027
3CD
014
04E
3E3
394
3CB
06F
035
05F
3C6
3E9
388
3EA
04D
3D6
378
3CD
033
08E
3EC
010
3D4
3F0
028
3D3
039
3C2
00F
039
3D0
3D7
3C8
3ED
3C9
3A4
3D7
026
3BE
06E
3AD
3F7
3D2
3A3
06F
3FE
3BE
003
032
3FE
38F
024
017
3F2
3F3
00B
390
019
019
3F5
02D
3BC
3E8
3C9
021
019
067
013
028
3AE
3B4
3D9
3DF
02A
000
3ED
3EF
3C8
3CC
02B
3C8
02B
3BD
3FD
3F5
3D4
001
04A
3AB
046
3D8
3EF
03F
3BA
03C
01F
3FF
3D0
010
3E3
02D
00C
3E7
3E5
3F2
009
3EA
3F2
3C8
3F2
01E
395
3D6
048
3B1
38B
3DD
3F0
3A9
3D9
3E9
3BD
095
036
05D
02E
010
02D
00C
009
389
372
3C1
04C
377
3FA
3FC
3CE
04D
3D2
00A
03B
015
04B
3BF
3DB
3CC
008
3DA
068
3DE
3F9
3E1
005
008
022
3E1
044
027
3F3
02A
01D
00D
3E9
015
010
3D2
3D0
013
01C
003
3CD
02A
030
00E
01A
037
03E
031
044
3EA
016
01B
3CC
008
002
3CE
3EA
3CF
006
02B
3EB
009
3C5
004
3F6
3A5
02D
032
38C
3C4
056
3C0
3A3
39D
001
395
00C
004
3E8
3F2
3A2
3F1
09C
369
39E
3F3
028
3DA
36A
384
39B
05C
3FA
043
3DF
398
017
017
01E
336
389
00A
01A
33E
02A
0AB
3F9
053
016
076
04C
03B
030
00F
3E8
027
008
3DA
000
3FE
011
013
019
002
05A
039
00B
008
3CC
3E0
005
3FE
3CF
00D
04E
02F
3FE
031
3E5
004
3D1
3F5
3F6
3EE
008
019
3F9
3B0
040
053
024
3DA
3B0
3FD
3F5
022
3B6
3EB
3F3
3A2
022
3DF
3CE
3A6
3C7
00C
3E4
3CF
3DD
01A
3CB
3C3
020
397
3B7
3FB
3C9
3DB
3C3
003
3EF
046
03C
3EC
010
023
3EA
3EF
3BC
39F
39D
00C
3BC
011
007
3B6
036
3B1
03D
3E3
3A3
3B9
067
01E
3DC
044
3BF
01E
00F
035
02D
003
059
3D4
3A6
016
3DF
3CB
3FE
08A
3F3
032
3B8
032
013
077
38E
023
3B1
017
39D
011
045
009
3A7
3DB
3EB
3EC
3FF
03E
3E9
077
3A7
007
3E1
02C
036
015
028
3A1
3B7
02B
3DE
3DC
3FF
01C
02F
053
3DF
026
3FC
01A
05F
3BA
3F9
017
3D8
3D2
3EB
034
01D
3FA
390
021
3E0
029
3C9
3FE
3CB
008
3BB
04C
067
36C
39F
360
3BA
3D6
3EA
3B7
02E
046
3C4
006
3C3
391
037
03A
39F
3D2
38D
3D0
038
3C1
3B1
00A
3D0
049
3DF
04F
3EB
035
020
3BE
3C2
387
3F7
3F8
009
38C
033
008
3C9
3DD
3FF
3A9
00C
031
04B
3F4
00A
35E
3D5
06A
011
02D
3B4
008
012
054
035
3C1
07A
02E
01F
007
3D8
03F
028
3EA
016
01B
3F8
39B
056
019
03B
3E4
022
3F7
03F
3F7
3B8
08C
3E4
3B9
3F9
3EF
3BE
007
065
023
3AC
047
018
3B3
3A2
3E6
3EA
009
3B2
389
02A
034
38C
01A
3BF
3E8
013
02C
3C7
05B
01F
3CB
005
014
024
02D
39B
3A1
027
00B
3E5
3EC
033
3EC
019
03C
3CD
3F2
011
3D1
009
3A8
3BD
001
3DD
3F0
051
3E8
014
019
032
009
030
3BD
3F3
3D5
3DA
01B
3F7
3B8
379
3C9
3DC
00D
3BA
029
3BD
048
38F
3FF
3F7
02D
01B
01A
000
3DD
3D9
007
012
3DC
39D
027
059
3D3
009
3CD
023
385
3DB
3D4
3C9
01B
012
03C
020
3F7
3F9
03F
048
00A
378
049
3DB
041
00F
3BF
384
3CD
3F2
3D8
3AB
0BF
024
08C
028
3D1
092
026
3CD
3EE
3F1
34B
3E1
071
3CF
064
071
02F
0FD
3C6
349
05E
3E5
3BA
063
3F6
3D4
3EF
3C5
01A
02E
3DB
3CD
3E0
3D8
01C
3EE
00A
051
021
026
024
008
3E5
3B8
3F2
36E
3FB
3E5
000
074
016
3BB
035
3E2
39C
3E1
3C2
00C
012
3C2
3EF
015
00E
3DF
02E
029
392
3FF
006
3AD
003
01A
084
3DF
003
038
03E
05F
3E1
004
3AE
027
3A9
033
3FC
083
3A5
3FF
03D
012
0A1
05C
3A3
026
005
05F
3F6
093
392
351
054
39B
36F
3F5
06F
0B5
067
07A
3B3
05E
097
3D9
060
05D
3C6
367
003
023
3DF
041
3D0
3E7
38E
398
3E4
017
371
3FE
3DA
362
001
02B
012
012
00A
00C
02C
047
012
045
371
3E8
3CF
39E
3E1
3C6
022
3E2
033
09D
37C
006
013
3B8
3E9
35C
3A1
369
3E9
3CD
042
3E4
3A9
002
002
02A
3D4
393
3F8
042
02E
3CF
07C
3BF
3FC
02E
3F6
0BA
04E
05E
3B6
3CF
391
014
3F5
0BF
380
34F
3F3
08C
012
052
335
077
3F5
065
3DB
013
38C
349
077
3D3
36A
3BB
052
0A2
062
3D7
3D9
054
08D
000
022
039
3C5
3DB
3AB
3EB
3CD
076
39F
3EB
392
3E7
3AF
3F6
3BC
3E2
3A6
399
055
3E0
02D
031
3F5
01B
037
000
057
02E
3D7
046
05B
3EF
024
3FA
3D0
3E5
019
01E
004
009
020
3C7
3EC
02C
02A
01F
010
3E1
3EC
3C8
018
046
3EE
3F4
012
3FC
021
3AD
01D
3E0
3FE
3F6
014
01D
04A
3CC
3CA
03C
3AA
3DB
012
3CC
3D1
3D5
044
3A1
3F5
37C
02C
010
03F
3DB
024
3C1
00A
36D
03B
3FE
394
3CD
399
3ED
391
03D
3E9
03A
06D
3AF
01D
3E0
368
026
3CA
388
006
3F1
3D3
3CB
3E7
3BA
01F
009
07C
3A5
061
381
039
011
3B8
3B3
0A1
3F2
3D6
025
05C
011
031
3F1
04F
3D4
057
3F1
3F8
3C4
3DD
3B4
3C4
3AD
3D2
04A
00F
00E
031
099
07F
038
3E2
3D3
3ED
3F1
3F8
397
3F8
008
02D
02F
3FF
3F9
00A
014
3B5
046
3FE
018
00C
383
00D
3C9
05F
3FB
3C4
033
02A
3BF
000
04C
399
3D8
00C
00A
01A
02F
3F8
012
3C5
3D4
036
3FB
017
3CC
3D5
000
3B6
3DF
00A
049
017
3E7
00C
3C2
3B7
031
05A
04D
3E0
3EB
3DD
3E4
01A
3D2
02C
01C
3FB
3FC
3F6
00C
3F5
3ED
3FD
3E2
019
005
3F6
3B9
03C
022
3D7
3EF
039
02A
03A
3EC
3CB
39B
01D
3F6
025
040
01B
020
077
01B
05B
3E3
3BF
37A
018
3F4
3DC
3CB
3D5
012
3D4
067
038
02A
01D
3E6
043
3DA
051
3DC
3DE
3D7
033
3F7
050
046
3A4
019
3F8
3E8
3E2
3F5
015
393
3A3
046
030
3BD
3D0
029
01A
3C9
015
003
044
033
033
3DB
3E7
012
3DC
3E5
006
3D0
3EB
007
3EF
3C7
3EE
3DE
3DD
03B
3EC
3F3
001
004
052
3AC
010
3F1
3F1
3C5
00F
3E5
00B
015
3DD
00E
037
022
3CC
011
029
013
015
3F9
3D0
3B0
017
39A
3D3
3C9
3DE
017
04B
3FF
3D2
3DD
398
3B7
3EC
3BD
008
01C
3E7
37F
00A
3E0
001
052
03E
3DE
3F4
3D3
02C
3E4
3E2
3F8
013
002
013
01E
3EB
00F
3D7
3F5
3C9
01F
3B4
024
003
01C
3EE
05C
3EB
3FB
3B2
059
3AF
3CB
3D5
02A
00B
00E
014
001
3B3
019
3F1
014
044
3FC
019
00C
3D6
3F9
000
021
3FE
3DE
025
3D3
3C2
3BA
010
006
3D1
02D
3F1
3DA
3B1
02E
389
043
3DC
374
022
3BF
022
3CC
01E
09F
395
020
3CB
04E
002
3CA
056
3FC
3C0
3E3
3BE
04D
060
3ED
017
077
041
011
049
044
00A
059
3C3
3CB
029
3E9
3E7
3F3
3F9
00D
023
005
3DA
02F
02A
3FD
3EC
063
3C7
3E8
031
3D4
049
04F
0B5
3E2
02A
3EF
01F
00C
03D
3C7
3CC
3FB
06E
02F
068
000
02B
3C5
3B8
394
073
018
02A
3B0
3D8
3C2
3F9
037
041
02A
033
3DE
007
3FD
3E3
03D
3EA
397
3AA
013
3BF
3A8
3F0
3C2
035
028
058
3DE
0BB
37B
3C0
03C
3E9
3E0
37F
3E1
3D7
3F7
395
020
3F4
017
037
079
3AA
071
02F
014
3EE
3CF
3D6
36D
3FF
3CF
00A
3C5
00A
012
00D
3AE
02D
05E
3E9
012
3D8
3C5
3DC
3FB
3D4
045
3DB
007
3C1
061
3FE
040
3F5
012
049
3D4
3D6
04B
03D
3C4
015
001
3DC
3B8
029
03C
013
35F
025
3C7
00E
026
01F
2FB
000
379
3F5
087
03B
016
039
3F1
3EB
3E4
3E6
3B6
3E0
3BF
3A0
3E1
3E4
3AE
005
044
011
097
006
3EB
00C
3EE
019
087
3CF
031
00C
3D3
031
049
035
3B5
02A
016
3DF
06B
04D
3FE
02E
038
01F
041
037
3EE
010
388
3E7
397
3ED
005
00A
004
00E
3CC
3D3
01A
01D
3C7
048
3F3
02C
3F1
3CC
3BF
3EA
028
025
023
3C0
3BD
030
00F
3F6
006
012
01A
038
37A
389
3FE
3DA
3FE
002
3CC
3F8
3D8
3CB
3F4
042
39B
04B
046
3E1
02A
3C7
3B9
02E
3E7
395
366
3D7
007
09C
3D9
3C5
051
07B
070
036
084
3B5
3CC
027
3DF
3EB
3A7
074
070
3FE
363
3C8
0A9
3A6
090
3CF
011
3EC
3A8
010
3AE
3F1
019
3B6
029
3F2
067
3E6
3E4
3DE
074
3D2
3D8
04F
026
016
035
3D3
01A
044
00A
011
065
03A
00B
3D9
3A4
395
381
3B4
019
01C
3E8
3C5
3DB
004
033
009
3CF
3EC
05D
037
391
032
3F5
3A2
3F0
009
3F0
00A
03E
01E
3E5
02A
030
005
3E9
3FB
01A
3F7
3D6
020
010
004
3AD
3F1
00E
010
013
036
3E6
3BC
3D6
3E0
020
013
022
02E
04C
018
397
03B
039
008
002
00B
3D6
01B
3FF
000
3E8
014
03B
3D1
3EA
024
024
3DB
032
03E
3CD
3E3
3D0
3F7
004
012
040
3E7
099
005
001
3C4
003
3C2
3D4
026
021
3C2
3D2
3F3
059
3FE
011
3C5
3F0
3FC
3CB
3F5
023
012
3DF
3E9
3FE
032
3F9
00E
095
010
393
02A
3AA
3FF
07A
05E
3D6
3FF
07B
000
062
3B3
3D9
3C2
019
39A
3EA
3DA
034
35C
3F4
39A
032
019
06D
3E0
02F
006
067
015
042
3CF
3D1
3CF
043
00F
3C1
3B8
009
3EA
380
3E5
023
3F6
3C1
3B2
3E2
3CD
3CA
3DA
3D0
01A
03C
023
3EF
011
3D3
3B8
3FF
3F5
3D1
3EA
389
040
3C7
06A
3D7
3F7
04B
3E0
3D9
3DC
03A
323
3F8
3D9
3EF
035
3ED
3F4
06F
047
3F9
013
058
3EB
3E5
055
3D6
3CC
3E9
383
3F3
05A
3F7
03A
036
007
3FD
08A
3A1
3F9
088
008
014
348
3A6
3C9
01B
384
000
04A
3FE
024
003
04D
3D7
3F0
02F
071
015
3FC
06C
015
3BD
029
3AB
3C2
3C6
3CB
3A5
02D
3BC
3DC
3DC
395
024
38B
034
015
04C
037
3D1
00A
3DD
3EF
3E8
048
3A4
015
3AD
01D
3C3
043
38B
3AC
3F0
01A
3DE
00E
013
3F9
3AB
3CC
3F7
3F4
000
024
3FF
3E5
004
3B3
00C
031
039
008
3EE
3D5
38D
3B7
025
01D
042
052
3F3
0AB
025
00A
014
01C
38F
3D1
024
006
3E8
3DC
02C
370
000
3FC
031
3BF
05A
048
3EE
03A
005
3F6
3D1
031
3C3
003
05E
010
3D0
3D2
3F5
3E9
014
3FE
3CE
3EC
04A
395
3FF
00F
02C
3EA
3E8
003
3EA
01B
3E1
006
02C
3E0
3E5
3ED
3B0
3A2
02D
3BB
007
3CB
021
3F7
3E5
007
003
3ED
3C6
3DA
04B
00D
362
3EB
01A
3CC
02A
071
3CD
024
3F7
04D
01D
06F
3E9
012
3BF
026
012
00D
000
397
387
040
017
3F5
3E7
00F
001
027
005
00C
3D1
3CE
000
3B9
3BC
3CA
3CE
3C4
3ED
3F4
3EA
00A
004
013
00A
3BF
3B2
02D
06C
3B6
001
3DF
02A
020
003
3FD
00D
049
034
3C3
3EC
36B
00A
02D
010
3BE
01B
026
015
3A0
010
3E3
063
017
043
010
01E
385
022
04D
3F2
3D8
3E5
03E
3E1
3B4
009
3A2
040
00F
016
005
022
3EE
3FE
3CE
3BE
014
037
3F9
3EB
3C5
000
3BC
07B
3D5
034
056
39F
0CF
3EF
36E
3F3
01A
076
3AD
084
01F
093
380
3DC
3A1
3F2
023
3FE
01C
052
3DB
3F0
3EB
064
01C
003
079
3AD
3CF
3A4
3F4
39F
3EE
3E3
06C
05D
025
06F
04A
3CF
005
018
053
03E
398
3AB
35D
0AB
3F5
00A
3FD
3F6
3E7
3B8
3CC
008
01F
016
3F6
05D
3AA
04B
009
007
02F
3D0
023
3E7
008
3E8
053
039
3E0
01E
35A
00E
3F7
3FB
3C3
045
03D
3F1
035
3CA
3B2
05A
033
3C3
3CA
38A
015
005
3E7
3B5
020
38A
3F0
00A
04C
3C6
01B
035
3C8
025
34F
013
3C7
00B
39D
3E2
3DF
384
098
07E
355
001
3C2
01C
025
092
391
3A2
007
351
083
3E8
028
030
06C
003
091
09B
013
3DE
3B8
00E
2FA
3AF
3E0
04B
3D9
3C9
373
099
09F
3FC
005
3F2
05B
3B3
3D1
031
3AD
3E7
3F6
3E8
010
016
3E1
3AF
00B
3E6
3F8
043
3C9
05A
025
39C
3E4
3BB
3EA
02D
08B
3F3
06B
011
39C
3DA
3FF
384
3CD
02D
3DA
3F8
3C0
063
3CF
053
038
03A
3F4
074
020
3E1
03C
025
3E8
028
01B
391
030
071
3F9
007
3B6
3D6
001
3FE
3E2
3FE
030
033
03D
04B
393
3DB
3CC
04F
3D1
3B9
3B6
3ED
053
3DD
03B
025
00B
025
3F1
3D0
3E9
028
011
3DF
024
00B
3EA
015
3D3
3DB
014
029
041
035
044
03A
3DB
002
3CC
01B
3CB
000
034
3C4
3C0
006
00B
3F4
3D6
03B
022
3E1
3EF
3C1
3CA
03F
3E8
3EF
028
3E0
3D8
3EC
05F
3D7
04F
3D5
012
3D7
01B
3B0
013
042
3F2
014
3FB
3E8
3E4
067
3C0
02A
02C
00D
3DA
01A
04D
037
010
3E8
3B6
030
3EE
3F7
3E3
3D1
3B4
3F2
029
3FA
3E4
3B4
3C3
027
031
020
3FB
006
00B
004
3FA
3A8
01D
3FB
014
3E8
024
3D1
3DD
3E8
006
3BA
3ED
013
3C9
017
014
005
00E
015
3C6
3E3
3DF
3D7
026
3DF
021
033
008
012
3F0
3C8
3E2
02A
3E6
01A
03E
3FC
014
3B8
01C
01A
02C
3DD
3F8
3B0
01E
3CF
3AF
010
3E0
028
3D8
014
03D
00D
005
3BA
3CF
3C8
01B
021
033
3C7
3EF
3D2
3F7
036
035
033
3F6
3DF
3E2
008
02D
006
3BE
3C7
00F
3F4
383
3EC
00F
3F6
3F2
3EC
39E
023
3FA
04B
3CD
028
3A0
026
3E8
043
3BF
3E6
3FD
046
013
026
029
010
3CD
023
017
3BF
041
00F
3F7
3B0
3A8
024
019
3F4
3C5
3F2
3DB
3E5
063
03B
3EF
3EA
059
010
021
032
393
021
3F5
00F
394
3DD
3F8
3EE
331
003
014
3ED
361
02C
3E5
011
3F9
031
3F2
04E
3D2
035
007
043
3DC
3C0
072
008
044
3CF
006
003
02D
000
3E2
03F
3A4
3D8
3ED
3F7
3F9
01E
037
03A
3F4
3EB
03D
012
01A
067
3CA
048
020
3A8
045
3E1
042
002
3B9
027
3E1
3ED
3B3
3B9
000
00C
2F2
03B
3B2
002
3E0
06F
005
0E0
024
3C5
033
010
3ED
017
06D
31C
333
032
2B7
06E
065
3F8
0C6
030
3F3
3CD
04B
389
3E6
182
3FC
368
368
38E
32F
393
3A2
096
0C0
3FD
0AC
3C5
384
032
3FE
3C1
3FB
3E3
030
031
01C
032
3DA
03C
3F4
028
004
3C3
3CE
3F5
045
028
39F
037
022
02E
3F6
3AF
3FA
034
01B
018
3D7
3EF
3BF
04D
3E0
3E1
3C9
01F
3BF
02C
006
035
015
00F
020
3F9
3E7
016
044
008
3A0
3DD
3D1
3DE
3EB
392
032
00E
041
012
3D4
03B
3FF
369
3E6
383
3DE
010
077
3BE
027
01E
3EC
02D
061
370
056
022
3B2
006
3E8
01A
388
01F
377
056
3D4
3B1
008
3E1
03C
023
05F
3FE
052
344
3C9
052
3A5
3D6
03F
3E0
3E8
3ED
02E
025
011
3D8
3AF
3CA
3D0
3F0
3F9
031
3E3
3EA
04C
02A
004
3F7
02B
3F1
3C7
3AB
3F0
3E4
3BB
019
043
003
3E7
045
01D
093
022
3A2
3C1
004
38E
025
3CE
018
021
01C
01E
051
3C9
01D
3F9
3F6
3B9
3F5
3F0
3E4
3CE
02D
019
04D
3A3
011
392
025
3CC
054
01D
010
01B
03A
017
027
3EC
3BD
052
398
364
3D9
3E1
064
054
3DB
3E7
027
3F0
02A
3A1
3A5
3E3
3F3
007
034
048
3CB
00A
3ED
3F8
071
3D5
00B
3FB
3F2
3D3
008
021
3F9
00D
036
027
3EB
3E4
3FB
006
040
031
039
3F2
004
3CB
00D
042
3B0
3EB
3F9
3F2
3FE
000
3B3
3F0
000
3E5
004
01E
034
3F3
003
3B2
3DE
3DD
3F1
010
3EB
3D0
3D5
057
019
3FE
02B
00F
3E7
002
005
3DD
3F6
026
3E2
3DA
01D
008
010
322
3EA
049
06A
002
05D
020
076
01A
035
01A
3F1
041
01F
036
32A
35C
39D
380
01E
021
3BF
059
04A
383
034
3FC
392
015
075
3DF
3A1
3B6
3EA
38B
010
3E5
03D
062
06D
02F
3E6
3C9
00E
3E3
3E8
3FB
001
3E9
3EF
006
01B
398
3F6
3BA
3D6
3E1
3F6
022
066
3AE
00C
3E6
027
008
3FD
3DC
3FE
062
3EC
02C
029
357
3C5
018
3E3
3C2
3CF
3F3
3A9
3ED
04C
062
3E7
021
022
055
021
3B5
39B
3DD
3BE
3DB
00B
001
3DA
00E
3DB
3E0
00C
06B
3EB
3D0
3A4
3C7
3B2
3E0
3E7
034
3F3
3AB
00E
3D0
3D2
3E0
3FC
01C
3F5
03D
3F3
017
3EE
3B2
3C6
032
382
3A5
3DE
3BA
3A3
3F3
02A
028
3B6
3F4
3F9
062
008
3C0
011
024
3CD
073
3E3
3F2
3DD
3EF
3AD
3A1
3C9
038
03C
048
3B5
023
390
3DE
3F6
05B
013
3D3
042
03A
3D2
3B2
048
043
001
027
3E7
3E7
3F6
3B9
020
3D6
3F0
014
03D
013
3DB
000
3E2
3E3
3A9
03F
3CD
03F
364
050
082
365
000
00A
3C2
3C5
018
3EC
061
3E3
036
3CB
04D
3E5
042
02D
000
019
007
041
046
3D7
05A
3CB
3CC
396
39D
39A
3E9
3E6
03B
3FD
01A
3C8
008
06B
018
3E9
3CB
02A
3DE
3D6
06B
01F
3DD
020
00F
01E
07D
3FF
016
032
3EE
017
01B
017
3DF
03B
3A4
021
3CC
083
007
044
049
3FA
01F
01B
3B1
36C
3D1
0D7
3B0
3C8
01A
3CD
3FF
3F6
3D5
004
02E
3C2
00E
06F
01A
028
3D7
39C
019
022
017
056
397
394
00A
006
012
3AD
3EB
015
358
07A
3D4
04C
3D5
3E2
3C4
05F
016
3F7
37D
036
014
059
00E
3E2
3E4
017
02C
040
3CD
090
3FA
013
3FC
015
3FC
011
3C9
01A
00B
359
3E4
042
034
3D4
074
039
0A0
3E8
3D4
068
360
3C4
3E1
399
3E1
02D
3B3
009
025
3A0
01D
3F8
3C2
3F0
067
3E4
3A9
04A
049
00F
029
023
01C
001
063
3FF
066
3F5
3D4
3C5
01C
047
01E
3FD
3F0
002
02F
383
3C0
04F
3C1
070
030
3B5
3F7
071
3DF
3DF
0EB
04A
3F6
379
3BC
38E
031
393
3E2
046
09B
049
035
3D8
3C9
3CA
3B9
3E3
00E
3C8
3F2
3A4
3E8
00C
026
003
00F
028
058
00D
3FF
016
00C
045
3FF
05B
366
3AF
3CC
3DA
051
3D7
016
3F4
08D
3B0
035
3E8
02C
011
023
3FB
3B0
3EE
038
3F1
3DA
3D1
024
012
023
05F
034
025
028
3C3
3A4
001
002
3DB
3A2
079
3E9
028
00D
020
3F2
012
3F7
00D
017
033
3C9
03B
3CE
3D1
02C
036
3CC
03D
005
3EF
3CE
3F2
3F7
000
038
3FE
049
3E8
3EE
000
3E5
032
3E7
3FF
3D2
020
37D
00F
03F
3A6
3E8
3ED
3F3
3E7
3A5
3F0
026
3BC
3A7
3A7
3F1
027
3EF
01C
3CC
3FA
02C
027
054
02B
012
016
3C3
01F
3B8
39F
01A
3A0
003
015
008
3CA
3E7
3C0
3FC
01C
003
008
027
3C9
3D3
3F4
02F
3BB
3B8
3F4
03B
035
01B
3CE
3C6
39B
3CF
3FC
368
02D
01B
00B
3CF
021
3E2
004
013
3E1
032
022
028
3D6
3F1
055
003
3E7
3EC
3DB
3BB
389
35E
3EE
02E
017
02E
028
029
01B
050
3E8
3DD
3FB
078
3F7
3AD
3E3
3DC
3EC
3E2
3D6
035
3F6
04D
3EA
024
3E0
00F
3F6
3F1
3EF
3DA
386
002
05E
3FE
03F
3A4
3F1
3A1
3F7
3E9
00A
3F6
033
026
034
3E6
3E5
091
039
3C7
041
3DD
39E
3E4
3F6
032
057
389
01B
086
3C8
3AC
017
01A
3D5
325
014
3D5
017
398
37B
3B3
3E1
3AC
3E9
3C2
00D
3C1
005
3DF
3BE
38E
3BF
032
009
000
3DD
3FE
3B5
012
009
03A
000
009
3F8
3F2
3F7
381
3AA
3F9
3FB
019
3DA
023
3F1
011
3E4
004
3F5
3E7
3D5
010
3CF
03F
05F
001
00C
392
07B
019
3FD
03C
398
000
018
3D5
022
3B1
3F1
001
3B4
3D6
36F
010
00C
3CD
3F3
3DC
004
3E9
020
03B
3BA
00B
010
005
039
36B
35B
046
3D4
3DF
002
001
3C0
008
3FD
3ED
022
034
00C
015
02A
39E
3DE
019
3D5
3A4
01A
3B8
056
055
3D6
3C2
3E5
013
021
3DE
008
3EC
3E2
3B1
3E9
008
000
3FD
014
002
3BC
00E
3DA
00A
00A
3CD
00D
01B
3E0
3A4
3CF
3BE
3F5
3DF
3A6
3EC
022
3E8
3E3
062
009
018
02E
3F0
3F5
3C8
032
009
024
3EE
037
015
01A
032
3E7
3D8
01C
3DB
02F
39A
01D
3EA
01E
39C
32B
36E
017
050
00D
010
01D
04B
052
042
3B4
00E
003
018
05E
33A
376
037
3D1
3C7
028
3CE
007
024
3BC
07B
000
383
000
0A2
35C
396
3E1
00F
3D8
3D7
00F
087
079
062
00E
00B
01C
3D9
003
025
059
044
059
3D2
01D
00E
001
3A3
00A
3C9
3DA
3DC
003
021
3A6
00B
000
3EB
3EA
3FC
04B
3B6
056
3AB
00F
01B
015
3FA
00B
003
3ED
3C7
3F2
394
01C
01E
3E7
369
05A
008
3A3
035
360
3DC
372
3D4
3E8
3B6
00B
03E
3F0
029
3E2
3FF
08A
03A
3AF
377
005
2E7
017
399
3E5
02D
3E5
000
37A
02B
3F9
040
03A
005
04A
01F
3F6
3FB
022
03F
078
3F5
3E9
022
02D
37F
005
031
037
355
052
011
3F3
027
354
371
3C0
3E0
093
3DC
019
070
060
3D3
043
052
032
015
00F
381
3FD
3F0
3F6
04C
026
3FC
3D5
030
003
024
3F6
3EF
016
3A2
3E4
3DE
3FF
3DE
3F3
01E
3E0
3E2
02D
005
00B
3EA
3FB
020
00D
3AB
008
000
00F
3E9
3F4
02B
38E
3CD
3FB
007
023
02B
01A
054
024
3FF
00C
020
00A
3B2
3D8
033
02E
006
3D8
057
3AD
3ED
39C
3CF
3AC
3BD
3F1
3F2
037
3D1
02D
3C1
3DE
000
04E
049
004
3B1
3ED
3EB
3EC
02E
068
3AE
04C
00F
3E6
087
396
3D5
382
3FD
36A
3DB
024
065
3EB
3FE
013
048
0A4
00A
3A1
012
010
3F0
3C1
394
362
3AC
01B
35C
3C9
021
3FD
09E
074
082
007
3DD
023
3DC
02E
3E3
09C
019
31E
026
3E0
3A2
035
3F4
3CF
3AD
00A
0A1
3F7
003
34B
354
03A
00E
3A5
3D0
3C3
38E
3CD
3F5
3DD
3D8
01E
3CC
3B2
04C
012
3E5
3F1
3D7
39C
028
015
3C0
00F
3C9
009
3E3
3B8
38C
3E6
037
3C0
3FB
3E0
015
00C
031
3B2
016
3D0
3D1
3E2
3E2
034
3F8
024
00F
3FC
031
3A0
000
39A
3F1
3EC
3FF
011
0D3
3D8
380
089
084
333
016
017
05B
005
3DB
019
046
048
3E8
390
01D
39B
3F3
040
3F9
3DF
006
330
027
069
3C3
3F1
024
2F4
04A
00C
349
3D9
0A7
395
342
3E9
01E
367
088
006
3DF
078
053
03C
3ED
3A8
014
3DC
3AF
3D9
02D
398
3E0
028
3EF
038
00A
02A
3F9
027
028
011
01D
025
013
062
017
3D9
3EB
37A
01C
3DB
00D
3DF
3FC
395
3D8
3E1
022
006
04D
022
026
010
38D
3E0
013
3D5
3F4
00C
02D
030
04C
3FB
3EF
3DC
3B7
02F
379
04B
3C0
00F
3CC
028
3C7
3C5
00B
025
024
3E1
3EC
02B
06C
032
3BF
3FC
3AA
015
00D
3B5
38A
020
3D8
3DF
3EA
008
3EC
3D7
03E
3D1
3F0
3EC
3BC
01E
3C9
039
033
02A
3BF
030
3E9
00E
019
3D6
3D1
035
3C9
3D0
3D4
007
012
3B1
3D8
3A2
3E9
056
021
3D1
3EC
3E7
023
078
039
3DA
008
3EA
3CA
3D3
3B1
37E
01B
00D
3BC
01F
3C9
3BB
04D
3B8
3E0
04A
3B0
3DC
06F
03B
3C6
036
3D1
039
3B8
063
01D
04D
0A3
39F
004
3A1
025
029
3AE
00D
052
3F1
3DA
3DB
3D0
3E3
005
3F1
3DD
3C3
3DE
046
01A
00E
3B3
3CE
013
031
3C5
38F
3E9
393
002
3DE
029
3AE
3BB
06C
032
3E7
3DA
00B
3DD
008
033
030
00A
3F2
005
3FD
053
3EF
013
009
3EE
3C3
008
014
3DC
3C2
062
3E1
3F2
082
073
397
3FE
3DF
016
3D8
3E8
3AD
3D5
3C9
3F0
3D7
3EF
391
062
048
39F
061
3F0
3D6
3FA
3D0
030
05F
3D2
01A
044
3FA
342
01F
082
021
3AC
03D
3FF
3FF
021
353
367
00C
00F
3FB
3FF
3DF
3C0
3F5
008
006
3D3
3DC
3F7
3FD
3F9
3CB
3F9
01A
030
3E8
068
00D
004
02E
3DC
00C
3D1
3CB
3EA
008
3ED
01C
003
00D
01C
3F4
020
3D3
3B1
3F2
04B
003
3EF
04F
3F6
3E5
3E4
00B
3EB
018
028
007
3B1
037
02B
3C8
3C1
028
011
3D3
3C6
3FE
03B
01E
00D
3F5
023
3EB
3F3
06D
024
015
00C
015
004
00B
3E9
3A1
003
3F9
3E6
3F8
000
025
00A
3EF
035
005
020
3DB
3FB
03C
3B0
016
040
003
3CB
3DA
3B1
02D
002
3DB
019
3DE
3C7
00C
3DE
3C6
019
3F4
3DF
3DF
005
008
001
00A
01D
3EE
3B3
016
010
3EF
00E
01B
002
3EE
021
3C6
05E
3BA
00C
3BA
3F0
37A
3DC
006
018
005
04C
3E1
3BE
001
3D1
3EF
052
3DA
010
038
3E0
04C
3F9
06C
00F
00F
3DD
014
013
3B2
3D1
3C8
3DB
34B
033
3EA
02E
030
01C
003
033
035
038
3E1
072
07A
02D
3EE
3F2
3C3
018
3B1
01C
3F1
3C4
3A3
013
3A9
023
3F4
036
3FA
035
384
3DF
02C
028
3A1
00E
03B
316
02B
05D
040
002
00B
3F6
3F9
005
3EB
05C
3DB
3E5
3ED
3ED
004
001
01B
373
3E9
01C
008
01A
01F
028
3F3
012
3AF
007
3D7
388
3EB
3C7
39C
01B
029
017
051
048
021
034
012
3BA
065
003
3E3
3F2
3E2
000
3CB
067
39A
00D
3CA
3DB
3A9
010
3F4
389
3E2
05B
39E
3C8
026
047
004
3E3
026
393
3FC
37E
3F1
00D
04C
3F6
3F3
3EE
3AA
063
007
339
03C
003
390
3C8
023
3FB
0DE
046
38E
071
3CD
336
040
007
026
3FC
3F2
3D1
39F
079
380
370
016
010
045
020
003
01C
002
3E4
019
026
018
042
091
3D9
3EC
3CB
015
01B
029
3B9
017
03F
03B
3AD
00A
00E
3FA
3C5
3D9
017
3D3
3C0
3E7
390
3C9
3F4
08C
024
011
3F7
03B
011
3CF
00D
3B1
022
004
3FF
005
012
3AA
01C
3DD
3EB
3D5
3D9
039
069
008
014
3CA
00F
025
3F9
3EA
3D6
3E4
3DC
03F
052
39E
02A
3CC
01B
3B6
390
3D7
3B9
3F8
3D1
005
02B
3B4
004
044
045
3CF
005
3CF
38B
022
007
033
018
015
011
00C
059
3C0
021
3C5
3D1
3B7
3BB
3C8
04F
374
3BE
3D6
079
3FF
047
3FA
061
3D1
04D
01E
05D
050
3A0
036
3E2
3DC
3D8
01C
0AC
022
0C1
3E8
041
3EB
3FC
08C
070
020
3D1
063
064
3FD
39D
05B
3DD
370
001
388
008
3BD
056
3F6
3BB
030
016
386
3D9
3F6
3FE
3D7
3EB
01D
02D
002
3DF
392
05C
001
024
01B
3DC
3CB
03C
3CE
3DA
3BE
001
3E6
3C6
031
39E
3E5
3D7
3F0
3EC
3F2
006
021
05F
3CB
38C
00E
00B
3FF
03C
06F
3B9
003
3FC
3F6
036
3D6
3FC
010
014
024
3F5
02E
3BE
3FE
3E9
3E4
3B5
340
02E
04A
3F5
3F1
3FF
000
00A
023
3E1
3A8
01E
3CE
00F
3C9
3E0
3BF
045
37D
3BD
017
01F
3F9
3E6
3EA
3B6
04B
00E
009
03B
3BC
3A9
3B9
007
3B5
3DC
038
3AD
035
3EE
3CF
3F5
3B7
3F6
3E0
3FF
38F
3D0
000
3D4
3F8
001
3D8
3F7
3FE
00E
3D7
00A
3CD
3DC
034
3F5
04E
3E1
3E1
000
3E6
022
3E8
047
3F8
3DE
3CA
3A6
003
3D3
3F2
00D
02B
3EC
3EF
3BE
3CE
02C
3B7
3AF
008
015
044
006
036
027
3CA
019
3EF
3DE
3C7
3F6
3AF
3B7
01B
02D
01A
01D
3D4
003
023
3BF
01A
3AE
3DE
026
3FE
010
3EC
030
3F2
061
3E1
3FC
377
3C4
38B
3FE
02A
3DE
3F9
0A8
3D5
3EB
3E8
3B9
3D2
075
3BA
3DA
03B
3C2
013
3D3
04F
3C5
03C
012
3CF
3F2
3D5
027
003
004
3E2
3E2
022
3CB
00A
398
02F
3F0
001
045
3E4
01D
03B
002
3EC
3E4
3F4
006
389
015
3EF
3F1
3C7
3C1
3D3
018
04A
049
3D6
019
3C2
018
022
067
3C5
03F
03C
022
015
018
02D
016
3FE
000
00D
3A9
011
3CB
38E
391
3DA
3DD
03E
03E
3E6
00B
3CA
015
3D3
03B
085
3BC
054
3BF
3B2
011
3BA
3F9
02F
027
39F
018
3F8
044
3FA
05B
3D5
01F
3BA
01D
014
37B
3F9
023
004
38E
064
3E6
00E
04B
3D7
3FA
3DA
018
3E2
3B1
3ED
011
017
3CE
072
059
3DF
3D8
018
3F0
3CF
3D5
3A3
3D8
3E2
016
3DC
3BC
3D7
3FF
05E
3D8
00C
3EC
3B1
3CA
025
3A1
038
3D3
3D9
036
3FC
350
040
071
3FF
000
3E3
3E5
3FA
032
357
354
00B
001
00E
3E8
3EB
024
013
3A0
3D5
027
022
3E0
3FD
00D
3D9
02D
3F4
035
032
02C
041
3E8
026
3BA
3BD
005
3E6
3DB
01F
01B
3E1
018
3C8
3DC
3B6
3E3
3DE
025
3E1
071
03A
3B3
035
3FA
02B
3DF
022
3D3
043
01C
3D4
3AF
00A
007
01D
3EE
023
3DD
04A
01D
018
000
3EE
02B
009
3FD
023
032
3D0
3CD
017
013
003
005
014
3FB
000
3EB
3D6
3DA
01E
3CF
3F6
037
3CD
022
020
028
3EC
012
3DD
023
3B7
3E5
007
01D
3E0
00C
3E4
3F1
034
3C6
3E1
3DB
3FD
3BE
000
04B
3E6
3F3
012
3C0
004
3E6
3E3
3F7
01E
3D7
01C
012
019
3E3
3CE
007
3E7
00B
3F1
3EA
04D
3F7
022
3E2
3E0
3E4
05A
04B
3E3
003
012
3CF
00C
004
03C
3DB
048
3DF
002
043
3CF
3DA
003
003
00C
3FD
3EE
022
3D3
3CD
038
032
3D2
00B
3A1
006
3B8
035
01F
046
391
3E5
3AF
010
02F
3EF
010
3FF
3F6
029
3AF
022
3EF
02B
019
3C6
37B
3B1
02C
00A
3D3
037
02B
040
3C5
3F2
3B2
009
3A5
3B0
3FF
3A7
027
3BA
3BE
3DF
00B
05D
3E2
3D1
3FE
023
3D6
3FD
3F6
3D6
3B9
3D7
3DB
3AD
023
3EA
3ED
3CB
3E5
3F9
3CC
031
00A
3A5
38E
3E9
021
3F0
3C4
026
3F3
3CE
3D4
3D8
3C1
048
013
37E
3C2
3D4
380
3E9
026
3D1
029
3F3
3E1
3AC
01D
3B2
3D9
00C
00E
37D
3E3
3F3
03E
3D5
009
3FF
024
01B
3C7
3D1
059
3D7
3EE
3A5
3AC
3D6
3F5
088
04B
3FC
3E2
3E6
061
3C0
3C9
05C
3F2
3E0
38D
00E
3EF
007
3E6
3FF
3FA
3DC
006
3C6
02A
38A
013
02D
39B
3ED
3D0
3AB
01A
003
3D9
01F
028
023
3DD
01C
3C8
003
3CA
01D
011
01B
3D5
3F4
008
048
008
3CA
3E2
3DE
3DC
386
3A4
3C4
02B
3D8
031
3E9
038
3F1
02D
3E1
3D9
06E
04D
3E1
01B
3DE
3B2
01A
399
055
3F5
001
3CC
3B4
018
3FF
021
07F
3CD
00D
00F
05F
3F7
00F
02F
029
3F8
398
3FE
3E0
00A
057
012
3FF
3C4
3CA
001
3E7
3F6
3E0
3CE
3E9
3E5
003
3E2
012
3DC
010
3DB
3C8
3D6
3DD
043
3C0
03A
3CD
3BA
038
035
031
3EF
3F1
3E5
017
3E8
3BD
3FA
3A9
3DA
3C1
3BA
382
028
004
015
3D1
02D
3CC
017
3A8
01F
3FA
008
396
3EC
3FC
007
021
026
01A
06B
05C
3D9
014
3C8
01D
00D
3FB
014
03D
03A
001
3B6
045
00D
019
040
3C1
017
3AD
003
01A
007
3C8
389
3E5
006
3B1
3BB
3D1
368
006
044
047
020
3F1
016
01C
3F4
3FF
3FF
3E0
018
013
02F
3D9
3D0
3F2
3F2
3E1
3E8
02B
3AF
3D5
3DE
024
3EE
3E9
007
03E
3C4
3E2
05C
3BB
3DE
01D
3EF
3C9
3CE
006
00C
019
3C3
001
3F9
3CE
3CE
3D3
029
03D
00E
012
3B7
3E6
026
00A
023
024
3E9
00D
042
021
3E6
027
008
3F8
017
3B6
39D
02B
3DA
3CC
3FC
00B
04A
007
00D
023
3EB
3CB
3EE
01B
015
3EA
3E8
3CB
3E2
022
3EA
050
039
001
3F6
3D2
3E5
01F
3F1
3DE
3DE
068
022
020
029
025
00F
07D
3DF
3D2
012
3D3
02E
005
3DA
035
3EE
3C1
023
012
01C
041
3D2
020
019
3E4
3C9
3BC
022
007
04E
017
029
3F7
016
01B
3FA
3FD
3D2
017
3FD
016
005
3E9
028
3D2
3D7
3F2
024
3AF
3D1
385
3D4
3BB
058
056
3A7
02E
008
08C
3EF
00B
3AF
001
058
399
039
3CF
3ED
03A
009
39C
013
055
3FD
3D7
3FA
029
39E
3E9
36B
3F7
3BD
036
3C3
3DE
052
3F1
04D
37C
010
3BA
060
01E
040
3C4
006
3F5
3CB
024
3F8
033
069
005
3EE
3CC
009
012
00A
3F8
010
01A
3DE
37A
3FD
005
3AB
002
3E8
029
003
39E
3BA
00E
02F
000
02C
3DE
032
3AD
028
006
3F7
023
033
3F6
3C9
010
014
061
3AC
032
3DD
380
003
3CF
025
028
015
3D4
033
019
3DB
047
033
3C7
051
3AF
3F8
3AE
018
3C2
054
021
047
035
3C9
3E1
3E5
3FB
3E4
068
02A
3DA
052
3D7
3BF
024
3DF
019
3CD
3E4
3D1
032
3F1
003
032
015
019
033
050
018
02B
047
01F
3F5
012
3FA
3E5
37F
021
371
31A
01E
05B
027
02B
3E5
3CC
3E1
008
39A
3FA
3FA
051
3BB
3D9
3F2
3A9
026
048
3D5
053
3F4
3D9
3DA
3D0
021
01F
3ED
3B6
018
3C9
00B
3F0
39B
01D
01F
046
34E
054
381
017
3EE
3F9
3CF
01B
014
3C1
014
3F3
3B8
3CC
026
02E
397
056
01B
3CB
018
3EA
038
3FC
3C0
3FF
3F8
3FB
3FF
00A
3EE
3B1
021
004
019
3E1
3FF
3D4
022
3F7
3DA
049
02B
3E2
007
3EF
3D0
013
02A
3FA
3C9
3D6
3C1
005
02A
055
01A
011
3DE
3E3
3ED
034
3E7
026
3E6
3E4
397
02D
03B
030
008
01C
3DF
3DB
3F1
02D
3C0
001
3E6
3E0
3D0
012
3CF
029
027
3CE
3CD
3E0
031
3FA
3F7
3CE
035
3C2
040
007
3BA
3E0
085
001
007
3F5
3F9
00C
016
02A
02A
3AF
3DA
3E6
39B
3A0
3DB
3DF
016
052
3D8
3EE
3F3
01B
018
3FA
3F3
01C
009
3C0
3CB
3EF
01E
3F5
026
00B
3D7
065
002
054
02E
3E7
036
026
01C
39A
3DB
01D
018
3E0
028
04A
3AF
09A
3BC
021
049
3EE
00C
3ED
015
3D5
3FE
015
053
3B9
3F1
065
04D
3D6
06C
3AD
038
3EA
3A5
010
045
3B0
38E
013
07C
07B
3FC
099
3EC
044
040
39F
3D0
3E9
3D2
017
3CA
007
02E
01F
3F9
3E0
3FC
042
00B
355
008
366
081
340
04B
3D0
3A4
3E2
3C6
3D1
3EA
3C3
089
3F8
00F
3EB
027
355
034
023
3D6
00A
3D4
3F7
051
076
3F5
3DF
0BB
01C
3B9
040
39F
39C
3C9
35B
3E9
3E4
3C9
3D9
3E0
3F2
015
058
3D6
002
03C
0C0
37F
3EC
3DA
387
03B
3C1
00D
3F4
02F
038
3DF
3D2
014
3CD
083
3C2
3FC
3C0
047
3B4
04C
3DC
36E
3D3
3F4
3CA
037
062
3F9
3DA
0FA
028
3C5
3F1
39C
3F4
3E0
393
3BE
005
3DB
39B
023
3E7
3E4
07B
3D5
007
3DB
057
3D9
381
345
3F2
3EE
3BF
007
3F2
00C
3D4
010
04A
3DC
3CD
3D2
3CD
3D6
3D1
002
3A7
010
01B
388
017
3BE
3E1
085
080
3BB
399
0EE
028
012
06A
371
3B1
00D
39D
3AD
3BB
030
050
3B2
016
028
06F
007
013
051
094
3D5
3CA
34C
39E
3A0
351
058
3F6
058
385
3F2
3E0
029
3DC
057
3D6
3CB
010
083
3F5
026
3D2
00B
029
009
016
015
00F
3F6
3F9
04F
02B
3BC
3FC
033
00B
3B5
3E8
3FA
019
000
3D9
3FD
3F6
3FF
00A
3F7
00B
3E9
038
383
3B2
3E1
3A6
057
3AB
035
002
3D6
033
3EF
3E0
3D9
00C
3EF
047
39B
3EB
007
015
02D
3EA
015
3D1
3E3
3F2
3A1
3A7
031
01A
3AF
3F0
01E
010
00E
03D
3DB
034
00E
044
3F3
013
016
3E2
022
3E1
3C5
023
045
3E4
005
037
3FA
039
3CD
03F
3D4
014
021
00C
3E7
009
3C0
3BE
3E4
3EC
372
3A4
3E3
03A
3F2
04C
3F1
3C6
3A4
009
01A
066
008
3F6
046
028
3CF
3C6
014
3E5
01D
3D6
3E5
3B5
3BE
3A4
002
3C1
037
001
066
017
000
01E
380
3D8
3EB
3DF
3A5
03E
3B5
03D
071
3E9
3C6
3F9
3BB
027
04A
004
015
035
3DE
3EA
3B6
000
018
3CF
035
3FE
013
3ED
3E7
038
3FF
018
3EE
007
3CE
02D
3EE
020
3D0
000
014
02C
3EF
018
031
3FD
3BD
3D1
049
015
015
014
3EF
046
016
3E5
005
3EF
3ED
04A
008
040
3CC
3F9
394
3A2
3D3
3CC
3E2
007
005
3D0
065
3E1
3AB
3DF
03B
011
3F2
043
086
3D7
040
04F
046
04F
015
3CC
037
3FC
032
013
3F0
3FB
06F
005
3DF
3E3
3E1
01B
014
3EE
3CB
394
017
3C1
03A
3E8
017
035
018
3C0
000
3CB
3A0
015
378
3A1
395
046
3C5
03A
01D
3F7
3C4
023
3EE
3F8
003
03D
3DB
3EC
028
3F5
021
047
3EA
054
038
3E4
002
3D3
00F
04B
3E9
37D
040
002
3F4
3AD
03A
00F
04B
021
37D
047
36E
041
026
042
005
392
014
3C7
004
3FF
3D6
01B
067
039
3D6
3C3
034
3DB
049
3C0
3D8
3D8
3DB
039
3B8
3B1
3DC
054
3FF
05C
034
046
04E
085
01B
3F3
00A
002
3F8
3CE
3D9
014
03B
019
01B
3C7
3CD
03C
071
3BF
0A3
3FF
3AB
08F
3D3
004
00F
3D1
3D8
3E2
034
01A
3A8
016
3C9
3F1
3F2
028
3CC
011
3EF
006
3FE
007
083
010
3D2
3E6
3CC
3F6
3A1
029
3CF
3F3
017
014
3D9
3F9
068
3F6
3D1
01A
3B6
3F1
02A
3EB
3C2
000
02C
3AA
00F
3E0
3D9
3C2
019
016
018
012
3FB
3B7
2C8
2DD
028
039
043
04C
3BC
00B
3B7
005
004
048
3D7
006
02A
006
00D
00A
060
036
3BD
3FE
012
3CE
3FF
00A
05E
384
3DE
015
043
3DB
05B
3FA
3C4
003
3EC
03F
392
03D
37B
0AC
064
3ED
3CC
3DD
3BA
006
3B8
3D8
3E1
3D1
342
01D
3CC
00C
03A
3C1
014
007
023
000
006
3E4
008
042
3B3
3E9
01C
3BA
002
03B
010
3CF
029
3F3
040
3D2
3C5
038
026
3E6
029
033
00F
00D
3DD
017
3D1
06F
3D9
3F9
03F
3B1
3FA
027
3E9
3C9
06E
3F2
3FC
074
3A9
3BE
3F2
3E5
3DC
3D6
3FD
3D5
061
3E0
3D0
029
3F4
00B
3E2
009
3E6
3F4
3A7
3D8
025
045
3C7
05E
3C5
37C
04D
00B
3E4
3F8
076
000
3AD
007
045
003
06E
3D8
029
02D
026
3BC
008
3E4
00D
02B
3BA
00C
3EC
3F2
3C0
03B
3E6
3E4
032
3F5
3FD
3F1
3F4
3C0
3EE
026
3AF
3EE
3BB
3FF
00F
017
00F
024
3F1
009
3FF
01D
075
3D9
020
3DD
3F6
3D4
025
030
3C6
01D
03C
03E
3BE
012
3E6
02D
02C
3E2
3EA
3FB
035
3E5
029
3DF
375
3E9
3F7
361
3CB
3FA
026
021
081
006
06E
00B
013
02B
035
09C
3E8
3FF
029
00C
002
3BC
027
01B
00D
3C0
044
3E8
3DC
04C
3DE
012
0B5
021
3F8
02E
3EC
3B9
3E1
3D6
01C
083
054
030
01A
02A
3DC
3FB
399
3DD
000
3C7
3CF
3EB
00D
017
3F4
3C2
3D6
3C7
3E2
038
3CB
3B1
01D
022
014
3EF
024
3CF
3BD
3F6
3CD
009
3CF
3CE
029
3F3
3DF
047
01E
000
3F1
012
002
3ED
3A6
3F0
014
032
3F1
014
3D8
011
3DC
3C0
3E8
3F0
016
3C6
009
3CE
00A
029
04D
3E7
3F2
3CA
397
3CE
3AB
00A
3F0
3C6
3F8
004
02F
3F8
03D
044
012
035
000
3E0
027
003
3D2
04D
01B
3D9
049
3CC
360
02E
056
3E7
3EC
007
011
05A
3F5
358
3F6
026
3B8
02C
012
3F5
040
3FB
3F1
042
017
3E7
3F3
023
368
02F
352
3C7
391
3E2
024
000
006
023
3E3
3EB
033
3E1
3E0
3FA
3E9
3BE
3EA
02A
385
076
3B8
3BF
047
00B
393
00D
3B9
3C5
000
3FF
032
3DD
3E0
3FB
3CE
052
3EE
000
3D9
3CB
3A9
002
394
001
349
3FD
3EA
012
3A8
008
028
3C2
3D0
3CC
3F4
05A
3CC
3CD
013
3E2
3F9
3C6
3DA
018
004
3AA
3F0
010
027
01D
3ED
000
005
3D1
008
3CA
3BA
3B3
3F3
067
3D7
3F1
047
032
3FC
3E6
3B9
033
006
3D5
3B0
3C6
3FE
3DC
3E8
3FA
3F9
3E0
046
3C2
083
02D
075
3C3
3EA
077
01C
3DB
3F0
3E0
3B5
3AD
3EF
3DC
04B
3AE
000
07A
3F2
049
3F4
02B
035
3C6
034
01C
3EA
3E8
052
3EC
3AE
384
3F4
038
3F4
041
031
024
3CD
3CD
3ED
008
03B
049
00D
00A
374
3EF
3AC
032
3E8
002
3D7
3B7
396
072
3FB
028
3F2
3E4
003
3A4
3A2
3A6
01D
355
006
3EF
007
031
39D
02A
064
02E
3EF
073
385
39A
017
012
046
36D
3F5
014
013
02B
002
3ED
03C
3C1
3DC
368
3D7
33A
3E7
392
063
029
019
3DF
016
3D4
0EF
0AD
05E
3B1
05A
037
013
3B0
3D5
3DC
070
3D4
07E
3F3
034
39E
047
013
056
065
005
3C9
3C5
003
3C1
04C
3D1
009
3F1
3F4
015
013
095
009
3F4
3E1
3F8
00E
066
074
03A
053
019
390
387
3C5
3AF
012
3FD
013
033
3BE
3F4
3FC
019
3FC
3CF
037
01F
3CA
00D
355
3A2
3BF
3F5
02C
3DC
00A
346
03A
3FD
3FC
041
03E
354
3F3
051
3A8
3E2
352
3C2
036
3E1
3EC
036
007
3DC
3C5
012
021
3D7
3C5
3B6
3EB
009
000
047
3CC
008
3ED
3E6
3C6
3D6
000
3B2
00D
3E7
3D9
05D
013
3BA
02E
3FA
3C8
008
02C
3FD
029
063
009
030
3EC
3DC
3FD
023
020
3F6
3F6
3FF
3DF
3DD
3FF
3FE
3F0
01C
00E
3CC
3F7
01F
3D2
3E2
3F2
3C8
028
3BA
034
3ED
3FA
008
032
045
009
3FE
01A
3FB
024
00F
3E9
041
3C7
3E5
3EA
3F9
008
000
3FA
006
3C6
3E0
034
027
01C
05B
3EC
016
3F5
3FE
000
02D
3CA
3DD
008
00D
3F0
014
031
020
3ED
3F0
028
357
366
394
00E
394
065
3DA
024
03C
3CD
3D2
055
058
01B
38B
012
3D0
014
3D6
3FF
3A2
04D
015
033
3FD
01E
0A7
3A1
3F0
3C5
3C7
3D0
084
3D8
3B3
015
3AB
05B
38F
027
035
020
001
04B
015
007
018
023
3D0
050
03C
3E4
3C5
05D
3BF
052
044
02A
003
3CB
3C1
025
026
07D
3C9
37E
3C7
383
093
006
3C7
053
027
3B8
031
01B
3E0
086
01E
36D
048
3F0
347
04F
35A
3F8
3E1
05A
04B
3BE
034
31C
3A6
009
005
3E7
009
010
389
015
3B9
3C2
398
3DB
39F
015
005
3EE
032
3C0
3D7
000
081
046
3AC
044
3C3
3FD
3CA
3EE
015
3FD
007
006
3DF
02C
021
3F5
065
006
03B
3F5
03C
3F8
3D0
014
000
3FA
3AE
062
3F7
04B
05B
3F3
3CF
3BB
3F4
3E2
009
3ED
003
3CC
3F7
083
013
38B
01A
3C0
035
01C
032
3D7
39D
036
010
018
3BC
028
3E8
023
394
026
023
3A0
3D5
065
00C
3D5
3F0
3EF
05C
3EB
3F1
040
029
01E
3F1
3BA
010
3D2
01C
01B
3DA
3FB
018
3AA
01D
00A
3CE
3D8
3D0
362
3B5
03C
3ED
035
042
3FE
035
02D
024
3DA
025
08E
3E8
072
3EC
029
005
3E9
3EC
3CA
062
3E9
011
004
010
3A0
028
01B
069
3C5
066
3FE
3C7
3ED
3F3
3CC
3C7
3F2
3E4
020
015
3ED
3DE
019
3D6
3D6
02D
3F5
050
03F
036
361
351
027
3D7
012
035
003
019
020
04E
3BC
075
3B0
018
3F7
041
3E2
023
3DD
368
028
025
3AE
3ED
034
360
051
3CE
3CD
030
3E8
3E3
3F0
046
3C3
073
073
3E0
041
020
03B
006
3EF
014
3EB
369
019
01C
3EC
39B
3EE
023
3D7
021
3D0
03D
3D2
3E5
3F5
020
009
3FA
036
004
001
011
036
3DC
01F
027
3FE
01C
007
014
3FA
015
3FC
030
3E3
3E9
3ED
068
3F8
032
041
3BA
3AA
3F5
3AB
3FF
3C7
3C4
005
01C
3D3
3B8
00B
001
3FC
3C3
04E
047
3B4
018
01E
04F
002
3CD
39F
3F4
026
3AF
024
00B
3D0
046
026
3CD
077
056
3A8
3D8
01E
03D
3FA
007
002
024
00B
3B9
002
02B
01E
3E2
050
3D8
3FA
3EB
3B0
3D2
3FA
3F5
38C
001
3D4
3B2
3B8
009
3D0
3D8
01E
03F
3BD
3EA
3E1
3D0
3C6
3B1
35E
394
02B
00F
00D
00B
3B6
066
054
049
027
013
3B6
3D6
00F
3AF
0AD
361
3B4
068
02C
37F
3DB
096
3B9
3EC
014
3AC
3A2
006
385
327
040
3E7
011
3C4
3F5
358
3E7
3AE
366
36F
01B
020
3E4
3F8
3F0
02B
3E4
3BC
022
014
035
3D9
02E
01D
019
034
009
031
061
01D
01D
3D3
3EE
050
3FA
3DA
01F
063
3E1
3EC
009
02F
013
3F0
069
365
05C
001
009
3F7
3CA
3B8
3FD
3CB
3CB
01C
3FD
019
3D1
3FE
3F3
029
03D
002
3EB
003
3F7
3E1
004
3D1
3E3
3FF
02D
3C5
01A
3D3
035
06D
3E8
3BF
3C7
3D6
3C8
3DA
040
3E3
056
037
3E4
057
012
394
3FE
04F
382
030
07F
011
075
3CC
072
009
3CF
3EA
3EF
3C2
3F5
3AC
38C
3A9
3BB
3F0
03B
008
001
00C
3C2
3B4
013
028
02C
378
3E9
3B6
3CD
3D6
39E
399
051
013
035
03A
3EA
020
015
3F4
3E0
00E
3D1
00E
02E
3BE
3E2
3C0
053
2FC
3DB
025
064
03F
005
3C7
043
3EF
3D1
09A
3F7
074
085
055
367
00B
3E0
397
3CF
3FB
3E0
023
063
3BB
373
0B4
04E
00D
39F
022
03E
09A
382
385
3FF
3F8
3F6
3A0
033
3E6
0C1
014
3B9
3D6
3DE
04F
3BB
032
3AB
087
018
3C4
013
3FA
3F3
3CB
3ED
027
3D1
041
014
3B2
00A
018
055
3FD
3AB
3E6
02C
005
010
04F
3F8
3AC
04C
01F
024
3F7
3EB
058
060
3D3
3E8
056
389
3C5
02F
3C0
078
3E0
068
03D
3F5
386
019
00D
3A2
000
3D4
3D5
3D5
02C
3DA
3B2
003
026
3E4
3D3
016
3C8
002
3CE
3BB
360
013
02E
045
046
3EC
00B
011
04C
015
3C6
043
3EF
02F
3E0
3D5
3F4
3E7
3BE
019
01A
3DD
00C
037
04A
3C6
3E3
3F6
3F9
3DB
010
048
3E6
006
012
3CB
398
007
033
04E
009
024
000
021
007
3D2
005
03B
3EC
02E
022
399
3BB
012
020
000
3FC
3BF
3F3
024
028
3C8
037
3DC
00D
014
004
3DC
3D9
3F9
39B
02B
3D2
001
3D2
3FD
3D1
010
3EB
00A
016
3F7
003
3ED
00A
052
00B
027
002
045
3E5
3D9
3FB
030
3C7
024
378
3FB
3AF
36F
391
00A
3BE
05A
018
3F7
01C
3C3
018
035
01A
3F6
3DF
3D4
3BC
002
3DE
3C4
058
025
3EE
037
003
39F
055
3B6
38B
3E9
3BE
3E1
059
3C0
3C4
039
01E
033
378
070
3A4
0B2
085
04F
3C5
020
3FE
3CA
3D6
01B
035
3C9
3C3
3F7
036
012
3CD
002
3D5
01E
3A4
007
023
049
3BF
3EB
3C3
3C5
026
3F1
040
064
3B9
39A
015
3EB
05B
015
3E2
39F
3DC
3D7
37C
028
03C
3FD
3A9
09E
3CD
000
017
3AF
3CB
34D
3E4
034
3D9
3BD
3B8
053
3C5
36B
3F2
036
3F0
079
02F
3EE
3DB
3D4
3DA
05B
02D
037
392
018
3D8
396
3AF
3D9
3F7
04D
004
012
027
3FC
06D
3B1
3E5
395
3D5
3E2
059
020
382
01B
3CC
067
3B4
009
3AB
07C
069
3B6
3BE
3DE
3BF
012
39A
3DC
3B3
389
3AF
09C
3F5
004
036
018
007
3C9
3FA
3E7
3DF
074
3F1
030
3C7
3C8
02A
045
3EB
082
067
3B6
013
02B
04E
3F8
3F9
39D
079
01C
3A8
031
3E6
3EE
3D7
077
394
3DC
3E4
3EF
3EC
3E1
026
031
3D8
00D
036
3FB
012
025
020
396
393
01D
046
3CF
03E
007
02E
3F7
022
037
024
3BE
000
01F
3D1
3D5
3ED
3C3
000
02D
3C3
038
3E0
3F9
3F7
3E8
3B0
3E6
032
015
3E0
3C2
04A
3D2
035
3F0
3FF
035
3DC
04F
3E3
046
020
3EE
3FE
008
02B
02A
3FD
3A5
38D
3F7
3C9
3F9
367
018
06F
01E
037
3B7
030
003
007
023
3CB
3D5
03B
3EE
385
036
3F2
02E
3C9
029
080
028
3EB
001
042
3D6
011
3FC
050
3B9
033
3BD
00E
3E9
00B
040
004
02E
002
3E5
333
025
019
3F0
3BD
02B
3CD
3F6
05D
3CA
3FF
3C1
023
39A
037
3FA
3C0
003
00F
3E9
3F8
3E7
3F1
025
01D
3C4
3BE
040
01D
032
032
3F2
000
01B
041
3C5
3FF
049
02F
3F9
3B8
003
3CB
05F
022
3E3
004
3C6
3EB
3BD
374
3C1
3FA
3CE
384
046
00D
025
06C
3C8
069
00E
007
3C2
3C7
0BE
3DB
031
3F0
3D2
035
00C
3D2
3FC
04B
379
008
05A
05A
3ED
006
001
055
014
3F1
043
3F0
3B7
03F
3F8
3D3
3CB
3F6
027
00E
02E
3E7
3F3
3BD
3CF
37C
3F4
386
340
33A
02C
021
029
3A1
002
3FE
3D5
3F4
3E1
397
3AA
019
02D
3D3
001
07D
04D
014
03B
03A
3C9
3D1
3DF
009
06B
362
05D
082
3E0
399
024
068
3A9
3E2
029
31E
3EC
3F8
00F
3DD
005
3BC
017
3C6
3E4
338
029
399
379
398
007
3E4
035
042
3CF
02A
3EA
020
00C
3DF
056
3E0
068
00F
3FD
3C9
3DA
3E0
024
044
016
01C
00A
059
3C6
3DC
3CB
023
3BD
02F
3B0
3CF
3F1
01F
007
3B7
3F9
3D4
06A
040
01F
3FF
01E
00D
02A
028
3DF
056
0A8
0A8
3B9
006
378
38D
3D4
3A1
008
309
015
3B3
309
028
304
3D1
3BE
09E
023
080
3B9
3B0
3E4
026
381
332
0B8
382
039
3DE
034
34F
3DA
03A
3D3
07F
3A0
0D9
046
3E7
3B9
2DB
07D
3D3
3E8
00F
012
372
00D
32A
2DE
35B
3F5
053
01F
03F
3D4
005
3E4
3DC
043
03B
006
3D5
3E3
007
00F
3AF
3AF
3A7
061
02F
02E
01A
3CA
053
3F8
3A0
3E7
3BD
3DB
063
3B2
3E6
042
3B8
069
27D
04E
061
065
0A2
007
3DA
005
3C2
020
012
058
060
05B
03F
3A5
3CF
3C5
3D6
3F5
005
3EF
3DF
3E2
3FC
348
030
364
014
035
021
047
012
014
3DA
03E
3D4
3F5
387
02A
3F9
001
3C9
030
3D0
3BA
083
003
3EC
3E1
08F
003
052
3F5
3D8
048
3F7
3E3
3DA
3FE
393
007
3D9
38A
389
083
083
005
3DB
3F7
059
3C7
06C
3FB
3C1
08B
3AC
3CD
3BF
3E0
3B4
3D2
079
064
074
007
3CF
005
0A6
3CD
36A
3D9
017
3C2
040
3E4
3DA
027
39C
070
31B
3DF
067
3F5
3C7
03F
016
02C
3F2
3E0
3CD
3DC
3F3
00B
3DF
010
3C3
049
3DA
00D
025
3E2
3E9
3FC
3DF
00A
3C3
3F0
3F3
3C7
016
3DD
3DB
3E3
3DB
3F7
3D9
3FE
00B
3EC
011
00B
009
01F
3FA
3A8
3D9
030
04D
3FA
3FB
009
028
070
021
3FE
017
015
00D
011
3F8
008
058
064
01F
01B
017
000
3C2
023
354
3C9
392
3ED
00B
35A
039
39A
3D6
3F8
044
03A
04D
02A
3CE
01C
3CD
003
38D
043
03B
061
3FD
3F6
385
034
017
3DE
033
3F9
08F
3E2
3FA
39F
39A
02B
3FF
07A
3DD
3EA
3B8
01A
015
3C0
3D0
37B
384
056
03B
031
3E2
3D9
3FB
051
04A
031
030
015
3BD
3EE
3C6
3CB
021
384
3CA
3E5
028
3B3
3C6
378
3D9
056
089
027
030
3FA
386
3F0
045
37E
3F9
074
3B5
074
049
022
3FF
00C
02E
01C
392
000
3C7
3EC
3E4
049
058
00B
3C6
003
3FA
3F9
3DE
004
040
02E
3EE
038
025
3DD
3F4
026
008
038
01D
00C
3EA
014
3FE
04C
037
3CA
008
3E3
3F7
02A
032
03B
395
03B
34F
001
036
001
079
3C1
3CB
003
00F
3EF
3D8
07E
3C0
3C5
04D
3F2
3EA
025
3F9
016
3DF
3FC
010
018
00F
04A
006
02F
3DB
3DF
051
00F
3E0
3FC
3E1
009
02A
3E5
032
3CC
02A
01C
3F7
020
3F1
010
3BA
3B7
3E7
002
3D7
019
3C5
3FF
032
381
3A6
3BA
028
012
35B
005
3B8
3A0
3D3
024
05C
02A
03C
3E6
3D1
3DA
3A6
3FC
003
052
39C
3CD
01F
3CA
3E9
3FF
007
084
046
3CE
3EE
3D6
060
3A7
3BD
37F
002
3F0
3DF
03D
3D3
3F6
3FD
074
33C
053
3B6
3E3
008
3EF
006
02F
022
3B8
015
3EF
080
064
073
3DA
3B2
01D
3A7
3C9
2CF
3E6
3B5
010
012
3B2
066
009
003
02D
00F
03D
01F
3CA
34F
3F4
3CE
027
392
013
04C
013
3C2
3CD
38F
02C
3F9
3B6
025
399
0A4
3E1
022
38E
3BF
3E0
03A
3F0
3E5
015
031
3D4
3BD
3EE
3CD
3CC
3B7
3C0
3F6
02E
3F2
017
08D
3A9
00E
054
02F
077
3DA
094
022
00B
3E0
002
021
3C5
032
042
3D7
3FA
034
046
03D
3F2
038
3BC
012
002
052
3DA
3EA
371
3CB
3C2
3B1
008
3FC
056
3D4
000
3E1
3E7
3A8
39C
031
3C3
398
00C
006
3E0
3F2
3DF
04B
028
009
023
05F
01D
3E1
00C
3CB
3AF
002
39A
02C
3DF
031
028
3D4
3DB
03D
053
034
3F2
014
3D9
352
3EA
020
388
3F8
028
3F4
05F
027
05E
002
01B
3BC
026
37C
3C4
3A0
3BE
390
3BD
01B
057
03E
3BE
03D
3D1
064
003
3FB
063
015
05D
3C9
019
3C5
3BC
362
3F9
065
005
019
074
049
397
012
038
07C
3F1
08C
3D3
387
3E6
037
029
3E3
3FD
392
03D
00B
023
3E9
3D0
3CC
3DD
33C
3B3
38B
301
37B
3D4
021
3FE
025
018
027
3E8
05C
05E
3E0
3E6
0B4
04C
019
001
3F7
02C
019
387
018
3CA
3F3
3E0
000
036
3E5
082
032
01A
3E9
00C
043
3C8
02D
3A1
32C
39F
019
02D
3B5
049
3DE
02E
004
021
33C
3BE
3E3
38D
368
3CB
3CF
014
019
3FE
010
3FB
3F6
016
04F
01E
009
061
00E
00E
3DD
39F
01C
3D7
00F
3C1
005
3ED
3E2
3DC
3DF
018
003
3CB
042
3DE
3DB
038
03A
3A7
3BA
01F
3E5
03B
034
052
02D
058
00C
00D
07A
048
068
046
051
3E6
009
00E
3B7
02F
352
00E
359
01A
027
348
037
346
014
3F9
03F
043
00E
3B2
3AA
02A
01F
3C5
3DE
032
007
3F0
3B9
3ED
3B2
012
004
3F8
3DF
012
081
035
3E5
39A
019
3D6
01F
046
3F4
005
3DA
023
373
358
365
004
3D1
025
3A9
3FE
3F0
009
01E
07D
3F6
3FC
3F3
3D1
020
3D5
3E1
3AF
031
3EE
3F3
3CD
3DC
3A7
019
3B6
36C
020
3FA
3E0
05C
3B6
3EC
040
018
3F7
33A
007
3D9
053
05E
3A1
3E4
021
01A
01D
041
04A
002
062
06F
016
3D9
3F9
3E9
3BF
3DE
00A
390
3FD
005
005
3C8
374
3FC
033
033
054
3BC
3F5
024
048
3CF
010
016
015
040
3BB
3A1
3FA
015
017
3D4
060
012
036
060
046
01A
3AD
013
3D8
3C0
3F8
007
3CE
3C0
3D5
382
382
358
016
02D
3FB
064
3C0
045
032
0B0
032
026
072
3B8
00B
025
3F3
3B7
3BE
024
002
063
020
3F9
02C
06B
359
34B
035
046
3E7
04D
3E1
3F3
3F9
013
029
2E2
01F
3D8
058
03B
022
3D1
01D
3D6
026
3BF
030
03B
00C
3BD
3E0
373
036
3D3
022
3A7
3D6
01C
020
05E
093
3D2
3F2
3E4
3FE
3B2
3B8
028
01C
3A3
3E3
02D
03B
091
005
043
3DD
3D9
3D7
3F9
3F8
036
001
3C0
02C
3FF
01A
010
028
07E
3DA
3F1
016
02D
3D5
066
3FF
054
04C
071
04A
390
3DC
39B
01D
3AF
3FA
325
034
014
3B1
3EF
33F
3E4
3F2
022
030
021
025
3FD
052
3C7
3B6
3A7
037
01D
356
3FD
3CD
377
3F9
020
011
020
032
0A3
042
02B
398
3BE
3F6
016
049
3CF
007
008
015
068
029
000
39D
341
014
3BE
3CD
380
3D1
051
3CB
009
3EF
047
032
031
00A
3BD
392
00E
36D
394
3AB
001
3EA
34E
012
086
0A7
064
3DA
38A
029
3EF
3E8
06A
3A3
03D
39C
01C
3E2
396
014
3E5
002
3E1
032
376
3F5
376
32E
3CE
3E4
066
039
014
003
3EF
3D7
01C
3FD
3DA
3F2
3AC
3B0
027
3B0
001
3FB
3D7
3EF
039
3D4
012
39E
3CF
3E8
33D
3EB
009
020
047
3D9
3E4
017
02B
007
374
00C
3DE
00F
015
3EE
008
3E6
015
3D2
030
3F0
005
052
3FF
029
3D3
3ED
3DB
3FE
3C4
027
3ED
02F
014
39A
3E3
001
3C6
02A
3EC
3A7
3D6
3D4
3DE
3D3
026
3CF
00D
3D6
3DC
014
3F3
3F0
3ED
00E
026
3F7
3CC
3D7
3DD
003
017
009
3F3
3CA
013
3C8
018
3E5
35B
3EE
37C
3A9
3BA
026
3FD
3FA
010
00C
011
02E
3F4
3E9
3CE
008
35E
3C7
3D8
3EF
03C
3F0
36C
07D
019
036
3D7
3B1
077
3CA
353
387
3C5
001
02C
3BC
01B
02B
3D1
06E
380
047
3A8
01E
3DE
39A
3CD
0A3
3FE
024
396
017
0D1
030
3A7
381
3FD
05A
38C
3E4
364
024
010
080
032
398
079
04F
01B
3DF
3A5
3A5
040
3FD
353
32C
01F
3D5
3E8
050
09E
08E
04B
3DC
38A
021
06E
3DA
3ED
394
051
39D
057
015
3D6
3DC
028
03F
3C5
002
049
055
3FF
004
058
045
016
3D3
3FC
02A
3CE
3E8
054
3B1
3C4
3E8
3F9
3F4
006
027
028
02D
044
01B
01A
3DB
034
07D
39B
3FA
3B4
3BC
025
01F
3CC
01A
010
3A0
3EF
3F9
03F
3A2
3B5
37B
3DE
008
3F8
02C
007
009
026
00D
01E
038
050
3AA
371
038
3BD
3C0
3CB
00B
04C
0A6
00F
3A7
0E5
01F
00F
008
3B6
3B8
3B2
388
3C6
3BA
3EA
00C
3A3
008
0AB
0AC
010
3D5
3DD
077
026
3BB
3C3
389
02E
3AD
005
028
003
02B
3D3
3EF
3BE
016
3DB
3F4
052
3B4
3A4
347
066
05B
3F7
3BD
3DD
3C3
0C9
0A1
02E
063
0BE
087
009
02B
35D
365
3F0
33D
3CE
3B7
3E2
065
3F2
3C8
088
0D4
00C
3FF
055
0AE
3AC
3D9
3CA
356
3AB
3BD
02A
064
037
3FF
3F5
3CE
3E9
01A
3B3
378
086
327
3B6
386
3DD
3C7
00B
3CD
016
3F5
0C3
02B
396
081
10A
12A
3AD
033
377
3B2
3E1
3A5
04B
30B
02E
046
017
3E6
017
0D0
0AA
014
3D2
099
050
334
3E2
391
34A
339
02E
031
01A
3BF
016
048
3C1
023
3AC
3C7
3DB
397
3CA
3A8
3BB
03B
3B0
3F4
39D
3C3
08E
082
009
3EE
0AD
064
005
039
3E0
37B
3FB
3BA
3A9
35E
3C5
3BE
3FB
3E8
3FA
07C
046
3C6
3D9
003
3A3
3E8
3CB
3C4
3FC
008
3DF
05A
05F
006
01D
011
01C
01D
015
3F9
3F4
023
3ED
3DC
001
00C
3E7
3CE
3A2
00C
007
021
00F
3C5
009
3FA
3C5
3E5
00B
3BD
069
3C7
3E8
011
3D6
3B9
010
019
3D7
02D
3FD
3E3
3D3
01C
3C3
01E
029
3D9
3C6
058
3C2
3EC
00E
3CF
3E9
068
3C9
3EC
39D
3F4
015
3BA
3F6
3CE
3EA
012
3AA
3EE
003
02F
085
028
3F2
3D2
078
043
3DF
3D5
3A5
3A4
05A
3A4
006
3D6
021
3F3
3DC
01F
001
0B6
038
3FD
3E5
3FA
02F
008
3E1
002
3C7
3F7
01C
03F
00A
3C9
00E
025
029
3C3
03F
001
3E1
3D7
041
002
031
006
3DB
3CE
3D6
3D9
39A
05B
3F4
00C
3F5
3EB
3BF
3ED
040
01F
3FE
00B
015
3E1
3D1
3E9
3F9
016
3DD
3D6
3E1
023
3B4
3F4
3E1
00E
3E0
017
3DF
00A
3C2
3CA
3E1
017
3E0
046
01B
031
3B1
00F
009
014
325
01D
008
3E9
3E9
3FC
3BC
3C2
009
3C4
07B
3FE
367
3B7
3BE
3B1
3E5
01F
3EB
07B
045
077
003
02C
083
3E9
3B2
398
3D2
3E6
097
309
04F
0C7
3E0
0AD
3AE
023
3F8
000
0B3
3D4
00A
068
00C
3CA
3C2
021
070
01D
3EB
3C2
3B5
066
39F
3FF
34B
3D8
016
05A
071
3E2
3FD
067
3E6
021
3B6
3FC
075
021
3C3
385
3EF
3EC
023
02C
08B
05E
08A
007
3EF
031
033
3FE
377
010
3F6
3F0
04E
04C
02A
3A1
3F1
37F
3CE
3DB
3BB
008
037
3DB
3AC
09C
02D
054
3C8
018
3E3
027
36D
04D
025
3CD
37E
34E
009
043
3F4
075
01E
0FC
3B9
3C9
020
38B
0CE
02C
392
395
3DF
019
369
3BC
05B
07C
3BB
0AF
3B5
09C
3A0
3B2
39C
3BA
3C8
0C3
003
3EB
056
093
0B9
0AF
037
3DD
372
021
3E0
019
385
3FA
00B
03F
075
39F
08F
040
019
3E3
005
3FA
02E
3AC
32D
3D9
00A
062
3A2
016
0CB
058
3F6
008
384
048
011
3FD
3C8
3EF
0DF
3BA
026
002
3F5
3D8
3F9
3E7
3EB
3FD
015
005
3F4
38E
014
3C0
02B
006
3ED
013
3E1
01C
0BA
01A
3E5
070
027
06D
3B2
02C
393
39F
3ED
39E
041
32B
005
00C
035
3EB
3EC
048
00F
3CB
034
3E9
373
3A1
019
3AD
3AC
371
034
3E8
01E
3FC

