047
3F5
38F
3F9
046
027
3AE
3FE
048
3A1
014
03E
086
3D3
37A
3ED
032
3E1
037
3D6
3F4
378
3F9
3ED
062
01E
079
383
01D
016
025
041
006
05A
06F
348
010
01E
00F
354
3F0
05E
037
076
3F3
10C
090
3E4
029
0AF
04D
00F
3FE
073
398
2D4
3ED
032
021
047
045
3B9
08D
056
3CC
3C8
02D
392
010
074
044
3FA
062
3BC
3DC
015
042
3DF
030
38F
005
391
382
049
3F8
3C5
3BD
003
06E
05E
3F7
053
056
045
3CF
046
067
053
084
020
379
00F
3CB
045
39B
3E3
3A6
3B4
3FD
03D
043
377
3CC
017
035
395
3B3
01B
3F2
3EC
39D
111
3B8
3EF
020
3E5
027
066
3F2
300
374
072
028
046
2FC
36D
392
09E
3FD
00C
3AB
0A4
3C5
38D
329
356
3D5
3F6
0DD
3D4
04A
01B
05C
08B
3B3
3DA
05B
08E
013
041
3DD
0A1
043
051
3F4
0B0
031
088
3E4
0F4
05A
004
3E8
075
3BF
2ED
01A
095
085
008
3DA
066
015
04E
3E0
0A4
03D
097
2BD
391
3ED
32A
0AA
081
25F
3E0
056
014
11E
049
0B3
3BD
3EF
3E4
2AE
377
04B
301
00F
322
015
096
3F1
3CA
3DE
37E
3F5
38A
3D3
050
38A
064
046
106
2DE
3FF
020
0CC
3B3
102
09D
3A5
314
046
2EC
3C4
049
34E
0C6
3FD
36C
119
0AD
033
01D
0CB
0B5
0BF
06A
063
382
0A8
3EF
0A5
307
3FE
3A0
3E0
3A3
029
3C4
3F0
3D5
35A
382
3B8
0A8
388
0C7
3B6
078
076
3BD
0AF
3D6
2E7
38E
3B1
38C
399
3F6
0CE
3F8
3DE
30B
007
134
09F
047
3FF
01A
37A
3FF
3B2
074
0A3
0E2
098
39C
2FE
377
394
3C1
007
01F
3FD
38C
015
373
00A
009
0CD
374
049
3FF
39A
3F9
39C
3A1
3B7
005
00C
080
39A
3D8
0A9
382
085
3CA
0B0
13F
01D
00C
050
3BB
3A4
00F
06E
029
373
3FC
064
01B
084
050
126
01C
3DC
3DB
084
3B6
01A
059
3CD
3FC
361
054
0A2
024
00F
389
3B4
01E
046
3C0
0C6
372
073
02D
0AC
077
3DB
38A
043
3B8
002
3CC
04B
3E2
31E
3C8
3C5
02E
09D
038
040
09D
3AA
3E9
3E7
3E3
3F1
3E2
010
02F
3C8
04C
029
01E
370
382
3D1
3CE
3EB
071
041
3F2
3B3
06D
034
3BD
043
035
06B
3DA
3C6
039
3AC
065
3CE
060
3AC
3D9
3A9
38D
3E0
310
024
3F1
0C1
077
313
392
000
3CA
3AB
39B
02B
0F2
3AB
3F2
3E0
3CA
110
37E
090
3A5
32F
096
3B8
3F9
3C3
062
01A
029
047
04D
3ED
3B9
3E5
3FE
05C
3F3
3C0
3DF
022
06D
3B5
399
3AE
38D
37B
3F5
087
007
389
03D
3AE
01E
04E
01B
00B
3C8
044
06E
071
355
094
3AA
054
03E
09B
302
005
03C
3D3
3F2
317
0CE
019
39E
081
03D
043
320
382
3A2
078
121
0A5
0CC
098
3F9
03D
347
0DA
0CD
028
046
34B
008
05B
03F
034
011
0EC
3BF
3DF
015
3F3
3FE
089
0A9
007
399
326
034
0B7
019
032
3D8
3D6
0B5
37F
2F5
0B3
05F
019
00C
3CD
3BD
3D7
010
3FD
3DF
024
015
0A0
060
3ED
0EC
0F3
088
05D
099
045
3CD
05F
002
3CD
043
398
3D1
06E
2DB
088
345
0DF
033
3A4
3F2
3D8
34B
3B1
04B
083
002
0BB
3F1
3E9
393
02D
3E6
088
07E
0B5
080
3FC
3F9
048
00D
10E
00D
076
001
064
3F2
0A9
068
023
036
3F2
00A
047
348
090
3BD
3E3
0A6
034
3E2
0B4
3EA
381
3D0
37A
010
3D9
067
093
38F
398
3C4
06B
2E4
036
35D
3B2
3BA
3BF
080
002
34F
074
3A6
077
3EF
385
3C1
333
01D
10F
095
3D2
055
009
07F
08D
303
06A
086
3EA
3E4
089
385
005
36D
3F3
00A
3B9
3F4
3BD
019
383
367
045
049
381
034
03F
012
3D5
3DE
08A
061
38F
031
3A3
3B9
3C2
367
027
3CA
38B
070
3B7
01B
0C2
38E
06F
3D6
04B
01F
3FC
04A
015
077
3D7
3A0
021
016
02E
079
3CE
346
032
377
01A
077
3F1
04C
088
3EF
103
062
278
36C
38A
3D6
003
3FA
11D
014
021
05E
00C
0B7
017
057
0A3
3F3
3D6
020
3B0
051
0EA
0F2
020
3F5
33A
3E1
0AA
037
0E3
02B
36A
3E0
3F8
3FF
047
047
0DA
014
0D7
3E9
3D9
126
042
33F
0BF
06E
34A
38D
012
036
08A
0B4
06E
3EE
063
101
091
0B9
3E1
3BB
365
053
3D6
3E2
35A
12C
3F4
051
0A1
3D2
0C6
092
329
04C
3B6
058
388
06C
3AA
037
3C5
02B
39F
3DB
33F
011
356
08A
3EA
3CA
024
002
3AB
028
31A
3C3
3BA
089
3DD
0AE
022
104
09F
3A8
07F
070
3D7
054
01F
071
04E
0A7
0D8
3B3
349
3D8
3EF
024
387
3FB
072
329
070
3F6
048
0B5
01A
390
038
3E4
3A3
04C
2D3
020
3E1
002
014
10E
3B5
0B1
0FB
034
3CC
065
3C4
084
07A
01E
31B
06B
0A2
08C
395
024
040
0A8
0A0
01C
049
031
37F
04E
030
3C4
072
0D5
3EE
071
021
021
0B7
38C
03D
0E8
01F
044
03B
05D
39D
045
3AC
3A1
37B
057
3C4
3F8
066
3EF
3EB
078
388
395
3F3
37B
382
3DF
386
06A
009
061
01A
02B
011
3FF
3CB
034
008
3D6
056
3D7
3E1
3BF
00A
03B
0C5
3F0
01B
3B2
028
02D
028
0BC
09E
3C0
052
3C9
057
39C
067
300
379
3D5
3F0
0BD
0D1
020
2A9
3F2
010
3C5
008
3CD
064
0AD
01D
016
384
3B9
38D
02D
09A
0F6
3DE
3E2
034
049
00E
072
04D
3DA
049
3EA
0D3
031
07C
037
0BF
3C3
064
37B
039
066
35B
018
30F
3E8
373
0E9
3F6
39D
3D0
07A
10D
09A
017
090
3D0
383
3E9
37E
3C0
0B2
07A
002
023
30E
3E9
089
3FC
352
0D3
3BA
115
3E9
003
3F8
3BD
026
089
38B
02F
3F9
06C
099
3CD
06C
000
3CB
002
059
042
00D
002
3F8
04C
104
06C
3C3
04C
00D
2DC
352
084
012
010
018
043
3EA
04C
323
0B5
3E7
3EA
046
04C
2D8
0DE
3A1
391
366
2EF
005
009
04A
051
02E
3C5
3E6
101
349
3A6
2D6
056
3F5
01C
3E8
3B5
39F
019
3EA
0A6
05C
3C3
00D
3BB
39E
070
045
339
093
041
0B0
06F
39A
00C
088
3C3
081
3D1
3A0
03D
072
00A
3DA
085
388
3E8
3E6
3E5
3E8
065
00A
06D
07C
3E7
396
3BB
06C
078
3FC
395
383
062
3D5
022
074
3B3
073
3C4
09B
093
3F6
086
026
043
244
046
35B
3EA
2FC
07C
3CB
3CE
3E6
074
041
3E1
0B8
081
07C
0AF
382
3F6
0AA
044
06B
0A2
34D
0DF
344
0C4
026
0D3
048
024
3B2
073
349
3CA
3DE
044
3BF
077
3F5
03C
3AE
040
3CF
3A8
341
34A
030
040
004
3E6
39A
054
3EF
053
054
398
01E
3B6
382
009
3AC
01D
00E
0D6
319
2FA
0BA
05E
39B
047
0FA
3DB
3E6
3B7
054
0A0
3CB
0EB
12B
029
3F3
024
0D5
298
30B
081
025
3D4
004
079
012
003
06B
3B2
3FE
3F4
017
076
3E9
3DB
054
3CA
0BA
09E
0AA
067
0CE
04C
004
38D
012
097
04E
059
36D
065
37A
381
3DB
38C
0D0
3DC
066
0BC
3C2
113
3DE
366
083
2EF
376
0B0
182
3B2
110
06B
3B9
37D
34E
36D
02B
2EB
03B
027
39F
014
026
389
07C
3D7
3ED
069
025
3B7
3EE
076
0AC
0C1
3CA
027
09E
3AB
3E7
099
0A3
0C2
008
083
00A
3C6
04F
0D5
0B4
3F7
3F8
02D
09B
372
30F
01E
3B2
00B
047
092
310
3BF
037
089
0D0
04A
3C0
063
399
3F6
3AB
3BD
06F
2DD
076
2F1
031
0A9
05D
044
364
03D
02C
3B5
3FB
3BB
39A
009
097
33A
078
03F
3F1
3B8
07C
3E4
060
032
10B
018
0E1
06D
013
016
3AE
384
39F
053
020
313
025
0DB
03F
113
049
3EF
069
39A
04B
013
023
3B0
3FD
063
3AF
013
070
3AA
05A
090
2C8
3CF
032
3FF
09D
3C9
0D6
011
010
02C
3B5
020
3C9
00F
3EC
026
025
002
037
3E2
046
0DF
3D7
2DF
0C5
3EE
00F
05C
0D4
0A8
0A0
022
3D8
004
001
06B
373
3BF
00F
3D1
337
037
06C
03E
3A6
020
3E4
04B
2DC
3D9
01E
0C0
38F
330
3BE
046
3D4
0A6
00F
009
165
3EC
3C3
06A
341
3EA
0BD
0D9
00E
3F3
0A8
0B3
3A8
3D8
032
0D9
0D8
3E1
012
04D
029
394
016
3B3
0A4
3C6
378
098
08B
3B2
002
052
06F
334
02C
019

