BDE65AA9
BD4FECA7
BD502D8E
3E2145D4
3E00B8F2
3D720F5B
BE14D056
3DE723AA
BD977530
BDE17E69
BE2BF8D9
BEEC0741
BD5F9D42
3C90A7E1
3EADD415
3DCB3707
BD717033
BC6DF7ED
3DDFB388
BDB6056C
3CA16AD5
BBE99B01
3E54B091
3E4D35DF
3DFE8A1E
BE86A358
BC9028F9
3C6B0F1A
3D18472F
BC469812
3E4E362E
3CF74702
BE04B018
BE0D42E5
3E0C9B2B
BD0DDFF2
BD18020E
BC338F03
BC9EF245
BDF09564
BDE54318
3DA6ECEF
BDB2F84C
3DEAE457
3CE1319C
BD8EEB28
3C88BAB9
3C9B1631

