3CC173AD
BF1D6825
3E0E4AC4
BE2FF5F7
3E229813
BDAB4519
BE5ED76D
BD86442A
3DEB5A22
3ED213D7
BF168F55
BDD49D45
3E8A690F
3C4ED697
BD20B208
3E2D664B
BC141F20
BE3CF9EB
3D842712
3DE92E7A
3E11F696
BE1CE0C8
3D5F3CFF
BC0AF57F
BDC361F2
3E1FCECC
BDDDFF39
BE9A1E64
BE4A7C5F
3DBB999A
3DC4AF72
3DC3E439
3D267CFA
3E5FB114
3E3ED452
BD5DB35A
BE58D3D0
BEDADF4A
3E8275B2
BEB37E43
BE80784F
BDD40DE4
3E408FBD
BDDF7D8B
BE4395EB
BE15CCB9
3E5828EC
BE57A49F

