BDC643D3
3EA0C7DB
BED9DA97
BF5646C0
BEC50012
BE9A07B1
BD8F9C1D
BEB5466D
3E7D62A8
BEC68E24
3E841636
3E42710C
3CAD2BD2
BEE30ECF
BC54E154
BE3DF64B
3F0D6FB6
3D367782
BE91A671
3D59426E
BF004C1C
BECDA789
BDF8AA2B
3E82C5AC
BCDE31E7
BE8B67DA
BCD6A1A3
3E5E7417
BE454195
BF2267F7
BEA63B96
BE57817A
BEAA6773
BE8662F9
BED9CD59
BD7994A2
BEE5E543
BE8E4AB8
3D9CF7A4
3E7EAA8F
BE7E034E
BE2A0D14
3C6CA768
3E79ABE4
BE892BC3
BF026B76
BE60DF2A
3F351C55

