3D13D152
3E26FA8B
3E441C9C
BC80959E
3CD4EB61
3E4A7565
3D8988E7
BE3D59D6
BBB73599
BEB76BEC
3D76CA8A
BF0D8148
3DF9426B
3E8AB36F
3CB33574
3B48C01B
3C6DABA9
BE7D58D7
3EC82B3F
3DD8D941
3DF4FEA7
3E4F18FB
BCA31E0C
3E8B5AD6
BBEEC994
BD844ED1
BE88F641
BCFB651C
3DDFE88B
3E8855A5
BDDECB65
BCEF4C03
3C6EB3BF
BC9711C8
3DB7836B
3E063562
3C38DF68
3E51DA6A
BCC406D8
BDA5FC7E
3DC818B3
3E8422EA
3E06D07F
3E25FF3A
BDA5C76A
3D598029
BEBD10B4
3D022B38

