1F3
012
011
1F5
1D9
1FE
01B
003
006
1FA
1B0
1FB
1FD
008
1EF
008
002
1FF
01B
1F9
1E3
1DC
01B
1E2
1F7
1FB
1B9
1FF
000
1DC
1E9
1DE
004
02A
1F2
1EC
1DA
016
1EA
1E6
00D
016
1EE
031
009
00D
1F9
001
1EB
00E
1E9
02E
1F5
1FB
1CD
037
1EE
1BB
1F4
1E3
1B1
00E
1F7
1E5
02C
004
015
02D
01A
01F
002
1C9
1E9
1F7
1EF
1ED
1E8
035
1D6
1D9
1EE
041
019
033
1FC
1DF
000
008
1F4
023
1CF
016
013
065
1D9
1F6
1F9
1E4
1E6
1AC
1EF
1DA
1EC
1E2
1D8
1ED
1DA
1F8
1F1
017
01B
009
024
019
1DB
1FA
1E8
1E0
008
017
1F6
1F9
1F2
1EB
005
1EE
1F3
1FC
028
1D7
1F0
1FF
017
1E9
016
00B
012
1E6
1F5
011
1FD
01D
017
008
1E2
01E
1D8
1FA
005
1E8
004
1C7
007
007
006
1DE
1CD
1AA
002
1DD
1FB
034
02E
012
00F
1F4
1F5
02D
000
00D
026
1FD
007
1F5
1F8
1EB
007
1FF
1E1
1D4
1FF
014
1EE
1F6
03B
1D3
1BB
002
1FE
020
1A9
1ED
014
1F5
1EF
021
1F0
1CE
1FB
1FE
002
053
1ED
001
040
043
01E
047
1F0
024
1D9
03A
01A
003
000
00D
025
000
1E1
1F7
1FA
1D6
000
01E
039
02A
1A9
1FB
007
1CC
006
004
00F
00B
030
01B
016
007
011
009
1CF
1CA
1E7
1FD
01B
1C2
1F9
01A
002
1DD
1DB
002
1F9
00F
1F5
1EB
1F0
1E0
00B
1DB
1EF
021
1F5
1E5
00D
1F1
016
1F6
1BF
011
018
1EC
1DD
1ED
017
1F8
011
1EA
1F6
00F
1FA
010
1E8
1E8
00E
01D
00A
015
012
016
1C8
1D9
015
1E4
00F
1CC
1C4
001
014
029
1E6
023
1E4
1F7
009
032
00B
00C
00D
007
1E4
1FF
026
013
1F7
010
1F0
1F1
1F3
1F3
1D0
1E3
001
1F9
000
1E5
1DA
1F6
1ED
1F1
1E8
02F
01D
018
1E7
1F8
1F9
010
00D
021
1EF
1F5
1DE
00F
010
004
007
00A
1E8
1F6
004
040
015
01E
1E1
057
040
005
1CB
1E6
1D0
04A
02C
1F3
007
00F
009
1DC
004
028
1E6
1F0
012
006
1DD
1E7
1E0
015
00B
1E5
1E9
04E
1F6
016
011
1FA
016
1FD
00C
031
1F7
1C1
007
00F
1EC
1D8
1E2
02B
016
1AC
006
1F0
1EF
003
010
1FD
020
1ED
1F8
1EF
001
1FE
1E7
1E3
012
1DC
00F
1E9
1EC
00C
01F
01D
001
014
1FD
1FA
020
1EE
004
000
1FF
1FB
011
006
006
1F7
1FB
002
024
1F0
1DA
1E0
027
1F0
018
008
1E9
019
1F4
014
1E9
00F
007
1E5
1ED
041
1E3
1EB
1FC
017
1BC
02D
1D9
010
1E0
010
1C4
1FC
1DD
001
1ED
1CA
1E4
1E0
1FE
019
1CD
011
000
016
012
025
004
03E
1F9
012
1D5
00C
1DA
033
1E7
006
01C
00C
022
1EC
022
1E2
1CC
010
1FE
1F5
1E6
1E7
1FA
1E1
00F
1F2
006
1E1
00C
027
040
014
1DC
1E3
014
00A
1F5
021
032
002
1EA
003
00A
1EC
012
1F7
016
007
1F8
000
1D3
1FA
038
013
013
010
012
00D
1E8
005
00B
1EE
02C
022
1DB
046
1DF
05B
002
034
1FA
002
1EC
036
1D5
1E8
017
007
1E7
011
1F8
00A
004
1FC
01C
013
00F
1F7
01E
1E5
008
1F7
01D
1F1
1D4
029
010
1E7
00A
049
003
1F8
1DB
1FB
1FC
00A
1E1
02A
1F7
1FB
1FE
036
1E6
1EC
1F5
1F2
1D4
1E5
009
014
1ED
1E4
1FD
1E8
1DF
1E8
1FE
007
1F2
00A
033
019
008
1FC
011
00C
009
011
009
003
009
011
1F4
004
1E6
017
1F7
1EB
006
018
014
1E6
1DE
011
002
009
1EC
012
018
1F6
004
1D5
1EB
1E6
01E
1FA
1E8
002
1F4
1E7
1E7
00C
1E9
00C
1C0
1FD
000
010
1FF
1E0
032
00E
1E8
1E2
00A
1F6
00D
048
1D0
02A
00B
006
1D9
015
1C9
020
006
1EF
1FA
1F3
017
1F6
1FD
1F5
006
1FE
003
1F9
013
1F3
023
1F6
1C9
1FC
1EE
1F9
022
001
00E
1EE
1FC
008
025
1DD
1EF
1E8
026
005
001
013
001
1E4
1EC
008
001
1F2
1C5
1CA
038
1DE
00D
1E6
026
01D
005
1E4
01F
1F0
1E6
1F8
1CE
1E7
1F4
01A
1E5
1E7
00E
006
1FC
1DB
002
1DA
011
1F2
1E6
004
1ED
013
1E4
027
1F7
1EB
01F
00A
014
1FF
017
1EF
1FC
01F
1FC
01F
022
1FD
000
1D5
1C2
1EF
006
1B0
1F0
012
005
007
1F8
00A
1FC
00F
003
019
00D
02C
1AA
011
004
1FF
010
00A
012
1E7
00D
1D6
015
1D0
1FD
1F6
1D2
02A
1D3
1C7
1F0
1E5
1E3
1E6
1FA
00C
1DF
1EE
1D7
1FB
004
1E9
004
1E9
1F6
1E0
006
1E7
1CD
1F8
003
1EF
1EF
1E7
1DC
012
1E3
01B
1E4
1DE
1FE
01D
001
008
017
1F6
00E
1A9
02E
001
006
019
012
005
1F2
009
1E3
003
1DF
026
1EA
00E
194
021
1E0
001
1E2
1EA
1D7
012
016
1F2
003
01B
00C
006
035
01E
1F4
022
014
1D7
1F5
1E5
032
02D
00A
004
019
008
010
000
1F9
1F3
1FB
1E4
018
1E8
023
1F7
007
03F
1D0
1D6
003
041
007
018
1FB
1E5
015
017
02C
1AD
024
1CD
002
01B
00D
019
010
1DF
1DC
00C
1E5
1F3
1CD
1DF
014
020
1EB
1FA
038
019
015
017
023
1F6
1FE
1D2
1EF
1FA
004
017
013
1EA
002
1FD
025
006
01C
1DF
007
01C
1E7
1FD
1F3
007
1F8
1EE
1E1
004
01A
1DC
1B6
1CD
01E
1EA
00B
1E7
1FD
005
1F9
004
1ED
1F8
018
1F3
024
018
01A
1F0
1FA
1F6
1ED
1D3
003
1D8
002
1EF
1CC
1F9
01B
03D
002
1E3
01E
00F
1E4
005
009
1E1
010
1E3
1DC
1F7
008
01E
00C
036
00D
016
00D
030
1AD
01C
1E1
00E
1AC
031
1DF
1F2
1CE
1EA
00C
00D
01C
019
1FB
012
013
010
003
00D
1CC
026
1B6
015
1F2
02F
006
021
020
1FF
017
1DD
005
016
1D1
1D6
1A9
016
1F3
1CA
1F6
007
028
1A9
1E2
004
1FD
012
02C
1F8
1D7
001
031
02B
1ED
055
1F2
1DF
1E9
1FF
1FA
039
1C7
014
006
1EE
1FD
1FF
023
032
1EE
1D6
1F0
000
010
008
012
1DA
006
006
025
1E8
016
02E
1DC
1C5
1D6
1CC
1E2
1FF
1E7
1FE
001
014
1E2
003
004
1E5
1F7
028
1E8
1FD
013
017
00A
016
1EF
1D7
004
011
1E9
001
1EF
1E8
1F6
1DF
1F6
02B
00A
01E
1CE
004
1EC
01C
1E4
019
001
00F
1D4
1FA
1E5
1F3
003
005
1F5
1E5
1E6
012
00E
1FC
1E1
1E5
1EA
001
1EC
039
008
1F3
1EB
034
1DF
001
1E3
1ED
1DD
021
00A
1F8
1F3
1F0
1DC
00B
001
1FD
1DB
1F9
1E9
012
1E4
1F1
1CF
1FD
1F9
1EB
017
019
01D
1FF
008
1FC
015
1EE
1EB
01E
00D
015
1B5
00B
1D6
1DF
01C
000
005
1C9
1E8
1E3
1EA
1F8
00F
1D7
035
002
019
1DD
1C1
016
1F9
012
1DB
1EF
1FF
05F
00F
013
05A
00A
1FF
002
1F3
1F5
011
187
1F6
1F3
017
1BC
1A4
046
02E
1D8
1E3
010
004
1F0
1B8
005
014
1AF
047
00A
016
1ED
1F9
00E
1FB
1F3
1F9
1E2
024
1D7
1E7
00D
00F
019
1DD
1F9
1EE
1DC
016
003
1FA
1E9
1DA
1FE
1E0
1D5
012
1E4
00E
014
1EE
003
010
026
01B
1ED
1F7
008
1E2
009
013
009
1D8
004
000
1DF
1EB
1DA
024
012
1E9
002
1F1
028
1F0
1A7
018
001
1FF
1D9
1DE
1BD
015
1CE
1C7
1E5
05D
005
1BA
1DC
1BF
057
075
040
01E
02A
1F3
1C3
19C
1CB
1D6
1D1
010
1B4
014
1D5
1DA
00B
093
1D6
1FA
002
017
1EC
17B
089
04C
1D6
024
042
1D4
007
035
012
000
00D
1FD
1DF
1D1
015
1FA
00A
1E3
005
00E
034
00B
1F8
00D
1E9
001
003
1D5
026
008
024
1FE
1F0
1FC
022
028
1F3
011
1D2
004
011
1FA
1EC
1D7
1F6
001
008
00E
004
1FD
1D8
1D5
1F4
1CC
1DD
1FE
1F6
021
1FD
1FB
1DE
1E2
001
027
1D2
1F1
018
013
02E
03B
003
1C6
1FD
1E6
019
1F8
02F
1E8
1D8
019
1EB
1E3
00D
038
03D
1F5
1F6
000
1FD
014
1DE
1E4
1DC
1E0
010
003
1DC
1F2
017
1F3
1F9
1E3
1F3
021
00F
1E3
1F6
1D1
013
1FE
033
1F7
008
1FC
028
1FE
1F1
1FA
013
1EA
013
1DE
000
1D8
1FB
1E7
019
00A
1E2
1EE
1F9
1E9
025
00E
1FF
020
1FC
01C
1FD
1EA
012
012
1F6
01A
002
1FC
019
000
1FB
00B
017
021
1F9
1F0
1FF
1F3
00F
007
015
1E1
1E1
1EE
00C
041
19D
1BE
1FF
038
034
01D
1FB
1E2
008
008
1FF
00E
1F5
186
1FD
014
026
019
000
035
038
1E7
1E3
014
00E
1F4
1D0
1F3
1ED
1C9
016
03A
011
1C9
014
020
1E0
1FA
1B7
1F3
009
1B6
1CF
1DC
026
1F6
01F
1FF
1DE
022
010
002
1EC
01E
016
018
002
1D3
1E9
006
00E
1F9
009
1DB
1F5
02E
1E1
1DD
1F0
022
1FA
1CC
1DB
1EF
014
1FF
004
1E0
1DE
1EE
017
1EE
1F7
1FA
02C
1C8
1DD
1CC
1EA
02E
1EB
002
1F7
1EE
023
1DB
00D
003
1FA
1D1
033
1F9
028
1EC
1E9
014
016
1DC
1E7
1E9
018
00E
1E6
001
1D7
1F0
000
1E9
037
1F5
028
1F4
001
1E4
017
1EF
01C
01A
1F6
007
01A
1F9
1EF
000
1FE
018
009
1F3
009
1E0
1D8
1E8
004
1FF
00B
1EA
01B
009
1FE
1DB
1FA
1E5
015
1BE
008
008
013
1FE
1E0
1D7
1F1
1FD
00F
1FE
1F1
1DA
1ED
1E4
1F7
01C
005
01B
00C
1D7
1DD
1E8
02E
001
1F4
006
022
025
1E0
1DA
1F0
012
1FD
1FC
013
002
1E2
1E9
00F
01D
00C
1FB
1EB
010
1EB
02E
1E0
042
1C5
03A
1F6
002
01B
1E8
1F4
1C0
013
1F1
032
1D4
1E4
044
1DA
1E2
1FD
052
025
010
001
011
1E5
1E2
1E3
1DF
02F
01B
029
013
001
1B9
015
1D6
1F2
009
1EE
025
02C
1F5
00F
1EB
024
1EF
1D1
007
001
039
1C0
010
1C3
054
010
1EF
1F9
008
1F2
1DC
1EE
1E5
011
001
1E8
033
001
1EF
1F0
01F
1F6
012
1D0
028
1E0
003
1A3
1BE
014
01D
004
014
1EB
1D1
008
1F1
1FE
023
1C2
02A
045
002
1EF
1D1
03F
1F4
043
1FD
1F5
1E9
02D
1AC
030
1AC
00C
1E4
011
014
1F5
1FE
01A
007
1D7
1F0
004
1E6
1E8
015
019
1F0
01A
1D7
02E
1DC
02F
1F1
019
1FA
1E7
006
023
010
1EB
017
1FC
025
1F3
004
022
1D9
1E3
1DD
1EA
003
1E7
1FF
013
1DF
1FF
1EE
02A
013
1E0
1E9
041
1FE
017
1CF
1F3
1FD
1EB
1F7
1E5
1F0
016
1D1
1CC
1E5
021
1E4
1FE
1C2
01F
1E7
1E5
1EF
043
017
00B
1F2
1F4
01B
1F6
000
036
021
1E0
1A3
01A
005
1E2
1F7
1CC
1F6
1EF
1EB
01C
011
1E7
006
00C
1F2
00F
1E5
1FE
1F3
006
1D4
1DB
1FF
1FF
1F2
1FB
01B
008
1E3
1FE
1FC
005
008
00D
004
02B
1E2
01E
1EB
004
027
00B
1E5
1FE
1FB
1F3
1EB
1EC
1FF
006
1DB
02A
1DD
1FA
00F
1EF
1F9
1CA
1E2
010
01B
008
1DF
018
004
1FF
1D3
021
010
027
1EA
1D9
1E2
009
001
1D5
1E8
00E
1FA
1E8
1F4
013
1EA
02C
1E2
02D
1EC
1CB
00D
00A
027
001
1F3
1EE
000
1F9
1F2
004
1FA
011
1F5
026
001
015
002
1E4
1F8
1DE
1E2
1B7
1FD
1F0
1EC
1E2
02B
1D2
001
1CE
1DB
02F
031
1E4
1C6
016
004
051
01F
07D
016
02F
1F5
1DD
1D4
186
032
1C4
1F0
1B6
017
018
1E7
032
028
1F3
04B
001
1EE
065
19A
1EE
04D
1AC
00D
1E3
02B
006
1F8
024
1F1
1F7
1ED
1E9
1F4
1F2
01D
019
1FE
01D
008
012
1BA
1EF
1D9
1DF
001
00F
007
1E7
001
000
1DC
027
00B
026
1FB
000
1E0
1F6
1E5
001
1E4
01A
1DC
003
1E7
1E3
1D9
1F9
01C
1FD
1D5
1EB
1FE
009
00A
1EB
1F4
1EC
1F3
1CB
1EA
1F2
1E6
1E1
04E
168
027
1EA
1A2
020
038
00B
1AC
000
1DF
00F
073
050
022
02C
1FD
1E2
1B8
1B4
007
1FC
1FE
18B
1F9
1DB
1C8
02E
08C
1F2
031
00A
1D4
009
18E
03C
04F
1EB
025
03A
002
003
03F
020
1F6
014
004
012
1F9
1F8
01D
1EE
1F1
000
00F
017
00E
015
1FC
1E6
002
01A
1E2
1EA
021
00D
014
1F8
00A
008
00B
1E0
00F
1FD
001
1E7
1E8
1E9
1C3
021
015
1FA
1F8
1F9
027
1F2
1F2
1F7
1F9
002
000
014
1D9
01B
1F4
1F3
00C
1F8
002
016
1FF
1D6
016
003
1DB
016
1F0
010
002
002
1E5
1FA
009
01E
01F
012
006
1EC
1EC
1DD
1F9
1D5
1D9
1E6
006
1F5
002
00F
040
018
004
005
1DF
00D
1D8
1F8
1EF
1EC
025
00F
002
1F7
1EA
1F3
1FB
1EB
003
1EF
1E4
1F2
1F3
1D1
008
005
1E0
1EC
00E
1F3
1E0
00B
1E7
010
031
1F0
004
009
1DD
1DE
1F9
1E2
018
1F3
007
1D4
1F7
1E9
1D0
007
028
1FA
01B
1EB
009
1E6
1E8
03F
00A
1D6
004
036
1F8
039
01F
01F
003
006
011
00E
00C
1E4
00F
017
1FA
1FD
1E7
1F3
1DF
00A
022
1EB
001
1F5
1D6
1E6
1FF
1EE
1F4
00A
028
026
024
1F3
011
01D
1FE
1FB
1FA
1F5
1E8
021
1FB
1E8
008
1E9
024
1C9
1EE
1E3
1ED
1EA
012
01C
1EE
1FB
1FA
01F
006
00A
028
01B
1FA
01C
02B
00F
1F6
01C
1C2
1DD
01B
1E3
02A
00A
1CD
005
003
1E8
1EB
022
017
021
1CF
003
1E5
02B
1F2
016
009
00C
1D6
008
00D
008
017
015
1DC
1DB
1C6
1F6
1F6
1F6
1F2
1DF
001
1F1
1DB
032
1EE
1ED
1F8
016
1F7
002
1EC
1E4
001
019
1F8
1E2
024
013
019
1D9
1EE
003
008
010
1E2
01A
1FB
002
00A
005
1F6
039
1EC
00D
016
1DC
007
02A
017
003
03D
1DF
020
1F4
1D8
007
1CE
1E3
007
01D
001
1E4
00D
001
1E6
1ED
1C8
1F8
006
000
1E1
03C
1F8
015
00D
1E0
1ED
1FB
1ED
1DC
1F0
1F3
1E8
1F7
00B
1CF
011
030
1FC
001
1FB
1FB
012
001
1FC
1DF
1D8
01A
028
1DC
011
005
013
1D5
023
009
1FB
1DF
1FA
012
1E7
012
1FF
011
013
1EA
1E7
017
1F8
1CA
00C
016
1A5
054
1FA
1E9
012
1E0
03B
056
1ED
022
037
015
1F4
009
004
1E5
013
1C9
1DD
1F5
1F3
012
018
02B
1EB
021
043
1E5
1EF
034
17B
1C6
00D
1D6
1FE
1D4
011
023
003
002
1EA
1B4
1EB
012
027
1A8
032
1C6
03F
1F1
003
1BD
024
1E5
01B
1F3
1E9
015
018
1E2
035
1F2
001
1F1
01C
1F7
017
1C7
03C
1E9
1FE
175
1C2
029
01B
1F8
009
1E3
1E5
1E8
1E0
02A
01D
1BA
037
055
024
02E
1DA
046
1FC
014
1E3
1E3
1E9
008
1E8
02B
1C1
1F5
006
1F8
1EF
016
1EC
00F
013
1E3
012
1FE
001
020
005
00B
008
00C
011
1F5
1EB
1EB
018
00C
1FE
1C7
01C
00B
009
009
005
1D4
012
02C
003
00E
1DB
016
1D7
00A
016
1F5
1FA
02B
1E8
1E8
009
018
01D
019
1D5
007
1F9
1BB
1EF
005
00C
1E1
1DE
1BE
01B
00E
1F4
1F1
1EC
028
1E7
01C
1EE
006
001
014
005
019
1DF
000
014
1F2
1F6
1F0
1E1
1BE
00E
016
002
009
038
1D4
1DD
1C5
1CD
016
1EA
03A
1DB
1F8
1E3
00A
004
006
1F8
1E5
1EC
1FC
1D1
1FD
011
1FA
1F6
1E9
1E2
1F2
1E8
1F9
00B
010
00D
023
018
031
004
00E
1FF
008
1F4
1FE
003
1F4
1F2
1E7
1FA
1FC
039
1FF
1EA
003
1F4
1E6
1F1
1D7
1EA
1E4
1FA
006
003
016
1E6
014
003
01A
1ED
02C
1FD
1FC
1FD
007
01D
1F7
1EB
013
1E0
1F2
001
1F6
1FC
005
023
003
023
00A
012
000
1E1
000
009
007
1E5
1E3
00D
1FA
1F9
1F3
018
1FE
1EB
022
1EB
00A
1F7
1E8
1EE
1FA
1E1
008
1F7
011
1D3
001
028
1F0
1F4
00D
1CD
023
00B
1E0
016
1E7
1EB
02A
1E1
02F
1F4
1E0
1F0
1EE
1EB
1E0
023
1EE
1D0
1CB
00F
01D
003
035
1FA
1EC
008
1F1
1F8
016
1D1
1E5
006
001
000
1E4
020
00F
1E8
00B
009
008
1E5
003
001
1F7
1FB
1FF
1F2
007
000
1FB
1CE
00C
027
1ED
004
1F4
1F9
1FB
002
1F8
006
00E
019
1FC
1FA
015
1FE
1F0
016
024
017
016
1FF
1FF
000
1EF
1FB
00D
021
1E2
1DD
1F7
002
001
1E7
1F4
1DD
1DC
00D
1F5
1F8
1FA
009
1F7
1F7
1D1
039
005
199
01C
018
1F1
1C8
1DD
1E5
00C
023
1F5
01E
1F5
005
1E2
016
1E6
005
1F4
1EF
1DF
1FF
000
1BD
043
00B
005
00C
1E2
1E6
02D
1B3
1F7
005
1F2
00D
00E
1FF
00D
1FD
02A
001
007
1EC
016
1FF
1E7
01B
018
1FB
009
006
1FE
1EC
1E6
01C
002
00C
1C8
1AE
1D4
015
1FD
1EE
1F9
029
02B
00B
013
024
03E
1E1
1F7
1E9
011
1B0
011
1EB
1EA
1E6
1EF
027
1DC
1FE
009
1F8
1F3
1F8
010
1E8
1F8
1DC
00F
1FE
1F0
029
00A
006
1F1
002
1E1
1B6
021
1F9
1FE
006
1E1
1EC
02F
027
006
014
005
1F0
1FE
1D5
1EE
1F7
1E9
1F9
012
1F9
00B
020
1FD
00C
017
006
1E9
008
00B
1F0
1FA
1FF
1FE
021
1F3
00D
002
00B
002
1E6
1D5
008
1E2
1FC
196
030
1B1
1FE
1C5
1DE
1B2
00F
002
00F
007
1B4
00B
025
1E4
005
007
1E3
1E1
1E9
1CB
030
1D9
043
1D2
016
187
1C2
03A
01C
1E7
01E
1F9
1CC
1BF
00E
068
033
003
015
073
02D
036
1DE
055
009
021
005
1FF
1BD
021
1D6
1F7
1C4
1EF
1ED
1F8
1DE
015
02B
1F7
01D
1E7
1EA
00A
1F3
00E
1FE
02A
1FB
1F4
1EB
012
015
1E4
014
022
02C
005
1C9
011
002
1E3
1FC
01E
1F5
1DC
1F6
008
1DC
1BE
003
1E5
1FF
1F3
1E8
021
008
1E5
006
1FA
00E
00E
000
1FA
00A
010
006
1DD
026
1F8
026
014
1E1
003
1F7
1F6
00C
023
002
01D
1EE
1F6
001
1FF
1E4
02A
00B
1E3
1E4
1F9
005
003
012
008
003
1E3
1F4
01E
004
1DE
008
009
000
1DC
002
004
1EF
013
003
02D
021
01C
00D
1D4
1DA
1FD
1EF
00C
030
004
006
005
1E4
019
1F2
1F3
1EB
004
010
006
1FE
1F7
1F0
002
011
010
008
011
1E1
006
1FA
1EB
013
1F8
00D
1F0
1E1
00F
019
1CC
03D
00B
1FC
007
00A
1F5
013
1E9
1DC
1F4
00B
007
1F0
1F2
037
1DA
001
002
1DD
002
1ED
1DE
1FF
1F8
1DE
1F7
011
007
016
034
1D8
00B
018
00A
017
1E6
1C5
1C8
013
1FA
008
1F0
1EC
1DF
049
012
03F
012
1EA
001
012
1FF
003
1F6
1F9
058
1E9
009
1FD
056
1D8
1B1
1F3
013
190
06D
1EC
010
002
1E5
046
03E
010
019
1F6
00A
1F4
01E
1EE
1BD
010
1DD
1BD
1FE
012
055
02B
1FB
001
036
017
011
1FC
041
1AB
1CD
1E1
1EF
1D9
1E9
1F3
00C
02D
1E1
1F6
1D4
1E7
1F9
1F6
1DD
00E
1BD
030
009
1BF
1E9
1EB
1FF
012
1EC
1B3
025
01E
1BD
1FB
1C0
00A
1FC
028
1CF
00D
1DC
003
000
00C
193
1E0
023
009
1D4
003
1FB
1C7
006
1ED
034
1FC
1E8
015
042
047
1DB
1F7
02D
1E5
00B
015
1EE
1D4
01A
01B
1FB
023
1F2
011
1CF
004
1FB
01C
00B
1BA
1F6
012
1CD
1E4
1D4
014
027
1E9
00E
1D5
010
00B
02E
00E
1B4
1CB
1B8
01C
1D6
1B4
010
036
1B9
036
02E
1FD
015
012
03E
1F6
02B
002
1EE
1F7
1F6
1FA
005
02C
1F2
009
005
1F9
1E7
007
1D6
00A
1DE
00B
1F9
1EC
1D4
1F8
1DB
1F2
1E5
1DF
013
022
017
00C
1E6
010
013
1FF
1ED
1D4
1DB
018
00E
1CA
000
010
1E6
00C
02D
021
006
02C
019
1F9
1EA
1E9
022
1E6
1E4
1EE
1FE
1F6
1ED
1EE
003
018
1E9
002
1DD
1FD
1F0
006
1E8
007
011
1E2
1BC
004
007
005
008
003
004
1FF
1FA
00C
01E
014
1E8
1FA
1EC
1D8
1FD
1DC
1E3
1F4
1EE
01F
00E
1BB
1EE
00E
00C
00A
1E3
1E1
1E1
1FD
1F1
1FB
018
1BF
021
1E9
016
1CE
002
033
1FF
029
1F5
008
1DF
00D
1EF
019
1E8
1EA
003
1FA
1FE
016
026
1DB
008
1F0
1F2
00F
005
1F8
1DD
1E6
00C
1DD
1F7
015
1D4
1F0
004
003
025
1F0
00D
1ED
1E8
015
1E8
1E4
00A
1E4
006
1F0
000
004
017
1F4
009
1E8
017
1DB
1FE
1F5
009
1DD
009
1F2
1F6
1E4
1E8
1F6
004
012
1F6
1E5
1EF
1EF
1D2
1EE
003
1F6
1FA
1F0
008
1E9
1EE
1E3
019
1F9
1FC
1F1
00A
1FC
1ED
000
1F8
014
1E8
1DF
007
1F4
012
00A
001
00E
003
1FD
00E
00A
1F8
1E2
011
023
00B
013
014
005
1FE
007
005
1E0
01D
1F9
018
1FE
00D
1FE
1F8
1F2
018
1FF
1FF
1E7
1FE
1F0
010
002
1F3
003
1F5
1CF
019
012
013
1E8
1FE
1F0
1FB
1D9
010
1F5
1EA
002
006
00A
1F5
01E
02E
1B9
009
01C
1E3
1E1
1F0
1F7
1ED
1FD
021
01C
1FF
00F
1F2
015
00E
006
010
012
010
1E6
00E
000
004
1F6
00C
021
1FD
00E
01E
1D7
1D9
008
1F5
01E
1E6
1F4
1FD
00C
00E
014
006
1ED
00B
1F9
1F5
014
00D
00A
011
00F
1E4
1F3
1E4
010
012
1F5
00B
1DD
1E4
1D8
1E0
1E2
00A
00B
008
1FF
01B
00A
1FE
016
01C
00A
1D5
1C8
1FF
1F3
1DD
1F3
006
014
007
1E6
010
011
006
026
004
1F9
1EF
007
1DE
015
007
009
012
1F6
1FF
004
1E7
18D
1FF
033
1E2
015
1E7
002
01E
1EC
003
1D2
1D8
1F8
005
1D1
199
00E
1E4
1DC
006
1E6
008
012
1F3
005
1E8
1E4
1ED
00E
005
18A
1E3
1E9
1EA
1ED
1FE
01E
02B
004
1F5
017
148
1F5
003
039
12F
02E
179
066
1F3
039
19C
1F0
1F5
1E1
1FB
195
07A
03F
195
054
1E2
017
1F3
005
1E9
1FC
1B8
029
1FD
002
17C
1B0
028
011
1ED
1DB
1F6
19A
007
1D2
074
01E
1BE
00A
0D1
03B
1C0
1BC
1F9
1F9
025
1ED
1F2
1E9
028
002
00E
1BE
011
16C
013
023
1EC
029
1F7
007
1BB
008
03B
1C4
1D8
008
1FA
001
1E0
009
1F7
1CC
1F4
1FC
027
006
1FF
1FE
1DA
013
1F8
035
1F1
1D9
1F0
1FF
1FB
1E5
1DD
02C
003
1E4
003
1EB
1F1
1FF
1E9
007
00E
012
00C
1E4
1DF
1E0
1EE
1E9
1F1
00D
1F9
010
011
1EB
1EF
000
1F8
006
1F8
1F1
00A
1F3
00B
1FE
000
1F5
026
03F
1EA
1E6
1FA
1D3
001
1ED
1F1
1F2
1EB
1CF
01B
1EC
1F5
019
007
004
1F2
1FB
1E4
014
017
010
1E0
016
021
1F4
1B4
1E6
1EF
1EE
00B
1EA
1E3
1DF
1E3
005
1BD
1DB
1E3
005
1FF
1DE
1DA
1E3
1EE
018
014
012
1DA
1F8
1F7
1D5
1F3
1B4
006
010
1E8
1D3
00A
011
026
02C
1F9
01B
1F6
002
021
1FC
006
004
018
006
006
1D9
1EE
01D
008
1EE
008
019
1E4
025
017
00B
00E
1D6
1F3
1FD
1EA
1E8
1F8
1EC
00D
009
1FD
1DD
00B
1EF
1FB
1DE
1EB
1D0
020
1D1
1DD
011
006
1EA
1D0
1DA
1E8
1F8
1C5
010
000
008
1FB
1E2
1FA
1F3
010
1F6
1F0
1DA
00F
016
1EE
038
1C3
1F0
005
1DA
000
1E7
01B
1F6
1C9
1E3
1EF
1EE
1F2
004
01A
002
01C
00B
011
1EB
1E5
003
001
1FB
1F5
1F9
1EE
017
1DB
01F
023
007
019
1EC
041
1EB
008
00C
009
1EB
024
1E3
003
01F
00A
1E6
025
1D1
1F6
003
1EE
00C
013
1F9
1EB
01D
1EA
02B
1E4
1D8
1E7
1EF
1EA
1F4
01F
1E9
1E3
029
03E
1FB
1E7
1EF
1EF
1EE
005
1D0
1E2
005
1BF
027
00D
017
012
1F6
1EE
017
1DE
022
003
1EA
012
003
005
010
014
01B
012
000
007
1B6
00F
1F7
1E9
1F7
1E9
1EC
1E4
028
1E7
1EF
1F9
014
00A
015
1F0
1F1
1F5
1AD
1DB
001
008
1F1
00F
1E4
1EC
1EE
1F6
1E9
006
1FA
1C7
1EF
1F4
1FF
1D2
1FB
000
1F0
004
00A
020
1DD
1E3
006
02F
1EF
02C
011
1E0
193
019
00E
1F1
1CB
1E5
1F0
016
1F7
004
1F7
000
1FD
011
1FD
001
1CE
004
1CC
00E
1F7
01F
1EF
009
01E
01E
012
005
010
00F
1F4
1AA
1FB
1F8
003
1BA
1B3
00B
00B
1EA
1DB
1DE
1F4
018
00A
00C
1FB
018
019
1BC
1E5
01D
000
1EA
01F
003
1F4
1F6
003
1FF
008
1E3
1FF
021
1F1
1F7
1D5
000
1D4
020
00C
1E5
00D
1FE
1F7
1F5
1C7
016
015
017
1FD
1D8
1E6
1D5
006
1D0
011
034
02B
014
1FC
02A
00A
005
01B
026
1E5
1FC
008
009
1BA
025
027
01B
00A
00B
1D9
1CE
1BE
00C
1E7
1DA
1E7
030
018
01D
1C9
1FF
1BA
024
1E4
019
1F6
1DF
1CA
1CB
1DA
1E6
001
00B
1F0
1E3
1D6
1F7
01A
1F2
1D5
1CB
1D9
030
1EB
008
1DE
1F4
033
1E5
003
1FF
00C
023
02D
1EE
016
1EF
007
1F2
010
003
1D2
007
032
1F6
1ED
008
02C
02C
1F5
1E9
1F1
1DB
016
1F1
1E2
1F5
015
009
010
01A
1F6
1EA
1E1
1F9
01B
1E9
015
1E1
1DD
003
1C2
015
015
00E
1EE
1FC
012
1F7
1E4
00F
021
1D6
1EE
012
1D6
1EF
1FF
1ED
005
1ED
1CC
1D4
007
1E0
017
00C
020
00F
1DA
1E5
1E3
046
009
1ED
1E0
1DB
1F2
1FF
1F1
1F6
045
00E
015
1BD
029
1E4
04B
1FC
1EA
1F9
1FC
1F3
1E3
016
016
1FD
1CD
030
01E
1C6
1A4
1EE
1E1
03E
00A
009
1EC
008
01B
1D0
029
040
1FA
021
00E
1F0
1D8
1EB
014
003
049
1AE
017
007
051
036
009
02B
017
014
002
001
1F6
001
05B
025
1B3
00D
007
016
1F1
1F4
1E7
016
1F4
006
02F
018
1D8
00A
016
1F6
02A
1EE
021
014
1F6
1FB
1FA
1FA
1DD
1DA
1F0
1F0
010
01B
00F
01E
1E3
1DB
1FF
03E
1F8
1F2
1DA
1C3
1FA
1FB
1FA
1DF
00B
1F3
01C
1E7
1E3
006
015
1D9
019
1F2
001
1E0
004
1D9
1FE
1E9
002
1E3
1E6
014
01E
1FA
013
1DC
007
1E7
006
1E1
003
1F6
1F2
1E2
001
1DC
1DE
00C
00F
01A
1DF
1FB
01A
027
1F5
1D7
1F3
01B
1EE
005
1F1
007
010
00E
012
020
1FB
1EB
024
00D
1F4
00A
018
00C
1EB
000
1E1
1F4
1EC
1FD
012
1F5
00D
1E4
001
1E7
1FB
00C
1F4
002
00A
00B
030
011
1F8
013
008
1F9
1F4
1ED
1BB
005
014
1EA
1EB
00C
005
006
016
011
1F6
008
1FE
005
004
022
01E
00C
1ED
01A
004
015
029
1EB
1FB
1ED
1F3
1F2
058
1D1
1DF
1F3
053
1EA
1F7
1A4
1E7
000
00D
1DF
1D8
00D
014
18D
1FA
1C6
1E3
01E
013
011
013
1D0
00D
03B
00E
1B6
1B4
1D6
1E9
1D6
19C
1E8
015
1EB
1ED
00F
1DD
1D0
037
007
1EC
1FB
003
02E
005
1E7
1FF
014
044
015
1EF
033
02A
001
1C2
02F
007
1EB
1F3
012
01F
01A
1AF
1CE
025
1EF
1FF
012
00D
01F
1CB
1B7
1D4
1FC
012
036
1D5
1DC
1F9
00B
1D5
1FF
057
028
1EB
1A1
00A
1C4
025
1A8
1DC
007
031
1F0
1ED
1BE
010
014
1CC
1FB
021
1EA
1F8
1EE
1DE
1D5
1C6
1F3
001
1E9
1D5
1FC
034
1C9
1DB
1E2
1E3
1F0
1C7
1D3
1D7
035
002
051
1DF
1C1
1FF
1FA
1F2
1D2
1DA
010
020
1B9
1F5
029
1F1
031
1FC
025
1F6
00C
00A
1E6
1F8
1FA
00A
1F7
1FB
1F3
010
1F9
014
010
007
02E
1FC
1F0
1EB
1FB
1FD
00B
1DD
013
009
019
00D
1FB
02B
00D
009
1DF
015
1EF
003
1F5
1E5
1E7
009
011
028
1F3
1F5
00E
008
009
018
1CF
01A
1FF
000
016
1E5
028
1EA
1B7
1E0
1EF
016
1E5
00C
1F4
01B
1EB
01A
1C6
1E5
1FD
000
1F2
1FC
1FC
003
1BE
000
008
1E5
1F0
1FA
1FD
1EF
1FF
1F9
026
1EE
1B6
1FB
1DD
1D7
1DE
1D5
1F9
016
1DB
00C
018
1E8
006
014
038
1F7
1F1
005
013
1E8
030
018
012
1F3
01F
1FF
02E
1ED
1D5
019
1F9
009
017
006
1FF
00C
1D0
016
1D8
1E6
011
1EC
1F8
002
013
011
005
00E
01F
007
018
1FB
00F
1F8
024
1DE
00F
026
1E8
018
00E
022
1FD
009
021
005
010
1FD
1DC
000
029
001
015
1FE
00E
1FF
1EF
1FD
000
1ED
1FF
1F4
1ED
002
00E
00C
1C8
000
00F
01A
00C
1EA
1F5
007
007
1EB
1E7
029
1FC
1FA
1FE
1E8
021
002
006
000
1FB
01D
001
1F5
01A
00A
1F1
005
1DB
012
1E7
1E4
005
005
03A
1FE
007
022
011
1AF
00D
01F
1FF
1BB
014
006
004
1DA
008
00C
1EC
1D3
02C
012
01B
1F5
016
00B
1F6
1CD
1E0
1B7
1FC
1F0
01D
1F2
1FA
045
025
1F0
1EC
025
036
1AF
1AF
1CA
1EC
017
1AA
1B9
1C7
009
1FC
1E1
00C
00A
1F7
1F5
004
1EB
00E
1F2
1F6
1E4
1F6
014
1DF
00E
007
007
1F4
1FD
016
009
1F8
1F2
00B
002
001
1D8
1E5
1FB
1EC
1E9
01F
1E6
007
01E
00E
011
017
018
01C
1EB
1ED
1F5
1EA
1F2
1C6
02F
1F2
006
000
1F0
016
1EF
1FD
022
004
1C6
00B
01B
1FA
1FC
1FF
1EC
014
1F6
1DE
014
1D4
1C6
023
023
00A
1E1
03F
034
00D
1ED
1C9
00E
015
006
028
1EC
1EF
009
00E
1EE
1E0
007
1FC
1F6
1CD
007
1AE
1FF
1F5
1C8
1FB
1DF
022
1EA
19D
1F8
012
03A
1B9
006
1C3
04F
042
1D8
1D1
00B
1F0
1D3
1F9
00C
019
1D2
01C
054
039
1E2
1E5
02B
025
03C
1B6
1EB
1F7
018
1FC
1AC
1FF
01D
016
032
00F
007
024
1BF
1E2
046
1B3
02C
037
1E8
032
1F1
020
004
1D0
00E
1E0
02F
006
1F1
01C
045
1D1
1F6
1F8
1EE
006
1DF
1F6
014
007
1E3
1C3
00C
1F3
00C
006
021
000
1F2
1ED
1F7
02A
1F0
1E7
1E6
1EE
1F1
009
1CB
1E0
03D
015
00D
1D1
000
1E7
018
1F5
1E9
1F6
1FB
027
005
1E4
1E4
00D
1DD
1F4
017
1FA
00A
1E6
1E5
1DD
010
1FB
1E6
1FB
002
1DA
049
1F0
1F4
013
1E7
003
1BF
1D8
1C8
1EF
018
1F4
1FA
1FA
1D7
00C
028
1DF
1C6
1E4
02A
01C
00F
021
01B
1EB
01E
037
037
003
014
015
1DB
1E3
003
000
04C
1F1
1D7
004
01F
1F2
040
1CC
005
1E8
015
009
01F
1F4
1D4
011
020
015
1E1
015
022
013
1D4
18F
026
1F8
003
1FE
1AC
199
1E0
00C
00A
00C
032
019
000
1FA
012
1B4
028
009
1F6
1F3
1E1
031
00F
1D5
00B
004
031
1FD
1EE
015
01C
1F5
019
1D5
1BF
1EB
1F4
011
003
1EB
1DF
1B8
01E
1FE
00E
1FB
00E
018
1EB
1E4
1F8
02D
1EE
1ED
1B3
1E0
1F8
1E8
1CD
1F5
02B
1E9
025
005
1D6
1DF
01F
006
008
1F1
1EA
029
00C
1E5
003
1E5
1F2
1F9
017
1F8
023
1EF
027
1D2
01A
006
1FC
1E9
013
1DD
024
1E9
007
011
1ED
011
1EA
01B
1E7
006
00F
017
00E
012
007
008
003
1F3
1F5
1E7
1E3
00A
018
028
007
1F4
01B
1F7
020
1C8
1FB
013
004
1FE
010
1F8
003
1F0
1FD
03D
1EC
1C2
044
1CA
1DE
00E
1CB
1E8
1E9
004
014
180
1EC
1E2
1FA
013
1E0
1FB
1C4
004
023
039
1E2
1B7
011
1CE
1CB
1E3
1AA
1F2
01E
1BE
025
04F
1E0
1F7
1FB
020
1FE
019
035
005
1D2
1F4
1F8
007
042
1F9
1C0
03B
023
1F9
1F3
003
004
1FC
013
1E5
018
018
1DD
1DF
01E
007
002
021
010
1FE
1C9
1E7
003
01F
003
01D
1FA
1EF
002
02C
1E7
006
02C
1FD
00C
1D8
1D2
1D0
00E
1F1
002
1F4
018
009
1D8
1E5
1EA
008
1DB
1FF
1DA
1E1
1CE
1EB
001
1DB
1EE
1F9
022
1F5
00D
005
016
1F3
1C4
00B
1F1
01E
1E6
1E9
1D9
02B
1EB
045
1F3
1F5
02C
1D9
1F7
1B9
1C6
1ED
01D
1D1
01E
004
1DC
022
1DB
1E8
010
006
029
1E4
1D1
1FF
1E7
1E4
002
01B
010
1F6
1EA
01C
1DC
00A
1EC
003
001
1DE
1F5
1EF
1E1
042
001
1D6
1F5
1F7
019
003
1FD
003
1DC
1CC
010
00B
010
029
004
016
026
1F1
1DB
005
1E1
1EB
014
1F5
008
1F7
1F6
1D5
1EA
006
1F4
013
012
1F0
1F9
013
006
00F
1F9
1E5
1F3
004
1C3
012
1FB
009
004
1FF
000
1C1
1FF
1E3
1EB
1E2
010
1F7
039
01C
1D5
04E
001
1EE
022
1E8
1AB
00C
1F3
1DF
028
1EB
02B
009
1DB
01B
1EA
00D
1FB
010
005
001
016
1E6
1FA
1EA
00E
1FC
1F9
021
020
1C2
015
1B1
00D
009
1FE
00C
00B
1C1
023
1D9
1FF
019
1E0
003
1CA
1F8
1E0
1E7
03D
014
1F4
1F7
1D3
1DF
002
1DE
1ED
1E4
01B
1D4
033
030
1FF
1FC
1FF
022
012
1E2
017
007
1EE
038
003
001
007
020
1E0
017
00D
002
1F7
1FA
1FA
00E
006
002
1FA
1C7
1FE
006
1E2
01D
011
011
01E
024
1DA
003
013
03E
1EE
013
1DD
1D0
1DA
027
1FA
1E0
1FD
1EF
027
1E5
1F1
1F9
00D
1E0
1E1
1F4
1F5
00D
007
014
1FA
001
034
1F7
1D4
006
027
015
00E
015
1C7
004
1FA
1EC
01A
005
1BB
001
037
1FE
1E5
01C
01B
00E
1C4
1D0
1FB
1E0
1F0
008
1E5
000
00C
025
02C
017
1DD
020
1FF
1AD
1E5
1D7
00D
1E3
1C8
1D2
1EB
002
1D6
017
006
1E8
027
026
004
023
004
022
1F0
01A
00D
1F4
1FF
004
01F
1CD
1E9
014
1E8
1F4
1FA
013
036
00E
008
00A
1E9
003
004
02B
001
1EB
1EC
024
1F0
1F5
006
1E6
012
1E9
024
002
008
1D3
1EE
1F9
1CF
1FE
1F6
03F
1EF
00C
1F3
00C
1D6
005
015
1F8
02E
1FE
1D3
1EB
019
009
003
1EC
1D0
1E3
004
1E9
004
013
02A
039
1CF
003
1F9
035
1F2
00A
1EC
1CA
1F6
004
1FE
00D
022
1F4
01D
1DE
1D8
016
001
1F1
1D6
1FE
1DF
01D
016
1B7
00F
1E8
027
194
030
1DF
00E
03C
035
1F6
038
1E6
017
012
014
003
1BD
047
041
004
1EA
1E9
025
1F9
043
1D0
030
1C8
1EF
005
1EC
035
010
025
053
1EC
1AB
058
1EE
1C7
011
1C5
005
02A
034
1D6
1BC
050
004
1F2
00F
1E2
02E
001
1F3
1CD
025
1C8
011
1F3
001
012
008
1F8
002
005
028
1D6
00C
1D8
1EA
1EC
1F8
1F2
1D9
1E9
1EF
038
1E7
1EE
1F4
1F2
00D
016
1C7
1E9
022
005
012
1F4
1CC
004
029
005
028
1F2
1F8
1F1
008
1C9
1F9
1EF
050
1D0
003
1EA
031
1E6
00B
1E4
022
1DC
004
00A
020
1F7
001
00B
01E
00E
1EF
015
1F3
007
1EF
1D6
028
00D
011
1EE
1BB
1FB
00D
032
005
014
020
1F0
1F2
031
002
1D1
01B
045
1F9
01F
002
029
00E
1F3
1E0
012
000
1FA
1E4
1FC
012
00C
028
1F1
023
00D
012
1FF
011
00A
1BE
1E7
1FF
1F5
005
00F
01A
1F5
02B
1D9
018
1FB
1E5
1FD
1CC
00B
1F0
022
1F8
001
1EF
1E6
009
1E1
027
1DB
016
1EB
1F4
1E1
1C3
012
010
027
1F4
1DE
1E6
018
008
013
1EF
1E8
020
007
1D1
1F1
1FA
1F7
009
006
027
1C5
1EC
1E4
01B
1FC
1CD
1E1
1EF
004
1F5
030
1E5
00F
1F8
1E3
1DC
001
1D5
00F
02D
1D8
01B
00D
1DE
018
002
1E1
03F
001
016
1E2
1DB
002
1F3
007
01C
010
00A
014
019
016
1EE
1EE
014
00A
1F2
1FC
1FA
1D4
1E2
017
1F8
018
1E0
006
00F
000
01E
1F7
00D
1F7
1FD
018
1D6
1FC
1FA
01F
023
001
1F7
013
1F5
1FB
02F
1F1
022
002
1F3
1E6
1D1
031
1E8
007
00E
005
1DE
1FC
005
001
1DB
1E2
01C
00C
1D0
1FC
1F7
1F7
00F
023
1E7
1AF
01A
1EB
009
1F2
1E8
1F0
00C
00B
1ED
033
1F4
1E7
00C
1FA
1CE
008
1E2
1EC
00B
1ED
00C
004
00C
1F1
003
011
1E5
011
1F1
009
00D
1F1
1EF
1F5
03E
013
1D5
1F8
01C
00B
006
004
1DE
1FB
1DA
005
00F
1FC
1F8
1C0
1F4
1E3
1F0
00A
013
016
1DE
1FA
001
025
1F6
1FB
00D
1DC
1FA
000
1FC
00B
024
001
1FF
1FD
1DC
1FF
1F8
1FE
1EF
1FB
1ED
1DC
1F9
1F7
1E6
012
1E2
01B
1E9
01F
1E1
02A
1C4
032
1EB
00C
1DB
011
1E7
007
1F9
1E3
1D5
1E1
1D7
01E
1E8
1FD
1FC
011
1F0
1FD
012
1EB
027
02A
00D
1BC
1ED
012
024
015
1FA
1F3
1F9
023
1D6
1ED
1E2
00D
00B
1D9
1D8
022
1F6
1F9
1F0
058
01D
03B
1FD
02C
1B9
1FD
1E2
1ED
1DC
00D
1DC
1E6
00D
018
1F4
19F
1EC
1D6
023
016
1FA
034
1B4
017
1FB
037
000
03B
1DC
1EA
1E3
012
1F7
1FD
00D
1D3
1F2
030
01B
1ED
1FF
1FA
1EE
1D3
1FF
026
1FA
005
025
016
1E9
1FB
018
1D3
1D1
1FF
004
1E7
021
1FB
033
00E
1D7
1E6
00C
008
00A
01A
1FD
1F8
1E9
1D2
1F2
030
1E4
02F
1F6
000
010
024
1EF
1DF
033
020
1F1
1E2
1C1
1EA
1F9
1D5
00B
1F7
1FF
007
016
1C8
1FA
1FD
1E5
17F
02C
1A4
1F3
1E6
1FD
1FB
001
1ED
1F7
1F9
1E7
040
004
1E7
016
1FD
1F7
1D2
1FF
1C4
003
1B2
008
1AF
013
1C1
1E5
017
02A
008
014
1E4
1CE
010
1C1
043
01C
1D5
032
05A
00E
1EE
1CF
012
1FD
009
1FB
008
1E0
010
009
005
1E6
1F1
01F
1E8
1F1
013
1CB
1E7
1E2
1F2
021
1D2
1E5
007
1EE
1E8
007
024
1F4
02F
014
000
1FC
1D8
00C
005
1EA
006
1F8
012
1FD
1B7
037
025
012
01A
003
035
1F1
1F9
000
1D3
014
1EA
006
1F6
019
1B3
1F4
00F
1FF
00E
046
1AF
1F0
1DD
1ED
1F2
00E
1DD
1BD
1D7
01D
01D
00E
1FE
02A
028
1C9
1FC
039
1F4
013
1D8
1A3
1B8
015
02C
002
012
1CC
1CF
026
031
017
1E1
02D
011
013
1DA
1D1
01E
1E0
013
1FD
1DE
1F3
1DD
1D3
014
1DB
00D
037
1E1
02F
1F8
1E8
1DC
1F0
19F
1DA
027
003
018
006
009
04E
025
03E
1FE
057
1FA
015
003
1DF
1D0
1D4
029
039
1E0
012
1E0
00B
1FF
055
1F0
1F6
01A
1A5
017
1E7
034
004
1F3
1F9
1E1
01B
004
1FF
01C
022
017
028
00C
1FB
014
1E0
010
00B
00B
1FE
1D5
003
1FD
1DA
1F9
012
027
1EB
00F
018
01E
1E2
1EE
010
1F9
1E6
1ED
1E7
1E4
1FD
1F0
007
1FA
1E6
002
00F
1FA
00A
1FD
1F1
1FF
00B
033
1E4
006
1E4
03B
03F
006
1D9
006
1CE
009
005
1ED
01A
1E2
033
1F4
1CB
045
00F
010
000
008
1F6
1EC
00A
1E9
1DE
1AB
012
05B
006
045
008
02F
013
00B
1ED
021
00F
18A
1F1
1EB
1F7
1CD
00E
006
1E1
1E4
1E4
01A
1E9
1E3
009
1EB
1F5
1FE
1FF
1EB
1E2
1EF
1FA
1ED
016
1E8
02A
015
008
1C9
1E5
1D2
1F5
025
002
027
1F7
014
1E1
040
1E2
1EE
00E
1E1
1DE
1ED
1D6
014
00C
1F9
006
1ED
1CB
013
012
1F8
1EE
003
00A
008
1D6
1D8
1F6
009
024
1DD
018
1DB
01D
000
1F9
1F3
00F
016
1F7
1FD
1E0
1E5
1FE
021
01B
004
1F6
1E1
008
00A
005
1F9
1F5
1E5
006
1F3
1FA
006
00D
1FC
00E
007
1EF
01B
1E2
1F9
00B
1E1
1F4
006
00B
006
1FD
00E
1F0
1E5
1F2
00B
1F2
1CF
019
1EB
009
013
1F5
1F9
00C
1EB
02F
010
1EB
1BC
1C5
1E1
008
1AC
1FD
1F6
1FB
1F1
039
009
1F4
1E7
1E7
010
1BD
01C
1BD
008
1F7
1E3
1CD
002
1D4
1D4
02D
1F9
02B
1E5
00F
1B3
1A7
005
005
1F5
1FA
1EB
1F3
012
003
1FF
022
1CC
1EF
1F2
015
1FB
01B
002
02D
012
1FC
1FB
014
1EB
1F4
02B
1D9
1DF
1B5
1CC
1F0
009
017
004
022
1F7
007
000
003
00C
018
1ED
1F4
006
1C8
1DA
1EB
1DE
021
019
002
002
00E
00C
016
002
01F
00D
00E
1E5
00F
1FB
1BC
02A
014
005
1DD
1FD
1E7
024
00D
00C
02E
1FC
1F8
00F
1FC
1FA
02D
1E3
190
1B3
1F8
010
000
025
1FA
01F
034
1F2
1DA
033
1D7
00D
018
1E9
029
013
013
1E7
1EC
004
1E6
1DE
1F2
1F1
1D2
008
1EE
1F8
1FE
1FE
01E
018
1EE
007
002
019
1F0
01C
1EC
1ED
00A
1C7
1F5
001
1E5
1F3
1F0
1EA
1E2
1FE
018
007
015
018
1E8
1DD
1F9
1FF
1EE
017
1EB
1E2
1DF
002
1FB
1CE
014
01C
1F2
1ED
1F7
001
1F0
009
1F6
1FE
1F7
01F
1C9
00B
034
00C
1E1
1F9
1E2
1FE
004
1FE
00E
1E5
1D9
1F8
1E2
006
1FF
00D
1EB
015
007
017
1E4
01A
02B
1E3
00A
1FD
010
00C
022
1F9
01E
001
009
020
1EB
013
1E9
012
00A
1F4
00E
021
016
003
1EC
028
010
1F5
1C7
1DB
1CA
034
1F4
005
02A
1EA
1F2
03D
009
1E4
1F6
1AA
1E3
1D6
1D8
1E0
1DD
01E
1BF
01D
017
01F
036
1F9
1E9
005
1CA
007
009
1E9
1BD
1DC
1EA
02F
1D3
1C8
1FB
038
01A
1D2
1EB
035
00F
1F8
006
04C
1ED
1F4
014
025
1C6
024
1D5
1F0
1F0
1E1
1DC
01B
016
1F4
1F8
1C1
1E0
1D8
1FE
1FE
025
015
1D6
01F
1E2
008
1EF
02D
1CA
1E5
1CF
016
00A
02A
1CC
1F1
1CE
010
005
1FF
1FE
009
1EB
1CD
1EA
020
1E0
1EA
1C4
019
1C7
004
1E6
19E
199
1FE
006
1FD
03D
016
037
00A
1F9
011
1DE
1EC
1D9
01A
1CF
1BB
1F8
1EA
00C
00D
00F
04D
00A
1F1
1E8
1E9
1CD
1ED
06C
1EF
1DB
1E4
1D0
1EB
1D3
1C5
040
047
1F0
1F4
015
1BB
1EC
1E2
03D
18D
03A
1AF
03B
1CC
006
1EA
1FD
011
1D3
003
1D1
04D
029
1A9
00C
1E2
1F1
1B8
001
1E0
1F3
1A8
1D4
1DE
015
1A3
1E7
010
02D
1DD
1E4
1ED
199
050
1AF
02E
00A
1E3
01F
060
03F
1B5
1C9
02E
1DD
1DF
017
1E9
1F4
1D7
01D
1F2
003
016
02F
1F5
1FC
1EB
1E4
1F7
1E0
028
032
18E
1F8
1E5
1F1
1FA
1D7
1F6
1E0
003
008
00F
1F2
1B6
002
1CD
1C8
1C5
1F5
1E1
1F3
1DD
00F
071
1E9
009
008
039
012
1F5
01E
1C7
1E3
1E7
00C
1F9
1E9
1D7
1F9
1FE
1DC
012
01B
196
025
1DD
016
1F1
1B2
1B0
1E1
009
1B5
050
00E
1FA
039
022
1C9
008
046
1F9
1F9
1A5
1A7
167
1F9
1CE
020
1F2
1DC
192
032
062
02A
1E0
1FE
03E
1D1
1EF
030
026
013
1F2
00B
1F8
02E
1C2
1BD
1FE
1FE
009
01F
005
1F4
013
1D7
1FD
1DF
1ED
00E
1FB
00E
03A
1FC
1FB
02D
02D
1D1
00B
023
00B
019
1D1
1C4
1CB
005
007
013
1F2
000
1ED
011
019
03C
1F0
1F1
04F
1BB
1E6
032
035
1DB
1F1
1FD
1E5
1E3
1E9
1F4
1ED
00C
1F9
038
00E
1C9
1F8
007
006
006
1F3
1F8
1DF
1F1
004
1ED
009
1F0
1F6
1F7
00D
00A
021
00B
003
02E
1D3
1DC
1EF
1EE
016
018
003
003
018
1DE
026
1EA
024
003
1EF
1F2
1F7
1E0
011
1FD
1EA
00D
019
008
007
1FB
1EC
1C5
1FF
1E3
1F3
032
1F5
023
1F4
00B
003
1FE
1DB
1EB
003
1E3
1F5
1EF
018
1E6
00E
1EF
02E
017
00E
1E5
1EE
1F7
012
1EE
01F
009
1E6
1C2
003
007
1B9
021
00C
1E5
1E5
1D4
1F8
1E3
001
1F8
012
1EB
015
1F3
025
1FC
1EC
1F4
1EF
01A
002
1ED
1F0
008
015
1D6
011
1EE
001
1E3
002
1D5
023
004
001
1F0
010
031
1EB
1FA
1F0
1EC
1DF
01E
1F2
021
016
1D5
01E
00B
1FD
005
00E
015
1E5
1D4
00C
1E6
009
1FE
022
1FD
1F6
007
1E1
1E4
019
1DF
010
00F
011
004
1F1
009
1FE
01F
1E6
000
007
1E8
1E6
016
1F7
1C4
1FD
1F3
00D
00C
028
009
006
1ED
1F3
1F1
007
1EC
1E3
1DE
1F9
020
1CE
1F5
1C9
1E7
015
1F1
1E2
00E
1E6
011
00E
1DD
017
002
00F
1CD
1DD
02F
1E7
01C
002
008
1F5
1F3
000
1F8
01E
1EF
030
00A
009
1D8
1DC
028
006
008
00E
004
1DC
005
01D
1E3
1FD
022
00F
02E
00F
1F0
1DD
00D
1F8
1F9
1FE
1EE
1ED
1E2
005
00A
1E2
1D5
023
018
1FD
1E7
1A8
1A7
006
010
1F4
047
1F6
00C
1F3
029
01F
1DC
1E8
000
03E
1B3
190
1BD
1F9
1DD
00F
1F1
01C
1FB
1EF
1E4
1FA
1B9
00E
04F
1EA
1DE
1E2
1E3
00C
00D
1DD
047
041
1ED
014
013
1FB
1FD
1E8
03B
1EF
1DE
1B4
048
1B6
1CC
02C
1DA
1E6
1FD
1F4
02D
055
024
1EA
03C
1C7
00E
1F8
1B2
179
022
1B1
1EE
013
1E3
1E4
05A
01E
1B5
1F7
1CC
019
008
04D
18E
1C5
1BE
1CA
1E9
003
1F9
022
01A
1F3
1E4
1F3
012
1E8
1EF
019
1FB
1FF
1F4
00A
1C7
1F6
052
007
029
1ED
1F9
1DD
008
015
1CE
1EF
1F1
00C
1EE
1FB
1DF
1F6
00C
00F
000
007
00D
00A
01B
1C7
1FD
1E9
01E
1F5
1DF
1D8
1F6
1FF
00B
1D9
00A
017
1CF
01F
1FC
1F3
1E2
003
1EE
1FD
01D
018
1D4
1EE
011
1CB
023
1EA
1F4
00D
1F8
1E0
014
009
1D1
032
00D
011
1FF
01F
1E5
00D
026
1F4
006
1F5
1FB
1E9
049
1ED
010
1DE
002
1D0
01D
049
019
1FB
1F4
1F9
010
014
03B
1EB
007
1F4
1FC
1FE
1C9
1EE
02D
1E6
1DC
1BF
1EB
1F6
1ED
1E1
1F7
1FE
001
006
050
1D2
1D8
1DA
1F8
1DD
1E3
1EE
1F1
1EB
1E6
00F
00D
1C9
02A
1FE
02B
1DD
1CB
1EE
02D
1CA
019
01A
03B
02A
008
1FC
020
037
035
00E
00F
1DA
1E8
1F3
02D
1CC
1F3
1FF
035
1C0
030
1DE
018
1E4
028
010
01E
003
009
1CB
02D
1DF
1FF
1EA
1ED
011
1F3
1BA
1F4
00F
1F7
1DF
00D
1F0
003
015
1C9
012
003
019
1FB
026
1EB
1DC
003
00C
012
1E0
1DF
01D
00D
1F3
1DB
005
1FB
1E6
00D
1FE
1FA
1D2
024
1DB
01B
010
1F8
009
1EB
1E4
021
1DE
1E3
1F4
017
019
1EF
1EA
023
1FE
022
031
006
000
1ED
011
001
1E5
1F0
010
1F4
1AE
013
03D
003
009
017
00D
013
1F8
004
1F5
005
1ED
01B
013
1DD
1DF
020
011
1F1
1A8
1E0
1D0
020
009
055
00A
000
1C8
004
034
1CD
1E8
001
011
1BB
1C2
1E7
1EE
1F7
033
015
005
1F1
1F9
01C
1BD
1CA
1FE
03A
1A8
1E8
1D9
020
1F4
011
1EE
038
013
1D9
035
1DF
1EF
1DB
1D8
01B
1EE
00C
014
004
004
001
017
1CF
1F8
1EE
1E1
011
029
1FC
1EA
1F9
010
004
009
1EA
1D9
001
002
1EC
011
013
1D1
021
009
1E0
01B
1F6
000
1FE
1E9
1F6
1E6
1BF
011
017
009
001
1FF
024
1E5
1F3
01D
00A
002
1FB
022
1C0
1E6
004
003
001
042
1AB
001
198
001
00A
00E
00C
00D
01B
031
1E6
1FE
013
1E1
1E2
002
1F3
1D8
003
1F6
018
1FE
1BC
03C
04F
1E9
1E6
021
1F0
1F3
1CC
005
1F5
006
1CD
1FB
016
1D9
1E8
1DE
1E1
006
01A
1F9
001
1F6
018
1C6
002
01C
1E9
1FC
003
1FB
01F
04F
00E
1FC
04A
1FD
1F9
01A
1E7
1E3
00B
1AB
1D9
1E9
1FC
1EC
002
1EB
000
01A
1FA
1EC
1FD
03D
1E0
1E6
00C
1CE
016
1ED
014
00D
03C
1FF
002
00B
1F3
00A
004
1D3
1FF
1E0
1F7
1CF
03B
1DD
1D8
1E2
018
1F0
012
015
1F1
1BC
01A
1F5
00A
1F0
1DA
015
1EE
1DF
1FB
006
1FA
1E2
1E7
1DA
003
00B
1DD
1E7
009
003
005
1FD
1F1
006
1F7
014
000
1EE
1E6
1F4
1DF
012
1DA
002
017
1FB
1FB
020
1FB
1E1
013
003
1F9
1F1
1E7
01D
1F5
1C4
1B9
032
009
1EA
1E0
1E9
1E9
1F0
1F0
02B
016
1FA
1FE
010
008
02A
1DA
1D9
1EA
017
025
1DD
002
1EF
008
021
024
1E9
1CD
00F
1BD
033
00B
022
1EF
1E9
022
1FE
002
007
017
1F0
009
004
1F2
001
00A
002
000
017
1C3
012
033
00B
1E2
1DB
1E4
012
003
1EA
013
1E3
017
010
016
1E4
1E9
008
020
018
1FD
032
1DB
005
006
1C4
1E7
1D5
1D9
00D
1F9
02D
011
02A
013
1F0
1F5
004
1FD
1D3
199
1FB
1C2
02B
011
00A
023
1E7
1F2
1ED
1C8
03A
1C7
01E
1FC
019
1E6
1E9
01D
015
1FD
1E9
00F
034
012
1EB
001
1F0
1F6
1DF
1F7
01D
1DF
1AD
033
00D
00B
17C
1CD
1DF
1E5
01A
1EA
1F2
1EE
00A
021
1D5
015
1E1
01F
1E7
1EE
1D0
00C
004
005
002
1DF
00A
01A
011
1EF
000
00E
013
1DB
1E8
1DA
1CA
023
016
1EA
1D9
1EE
00B
032
1BC
1C8
1E2
1FE
1E1
00A
01E
1F2
006
031
020
004
011
1FA
00A
00D
1D1
001
1E2
1D2
1E2
1E9
1F6
1F2
1C9
013
1DB
00A
1F4
1F8
004
015
00D
018
1CE
1E7
1DD
00A
1F7
1EF
1EE
028
01A
02F
026
1F0
1DF
02A
1FD
1E4
1FD
1FC
1DD
02D
1C7
01E
003
1E8
035
1E9
02B
1F8
006
01B
01D
1F1
1F4
1E7
1E0
1EE
1D6
000
1F7
1E6
1E5
00C
1F2
025
000
020
1E1
012
001
00D
008
00F
1FA
004
007
1F9
1F8
008
1FF
02B
009
015
1FC
1FE
00F
012
1DB
1F4
011
01C
1F1
1EB
000
1FE
1E4
00E
020
007
00B
008
1FF
1FB
1D9
1F5
1E8
1D3
004
016
00C
1E1
1FA
1E5
1BD
02F
010
016
013
1D3
006
023
1C6
1BB
1DC
1E7
1F8
1E1
1BD
1F1
037
1F7
03E
002
1CE
023
012
1FD
1A1
1D9
1F9
019
19F
011
010
011
029
1D8
00B
00E
1F6
1ED
1F4
1DC
049
1FF
1F8
00F
010
197
1D9
007
03A
020
055
1D1
1FA
1F4
1F0
011
049
1E0
031
02A
009
1F7
011
014
021
015
1FC
1DA
1E6
017
01E
05D
1C9
1E3
025
03D
014
1E5
024
003
1ED
1CB
1F6
1E4
012
1A5
1F0
01B
1E6
009
00E
003
1F0
1E2
00C
1F6
034
1E9
1CA
005
008
1DE
00B
00A
1F5
007
1F6
00D
1C3
1EF
1D0
012
008
1B9
1F4
1DB
010
1F7
02B
1FD
1F4
028
1F6
1E2
1F9
1C6
1F4
01B
1B7
01F
016
1EB
049
002
014
004
001
019
1EA
002
1D7
1EA
1DF
031
1D5
1EC
1FA
015
1E8
027
008
009
1EB
006
1FE
01A
004
00D
1BF
00F
009
1F0
005
009
1F8
1F3
1ED
017
018
1E2
1C2
008
1E0
1FC
1D8
1D3
001
010
014
1ED
002
1F4
1C2
1F9
032
1E2
02D
035
033
000
1FD
019
1FF
1E0
1FB
006
002
1E7
1DB
1FC
1DA
1ED
1F8
1DD
1E9
1DA
006
041
1C4
1EC
1E4
00B
1CD
1C9
005
004
023
1FA
028
007
1CB
1EC
1F9
006
1A4
1D2
1DC
00B
1B9
036
036
1F5
028
008
03D
015
00E
00C
004
007
1EE
1EB
006
008
1EB
012
012
001
1F8
1F8
1BE
034
1DD
00D
008
1E2
1ED
017
028
1E9
1F4
1F8
1FD
1D4
1F6
000
1FE
025
021
1FD
1FB
1D3
008
1F9
1AB
1F2
006
023
1E7
00E
03D
00F
1FD
1FD
1DC
020
015
1EB
026
1F8
1DE
004
1E0
020
002
006
003
01A
1F5
023
1E9
1C5
1FF
1E5
011
01A
1F4
003
003
012
004
1F1
01B
1E2
009
1E3
01D
008
01F
00E
1FE
015
005
1C3
009
1E1
016
1FE
000
01D
00E
19C
016
014
1D5
020
1E8
1F3
1DF
00D
018
009
1FB
00F
02A
1F1
00F
019
1F2
00C
1F6
1AF
1E2
18B
1E5
00D
1FB
009
1F2
025
1F9
1FA
01E
1D4
003
1F3
00D
1DC
00C
1F7
014
005
1F8
1D9
012
1FB
1DE
1F0
017
012
1EE
1BE
020
1FD
1D2
1F6
1C5
004
1AB
1FA
004
1F5
1E1
02E
01A
1C7
1FD
036
00C
01A
045
01D
1FA
1F9
001
047
01D
1BB
05F
019
038
1D3
025
027
026
01F
1C2
01F
1DC
009
03D
1FB
1B5
01A
04F
016
00A
025
02C
1CD
1BE
00A
1C2
1F4
1C4
1DD
019
015
014
1FE
1CD
1DF
1EF
012
1EE
019
1F4
1FA
1F6
00B
1CE
1B0
1F9
1E4
013
1E5
1F7
034
1BB
000
1EE
1EF
010
1D7
1EC
1E4
1E5
01E
016
1EE
1E1
1E2
1FA
029
002
1D7
007
1E3
002
002
00C
1E3
002
003
1FD
020
1D9
00E
1E5
004
02F
1E8
1FA
04D
1E7
018
032
026
053
1D3
1A8
002
1F1
005
1F0
1E8
1D8
1EE
01C
1CA
1B4
1DD
1FA
067
010
018
1C2
1FF
030
1E4
020
1E7
1F7
1F4
1E0
00C
009
00C
1AD
1E6
1E9
01C
1E4
03B
007
1F2
1FF
1B2
02A
006
1EA
1F3
1F9
1EE
019
003
006
1D2
1ED
013
010
1E8
1F1
1E3
1DD
011
009
02E
1D6
1DF
00C
1EB
1CC
1F8
00C
002
016
003
019
1F5
001
1E9
1C9
1E2
009
00D
1F7
1F7
1FB
003
1FE
028
1FA
1E0
01C
000
00A
018
1E9
1E9
016
1F3
1E4
020
013
1E6
00A
027
1F1
1CA
1E5
037
01A
02F
1E3
1F4
1C4
1F5
026
1EB
1BC
1E6
019
047
1F6
008
1EA
1F8
014
1E9
01C
1E1
007
01C
1E8
1EB
1E4
1F6
1E4
1D2
1EB
013
1DF
037
1D6
1FB
1E9
1D1
037
1FF
1DF
001
019
1FF
1C7
012
00B
1F9
1F9
005
1C8
00C
00C
1FA
016
1DE
1F4
1E4
010
00C
033
009
014
1D7
1DA
1EC
1EF
015
000
1F6
1F7
1E4
1E6
015
1E4
015
1DE
1FE
1FA
1EA
000
025
1D5
023
1EC
1F7
01F
1DD
01E
00F
1FF
1E8
008
1F1
016
006
1F3
1F2
1F9
004
1F5
1F9
1E4
1F9
00F
1CA
1EB
024
1D8
1C5
1EE
1F8
1D4
1EC
1F4
1DE
04A
01B
02E
017
008
016
006
004
1C4
1B9
1E0
026
1BB
1FD
1FE
1E7
026
1E9
005
01D
00A
025
1DF
1ED
1E6
004
1ED
034
1EF
1FC
1F0
002
004
011
1F0
022
013
1F9
015
00E
006
1F4
00A
008
1E9
1E8
009
00E
001
1E6
015
018
007
00D
01B
01F
018
022
1F5
00B
00D
1E6
004
001
1E7
1F5
1E7
003
015
1F5
004
1E2
002
1FB
1D2
016
019
1C6
1E2
02B
1E0
1D1
1CE
000
1CA
006
002
1F4
1F9
1D1
1F8
04E
1B4
1CF
1F9
014
1ED
1B5
1C2
1CD
02E
1FD
021
1EF
1CC
00B
00B
00F
19B
1C4
005
00D
19F
015
055
1FC
029
00B
03B
026
01D
018
007
1F4
013
004
1ED
000
1FF
008
009
00C
001
02D
01C
005
004
1E6
1F0
002
1FF
1E7
006
027
017
1FF
018
1F2
002
1E8
1FA
1FB
1F7
004
00C
1FC
1D8
020
029
012
1ED
1D8
1FE
1FA
011
1DB
1F5
1F9
1D1
011
1EF
1E7
1D3
1E3
006
1F2
1E7
1EE
00D
1E5
1E1
010
1CB
1DB
1FD
1E4
1ED
1E1
001
1F7
023
01E
1F6
008
011
1F5
1F7
1DE
1CF
1CE
006
1DE
008
003
1DB
01B
1D8
01E
1F1
1D1
1DC
033
00F
1EE
022
1DF
00F
007
01A
016
001
02C
1EA
1D3
00B
1EF
1E5
1FF
045
1F9
019
1DC
019
009
03B
1C7
011
1D8
00B
1CE
008
022
004
1D3
1ED
1F5
1F6
1FF
01F
1F4
03B
1D3
003
1F0
016
01B
00A
014
1D0
1DB
015
1EF
1EE
1FF
00E
017
029
1EF
013
1FE
00D
02F
1DD
1FC
00B
1EC
1E9
1F5
01A
00E
1FD
1C8
010
1F0
014
1E4
1FF
1E5
004
1DD
026
033
1B6
1CF
1B0
1DD
1EB
1F5
1DB
017
023
1E2
003
1E1
1C8
01B
01D
1CF
1E9
1C6
1E8
01C
1E0
1D8
005
1E8
024
1EF
027
1F5
01A
010
1DF
1E1
1C3
1FB
1FC
004
1C6
019
004
1E4
1EE
1FF
1D4
006
018
025
1FA
005
1AF
1EA
035
008
016
1DA
004
009
02A
01A
1E0
03D
017
00F
003
1EC
01F
014
1F5
00B
00D
1FC
1CD
02B
00C
01D
1F2
011
1FB
01F
1FB
1DC
046
1F2
1DC
1FC
1F7
1DF
003
032
011
1D6
023
00C
1D9
1D1
1F3
1F5
004
1D9
1C4
015
01A
1C6
00D
1DF
1F4
009
016
1E3
02D
00F
1E5
002
00A
012
016
1CD
1D0
013
005
1F2
1F6
019
1F6
00C
01E
1E6
1F9
008
1E8
004
1D4
1DE
000
1EE
1F8
028
1F4
00A
00C
019
004
018
1DE
1F9
1EA
1ED
00D
1FB
1DC
1BC
1E4
1EE
006
1DD
014
1DE
024
1C7
1FF
1FB
016
00D
00D
000
1EE
1EC
003
009
1EE
1CE
013
02C
1E9
004
1E6
011
1C2
1ED
1EA
1E4
00D
009
01E
010
1FB
1FC
01F
024
005
1BC
024
1ED
020
007
1DF
1C2
1E6
1F9
1EC
1D5
05F
012
046
014
1E8
049
013
1E6
1F7
1F8
1A5
1F0
038
1E7
032
038
017
07E
1E3
1A4
02F
1F2
1DD
031
1FB
1EA
1F7
1E2
00D
017
1ED
1E6
1F0
1EC
00E
1F7
005
028
010
013
012
004
1F2
1DC
1F9
1B7
1FD
1F2
000
03A
00B
1DD
01A
1F1
1CE
1F0
1E1
006
009
1E1
1F7
00A
007
1EF
017
014
1C9
1FF
003
1D6
001
00D
042
1EF
001
01C
01F
02F
1F0
002
1D7
013
1D4
019
1FE
041
1D2
1FF
01E
009
050
02E
1D1
013
002
02F
1FB
049
1C9
1A8
02A
1CD
1B7
1FA
037
05A
033
03D
1D9
02F
04B
1EC
030
02E
1E3
1B3
001
011
1EF
020
1E8
1F3
1C7
1CC
1F2
00B
1B8
1FF
1ED
1B1
000
015
009
009
005
006
016
023
009
022
1B8
1F4
1E7
1CF
1F0
1E3
011
1F1
019
04E
1BE
003
009
1DC
1F4
1AE
1D0
1B4
1F4
1E6
021
1F2
1D4
001
001
015
1EA
1C9
1FC
021
017
1E7
03E
1DF
1FE
017
1FB
05D
027
02F
1DB
1E7
1C8
00A
1FA
05F
1C0
1A7
1F9
046
009
029
19A
03B
1FA
032
1ED
009
1C6
1A4
03B
1E9
1B5
1DD
029
051
031
1EB
1EC
02A
046
000
011
01C
1E2
1ED
1D5
1F5
1E6
03B
1CF
1F5
1C9
1F3
1D7
1FB
1DE
1F1
1D3
1CC
02A
1F0
016
018
1FA
00D
01B
000
02B
017
1EB
023
02D
1F7
012
1FD
1E8
1F2
00C
00F
002
004
010
1E3
1F6
016
015
00F
008
1F0
1F6
1E4
00C
023
1F7
1FA
009
1FE
010
1D6
00E
1F0
1FF
1FB
00A
00E
025
1E6
1E5
01E
1D5
1ED
009
1E6
1E8
1EA
022
1D0
1FA
1BE
016
008
01F
1ED
012
1E0
005
1B6
01D
1FF
1CA
1E6
1CC
1F6
1C8
01E
1F4
01D
036
1D7
00E
1F0
1B4
013
1E5
1C4
003
1F8
1E9
1E5
1F3
1DD
00F
004
03E
1D2
030
1C0
01C
008
1DC
1D9
050
1F9
1EB
012
02E
008
018
1F8
027
1EA
02B
1F8
1FC
1E2
1EE
1DA
1E2
1D6
1E9
025
007
007
018
04C
03F
01C
1F1
1E9
1F6
1F8
1FC
1CB
1FC
004
016
017
1FF
1FC
005
00A
1DA
023
1FF
00C
006
1C1
006
1E4
02F
1FD
1E2
019
015
1DF
000
026
1CC
1EC
006
005
00D
017
1FC
009
1E2
1EA
01B
1FD
00B
1E6
1EA
000
1DB
1EF
005
024
00B
1F3
006
1E1
1DB
018
02D
026
1F0
1F5
1EE
1F2
00D
1E9
016
00E
1FD
1FE
1FB
006
1FA
1F6
1FE
1F1
00C
002
1FB
1DC
01E
011
1EB
1F7
01C
015
01D
1F6
1E5
1CD
00E
1FB
012
020
00D
010
03B
00D
02D
1F1
1DF
1BD
00C
1FA
1EE
1E5
1EA
009
1EA
033
01C
015
00E
1F3
021
1ED
028
1EE
1EF
1EB
019
1FB
028
023
1D2
00C
1FC
1F4
1F1
1FA
00A
1C9
1D1
023
018
1DE
1E8
014
00D
1E4
00A
001
022
019
019
1ED
1F3
009
1EE
1F2
003
1E8
1F5
003
1F7
1E3
1F7
1EF
1EE
01D
1F6
1F9
000
002
029
1D6
008
1F8
1F8
1E2
007
1F2
005
00A
1EE
007
01B
011
1E6
008
014
009
00A
1FC
1E8
1D8
00B
1CD
1E9
1E4
1EF
00B
025
1FF
1E9
1EE
1CC
1DB
1F6
1DE
004
00E
1F3
1BF
005
1F0
000
029
01F
1EF
1FA
1E9
016
1F2
1F1
1FC
009
001
009
00F
1F5
007
1EB
1FA
1E4
00F
1DA
012
001
00E
1F7
02E
1F5
1FD
1D9
02C
1D7
1E5
1EA
015
005
007
00A
000
1D9
00C
1F8
00A
022
1FE
00C
006
1EB
1FC
000
010
1FF
1EF
012
1E9
1E1
1DD
008
003
1E8
016
1F8
1ED
1D8
017
1C4
021
1EE
1BA
011
1DF
011
1E6
00F
04F
1CA
010
1E5
027
001
1E5
02B
1FE
1E0
1F1
1DF
026
030
1F6
00B
03B
020
008
024
022
005
02C
1E1
1E5
014
1F4
1F3
1F9
1FC
006
011
002
1ED
017
015
1FE
1F6
031
1E3
1F4
018
1EA
024
027
05A
1F1
015
1F7
00F
006
01E
1E3
1E6
1FD
037
017
034
000
015
1E2
1DC
1CA
039
00C
015
1D8
1EC
1E1
1FC
01B
020
015
019
1EF
003
1FE
1F1
01E
1F5
1CB
1D5
009
1DF
1D4
1F8
1E1
01A
014
02C
1EF
05D
1BD
1E0
01E
1F4
1F0
1BF
1F0
1EB
1FB
1CA
010
1FA
00B
01B
03C
1D5
038
017
00A
1F7
1E7
1EB
1B6
1FF
1E7
005
1E2
005
009
006
1D7
016
02F
1F4
009
1EC
1E2
1EE
1FD
1EA
022
1ED
003
1E0
030
1FF
020
1FA
009
024
1EA
1EB
025
01E
1E2
00A
000
1EE
1DC
014
01E
009
1AF
012
1E3
007
013
00F
17D
000
1BC
1FA
043
01D
00B
01C
1F8
1F5
1F2
1F3
1DB
1F0
1DF
1D0
1F0
1F2
1D7
002
022
008
04B
003
1F5
006
1F7
00C
043
1E7
018
006
1E9
018
024
01A
1DA
015
00B
1EF
035
026
1FF
017
01C
00F
020
01B
1F7
008
1C4
1F3
1CB
1F6
002
005
002
007
1E6
1E9
00D
00E
1E3
024
1F9
016
1F8
1E6
1DF
1F5
014
012
011
1E0
1DE
018
007
1FB
003
009
00D
01C
1BD
1C4
1FF
1ED
1FF
001
1E6
1FC
1EC
1E5
1FA
021
1CD
025
023
1F0
015
1E3
1DC
017
1F3
1CA
1B3
1EB
003
04E
1EC
1E2
028
03D
038
01B
042
1DA
1E6
013
1EF
1F5
1D3
03A
038
1FF
1B1
1E4
054
1D3
048
1E7
008
1F6
1D4
008
1D7
1F8
00C
1DB
014
1F9
033
1F3
1F2
1EF
03A
1E9
1EC
027
013
00B
01A
1E9
00D
022
005
008
032
01D
005
1EC
1D2
1CA
1C0
1DA
00C
00E
1F4
1E2
1ED
002
019
004
1E7
1F6
02E
01B
1C8
019
1FA
1D1
1F8
004
1F8
005
01F
00F
1F2
015
018
002
1F4
1FD
00D
1FB
1EB
010
008
002
1D6
1F8
007
008
009
01B
1F3
1DE
1EB
1F0
010
009
011
017
026
00C
1CB
01D
01C
004
001
005
1EB
00D
1FF
000
1F4
00A
01D
1E8
1F5
012
012
1ED
019
01F
1E6
1F1
1E8
1FB
002
009
020
1F3
04C
002
000
1E2
001
1E1
1EA
013
010
1E1
1E9
1F9
02C
1FF
008
1E2
1F8
1FE
1E5
1FA
011
009
1EF
1F4
1FF
019
1FC
007
04A
008
1C9
015
1D5
1FF
03D
02F
1EB
1FF
03D
000
031
1D9
1EC
1E1
00C
1CD
1F5
1ED
01A
1AE
1FA
1CD
019
00C
036
1F0
017
003
033
00A
021
1E7
1E8
1E7
021
007
1E0
1DC
004
1F5
1C0
1F2
011
1FB
1E0
1D9
1F1
1E6
1E5
1ED
1E8
00D
01E
011
1F7
008
1E9
1DC
1FF
1FA
1E8
1F5
1C4
020
1E3
035
1EB
1FB
025
1F0
1EC
1EE
01D
191
1FC
1EC
1F7
01A
1F6
1FA
037
023
1FC
009
02C
1F5
1F2
02A
1EB
1E6
1F4
1C1
1F9
02D
1FB
01D
01B
003
1FE
045
1D0
1FC
044
004
00A
1A4
1D3
1E4
00D
1C2
000
025
1FF
012
001
026
1EB
1F8
017
038
00A
1FE
036
00A
1DE
014
1D5
1E1
1E3
1E5
1D2
016
1DE
1EE
1EE
1CA
012
1C5
01A
00A
026
01B
1E8
005
1EE
1F7
1F4
024
1D2
00A
1D6
00E
1E1
021
1C5
1D6
1F8
00D
1EF
007
009
1FC
1D5
1E6
1FB
1FA
000
012
1FF
1F2
002
1D9
006
018
01C
004
1F7
1EA
1C6
1DB
012
00E
021
029
1F9
055
012
005
00A
00E
1C7
1E8
012
003
1F4
1EE
016
1B8
000
1FE
018
1DF
02D
024
1F7
01D
002
1FB
1E8
018
1E1
001
02F
008
1E8
1E9
1FA
1F4
00A
1FF
1E7
1F6
025
1CA
1FF
007
016
1F5
1F4
001
1F5
00D
1F0
003
016
1F0
1F2
1F6
1D8
1D1
016
1DD
003
1E5
010
1FB
1F2
003
001
1F6
1E3
1ED
025
006
1B1
1F5
00D
1E6
015
038
1E6
012
1FB
026
00E
037
1F4
009
1DF
013
009
006
000
1CB
1C3
020
00B
1FA
1F3
007
000
013
002
006
1E8
1E7
000
1DC
1DE
1E5
1E7
1E2
1F6
1FA
1F5
005
002
009
005
1DF
1D9
016
036
1DB
000
1EF
015
010
001
1FE
006
024
01A
1E1
1F6
1B5
005
016
008
1DF
00D
013
00A
1D0
008
1F1
031
00B
021
008
00F
1C2
011
026
1F9
1EC
1F2
01F
1F0
1DA
004
1D1
020
007
00B
002
011
1F7
1FF
1E7
1DF
00A
01B
1FC
1F5
1E2
000
1DE
03D
1EA
01A
02B
1CF
067
1F7
1B7
1F9
00D
03B
1D6
042
00F
049
1C0
1EE
1D0
1F9
011
1FF
00E
029
1ED
1F8
1F5
032
00E
001
03C
1D6
1E7
1D2
1FA
1CF
1F7
1F1
036
02E
012
037
025
1E7
002
00C
029
01F
1CC
1D5
1AE
055
1FA
005
1FE
1FB
1F3
1DC
1E6
004
00F
00B
1FB
02E
1D5
025
004
003
017
1E8
011
1F3
004
1F4
029
01C
1F0
00F
1AD
007
1FB
1FD
1E1
022
01E
1F8
01A
1E5
1D9
02D
019
1E1
1E5
1C5
00A
002
1F3
1DA
010
1C5
1F8
005
026
1E3
00D
01A
1E4
012
1A7
009
1E3
005
1CE
1F1
1EF
1C2
04C
03F
1AA
000
1E1
00E
012
049
1C8
1D1
003
1A8
041
1F4
014
018
036
001
048
04D
009
1EF
1DC
007
17D
1D7
1F0
025
1EC
1E4
1B9
04C
04F
1FE
002
1F9
02D
1D9
1E8
018
1D6
1F3
1FB
1F4
008
00B
1F0
1D7
005
1F3
1FC
021
1E4
02D
012
1CE
1F2
1DD
1F5
016
045
1F9
035
008
1CE
1ED
1FF
1C2
1E6
016
1ED
1FC
1E0
031
1E7
029
01C
01D
1FA
03A
010
1F0
01E
012
1F4
014
00D
1C8
018
038
1FC
003
1DB
1EB
000
1FF
1F1
1FF
018
019
01E
025
1C9
1ED
1E6
027
1E8
1DC
1DB
1F6
029
1EE
01D
012
005
012
1F8
1E8
1F4
014
008
1EF
012
005
1F5
00A
1E9
1ED
00A
014
020
01A
022
01D
1ED
001
1E6
00D
1E5
000
01A
1E2
1E0
003
005
1FA
1EB
01D
011
1F0
1F7
1E0
1E5
01F
1F4
1F7
014
1F0
1EC
1F6
02F
1EB
027
1EA
009
1EB
00D
1D8
009
021
1F9
00A
1FD
1F4
1F2
033
1E0
015
016
006
1ED
00D
026
01B
008
1F4
1DB
018
1F7
1FB
1F1
1E8
1DA
1F9
014
1FD
1F2
1DA
1E1
013
018
010
1FD
003
005
002
1FD
1D4
00E
1FD
00A
1F4
012
1E8
1EE
1F4
003
1DD
1F6
009
1E4
00B
00A
002
007
00A
1E3
1F1
1EF
1EB
013
1EF
010
019
004
009
1F8
1E4
1F1
015
1F3
00D
01F
1FE
00A
1DC
00E
00D
016
1EE
1FC
1D8
00F
1E7
1D7
008
1F0
014
1EC
00A
01E
006
002
1DD
1E7
1E4
00D
010
019
1E3
1F7
1E9
1FB
01B
01A
019
1FB
1EF
1F1
004
016
003
1DF
1E3
007
1FA
1C1
1F6
007
1FB
1F9
1F6
1CF
011
1FD
025
1E6
014
1D0
013
1F4
021
1DF
1F3
1FE
023
009
013
014
008
1E6
011
00B
1DF
020
007
1FB
1D8
1D4
012
00C
1FA
1E2
1F9
1ED
1F2
031
01D
1F7
1F5
02C
008
010
019
1C9
010
1FA
007
1CA
1EE
1FC
1F7
198
001
00A
1F6
1B0
016
1F2
008
1FC
018
1F9
027
1E9
01A
003
021
1EE
1E0
039
004
022
1E7
003
001
016
000
1F1
01F
1D2
1EC
1F6
1FB
1FC
00F
01B
01D
1FA
1F5
01E
009
00D
033
1E5
024
010
1D4
022
1F0
021
001
1DC
013
1F0
1F6
1D9
1DC
000
006
179
01D
1D9
001
1F0
037
002
070
012
1E2
019
008
1F6
00B
036
18E
199
019
15B
037
032
1FC
063
018
1F9
1E6
025
1C4
1F3
0C1
1FE
1B4
1B4
1C7
197
1C9
1D1
04B
060
1FE
056
1E2
1C2
019
1FF
1E0
1FD
1F1
018
018
00E
019
1ED
01E
1FA
014
002
1E1
1E7
1FA
022
014
1CF
01B
011
017
1FB
1D7
1FD
01A
00D
00C
1EB
1F7
1DF
026
1F0
1F0
1E4
00F
1DF
016
003
01A
00A
007
010
1FC
1F3
00B
022
004
1D0
1EE
1E8
1EF
1F5
1C9
019
007
020
009
1EA
01D
1FF
1B4
1F3
1C1
1EF
008
03B
1DF
013
00F
1F6
016
030
1B8
02B
011
1D9
003
1F4
00D
1C4
00F
1BB
02B
1EA
1D8
004
1F0
01E
011
02F
1FF
029
1A2
1E4
029
1D2
1EB
01F
1F0
1F4
1F6
017
012
008
1EC
1D7
1E5
1E8
1F8
1FC
018
1F1
1F5
026
015
002
1FB
015
1F8
1E3
1D5
1F8
1F2
1DD
00C
021
001
1F3
022
00E
049
011
1D1
1E0
002
1C7
012
1E7
00C
010
00E
00F
028
1E4
00E
1FC
1FB
1DC
1FA
1F8
1F2
1E7
016
00C
026
1D1
008
1C9
012
1E6
02A
00E
008
00D
01D
00B
013
1F6
1DE
029
1CC
1B2
1EC
1F0
032
02A
1ED
1F3
013
1F8
015
1D0
1D2
1F1
1F9
003
01A
024
1E5
005
1F6
1FC
038
1EA
005
1FD
1F9
1E9
004
010
1FC
006
01B
013
1F5
1F2
1FD
003
020
018
01C
1F9
002
1E5
006
021
1D8
1F5
1FC
1F9
1FF
000
1D9
1F8
000
1F2
002
00F
01A
1F9
001
1D9
1EF
1EE
1F8
008
1F5
1E8
1EA
02B
00C
1FF
015
007
1F3
001
002
1EE
1FB
013
1F1
1ED
00E
004
008
191
1F5
024
035
001
02E
010
03B
00D
01A
00D
1F8
020
00F
01B
195
1AE
1CE
1C0
00F
010
1DF
02C
025
1C1
01A
1FE
1C9
00A
03A
1EF
1D0
1DB
1F5
1C5
008
1F2
01E
031
036
017
1F3
1E4
007
1F1
1F4
1FD
000
1F4
1F7
003
00D
1CC
1FB
1DD
1EB
1F0
1FB
011
033
1D7
006
1F3
013
004
1FE
1EE
1FF
031
1F6
016
014
1AB
1E2
00C
1F1
1E1
1E7
1F9
1D4
1F6
026
031
1F3
010
011
02A
010
1DA
1CD
1EE
1DF
1ED
005
000
1ED
007
1ED
1F0
006
035
1F5
1E8
1D2
1E3
1D9
1F0
1F3
01A
1F9
1D5
007
1E8
1E9
1F0
1FE
00E
1FA
01E
1F9
00B
1F7
1D9
1E3
019
1C1
1D2
1EF
1DD
1D1
1F9
015
014
1DB
1FA
1FC
031
004
1E0
008
012
1E6
039
1F1
1F9
1EE
1F7
1D6
1D0
1E4
01C
01E
024
1DA
011
1C8
1EF
1FB
02D
009
1E9
021
01D
1E9
1D9
024
021
000
013
1F3
1F3
1FB
1DC
010
1EB
1F8
00A
01E
009
1ED
000
1F1
1F1
1D4
01F
1E6
01F
1B2
028
041
1B2
000
005
1E1
1E2
00C
1F6
030
1F1
01B
1E5
026
1F2
021
016
000
00C
003
020
023
1EB
02D
1E5
1E6
1CB
1CE
1CD
1F4
1F3
01D
1FE
00D
1E4
004
035
00C
1F4
1E5
015
1EF
1EB
035
00F
1EE
010
007
00F
03E
1FF
00B
019
1F7
00B
00D
00B
1EF
01D
1D2
010
1E6
041
003
022
024
1FD
00F
00D
1D8
1B6
1E8
06B
1D8
1E4
00D
1E6
1FF
1FB
1EA
002
017
1E1
007
037
00D
014
1EB
1CE
00C
011
00B
02B
1CB
1CA
005
003
009
1D6
1F5
00A
1AC
03D
1EA
026
1EA
1F1
1E2
02F
00B
1FB
1BE
01B
00A
02C
007
1F1
1F2
00B
016
020
1E6
048
1FD
009
1FE
00A
1FE
008
1E4
00D
005
1AC
1F2
021
01A
1EA
03A
01C
050
1F4
1EA
034
1B0
1E2
1F0
1CC
1F0
016
1D9
004
012
1D0
00E
1FC
1E1
1F8
033
1F2
1D4
025
024
007
014
011
00E
000
031
1FF
033
1FA
1EA
1E2
00E
023
00F
1FE
1F8
001
017
1C1
1E0
027
1E0
038
018
1DA
1FB
038
1EF
1EF
075
025
1FB
1BC
1DE
1C7
018
1C9
1F1
023
04D
024
01A
1EC
1E4
1E5
1DC
1F1
007
1E4
1F9
1D2
1F4
006
013
001
007
014
02C
006
1FF
00B
006
022
1FF
02D
1B3
1D7
1E6
1ED
028
1EB
00B
1FA
046
1D8
01A
1F4
016
008
011
1FD
1D8
1F7
01C
1F8
1ED
1E8
012
009
011
02F
01A
012
014
1E1
1D2
000
001
1ED
1D1
03C
1F4
014
006
010
1F9
009
1FB
006
00B
019
1E4
01D
1E7
1E8
016
01B
1E6
01E
002
1F7
1E7
1F9
1FB
000
01C
1FF
024
1F4
1F7
000
1F2
019
1F3
1FF
1E9
010
1BE
007
01F
1D3
1F4
1F6
1F9
1F3
1D2
1F8
013
1DE
1D3
1D3
1F8
013
1F7
00E
1E6
1FD
016
013
02A
015
009
00B
1E1
00F
1DC
1CF
00D
1D0
001
00A
004
1E5
1F3
1E0
1FE
00E
001
004
013
1E4
1E9
1FA
017
1DD
1DC
1FA
01D
01A
00D
1E7
1E3
1CD
1E7
1FE
1B4
016
00D
005
1E7
010
1F1
002
009
1F0
019
011
014
1EB
1F8
02A
001
1F3
1F6
1ED
1DD
1C4
1AF
1F7
017
00B
017
014
014
00D
028
1F4
1EE
1FD
03C
1FB
1D6
1F1
1EE
1F6
1F1
1EB
01A
1FB
026
1F5
012
1F0
007
1FB
1F8
1F7
1ED
1C3
001
02F
1FF
01F
1D2
1F8
1D0
1FB
1F4
005
1FB
019
013
01A
1F3
1F2
048
01C
1E3
020
1EE
1CF
1F2
1FB
019
02B
1C4
00D
043
1E4
1D6
00B
00D
1EA
192
00A
1EA
00B
1CC
1BD
1D9
1F0
1D6
1F4
1E1
006
1E0
002
1EF
1DF
1C7
1DF
019
004
000
1EE
1FF
1DA
009
004
01D
000
004
1FC
1F9
1FB
1C0
1D5
1FC
1FD
00C
1ED
011
1F8
008
1F2
002
1FA
1F3
1EA
008
1E7
01F
02F
000
006
1C9
03D
00C
1FE
01E
1CC
000
00C
1EA
011
1D8
1F8
000
1DA
1EB
1B7
008
006
1E6
1F9
1EE
002
1F4
010
01D
1DD
005
008
002
01C
1B5
1AD
023
1EA
1EF
001
000
1E0
004
1FE
1F6
011
01A
006
00A
015
1CF
1EF
00C
1EA
1D2
00D
1DC
02B
02A
1EB
1E1
1F2
009
010
1EF
004
1F6
1F1
1D8
1F4
004
000
1FE
00A
001
1DE
007
1ED
005
005
1E6
006
00D
1F0
1D2
1E7
1DF
1FA
1EF
1D3
1F6
011
1F4
1F1
031
004
00C
017
1F8
1FA
1E4
019
004
012
1F7
01B
00A
00D
019
1F3
1EC
00E
1ED
017
1CD
00E
1F5
00F
1CE
195
1B7
00B
028
006
008
00E
025
029
021
1DA
007
001
00C
02F
19D
1BB
01B
1E8
1E3
014
1E7
003
012
1DE
03D
000
1C1
000
051
1AE
1CB
1F0
007
1EC
1EB
007
043
03C
031
007
005
00E
1EC
001
012
02C
022
02C
1E9
00E
007
000
1D1
005
1E4
1ED
1EE
001
010
1D3
005
000
1F5
1F5
1FE
025
1DB
02B
1D5
007
00D
00A
1FD
005
001
1F6
1E3
1F9
1CA
00E
00F
1F3
1B4
02D
004
1D1
01A
1B0
1EE
1B9
1EA
1F4
1DB
005
01F
1F8
014
1F1
1FF
045
01D
1D7
1BB
002
173
00B
1CC
1F2
016
1F2
000
1BD
015
1FC
020
01D
002
025
00F
1FB
1FD
011
01F
03C
1FA
1F4
011
016
1BF
002
018
01B
1AA
029
008
1F9
013
1AA
1B8
1E0
1F0
049
1EE
00C
038
030
1E9
021
029
019
00A
007
1C0
1FE
1F8
1FB
026
013
1FE
1EA
018
001
012
1FB
1F7
00B
1D1
1F2
1EF
1FF
1EF
1F9
00F
1F0
1F1
016
002
005
1F5
1FD
010
006
1D5
004
000
007
1F4
1FA
015
1C7
1E6
1FD
003
011
015
00D
02A
012
1FF
006
010
005
1D9
1EC
019
017
003
1EC
02B
1D6
1F6
1CE
1E7
1D6
1DE
1F8
1F9
01B
1E8
016
1E0
1EF
000
027
024
002
1D8
1F6
1F5
1F6
017
034
1D7
026
007
1F3
043
1CB
1EA
1C1
1FE
1B5
1ED
012
032
1F5
1FF
009
024
052
005
1D0
009
008
1F8
1E0
1CA
1B1
1D6
00D
1AE
1E4
010
1FE
04F
03A
041
003
1EE
011
1EE
017
1F1
04E
00C
18F
013
1F0
1D1
01A
1FA
1E7
1D6
005
050
1FB
001
1A5
1AA
01D
007
1D2
1E8
1E1
1C7
1E6
1FA
1EE
1EC
00F
1E6
1D9
026
009
1F2
1F8
1EB
1CE
014
00A
1E0
007
1E4
004
1F1
1DC
1C6
1F3
01B
1E0
1FD
1F0
00A
006
018
1D9
00B
1E8
1E8
1F1
1F1
01A
1FC
012
007
1FE
018
1D0
000
1CD
1F8
1F6
1FF
008
069
1EC
1C0
044
042
199
00B
00B
02D
002
1ED
00C
023
024
1F4
1C8
00E
1CD
1F9
020
1FC
1EF
003
198
013
034
1E1
1F8
012
17A
025
006
1A4
1EC
053
1CA
1A1
1F4
00F
1B3
044
003
1EF
03C
029
01E
1F6
1D4
00A
1EE
1D7
1EC
016
1CC
1F0
014
1F7
01C
005
015
1FC
013
014
008
00E
012
009
031
00B
1EC
1F5
1BD
00E
1ED
006
1EF
1FE
1CA
1EC
1F0
011
003
026
011
013
008
1C6
1F0
009
1EA
1FA
006
016
018
026
1FD
1F7
1EE
1DB
017
1BC
025
1E0
007
1E6
014
1E3
1E2
005
012
012
1F0
1F6
015
036
019
1DF
1FE
1D5
00A
006
1DA
1C5
010
1EC
1EF
1F5
004
1F6
1EB
01F
1E8
1F8
1F6
1DE
00F
1E4
01C
019
015
1DF
018
1F4
007
00C
1EB
1E8
01A
1E4
1E8
1EA
003
009
1D8
1EC
1D1
1F4
02B
010
1E8
1F6
1F3
011
03C
01C
1ED
004
1F5
1E5
1E9
1D8
1BF
00D
006
1DE
00F
1E4
1DD
026
1DC
1F0
025
1D8
1EE
037
01D
1E3
01B
1E8
01C
1DC
031
00E
026
051
1CF
002
1D0
012
014
1D7
006
029
1F8
1ED
1ED
1E8
1F1
002
1F8
1EE
1E1
1EF
023
00D
007
1D9
1E7
009
018
1E2
1C7
1F4
1C9
001
1EF
014
1D7
1DD
036
019
1F3
1ED
005
1EE
004
019
018
005
1F9
002
1FE
029
1F7
009
004
1F7
1E1
004
00A
1EE
1E1
031
1F0
1F9
041
039
1CB
1FF
1EF
00B
1EC
1F4
1D6
1EA
1E4
1F8
1EB
1F7
1C8
031
024
1CF
030
1F8
1EB
1FD
1E8
018
02F
1E9
00D
022
1FD
1A1
00F
041
010
1D6
01E
1FF
1FF
010
1A9
1B3
006
007
1FD
1FF
1EF
1E0
1FA
004
003
1E9
1EE
1FB
1FE
1FC
1E5
1FC
00D
018
1F4
034
006
002
017
1EE
006
1E8
1E5
1F5
004
1F6
00E
001
006
00E
1FA
010
1E9
1D8
1F9
025
001
1F7
027
1FB
1F2
1F2
005
1F5
00C
014
003
1D8
01B
015
1E4
1E0
014
008
1E9
1E3
1FF
01D
00F
006
1FA
011
1F5
1F9
036
012
00A
006
00A
002
005
1F4
1D0
001
1FC
1F3
1FC
000
012
005
1F7
01A
002
010
1ED
1FD
01E
1D8
00B
020
001
1E5
1ED
1D8
016
001
1ED
00C
1EF
1E3
006
1EF
1E3
00C
1FA
1EF
1EF
002
004
000
005
00E
1F7
1D9
00B
008
1F7
007
00D
001
1F7
010
1E3
02F
1DD
006
1DD
1F8
1BD
1EE
003
00C
002
026
1F0
1DF
000
1E8
1F7
029
1ED
008
01C
1F0
026
1FC
036
007
007
1EE
00A
009
1D9
1E8
1E4
1ED
1A5
019
1F5
017
018
00E
001
019
01A
01C
1F0
039
03D
016
1F7
1F9
1E1
00C
1D8
00E
1F8
1E2
1D1
009
1D4
011
1FA
01B
1FD
01A
1C2
1EF
016
014
1D0
007
01D
18B
015
02E
020
001
005
1FB
1FC
002
1F5
02E
1ED
1F2
1F6
1F6
002
000
00D
1B9
1F4
00E
004
00D
00F
014
1F9
009
1D7
003
1EB
1C4
1F5
1E3
1CE
00D
014
00B
028
024
010
01A
009
1DD
032
001
1F1
1F9
1F1
000
1E5
033
1CD
006
1E5
1ED
1D4
008
1FA
1C4
1F1
02D
1CF
1E4
013
023
002
1F1
013
1C9
1FE
1BF
1F8
006
026
1FB
1F9
1F7
1D5
031
003
19C
01E
001
1C8
1E4
011
1FD
06F
023
1C7
038
1E6
19B
020
003
013
1FE
1F9
1E8
1CF
03C
1C0
1B8
00B
008
022
010
001
00E
001
1F2
00C
013
00C
021
048
1EC
1F6
1E5
00A
00D
014
1DC
00B
01F
01D
1D6
005
007
1FD
1E2
1EC
00B
1E9
1E0
1F3
1C8
1E4
1FA
046
012
008
1FB
01D
008
1E7
006
1D8
011
002
1FF
002
009
1D5
00E
1EE
1F5
1EA
1EC
01C
034
004
00A
1E5
007
012
1FC
1F5
1EB
1F2
1EE
01F
029
1CF
015
1E6
00D
1DB
1C8
1EB
1DC
1FC
1E8
002
015
1DA
002
022
022
1E7
002
1E7
1C5
011
003
019
00C
00A
008
006
02C
1E0
010
1E2
1E8
1DB
1DD
1E4
027
1BA
1DF
1EB
03C
1FF
023
1FD
030
1E8
026
00F
02E
028
1D0
01B
1F1
1EE
1EC
00E
056
011
060
1F4
020
1F5
1FE
046
038
010
1E8
031
032
1FE
1CE
02D
1EE
1B8
000
1C4
004
1DE
02B
1FB
1DD
018
00B
1C3
1EC
1FB
1FF
1EB
1F5
00E
016
001
1EF
1C9
02E
000
012
00D
1EE
1E5
01E
1E7
1ED
1DF
000
1F3
1E3
018
1CF
1F2
1EB
1F8
1F6
1F9
003
010
02F
1E5
1C6
007
005
1FF
01E
037
1DC
001
1FE
1FB
01B
1EB
1FE
008
00A
012
1FA
017
1DF
1FF
1F4
1F2
1DA
1A0
017
025
1FA
1F8
1FF
000
005
011
1F0
1D4
00F
1E7
007
1E4
1F0
1DF
022
1BE
1DE
00B
00F
1FC
1F3
1F5
1DB
025
007
004
01D
1DE
1D4
1DC
003
1DA
1EE
01C
1D6
01A
1F7
1E7
1FA
1DB
1FB
1F0
1FF
1C7
1E8
000
1EA
1FC
000
1EC
1FB
1FF
007
1EB
005
1E6
1EE
01A
1FA
027
1F0
1F0
000
1F3
011
1F4
023
1FC
1EF
1E5
1D3
001
1E9
1F9
006
015
1F6
1F7
1DF
1E7
016
1DB
1D7
004
00A
022
003
01B
013
1E5
00C
1F7
1EF
1E3
1FB
1D7
1DB
00D
016
00D
00E
1EA
001
011
1DF
00D
1D7
1EF
013
1FF
008
1F6
018
1F9
030
1F0
1FE
1BB
1E2
1C5
1FF
015
1EF
1FC
054
1EA
1F5
1F4
1DC
1E9
03A
1DD
1ED
01D
1E1
009
1E9
027
1E2
01E
009
1E7
1F9
1EA
013
001
002
1F1
1F1
011
1E5
005
1CC
017
1F8
000
022
1F2
00E
01D
001
1F6
1F2
1FA
003
1C4
00A
1F7
1F8
1E3
1E0
1E9
00C
025
024
1EB
00C
1E1
00C
011
033
1E2
01F
01E
011
00A
00C
016
00B
1FF
000
006
1D4
008
1E5
1C7
1C8
1ED
1EE
01F
01F
1F3
005
1E5
00A
1E9
01D
042
1DE
02A
1DF
1D9
008
1DD
1FC
017
013
1CF
00C
1FC
022
1FD
02D
1EA
00F
1DD
00E
00A
1BD
1FC
011
002
1C7
032
1F3
007
025
1EB
1FD
1ED
00C
1F1
1D8
1F6
008
00B
1E7
039
02C
1EF
1EC
00C
1F8
1E7
1EA
1D1
1EC
1F1
00B
1EE
1DE
1EB
1FF
02F
1EC
006
1F6
1D8
1E5
012
1D0
01C
1E9
1EC
01B
1FE
1A8
020
038
1FF
000
1F1
1F2
1FD
019
1AB
1AA
005
000
007
1F4
1F5
012
009
1D0
1EA
013
011
1F0
1FE
006
1EC
016
1FA
01A
019
016
020
1F4
013
1DD
1DE
002
1F3
1ED
00F
00D
1F0
00C
1E4
1EE
1DB
1F1
1EF
012
1F0
038
01D
1D9
01A
1FD
015
1EF
011
1E9
021
00E
1EA
1D7
005
003
00E
1F7
011
1EE
025
00E
00C
000
1F7
015
004
1FE
011
019
1E8
1E6
00B
009
001
002
00A
1FD
000
1F5
1EB
1ED
00F
1E7
1FB
01B
1E6
011
010
014
1F6
009
1EE
011
1DB
1F2
003
00E
1F0
006
1F2
1F8
01A
1E3
1F0
1ED
1FE
1DF
000
025
1F3
1F9
009
1E0
002
1F3
1F1
1FB
00F
1EB
00E
009
00C
1F1
1E7
003
1F3
005
1F8
1F5
026
1FB
011
1F1
1F0
1F2
02D
025
1F1
001
009
1E7
006
002
01E
1ED
024
1EF
001
021
1E7
1ED
001
001
006
1FE
1F7
011
1E9
1E6
01C
019
1E9
005
1D0
003
1DC
01A
00F
023
1C8
1F2
1D7
008
017
1F7
008
1FF
1FB
014
1D7
011
1F7
015
00C
1E3
1BD
1D8
016
005
1E9
01B
015
020
1E2
1F9
1D9
004
1D2
1D8
1FF
1D3
013
1DD
1DF
1EF
005
02E
1F1
1E8
1FF
011
1EB
1FE
1FB
1EB
1DC
1EB
1ED
1D6
011
1F5
1F6
1E5
1F2
1FC
1E6
018
005
1D2
1C7
1F4
010
1F8
1E2
013
1F9
1E7
1EA
1EC
1E0
024
009
1BF
1E1
1EA
1C0
1F4
013
1E8
014
1F9
1F0
1D6
00E
1D9
1EC
006
007
1BE
1F1
1F9
01F
1EA
004
1FF
012
00D
1E3
1E8
02C
1EB
1F7
1D2
1D6
1EB
1FA
044
025
1FE
1F1
1F3
030
1E0
1E4
02E
1F9
1F0
1C6
007
1F7
003
1F3
1FF
1FD
1EE
003
1E3
015
1C5
009
016
1CD
1F6
1E8
1D5
00D
001
1EC
00F
014
011
1EE
00E
1E4
001
1E5
00E
008
00D
1EA
1FA
004
024
004
1E5
1F1
1EF
1EE
1C3
1D2
1E2
015
1EC
018
1F4
01C
1F8
016
1F0
1EC
037
026
1F0
00D
1EF
1D9
00D
1CC
02A
1FA
000
1E6
1DA
00C
1FF
010
03F
1E6
006
007
02F
1FB
007
017
014
1FC
1CC
1FF
1F0
005
02B
009
1FF
1E2
1E5
000
1F3
1FB
1F0
1E7
1F4
1F2
001
1F1
009
1EE
008
1ED
1E4
1EB
1EE
021
1E0
01D
1E6
1DD
01C
01A
018
1F7
1F8
1F2
00B
1F4
1DE
1FD
1D4
1ED
1E0
1DD
1C1
014
002
00A
1E8
016
1E6
00B
1D4
00F
1FD
004
1CB
1F6
1FE
003
010
013
00D
035
02E
1EC
00A
1E4
00E
006
1FD
00A
01E
01D
000
1DB
022
006
00C
020
1E0
00B
1D6
001
00D
003
1E4
1C4
1F2
003
1D8
1DD
1E8
1B4
003
022
023
010
1F8
00B
00E
1FA
1FF
1FF
1F0
00C
009
017
1EC
1E8
1F9
1F9
1F0
1F4
015
1D7
1EA
1EF
012
1F7
1F4
003
01F
1E2
1F1
02E
1DD
1EF
00E
1F7
1E4
1E7
003
006
00C
1E1
000
1FC
1E7
1E7
1E9
014
01E
007
009
1DB
1F3
013
005
011
012
1F4
006
021
010
1F3
013
004
1FC
00B
1DB
1CE
015
1ED
1E6
1FE
005
025
003
006
011
1F5
1E5
1F7
00D
00A
1F5
1F4
1E5
1F1
011
1F5
028
01C
000
1FB
1E9
1F2
00F
1F8
1EF
1EF
034
011
010
014
012
007
03E
1EF
1E9
009
1E9
017
002
1ED
01A
1F7
1E0
011
009
00E
020
1E9
010
00C
1F2
1E4
1DE
011
003
027
00B
014
1FB
00B
00D
1FD
1FE
1E9
00B
1FE
00B
002
1F4
014
1E9
1EB
1F9
012
1D7
1E8
1C2
1EA
1DD
02C
02B
1D3
017
004
046
1F7
005
1D7
000
02C
1CC
01C
1E7
1F6
01D
004
1CE
009
02A
1FE
1EB
1FD
014
1CF
1F4
1B5
1FB
1DE
01B
1E1
1EF
029
1F8
026
1BE
008
1DD
030
00F
020
1E2
003
1FA
1E5
012
1FC
019
034
002
1F7
1E6
004
009
005
1FC
008
00D
1EF
1BD
1FE
002
1D5
001
1F4
014
001
1CF
1DD
007
017
000
016
1EF
019
1D6
014
003
1FB
011
019
1FB
1E4
008
00A
030
1D6
019
1EE
1C0
001
1E7
012
014
00A
1EA
019
00C
1ED
023
019
1E3
028
1D7
1FC
1D7
00C
1E1
02A
010
023
01A
1E4
1F0
1F2
1FD
1F2
034
015
1ED
029
1EB
1DF
012
1EF
00C
1E6
1F2
1E8
019
1F8
001
019
00A
00C
019
028
00C
015
023
00F
1FA
009
1FD
1F2
1BF
010
1B8
18D
00F
02D
013
015
1F2
1E6
1F0
004
1CD
1FD
1FD
028
1DD
1EC
1F9
1D4
013
024
1EA
029
1FA
1EC
1ED
1E8
010
00F
1F6
1DB
00C
1E4
005
1F8
1CD
00E
00F
023
1A7
02A
1C0
00B
1F7
1FC
1E7
00D
00A
1E0
00A
1F9
1DC
1E6
013
017
1CB
02B
00D
1E5
00C
1F5
01C
1FE
1E0
1FF
1FC
1FD
1FF
005
1F7
1D8
010
002
00C
1F0
1FF
1EA
011
1FB
1ED
024
015
1F1
003
1F7
1E8
009
015
1FD
1E4
1EB
1E0
002
015
02A
00D
008
1EF
1F1
1F6
01A
1F3
013
1F3
1F2
1CB
016
01D
018
004
00E
1EF
1ED
1F8
016
1E0
000
1F3
1F0
1E8
009
1E7
014
013
1E7
1E6
1F0
018
1FD
1FB
1E7
01A
1E1
020
003
1DD
1F0
042
000
003
1FA
1FC
006
00B
015
015
1D7
1ED
1F3
1CD
1D0
1ED
1EF
00B
029
1EC
1F7
1F9
00D
00C
1FD
1F9
00E
004
1E0
1E5
1F7
00F
1FA
013
005
1EB
032
001
02A
017
1F3
01B
013
00E
1CD
1ED
00E
00C
1F0
014
025
1D7
04D
1DE
010
024
1F7
006
1F6
00A
1EA
1FF
00A
029
1DC
1F8
032
026
1EB
036
1D6
01C
1F5
1D2
008
022
1D8
1C7
009
03E
03D
1FE
04C
1F6
022
020
1CF
1E8
1F4
1E9
00B
1E5
003
017
00F
1FC
1F0
1FE
021
005
1AA
004
1B3
040
1A0
025
1E8
1D2
1F1
1E3
1E8
1F5
1E1
044
1FC
007
1F5
013
1AA
01A
011
1EB
005
1EA
1FB
028
03B
1FA
1EF
05D
00E
1DC
020
1CF
1CE
1E4
1AD
1F4
1F2
1E4
1EC
1F0
1F9
00A
02C
1EB
001
01E
060
1BF
1F6
1ED
1C3
01D
1E0
006
1FA
017
01C
1EF
1E9
00A
1E6
041
1E1
1FE
1E0
023
1DA
026
1EE
1B7
1E9
1FA
1E5
01B
031
1FC
1ED
07D
014
1E2
1F8
1CE
1FA
1F0
1C9
1DF
002
1ED
1CD
011
1F3
1F2
03D
1EA
003
1ED
02B
1EC
1C0
1A2
1F9
1F7
1DF
003
1F9
006
1EA
008
025
1EE
1E6
1E9
1E6
1EB
1E8
001
1D3
008
00D
1C4
00B
1DF
1F0
042
040
1DD
1CC
077
014
009
035
1B8
1D8
006
1CE
1D6
1DD
018
028
1D9
00B
014
037
003
009
028
04A
1EA
1E5
1A6
1CF
1D0
1A8
02C
1FB
02C
1C2
1F9
1F0
014
1EE
02B
1EB
1E5
008
041
1FA
013
1E9
005
014
004
00B
00A
007
1FB
1FC
027
015
1DE
1FE
019
005
1DA
1F4
1FD
00C
000
1EC
1FE
1FB
1FF
005
1FB
005
1F4
01C
1C1
1D9
1F0
1D3
02B
1D5
01A
001
1EB
019
1F7
1F0
1EC
006
1F7
023
1CD
1F5
003
00A
016
1F5
00A
1E8
1F1
1F9
1D0
1D3
018
00D
1D7
1F8
00F
008
007
01E
1ED
01A
007
022
1F9
009
00B
1F1
011
1F0
1E2
011
022
1F2
002
01B
1FD
01C
1E6
01F
1EA
00A
010
006
1F3
004
1E0
1DF
1F2
1F6
1B9
1D2
1F1
01D
1F9
026
1F8
1E3
1D2
004
00D
033
004
1FB
023
014
1E7
1E3
00A
1F2
00E
1EB
1F2
1DA
1DF
1D2
001
1E0
01B
000
033
00B
000
00F
1C0
1EC
1F5
1EF
1D2
01F
1DA
01E
038
1F4
1E3
1FC
1DD
013
025
002
00A
01A
1EF
1F5
1DB
000
00C
1E7
01A
1FF
009
1F6
1F3
01C
1FF
00C
1F7
003
1E7
016
1F7
010
1E8
000
00A
016
1F7
00C
018
1FE
1DE
1E8
024
00A
00A
00A
1F7
023
00B
1F2
002
1F7
1F6
025
004
020
1E6
1FC
1CA
1D1
1E9
1E6
1F1
003
002
1E8
032
1F0
1D5
1EF
01D
008
1F9
021
043
1EB
020
027
023
027
00A
1E6
01B
1FE
019
009
1F8
1FD
037
002
1EF
1F1
1F0
00D
00A
1F7
1E5
1CA
00B
1E0
01D
1F4
00B
01A
00C
1E0
000
1E5
1D0
00A
1BC
1D0
1CA
023
1E2
01D
00E
1FB
1E2
011
1F7
1FC
001
01E
1ED
1F6
014
1FA
010
023
1F5
02A
01C
1F2
001
1E9
007
025
1F4
1BE
020
001
1FA
1D6
01D
007
025
010
1BE
023
1B7
020
013
021
002
1C9
00A
1E3
002
1FF
1EB
00D
033
01C
1EB
1E1
01A
1ED
024
1E0
1EC
1EC
1ED
01C
1DC
1D8
1EE
02A
1FF
02E
01A
023
027
042
00D
1F9
005
001
1FC
1E7
1EC
00A
01D
00C
00D
1E3
1E6
01E
038
1DF
051
1FF
1D5
047
1E9
002
007
1E8
1EC
1F1
01A
00D
1D4
00B
1E4
1F8
1F9
014
1E6
008
1F7
003
1FF
003
041
008
1E9
1F3
1E6
1FB
1D0
014
1E7
1F9
00B
00A
1EC
1FC
034
1FB
1E8
00D
1DB
1F8
015
1F5
1E1
000
016
1D5
007
1F0
1EC
1E1
00C
00B
00C
009
1FD
1DB
164
16E
014
01C
021
026
1DE
005
1DB
002
002
024
1EB
003
015
003
006
005
030
01B
1DE
1FF
009
1E7
1FF
005
02F
1C2
1EF
00A
021
1ED
02D
1FD
1E2
001
1F6
01F
1C9
01E
1BD
056
032
1F6
1E6
1EE
1DD
003
1DC
1EC
1F0
1E8
1A1
00E
1E6
006
01D
1E0
00A
003
011
000
003
1F2
004
021
1D9
1F4
00E
1DD
001
01D
008
1E7
014
1F9
020
1E9
1E2
01C
013
1F3
014
019
007
006
1EE
00B
1E8
037
1EC
1FC
01F
1D8
1FD
013
1F4
1E4
037
1F9
1FE
03A
1D4
1DF
1F9
1F2
1EE
1EB
1FE
1EA
030
1F0
1E8
014
1FA
005
1F1
004
1F3
1FA
1D3
1EC
012
022
1E3
02F
1E2
1BE
026
005
1F2
1FC
03B
000
1D6
003
022
001
037
1EC
014
016
013
1DE
004
1F2
006
015
1DD
006
1F6
1F9
1E0
01D
1F3
1F2
019
1FA
1FE
1F8
1FA
1E0
1F7
013
1D7
1F7
1DD
1FF
007
00B
007
012
1F8
004
1FF
00E
03A
1EC
010
1EE
1FB
1EA
012
018
1E3
00E
01E
01F
1DF
009
1F3
016
016
1F1
1F5
1FD
01A
1F2
014
1EF
1BA
1F4
1FB
1B0
1E5
1FD
013
010
040
003
037
005
009
015
01A
04E
1F4
1FF
014
006
001
1DE
013
00D
006
1E0
022
1F4
1EE
026
1EF
009
05A
010
1FC
017
1F6
1DC
1F0
1EB
00E
041
02A
018
00D
015
1EE
1FD
1CC
1EE
000
1E3
1E7
1F5
006
00B
1FA
1E1
1EB
1E3
1F1
01C
1E5
1D8
00E
011
00A
1F7
012
1E7
1DE
1FB
1E6
004
1E7
1E7
014
1F9
1EF
023
00F
000
1F8
009
001
1F6
1D3
1F8
00A
019
1F8
00A
1EC
008
1EE
1E0
1F4
1F8
00B
1E3
004
1E7
005
014
026
1F3
1F9
1E5
1CB
1E7
1D5
005
1F8
1E3
1FC
002
017
1FC
01E
022
009
01A
000
1F0
013
001
1E9
026
00D
1EC
024
1E6
1B0
017
02B
1F3
1F6
003
008
02D
1FA
1AC
1FB
013
1DC
016
009
1FA
020
1FD
1F8
021
00B
1F3
1F9
011
1B4
017
1A9
1E3
1C8
1F1
012
000
003
011
1F1
1F5
019
1F0
1F0
1FD
1F4
1DF
1F5
015
1C2
03B
1DC
1DF
023
005
1C9
006
1DC
1E2
000
1FF
019
1EE
1F0
1FD
1E7
029
1F7
000
1EC
1E5
1D4
001
1CA
000
1A4
1FE
1F5
009
1D4
004
014
1E1
1E8
1E6
1FA
02D
1E6
1E6
009
1F1
1FC
1E3
1ED
00C
002
1D5
1F8
008
013
00E
1F6
000
002
1E8
004
1E5
1DD
1D9
1F9
033
1EB
1F8
023
019
1FE
1F3
1DC
019
003
1EA
1D8
1E3
1FF
1EE
1F4
1FD
1FC
1F0
023
1E1
041
016
03A
1E1
1F5
03B
00E
1ED
1F8
1F0
1DA
1D6
1F7
1EE
025
1D7
000
03D
1F9
024
1FA
015
01A
1E3
01A
00E
1F5
1F4
029
1F6
1D7
1C2
1FA
01C
1FA
020
018
012
1E6
1E6
1F6
004
01D
024
006
005
1BA
1F7
1D6
019
1F4
001
1EB
1DB
1CB
039
1FD
014
1F9
1F2
001
1D2
1D1
1D3
00E
1AA
003
1F7
003
018
1CE
015
032
017
1F7
039
1C2
1CD
00B
009
023
1B6
1FA
00A
009
015
001
1F6
01E
1E0
1EE
1B4
1EB
19D
1F3
1C9
031
014
00C
1EF
00B
1EA
077
056
02F
1D8
02D
01B
009
1D8
1EA
1EE
038
1EA
03F
1F9
01A
1CF
023
009
02B
032
002
1E4
1E2
001
1E0
026
1E8
004
1F8
1FA
00A
009
04A
004
1FA
1F0
1FC
007
033
03A
01D
029
00C
1C8
1C3
1E2
1D7
009
1FE
009
019
1DF
1FA
1FE
00C
1FE
1E7
01B
00F
1E5
006
1AA
1D1
1DF
1FA
016
1EE
005
1A3
01D
1FE
1FE
020
01F
1AA
1F9
028
1D4
1F1
1A9
1E1
01B
1F0
1F6
01B
003
1EE
1E2
009
010
1EB
1E2
1DB
1F5
004
000
023
1E6
004
1F6
1F3
1E3
1EB
000
1D9
006
1F3
1EC
02E
009
1DD
017
1FD
1E4
004
016
1FE
014
031
004
018
1F6
1EE
1FE
011
010
1FB
1FB
1FF
1EF
1EE
1FF
1FF
1F8
00E
007
1E6
1FB
00F
1E9
1F1
1F9
1E4
014
1DD
01A
1F6
1FD
004
019
022
004
1FF
00D
1FD
012
007
1F4
020
1E3
1F2
1F5
1FC
004
000
1FD
003
1E3
1F0
01A
013
00E
02D
1F6
00B
1FA
1FF
000
016
1E5
1EE
004
006
1F8
00A
018
010
1F6
1F8
014
1AB
1B3
1CA
007
1CA
032
1ED
012
01E
1E6
1E9
02A
02C
00D
1C5
009
1E8
00A
1EB
1FF
1D1
026
00A
019
1FE
00F
053
1D0
1F8
1E2
1E3
1E8
042
1EC
1D9
00A
1D5
02D
1C7
013
01A
010
000
025
00A
003
00C
011
1E8
028
01E
1F2
1E2
02E
1DF
029
022
015
001
1E5
1E0
012
013
03E
1E4
1BF
1E3
1C1
049
003
1E3
029
013
1DC
018
00D
1F0
043
00F
1B6
024
1F8
1A3
027
1AD
1FC
1F0
02D
025
1DF
01A
18E
1D3
004
002
1F3
004
008
1C4
00A
1DC
1E1
1CC
1ED
1CF
00A
002
1F7
019
1E0
1EB
000
040
023
1D6
022
1E1
1FE
1E5
1F7
00A
1FE
003
003
1EF
016
010
1FA
032
003
01D
1FA
01E
1FC
1E8
00A
000
1FD
1D7
031
1FB
025
02D
1F9
1E7
1DD
1FA
1F1
004
1F6
001
1E6
1FB
041
009
1C5
00D
1E0
01A
00E
019
1EB
1CE
01B
008
00C
1DE
014
1F4
011
1CA
013
011
1D0
1EA
032
006
1EA
1F8
1F7
02E
1F5
1F8
020
014
00F
1F8
1DD
008
1E9
00E
00D
1ED
1FD
00C
1D5
00E
005
1E7
1EC
1E8
1B1
1DA
01E
1F6
01A
021
1FF
01A
016
012
1ED
012
047
1F4
039
1F6
014
002
1F4
1F6
1E5
031
1F4
008
002
008
1D0
014
00D
034
1E2
033
1FF
1E3
1F6
1F9
1E6
1E3
1F9
1F2
010
00A
1F6
1EF
00C
1EB
1EB
016
1FA
028
01F
01B
1B0
1A8
013
1EB
009
01A
001
00C
010
027
1DE
03A
1D8
00C
1FB
020
1F1
011
1EE
1B4
014
012
1D7
1F6
01A
1B0
028
1E7
1E6
018
1F4
1F1
1F8
023
1E1
039
039
1F0
020
010
01D
003
1F7
00A
1F5
1B4
00C
00E
1F6
1CD
1F7
011
1EB
010
1E8
01E
1E9
1F2
1FA
010
004
1FD
01B
002
000
008
01B
1EE
00F
013
1FF
00E
003
00A
1FD
00A
1FE
018
1F1
1F4
1F6
034
1FC
019
020
1DD
1D5
1FA
1D5
1FF
1E3
1E2
002
00E
1E9
1DC
005
000
1FE
1E1
027
023
1DA
00C
00F
027
001
1E6
1CF
1FA
013
1D7
012
005
1E8
023
013
1E6
03B
02B
1D4
1EC
00F
01E
1FD
003
001
012
005
1DC
001
015
00F
1F1
028
1EC
1FD
1F5
1D8
1E9
1FD
1FA
1C6
000
1EA
1D9
1DC
004
1E8
1EC
00F
01F
1DE
1F5
1F0
1E8
1E3
1D8
1AF
1CA
015
007
006
005
1DB
033
02A
024
013
009
1DB
1EB
007
1D7
056
1B0
1DA
034
016
1BF
1ED
04B
1DC
1F6
00A
1D6
1D1
003
1C2
193
020
1F3
008
1E2
1FA
1AC
1F3
1D7
1B3
1B7
00D
010
1F2
1FC
1F8
015
1F2
1DE
011
00A
01A
1EC
017
00E
00C
01A
004
018
030
00E
00E
1E9
1F7
028
1FD
1ED
00F
031
1F0
1F6
004
017
009
1F8
034
1B2
02E
000
004
1FB
1E5
1DC
1FE
1E5
1E5
00E
1FE
00C
1E8
1FF
1F9
014
01E
001
1F5
001
1FB
1F0
002
1E8
1F1
1FF
016
1E2
00D
1E9
01A
036
1F4
1DF
1E3
1EB
1E4
1ED
020
1F1
02B
01B
1F2
02B
009
1CA
1FF
027
1C1
018
03F
008
03A
1E6
039
004
1E7
1F5
1F7
1E1
1FA
1D6
1C6
1D4
1DD
1F8
01D
004
000
006
1E1
1DA
009
014
016
1BC
1F4
1DB
1E6
1EB
1CF
1CC
028
009
01A
01D
1F5
010
00A
1FA
1F0
007
1E8
007
017
1DF
1F1
1E0
029
17E
1ED
012
032
01F
002
1E3
021
1F7
1E8
04D
1FB
03A
042
02A
1B3
005
1F0
1CB
1E7
1FD
1F0
011
031
1DD
1B9
05A
027
006
1CF
011
01F
04D
1C1
1C2
1FF
1FC
1FB
1D0
019
1F3
060
00A
1DC
1EB
1EF
027
1DD
019
1D5
043
00C
1E2
009
1FD
1F9
1E5
1F6
013
1E8
020
00A
1D9
005
00C
02A
1FE
1D5
1F3
016
002
008
027
1FC
1D6
026
00F
012
1FB
1F5
02C
030
1E9
1F4
02B
1C4
1E2
017
1E0
03C
1F0
034
01E
1FA
1C3
00C
006
1D1
000
1EA
1EA
1EA
016
1ED
1D9
001
013
1F2
1E9
00B
1E4
001
1E7
1DD
1B0
009
017
022
023
1F6
005
008
026
00A
1E3
021
1F7
017
1F0
1EA
1FA
1F3
1DF
00C
00D
1EE
006
01B
025
1E3
1F1
1FB
1FC
1ED
008
024
1F3
003
009
1E5
1CC
003
019
027
004
012
000
010
003
1E9
002
01D
1F6
017
011
1CC
1DD
009
010
000
1FE
1DF
1F9
012
014
1E4
01B
1EE
006
00A
002
1EE
1EC
1FC
1CD
015
1E9
000
1E9
1FE
1E8
008
1F5
005
00B
1FB
001
1F6
005
029
005
013
001
022
1F2
1EC
1FD
018
1E3
012
1BC
1FD
1D7
1B7
1C8
005
1DF
02D
00C
1FB
00E
1E1
00C
01A
00D
1FB
1EF
1EA
1DE
001
1EF
1E2
02C
012
1F7
01B
001
1CF
02A
1DB
1C5
1F4
1DF
1F0
02C
1E0
1E2
01C
00F
019
1BC
038
1D2
059
042
027
1E2
010
1FF
1E5
1EB
00D
01A
1E4
1E1
1FB
01B
009
1E6
001
1EA
00F
1D2
003
011
024
1DF
1F5
1E1
1E2
013
1F8
020
032
1DC
1CD
00A
1F5
02D
00A
1F1
1CF
1EE
1EB
1BE
014
01E
1FE
1D4
04F
1E6
000
00B
1D7
1E5
1A6
1F2
01A
1EC
1DE
1DC
029
1E2
1B5
1F9
01B
1F8
03C
017
1F7
1ED
1EA
1ED
02D
016
01B
1C9
00C
1EC
1CB
1D7
1EC
1FB
026
002
009
013
1FE
036
1D8
1F2
1CA
1EA
1F1
02C
010
1C1
00D
1E6
033
1DA
004
1D5
03E
034
1DB
1DF
1EF
1DF
009
1CD
1EE
1D9
1C4
1D7
04E
1FA
002
01B
00C
003
1E4
1FD
1F3
1EF
03A
1F8
018
1E3
1E4
015
022
1F5
041
033
1DB
009
015
027
1FC
1FC
1CE
03C
00E
1D4
018
1F3
1F7
1EB
03B
1CA
1EE
1F2
1F7
1F6
1F0
013
018
1EC
006
01B
1FD
009
012
010
1CB
1C9
00E
023
1E7
01F
003
017
1FB
011
01B
012
1DF
000
00F
1E8
1EA
1F6
1E1
000
016
1E1
01C
1F0
1FC
1FB
1F4
1D8
1F3
019
00A
1F0
1E1
025
1E9
01A
1F8
1FF
01A
1EE
027
1F1
023
010
1F7
1FF
004
015
015
1FE
1D2
1C6
1FB
1E4
1FC
1B3
00C
037
00F
01B
1DB
018
001
003
011
1E5
1EA
01D
1F7
1C2
01B
1F9
017
1E4
014
040
014
1F5
000
021
1EB
008
1FE
028
1DC
019
1DE
007
1F4
005
020
002
017
001
1F2
199
012
00C
1F8
1DE
015
1E6
1FB
02E
1E5
1FF
1E0
011
1CD
01B
1FD
1E0
001
007
1F4
1FC
1F3
1F8
012
00E
1E2
1DF
020
00E
019
019
1F9
000
00D
020
1E2
1FF
024
017
1FC
1DC
001
1E5
02F
011
1F1
002
1E3
1F5
1DE
1BA
1E0
1FD
1E7
1C2
023
006
012
036
1E4
034
007
003
1E1
1E3
05F
1ED
018
1F8
1E9
01A
006
1E9
1FE
025
1BC
004
02D
02D
1F6
003
000
02A
00A
1F8
021
1F8
1DB
01F
1FC
1E9
1E5
1FB
013
007
017
1F3
1F9
1DE
1E7
1BE
1FA
1C3
1A0
19D
016
010
014
1D0
001
1FF
1EA
1FA
1F0
1CB
1D5
00C
016
1E9
000
03E
026
00A
01D
01D
1E4
1E8
1EF
004
035
1B1
02E
041
1F0
1CC
012
034
1D4
1F1
014
18F
1F6
1FC
007
1EE
002
1DE
00B
1E3
1F2
19C
014
1CC
1BC
1CC
003
1F2
01A
021
1E7
015
1F5
010
006
1EF
02B
1F0
034
007
1FE
1E4
1ED
1F0
012
022
00B
00E
005
02C
1E3
1EE
1E5
011
1DE
017
1D8
1E7
1F8
00F
003
1DB
1FC
1EA
035
020
00F
1FF
00F
006
015
014
1EF
02B
054
054
1DC
003
1BC
1C6
1EA
1D0
004
184
00A
1D9
184
014
182
1E8
1DF
04F
011
040
1DC
1D8
1F2
013
1C0
199
05C
1C1
01C
1EF
01A
1A7
1ED
01D
1E9
03F
1D0
06C
023
1F3
1DC
16D
03E
1E9
1F4
007
009
1B9
006
195
16F
1AD
1FA
029
00F
01F
1EA
002
1F2
1EE
021
01D
003
1EA
1F1
003
007
1D7
1D7
1D3
030
017
017
00D
1E5
029
1FC
1D0
1F3
1DE
1ED
031
1D9
1F3
021
1DC
034
13E
027
030
032
051
003
1ED
002
1E1
010
009
02C
030
02D
01F
1D2
1E7
1E2
1EB
1FA
002
1F7
1EF
1F1
1FE
1A4
018
1B2
00A
01A
010
023
009
00A
1ED
01F
1EA
1FA
1C3
015
1FC
000
1E4
018
1E8
1DD
041
001
1F6
1F0
047
001
029
1FA
1EC
024
1FB
1F1
1ED
1FF
1C9
003
1EC
1C5
1C4
041
041
002
1ED
1FB
02C
1E3
036
1FD
1E0
045
1D6
1E6
1DF
1F0
1DA
1E9
03C
032
03A
003
1E7
002
053
1E6
1B5
1EC
00B
1E1
020
1F2
1ED
013
1CE
038
18D
1EF
033
1FA
1E3
01F
00B
016
1F9
1F0
1E6
1EE
1F9
005
1EF
008
1E1
024
1ED
006
012
1F1
1F4
1FE
1EF
005
1E1
1F8
1F9
1E3
00B
1EE
1ED
1F1
1ED
1FB
1EC
1FF
005
1F6
008
005
004
00F
1FD
1D4
1EC
018
026
1FD
1FD
004
014
038
010
1FF
00B
00A
006
008
1FC
004
02C
032
00F
00D
00B
000
1E1
011
1AA
1E4
1C9
1F6
005
1AD
01C
1CD
1EB
1FC
022
01D
026
015
1E7
00E
1E6
001
1C6
021
01D
030
1FE
1FB
1C2
01A
00B
1EF
019
1FC
047
1F1
1FD
1CF
1CD
015
1FF
03D
1EE
1F5
1DC
00D
00A
1E0
1E8
1BD
1C2
02B
01D
018
1F1
1EC
1FD
028
025
018
018
00A
1DE
1F7
1E3
1E5
010
1C2
1E5
1F2
014
1D9
1E3
1BC
1EC
02B
044
013
018
1FD
1C3
1F8
022
1BF
1FC
03A
1DA
03A
024
011
1FF
006
017
00E
1C9
000
1E3
1F6
1F2
024
02C
005
1E3
001
1FD
1FC
1EF
002
020
017
1F7
01C
012
1EE
1FA
013
004
01C
00E
006
1F5
00A
1FF
026
01B
1E5
004
1F1
1FB
015
019
01D
1CA
01D
1A7
000
01B
000
03C
1E0
1E5
001
007
1F7
1EC
03F
1E0
1E2
026
1F9
1F5
012
1FC
00B
1EF
1FE
008
00C
007
025
003
017
1ED
1EF
028
007
1F0
1FE
1F0
004
015
1F2
019
1E6
015
00E
1FB
010
1F8
008
1DD
1DB
1F3
001
1EB
00C
1E2
1FF
019
1C0
1D3
1DD
014
009
1AD
002
1DC
1D0
1E9
012
02E
015
01E
1F3
1E8
1ED
1D3
1FE
001
029
1CE
1E6
00F
1E5
1F4
1FF
003
042
023
1E7
1F7
1EB
030
1D3
1DE
1BF
001
1F8
1EF
01E
1E9
1FB
1FE
03A
19E
029
1DB
1F1
004
1F7
003
017
011
1DC
00A
1F7
040
032
039
1ED
1D9
00E
1D3
1E4
167
1F3
1DA
008
009
1D9
033
004
001
016
007
01E
00F
1E5
1A7
1FA
1E7
013
1C9
009
026
009
1E1
1E6
1C7
016
1FC
1DB
012
1CC
052
1F0
011
1C7
1DF
1F0
01D
1F8
1F2
00A
018
1EA
1DE
1F7
1E6
1E6
1DB
1E0
1FB
017
1F9
00B
046
1D4
007
02A
017
03B
1ED
04A
011
005
1F0
001
010
1E2
019
021
1EB
1FD
01A
023
01E
1F9
01C
1DE
009
001
029
1ED
1F5
1B8
1E5
1E1
1D8
004
1FE
02B
1EA
000
1F0
1F3
1D4
1CE
018
1E1
1CC
006
003
1F0
1F9
1EF
025
014
004
011
02F
00E
1F0
006
1E5
1D7
001
1CD
016
1EF
018
014
1EA
1ED
01E
029
01A
1F9
00A
1EC
1A9
1F5
010
1C4
1FC
014
1FA
02F
013
02F
001
00D
1DE
013
1BE
1E2
1D0
1DF
1C8
1DE
00D
02B
01F
1DF
01E
1E8
032
001
1FD
031
00A
02E
1E4
00C
1E2
1DE
1B1
1FC
032
002
00C
03A
024
1CB
009
01C
03E
1F8
046
1E9
1C3
1F3
01B
014
1F1
1FE
1C9
01E
005
011
1F4
1E8
1E6
1EE
19E
1D9
1C5
180
1BD
1EA
010
1FF
012
00C
013
1F4
02E
02F
1F0
1F3
05A
026
00C
000
1FB
016
00C
1C3
00C
1E5
1F9
1F0
000
01B
1F2
041
019
00D
1F4
006
021
1E4
016
1D0
196
1CF
00C
016
1DA
024
1EF
017
002
010
19E
1DF
1F1
1C6
1B4
1E5
1E7
00A
00C
1FF
008
1FD
1FB
00B
027
00F
004
030
007
007
1EE
1CF
00E
1EB
007
1E0
002
1F6
1F1
1EE
1EF
00C
001
1E5
021
1EF
1ED
01C
01D
1D3
1DD
00F
1F2
01D
01A
029
016
02C
006
006
03D
024
034
023
028
1F3
004
007
1DB
017
1A9
007
1AC
00D
013
1A4
01B
1A3
00A
1FC
01F
021
007
1D9
1D5
015
00F
1E2
1EF
019
003
1F8
1DC
1F6
1D9
009
002
1FC
1EF
009
040
01A
1F2
1CD
00C
1EB
00F
023
1FA
002
1ED
011
1B9
1AC
1B2
002
1E8
012
1D4
1FF
1F8
004
00F
03E
1FB
1FE
1F9
1E8
010
1EA
1F0
1D7
018
1F7
1F9
1E6
1EE
1D3
00C
1DB
1B6
010
1FD
1F0
02E
1DB
1F6
020
00C
1FB
19D
003
1EC
029
02F
1D0
1F2
010
00D
00E
020
025
001
031
037
00B
1EC
1FC
1F4
1DF
1EF
005
1C8
1FE
002
002
1E4
1BA
1FE
019
019
02A
1DE
1FA
012
024
1E7
008
00B
00A
020
1DD
1D0
1FD
00A
00B
1EA
030
009
01B
030
023
00D
1D6
009
1EC
1E0
1FC
003
1E7
1E0
1EA
1C1
1C1
1AC
00B
016
1FD
032
1E0
022
019
058
019
013
039
1DC
005
012
1F9
1DB
1DF
012
001
031
010
1FC
016
035
1AC
1A5
01A
023
1F3
026
1F0
1F9
1FC
009
014
171
00F
1EC
02C
01D
011
1E8
00E
1EB
013
1DF
018
01D
006
1DE
1F0
1B9
01B
1E9
011
1D3
1EB
00E
010
02F
049
1E9
1F9
1F2
1FF
1D9
1DC
014
00E
1D1
1F1
016
01D
048
002
021
1EE
1EC
1EB
1FC
1FC
01B
000
1E0
016
1FF
00D
008
014
03F
1ED
1F8
00B
016
1EA
033
1FF
02A
026
038
025
1C8
1EE
1CD
00E
1D7
1FD
192
01A
00A
1D8
1F7
19F
1F2
1F9
011
018
010
012
1FE
029
1E3
1DB
1D3
01B
00E
1AB
1FE
1E6
1BB
1FC
010
008
010
019
051
021
015
1CC
1DF
1FB
00B
024
1E7
003
004
00A
034
014
000
1CE
1A0
00A
1DF
1E6
1C0
1E8
028
1E5
004
1F7
023
019
018
005
1DE
1C9
007
1B6
1CA
1D5
000
1F5
1A7
009
043
053
032
1ED
1C5
014
1F7
1F4
035
1D1
01E
1CE
00E
1F1
1CB
00A
1F2
001
1F0
019
1BB
1FA
1BB
197
1E7
1F2
033
01C
00A
001
1F7
1EB
00E
1FE
1ED
1F9
1D6
1D8
013
1D8
000
1FD
1EB
1F7
01C
1EA
009
1CF
1E7
1F4
19E
1F5
004
010
023
1EC
1F2
00B
015
003
1BA
006
1EF
007
00A
1F7
004
1F3
00A
1E9
018
1F8
002
029
1FF
014
1E9
1F6
1ED
1FF
1E2
013
1F6
017
00A
1CD
1F1
000
1E3
015
1F6
1D3
1EB
1EA
1EF
1E9
013
1E7
006
1EB
1EE
00A
1F9
1F8
1F6
007
013
1FB
1E6
1EB
1EE
001
00B
004
1F9
1E5
009
1E4
00C
1F2
1AD
1F7
1BE
1D4
1DD
013
1FE
1FD
008
006
008
017
1FA
1F4
1E7
004
1AF
1E3
1EC
1F7
01E
1F8
1B6
03E
00C
01B
1EB
1D8
03B
1E5
1A9
1C3
1E2
000
016
1DE
00D
015
1E8
037
1C0
023
1D4
00F
1EF
1CD
1E6
051
1FF
012
1CB
00B
068
018
1D3
1C0
1FE
02D
1C6
1F2
1B2
012
008
040
019
1CC
03C
027
00D
1EF
1D2
1D2
020
1FE
1A9
196
00F
1EA
1F4
028
04F
047
025
1EE
1C5
010
037
1ED
1F6
1CA
028
1CE
02B
00A
1EB
1EE
014
01F
1E2
001
024
02A
1FF
002
02C
022
00B
1E9
1FE
015
1E7
1F4
02A
1D8
1E2
1F4
1FC
1FA
003
013
014
016
022
00D
00D
1ED
01A
03E
1CD
1FD
1DA
1DE
012
00F
1E6
00D
008
1D0
1F7
1FC
01F
1D1
1DA
1BD
1EF
004
1FC
016
003
004
013
006
00F
01C
028
1D5
1B8
01C
1DE
1E0
1E5
005
026
053
007
1D3
072
00F
007
004
1DB
1DC
1D9
1C4
1E3
1DD
1F5
006
1D1
004
055
056
008
1EA
1EE
03B
013
1DD
1E1
1C4
017
1D6
002
014
001
015
1E9
1F7
1DF
00B
1ED
1FA
029
1DA
1D2
1A3
033
02D
1FB
1DE
1EE
1E1
064
050
017
031
05F
043
004
015
1AE
1B2
1F8
19E
1E7
1DB
1F1
032
1F9
1E4
044
06A
006
1FF
02A
057
1D6
1EC
1E5
1AB
1D5
1DE
015
032
01B
1FF
1FA
1E7
1F4
00D
1D9
1BC
043
193
1DB
1C3
1EE
1E3
005
1E6
00B
1FA
061
015
1CB
040
085
095
1D6
019
1BB
1D9
1F0
1D2
025
185
017
023
00B
1F3
00B
068
055
00A
1E9
04C
028
19A
1F1
1C8
1A5
19C
017
018
00D
1DF
00B
024
1E0
011
1D6
1E3
1ED
1CB
1E5
1D4
1DD
01D
1D8
1FA
1CE
1E1
047
041
004
1F7
056
032
002
01C
1F0
1BD
1FD
1DD
1D4
1AF
1E2
1DF
1FD
1F4
1FD
03E
023
1E3
1EC
001
1D1
1F4
1E5
1E2
1FE
004
1EF
02D
02F
003
00E
008
00E
00E
00A
1FC
1FA
011
1F6
1EE
000
006
1F3
1E7
1D1
006
003
010
007
1E2
004
1FD
1E2
1F2
005
1DE
034
1E3
1F4
008
1EB
1DC
008
00C
1EB
016
1FE
1F1
1E9
00E
1E1
00F
014
1EC
1E3
02C
1E1
1F6
007
1E7
1F4
034
1E4
1F6
1CE
1FA
00A
1DD
1FB
1E7
1F5
009
1D5
1F7
001
017
042
014
1F9
1E9
03C
021
1EF
1EA
1D2
1D2
02D
1D2
003
1EB
010
1F9
1EE
00F
000
05B
01C
1FE
1F2
1FD
017
004
1F0
001
1E3
1FB
00E
01F
005
1E4
007
012
014
1E1
01F
000
1F0
1EB
020
001
018
003
1ED
1E7
1EB
1EC
1CD
02D
1FA
006
1FA
1F5
1DF
1F6
020
00F
1FF
005
00A
1F0
1E8
1F4
1FC
00B
1EE
1EB
1F0
011
1DA
1FA
1F0
007
1F0
00B
1EF
005
1E1
1E5
1F0
00B
1F0
023
00D
018
1D8
007
004
00A
192
00E
004
1F4
1F4
1FE
1DE
1E1
004
1E2
03D
1FF
1B3
1DB
1DF
1D8
1F2
00F
1F5
03D
022
03B
001
016
041
1F4
1D9
1CC
1E9
1F3
04B
184
027
063
1F0
056
1D7
011
1FC
000
059
1EA
005
034
006
1E5
1E1
010
038
00E
1F5
1E1
1DA
033
1CF
1FF
1A5
1EC
00B
02D
038
1F1
1FE
033
1F3
010
1DB
1FE
03A
010
1E1
1C2
1F7
1F6
011
016
045
02F
045
003
1F7
018
019
1FF
1BB
008
1FB
1F8
027
026
015
1D0
1F8
1BF
1E7
1ED
1DD
004
01B
1ED
1D6
04E
016
02A
1E4
00C
1F1
013
1B6
026
012
1E6
1BF
1A7
004
021
1FA
03A
00F
07E
1DC
1E4
010
1C5
067
016
1C9
1CA
1EF
00C
1B4
1DE
02D
03E
1DD
057
1DA
04E
1D0
1D9
1CE
1DD
1E4
061
001
1F5
02B
049
05C
057
01B
1EE
1B9
010
1F0
00C
1C2
1FD
005
01F
03A
1CF
047
020
00C
1F1
002
1FD
017
1D6
196
1EC
005
031
1D1
00B
065
02C
1FB
004
1C2
024
008
1FE
1E4
1F7
06F
1DD
013
001
1FA
1EC
1FC
1F3
1F5
1FE
00A
002
1FA
1C7
00A
1E0
015
003
1F6
009
1F0
00E
05D
00D
1F2
038
013
036
1D9
016
1C9
1CF
1F6
1CF
020
195
002
006
01A
1F5
1F6
024
007
1E5
01A
1F4
1B9
1D0
00C
1D6
1D6
1B8
01A
1F4
00F
1FE

