3DC4D3BF
3EA93598
3E3AC860
3E0814D7
BE9B1876
3DF78573
3DB106EE
BE151BD6
BC02A130
BE084E83
BE4B8E4C
3C95B142
3E973EAB
BEC5F84D
3E70902E
3DFFDBD3
BCE5C4EB
BE0FCBD5
3E78637C
BD5E41D5
3E40DAE4
3DCAA9F8
3F058BF8
3D47AE14
3EE15F24
3E5A82E8
3D1A35D6
3D324207
BE23A2E0
BE7670A0

