3D804D98
BF2B2EE0
BCDC486B
3D05CFEE
BDEAA540
3C842D8C
BDCA465A
3E49E775
3EADB09A
3D6CBD98
3D36848C
BE77FE4C
BE0D6BEC
BE659EA5
3DB7DE0D
3E9A50D7
3EF634FC
BD87296F
BD6AA194
3DD0D845
3E1248D8
3CE67F91
3E655D1C
3E1A0A96
BD97B9E0
3E137EB3
BD2ECD08
3ED3BC90
3DC4F2AE
3E7894C4

