BE459A74
3F08ABA4
BE0FCC5C
BD0692F7
3D805A2D
BD5107FB
3D9FA1A1
3E4D4131
BCD104D5
BEFF620F
BE8BCEEA
3E650EBB
3DA2B1F7
3E0D4F59
BF01FC1A
BE92B453
BE5B8C76
3E9E974A
BB917508
3CC5803D
BE284274
3EA4F2D0
BDE9B307
BE648E47
BED615EC
BEA9A049
BDA9320E
BC96ACEB
3EDD0B52
BDAE4218

