3E695AF3
BE189119
3E676A2F
BDEE28ED
3E9B0D52
3E932229
BC9832FD
3E8665BF
3D99181A
3E079BBB
BF5D8A33
3E0D5DC4
BEA4ACF3
BD293294
BF01A76E
3E78854D
BDD26F1E
BDC76534
BD4969A1
3E691F71
3E0244A6
BD752A84
3EB857B0
3E81B131
3E79FC6E
3EAF08CC
BE7BAADE
BC9FE868
3EAA75AB
3E083C6D

