3E18FB01
3E886B7B
BD017870
3F01BD40
3E45B1C8
BF43FFBD
BE930F06
BE6B35B1
BDA4B33E
3BE2DA55
BC339192
3F0EC97E
3D25FC7E
3D84C2F8
3E3D4DC6
3CCE0115
3EB7D417
3D3B2FEC
3E2E3609
3EA35F5F
BCC60ED8
BDA5F527
3D83369C
BE1EC52A
3E22F124
3EEAC0E8
3EF27829
3D8310DC
BCA29E90
BEC53826

