3E1F5BE6
3ED50093
3EB4AC08
BC8112BA
BC791601
3DB5158C
3E9B17AD
BE8DE2AC
BEF09FA5
3D71A6D7
BE1BB8C3
3CBD9232
3E0E8E61
3E92F039
BEEFDAC7
BE00DF16
3DDEC893
3E8940FF
3ED0A223
3E14F15E
BDFE81CB
3E4759AB
BE4D4C34
BC986120
BE285AD5
BE0422CD
3E5F59CD
BF1172CD
3E6C63AE
BF0778DD

