3D2861E9
3E96DE12
BCEEC5B0
BDD6B442
BD87E62E
BE81C971
BCA28566
BE6B77C0
BDB31A8F
3E205C03
BE6A4617
3E48348F
3E0DFACA
3F0312C2
BF108BDB
BAE38A7E
3D8353F8
3ECC851B
BE18AF3E
3F01186E
3E9D35EB
BE34FACE
BEEB14A9
3E0D67FD
BF09D15F
BDEDF58C
3E12AA9F
BEB12381
3EC634DB
BBA27F1B

