3E8466D3
3E744C7B
3D72EDFE
BEE4B125
3E57E1B9
3EA285CB
3E8CC0DF
BE54CC68
3D919503
3E002A35
3EA805E6
3EA06BDF
3D650721
3E121709
3DC6F47B
BE8035BD
3E1C3DAB
3DC0F12C
BDEF3C2E
3E6476B0
3ED5CA4B
BD0D3AE7
3E639086
3D87A4A5
3D85D639
3EB731B1
BE6611BA
3DF7720D
3EE8EA3A
3D7BD7B2

