BD9FFA3C
BDA79CC7
3EB51B0D
BE80D9D7
BF056590
3EB3291C
3E3EC700
3D4C1B97
3CCD8341
BDCAD14A
BE05D6BF
BDA1A155
3D027957
BBB606B8
BD83A8E7
3D91800A
3D2AC96D
3EA08D8F
3E40E27E
BD15B036
3EECD595
3EF35BF7
3E885C89
3E3B78CD
3E99D063
3E0A6F82
BDC92817
3E3EDAA9
3B8E1D65
BDCBB342

