3F00E23B
3E912EC7
3EB93858
BD774DE0
BE099392
BE9AB735
3E272A7C
BDA58DDE
BD6AE4B0
BEA519DF
3F161BB0
BCB51DEF
3E233765
3EA14A2C
BDB5B036
3EC61E2E
3E92EBA2
BED63F9A
3E1821F3
BE12888B
3E3172EF
BE6F78FF
3E582907
BE2BFE3B
3DDDE508
BDE8CCDE
3DACF6BE
BE40C77E
BD9171E3
BEC034B1

