3EBDDAAD
3ED9F3E9
3CEB56FC
BCC35CE2
3EA8EC96
3EB37E2C
BE2E95B8
BD9FBBD8
3DCBBD38
3ED93576
3ED80C74
BD74C7F3
3D117C5F
3E1BA9D2
3DA5D639
BE57CD03
3D33DC05
BE18B86B
3EA4E63A
BDE73366
BE877FAE
3E989396
3E8B2CE9
BE1BF9C6
3B8E7147
3E252B91
3E5E1F3A
BECB7BAF
3DB02BC7
3D4C8FFC

