BCC0639D
3D932379
3ED597F6
BF339AAE
BEF464BB
3E812F0A
3D961134
BDAE99A6
3C00778A
3E738327
3D14C448
3BCF41F2
3E5739B0
BE1B1466
BB767B1C
BCBC1CE7
3D3BE985
3E6D24E1
BD30FADF
BD90BD01
3E287443
BDD5E5B0
3EBAB6F2
3E9EC99F
3EAAA865
3E4EA466
3ECEF805
3E187F88
3C06B9C3
BE640853

