BC882279
3E2775FB
3E2C58AC
3E0B62C7
BDC039AC
3E0CEAF2
3E4F60E1
3E2672B9
3E84D2D4
3D83992D
BE86DACB
3CF0FE04
BDD281FE
3E0AB580
BE49D6AE
BD6516DB
BE335FC4
BE174539
BB8BDA94
3DF77F28
3E06BE7B
BE88027E
BDCE8FB0
3D39D0A6
3DD675DE
BE547E8D
BE189B0F
3D5B0CCC
BCD4D1E9
BD1E2691

