BE4B2BBB
3E29B025
BD03254E
3E2656EF
3E29F55A
BE4F722E
3D71C001
BE13FEE3
BE7A3162
3C964A5A
BE27BE12
3D6B2D0A
3CE30015
3ED64AE0
BEE63609
BF02B92C
3EBABABF
3E3D19DF
BE48C2A4
3E0FE79F
3EFA541E
BD928C7A
BD4B673C
BE10DAA1
3E295465
3EA032DB
BDD3EDD9
3EEBDC8C
3F15A283
3DA4F872

