BC5EA897
3E2F6230
3E858E00
3E7E74B0
BE24EFCC
3E99C7BD
BEAC0A8D
BE109CC3
BE13504C
BE519BD4
BE1EA466
BCDE1C15
BE9EEAA7
3E774752
BCD78C43
BBBA7B91
BDCE5365
3D8C4AC7
3D055FBB
3B794C88
3D9EFD00
BE85A555
3E69F623
3E2F2C73
BE8D6627
3E0F02C5
BE5445AA
3E7D4995
BDADE43F
3E827C5B
BDA63BEF
BEB1F948
BDA7F23D
3DB5043E
BD737C9A
BE512D34
BE5F6A94
BE78D8ED
3E84C986
3DA101F3
BE679F23
3D9B499D
3CD4C76D
3E753587
3C3FD71B
3AF16F44
3E6A2941
BE002603

