BE69116E
3DD572D3
3E08515B
BEB15E2A
3E47307E
BB2976AE
3DB89C47
BEFA16C4
BEACA055
3E8FD785
BE86CC17
3E3F11D8
3F0A14C4
3C53EDC9
BE6F6672
BEB33517
BE26ABDB
BDC9A2CE
BC184227
3D8ED8FB
BEBD7E47
BEA69516
3D96C8FD
BE7484FC
BD8E3CD5
BE382514
3D71AE7B
BE0BE4C6
3CECD0C1
BDD3F02A
3D61131E
3D0B301A
3D267CFA
3E5FB114
3E3ED452
BD5DB35A
BE58D3D0
BEDADF4A
3E8275B2
BEB37E43
BE80784F
BDD40DE4
3E408FBD
BDDF7D8B
BE4395EB
BE15CCB9
3E5828EC
BE57A49F
3D7B1588
3E5213BC
BD2168D6
3D0EA69D
BE89042A
BECB4B0F
3E17C39B
BEBF7C76
BE472DD1
BE3E0228
3D8A84CE
BCF13138
BD442FE3
BDEE58B9
BCE5F3B4
BEA25C84
BDD6B45E
3E0233BE
3E04055B
BE53AEE0
BF0A39E1
BEB21F04
BE47A837
3EA3BD7C
BEC61958
BE9B0FF5
3D06F159
BD51CB82
BE557EF5
3CFA4A80
BF0C3EA5
3DCDB4A8
3ECED824
BD4415C9
BDBE15A6
3F06966B
BD8947BE
3CE8B6DF
3DAF4189
3D0AB836
3E1DFB1E
3C1D61EB
3DAD3BCC
BDB8D53C
BE548385
BCE73CA4
3E25C75A
3EF4B8C0
BE110C36
BD62E653
3DBFE4C3
BE3E3CBC
3C8E26AE
BB6FD777
BC6273C2
BE59461F
BE66B41E
3E9EB54F
BDF41B79
BE4D4FC0
3EAFFB46
3C9E2DAC
BE81805E
BF0857CD
BE04B018
BE0D42E5
3E0C9B2B
BD0DDFF2
BD18020E
BC338F03
BC9EF245
BDF09564
BDE54318
3DA6ECEF
BDB2F84C
3DEAE457
3CE1319C
BD8EEB28
3C88BAB9
3C9B1631
3AF88FF1
3BA655CE
3C8C1D98
3D2040FF
BC9000F3
BCBA1139
3D83BB16
3D9C8CBC
3DCC8DB5
BD06202D
3DA5CD6A
3E212957
3E55A158
3D764A29
BE53938C
3BC58188
3D6D4830
3DD8CAC0
3DD4D8A2
3D36517C
3D81C864
3D9663E8
BE22AF05
BDBA8BCC
3D0E8550
BE0542C3
3E22D33F
3DC0B5CC
3D1DB9F8
BDF1BD4A
BE5048B7
BE2A79E3
3DB33763
3E504CDE
BE0B85F6
BF111B52
BF217886
BDCEF462
BEA68FAB
BC7510F1
3C8CB2F3
BE604F3D
3E5D49E7
3DA2D368
BE82CA2C
BF085390
BF2F28D9
3EF544AA
3C0A63E8
BE3C394A
3CBF3BA0
3E292621
BEF7F217
BE628954
BDBEA730
3EA43230
3E274083
BEE19A05
BE2B48E0
3E93A22E
BE921820
BF0D9481
BD3BFE3F
3EDDF7E1
BD80CA81
BD06ED52
3DDF5AC4
BEE040B4
3E3BFFBC
BEA7C912
BDFCE8F7
BECC00BB
BE9B3D13
3E318836
BDB91056
3C688A15
3D217F80
3D052353
3ED8F81E
BE96FDA9
BDC5F94F
BDDB555A
BE4C5333
3D4FE5D5
3E273B55
BBA7C33C
BC8A759C
BED490DC
3E08B458
3E589DF1
3DD1D956
3E0AAA06
BD50CDC3
3D06CE64
BD8D7FEB
3E2EF295
3C6EB3BF
BC9711C8
3DB7836B
3E063562
3C38DF68
3E51DA6A
BCC406D8
BDA5FC7E
3DC818B3
3E8422EA
3E06D07F
3E25FF3A
BDA5C76A
3D598029
BEBD10B4
3D022B38
3D78C40D
3E2CAA25
BD9E5EB1
BDF64F06
3D58DD28
BD0A4DFF
3DB10B7A
BEAB4C93
3E4B8554
BDB34043
3E8864BE
BD15C2AD
BE945B1D
3E0737B1
BA26A2DA
BE012F55
3F2346AC
3ED94397
BE744DB5
BF2188EA
BEC48E5B
3EE4713F
3E969025
BEC941FC
3F16CF9C
BE402ECA
3E3D0A85
BE498576
BD24C88B
3E3C0EFF
BE66FA19
3E23912D
BEAA6773
BE8662F9
BED9CD59
BD7994A2
BEE5E543
BE8E4AB8
3D9CF7A4
3E7EAA8F
BE7E034E
BE2A0D14
3C6CA768
3E79ABE4
BE892BC3
BF026B76
BE60DF2A
3F351C55

