3D3E7B79
BEAA0E01
3E011583
BCC05916
BE90FE9A
3E5CCDA3
BE62E0BF
3D500041
BDCF7BC3
3D2E34AC
BE8E64B3
BD88F62C
BE20482A
BD225D8D
3E9CEE56
3E59C8C9
BD1C1E47
BDBECA96
3E4D8D7F
BDE130BD
BC105BC7
3E2E629C
BDB77E2E
BC89314B
3DD464BE
3E08845F
BEEAC98D
BE65E998
3E7A48A8
BE291BAA
BC42B256
BCB25922
3CC173AD
BF1D6825
3E0E4AC4
BE2FF5F7
3E229813
BDAB4519
BE5ED76D
BD86442A
3DEB5A22
3ED213D7
BF168F55
BDD49D45
3E8A690F
3C4ED697
BD20B208
3E2D664B
BDB40D77
BED0D50B
BCFC0A9C
BE1BAA50
3DE490AC
BCED1584
BE700566
3DCCE77C
BDFF17F4
3E9D254F
BEE43075
BE7A23C6
BB6051E0
3C9B98A8
3E06FF3C
BE5D9171
BE02A563
3D40C6DF
3D626BB7
BD196CBA
BD9B9E64
3D105964
BDF85281
3E508BBB
3E7AC596
BE3CF564
BD4EE05C
BDE2CF70
3EC16010
3E6989FE
BE3EFE7E
BDF61BFE
3E905586
3D3CAC01
BD8F6ADC
3CDC2BF7
BD4D0B7D
3E0E27BA
3F0AEBD5
BE3735AD
BEE69312
BE3571C2
BE202C9E
3EBB1F7C
BE8C840C
BE8413B0
BE56258C
BE8AACD2
3E528724
BDC70A31
3C5DA5D4
BD4C6E5A
BE06462B
3D0A8027
3E312061
3C5E409E
BDB9A5ED
BD80D0FF
BE12D3F5
3DE85903
BEA0BE59
3E9FF22D
3DAFD32B
3E121655
BDE65AA9
BD4FECA7
BD502D8E
3E2145D4
3E00B8F2
3D720F5B
BE14D056
3DE723AA
BD977530
BDE17E69
BE2BF8D9
BEEC0741
BD5F9D42
3C90A7E1
3EADD415
3DCB3707
BDEEEEF3
BE03CCD1
3C995F49
3DB60677
3D4A5D82
3E030DDD
BDB468FB
3D29C5BA
3E814239
BD47EA1E
BE254E3C
BED6D7BC
3D31E2A3
BE174D64
3BA25C22
3E3524BD
3D2CEF63
BD6072AB
BC23CCF3
BD81BD92
3DC65066
3C6A1079
3DE3E10B
BE0D4BE7
BCDA784B
3CD84EC0
BC3A801F
BEB2A5EC
BA8582AA
BD374E76
3DD7C3A0
BD81FE15
3D6E98C2
3DCE719C
BDAAB152
BCDBF4B9
BE25EDB5
BECD2549
3B2D6943
3DB54DCA
3E373FF9
BE796D2C
3EA967F1
3DB4A75C
3F0E2A7C
BEFA8379
BD373630
BE42EA4C
BE430211
3DDD944C
3CB58725
BE92C42D
BCADF2D4
BE8CB3D2
BD621A6B
BC8C9EA3
BD16673A
BE50A7C0
3EDE65C2
3E85507A
BE5C6526
BF103AFA
BE006781
BDC97343
3EAD4492
3E21D13B
BE0317E6
BDD82236
3DF01EE0
3C8845D4
3EAFD18C
3EC78339
3E34996C
3DE020FD
BE93243C
BE548CAD
3E38B569
3D94F768
BE0C4B5D
3DB4F28E
BD24D210
3DB00DA5
3E19B014
3DE341B9
3D501B10
3E652F05
3E1E6C9A
3D8DCC74
BC55A301
BEBF405E
BD9AA6CB
BEA20ADA
BDCB81B8
3DE10B21
BDEE8EAB
BD339848
3D13D152
3E26FA8B
3E441C9C
BC80959E
3CD4EB61
3E4A7565
3D8988E7
BE3D59D6
BBB73599
BEB76BEC
3D76CA8A
BF0D8148
3DF9426B
3E8AB36F
3CB33574
3B48C01B
BBF1A01F
3EA873B6
3B0A3A65
3D6BFED0
3E149057
3D955564
BE0005DB
BD4E29FE
BDBB65D4
BEB65DBB
BE7029DB
BE9AD63D
BE009810
3E180C57
BD354DAC
BE5F30AC
BE21D7AC
BF260823
3E7C733C
3CCD43C4
BE890244
BE1CCBD3
BECAF164
BC2F2060
BDE8E18A
BEC25B0D
BDE51B7B
3EDBCF36
3E0F3480
BDE84134
BDBBFA71
BC7A185A
BDC643D3
3EA0C7DB
BED9DA97
BF5646C0
BEC50012
BE9A07B1
BD8F9C1D
BEB5466D
3E7D62A8
BEC68E24
3E841636
3E42710C
3CAD2BD2
BEE30ECF
BC54E154
BE3DF64B

