BD1C1E47
BDBECA96
3E4D8D7F
BDE130BD
BC105BC7
3E2E629C
BDB77E2E
BC89314B
3DD464BE
3E08845F
BEEAC98D
BE65E998
3E7A48A8
BE291BAA
BC42B256
BCB25922
3DE8568D
BE6E3D3D
BE3D3FA6
3DA49D12
3D970A94
BC618ACB
3E7B5FBA
3D1E02AE
3D96BB54
3DB912B7
3D0429DE
3DA3BD50
3D1E49FE
BE500CBF
3E4FC284
BCF33CC8
BE26ABDB
BDC9A2CE
BC184227
3D8ED8FB
BEBD7E47
BEA69516
3D96C8FD
BE7484FC
BD8E3CD5
BE382514
3D71AE7B
BE0BE4C6
3CECD0C1
BDD3F02A
3D61131E
3D0B301A

