3D2CEF63
BD6072AB
BC23CCF3
BD81BD92
3DC65066
3C6A1079
3DE3E10B
BE0D4BE7
BCDA784B
3CD84EC0
BC3A801F
BEB2A5EC
BA8582AA
BD374E76
3DD7C3A0
BD81FE15
BE0CB082
BE219069
BE0F6D1E
3E03D1FB
BE031B9B
3D2E4AAD
3DFC415C
3E650350
3DCB6327
BD83D575
3C7A0D73
3DBC89CB
3CCD75B0
3DD0CCAE
3E53597F
3DF20BC2
3D6D4830
3DD8CAC0
3DD4D8A2
3D36517C
3D81C864
3D9663E8
BE22AF05
BDBA8BCC
3D0E8550
BE0542C3
3E22D33F
3DC0B5CC
3D1DB9F8
BDF1BD4A
BE5048B7
BE2A79E3

