BBF1A01F
3EA873B6
3B0A3A65
3D6BFED0
3E149057
3D955564
BE0005DB
BD4E29FE
BDBB65D4
BEB65DBB
BE7029DB
BE9AD63D
BE009810
3E180C57
BD354DAC
BE5F30AC
3D307048
BD84D7BB
BE424C67
3C870C2C
3C14B842
BCF57551
BDDBE508
3DB06F43
BD4B59B9
3E451F2A
3E06D198
3E435805
BE9F7772
BD354CAF
BEA510E7
3E466490
3D78C40D
3E2CAA25
BD9E5EB1
BDF64F06
3D58DD28
BD0A4DFF
3DB10B7A
BEAB4C93
3E4B8554
BDB34043
3E8864BE
BD15C2AD
BE945B1D
3E0737B1
BA26A2DA
BE012F55

