BE02A563
3D40C6DF
3D626BB7
BD196CBA
BD9B9E64
3D105964
BDF85281
3E508BBB
3E7AC596
BE3CF564
BD4EE05C
BDE2CF70
3EC16010
3E6989FE
BE3EFE7E
BDF61BFE
3E34DD86
3E9D9A05
3A828169
3E437492
3E3F4B9A
BE3A3ABA
BE3DCDAF
BE146025
BDBA10C2
BE8F6CE7
3D50A285
BEC7C214
BE281817
3DF90122
3D61ACE8
3E106D88
BDD6B45E
3E0233BE
3E04055B
BE53AEE0
BF0A39E1
BEB21F04
BE47A837
3EA3BD7C
BEC61958
BE9B0FF5
3D06F159
BD51CB82
BE557EF5
3CFA4A80
BF0C3EA5
3DCDB4A8

