BE430211
3DDD944C
3CB58725
BE92C42D
BCADF2D4
BE8CB3D2
BD621A6B
BC8C9EA3
BD16673A
BE50A7C0
3EDE65C2
3E85507A
BE5C6526
BF103AFA
BE006781
BDC97343
3EA81C72
BE13D870
BEED2A2B
BEADD66A
BDBFF7F7
BF10C93E
BCD62E8D
3D5C17D3
BEA4C4C9
BE089A9D
BEA4C2F2
3E995AEC
BF2FDC57
BF2C08C1
BC4E8E35
BE0C9C48
3C0A63E8
BE3C394A
3CBF3BA0
3E292621
BEF7F217
BE628954
BDBEA730
3EA43230
3E274083
BEE19A05
BE2B48E0
3E93A22E
BE921820
BF0D9481
BD3BFE3F
3EDDF7E1

