BDEEEEF3
BE03CCD1
3C995F49
3DB60677
3D4A5D82
3E030DDD
BDB468FB
3D29C5BA
3E814239
BD47EA1E
BE254E3C
BED6D7BC
3D31E2A3
BE174D64
3BA25C22
3E3524BD
3E0A2B83
BDDE209F
BE36FC19
3D27AE07
BE487549
3E6A582C
3E35E2C0
BD821D63
3D4AC20A
3BFC668A
BE49FA3F
3D763DD6
3DBD4E11
3D24AC45
3E11395A
BE0DB9A3
3AF88FF1
3BA655CE
3C8C1D98
3D2040FF
BC9000F3
BCBA1139
3D83BB16
3D9C8CBC
3DCC8DB5
BD06202D
3DA5CD6A
3E212957
3E55A158
3D764A29
BE53938C
3BC58188

