3D3E7B79
BEAA0E01
3E011583
BCC05916
BE90FE9A
3E5CCDA3
BE62E0BF
3D500041
BDCF7BC3
3D2E34AC
BE8E64B3
BD88F62C
BE20482A
BD225D8D
3E9CEE56
3E59C8C9
BDC0DC22
BE12CAA5
BCA1C0D5
3D9FFBE4
3DA5658A
3E84DB44
3EA75D8A
BEB18A59
BEA2F490
BDEE376D
3E03F52B
3E6E71C6
3E56F52F
BC3C2172
3D83E317
BE59FA97
BE69116E
3DD572D3
3E08515B
BEB15E2A
3E47307E
BB2976AE
3DB89C47
BEFA16C4
BEACA055
3E8FD785
BE86CC17
3E3F11D8
3F0A14C4
3C53EDC9
BE6F6672
BEB33517

