F9
09
08
FA
EC
FF
0D
01
03
FD
D8
FD
FE
04
F7
04
01
FF
0D
FC
F1
EE
0D
F1
FB
FD
DC
FF
00
EE
F4
EF
02
15
F9
F6
ED
0B
F5
F3
06
0B
F7
18
04
06
FC
00
F5
07
F4
17
FA
FD
E6
1B
F7
DD
FA
F1
D8
07
FB
F2
16
02
0A
16
0D
0F
01
E4
F4
FB
F7
F6
F4
1A
EB
EC
F7
20
0C
19
FE
EF
00
04
FA
11
E7
0B
09
32
EC
FB
FC
F2
F3
D6
F7
ED
F6
F1
EC
F6
ED
FC
F8
0B
0D
04
12
0C
ED
FD
F4
F0
04
0B
FB
FC
F9
F5
02
F7
F9
FE
14
EB
F8
FF
0B
F4
0B
05
09
F3
FA
08
FE
0E
0B
04
F1
0F
EC
FD
02
F4
02
E3
03
03
03
EF
E6
D5
01
EE
FD
1A
17
09
07
FA
FA
16
00
06
13
FE
03
FA
FC
F5
03
FF
F0
EA
FF
0A
F7
FB
1D
E9
DD
01
FF
10
D4
F6
0A
FA
F7
10
F8
E7
FD
FF
01
29
F6
00
20
21
0F
23
F8
12
EC
1D
0D
01
00
06
12
00
F0
FB
FD
EB
00
0F
1C
15
D4
FD
03
E6
03
02
07
05
18
0D
0B
03
08
04
E7
E5
F3
FE
0D
E1
FC
0D
01
EE
ED
01
FC
07
FA
F5
F8
F0
05
ED
F7
10
FA
F2
06
F8
0B
FB
DF
08
0C
F6
EE
F6
0B
FC
08
F5
FB
07
FD
08
F4
F4
07
0E
05
0A
09
0B
E4
EC
0A
F2
07
E6
E2
00
0A
14
F3
11
F2
FB
04
19
05
06
06
03
F2
FF
13
09
FB
08
F8
F8
F9
F9
E8
F1
00
FC
00
F2
ED
FB
F6
F8
F4
17
0E
0C
F3
FC
FC
08
06
10
F7
FA
EF
07
08
02
03
05
F4
FB
02
20
0A
0F
F0
2B
20
02
E5
F3
E8
25
16
F9
03
07
04
EE
02
14
F3
F8
09
03
EE
F3
F0
0A
05
F2
F4
27
FB
0B
08
FD
0B
FE
06
18
FB
E0
03
07
F6
EC
F1
15
0B
D6
03
F8
F7
01
08
FE
10
F6
FC
F7
00
FF
F3
F1
09
EE
07
F4
F6
06
0F
0E
00
0A
FE
FD
10
F7
02
00
FF
FD
08
03
03
FB
FD
01
12
F8
ED
F0
13
F8
0C
04
F4
0C
FA
0A
F4
07
03
F2
F6
20
F1
F5
FE
0B
DE
16
EC
08
F0
08
E2
FE
EE
00
F6
E5
F2
F0
FF
0C
E6
08
00
0B
09
12
02
1F
FC
09
EA
06
ED
19
F3
03
0E
06
11
F6
11
F1
E6
08
FF
FA
F3
F3
FD
F0
07
F9
03
F0
06
13
20
0A
EE
F1
0A
05
FA
10
19
01
F5
01
05
F6
09
FB
0B
03
FC
00
E9
FD
1C
09
09
08
09
06
F4
02
05
F7
16
11
ED
23
EF
2D
01
1A
FD
01
F6
1B
EA
F4
0B
03
F3
08
FC
05
02
FE
0E
09
07
FB
0F
F2
04
FB
0E
F8
EA
14
08
F3
05
24
01
FC
ED
FD
FE
05
F0
15
FB
FD
FF
1B
F3
F6
FA
F9
EA
F2
04
0A
F6
F2
FE
F4
EF
F4
FF
03
F9
05
19
0C
04
FE
08
06
04
08
04
01
04
08
FA
02
F3
0B
FB
F5
03
0C
0A
F3
EF
08
01
04
F6
09
0C
FB
02
EA
F5
F3
0F
FD
F4
01
FA
F3
F3
06
F4
06
E0
FE
00
08
FF
F0
19
07
F4
F1
05
FB
06
24
E8
15
05
03
EC
0A
E4
10
03
F7
FD
F9
0B
FB
FE
FA
03
FF
01
FC
09
F9
11
FB
E4
FE
F7
FC
11
00
07
F7
FE
04
12
EE
F7
F4
13
02
00
09
00
F2
F6
04
00
F9
E2
E5
1C
EF
06
F3
13
0E
02
F2
0F
F8
F3
FC
E7
F3
FA
0D
F2
F3
07
03
FE
ED
01
ED
08
F9
F3
02
F6
09
F2
13
FB
F5
0F
05
0A
FF
0B
F7
FE
0F
FE
0F
11
FE
00
EA
E1
F7
03
D8
F8
09
02
03
FC
05
FE
07
01
0C
06
16
D5
08
02
FF
08
05
09
F3
06
EB
0A
E8
FE
FB
E9
15
E9
E3
F8
F2
F1
F3
FD
06
EF
F7
EB
FD
02
F4
02
F4
FB
F0
03
F3
E6
FC
01
F7
F7
F3
EE
09
F1
0D
F2
EF
FF
0E
00
04
0B
FB
07
D4
17
00
03
0C
09
02
F9
04
F1
01
EF
13
F5
07
CA
10
F0
00
F1
F5
EB
09
0B
F9
01
0D
06
03
1A
0F
FA
11
0A
EB
FA
F2
19
16
05
02
0C
04
08
00
FC
F9
FD
F2
0C
F4
11
FB
03
1F
E8
EB
01
20
03
0C
FD
F2
0A
0B
16
D6
12
E6
01
0D
06
0C
08
EF
EE
06
F2
F9
E6
EF
0A
10
F5
FD
1C
0C
0A
0B
11
FB
FF
E9
F7
FD
02
0B
09
F5
01
FE
12
03
0E
EF
03
0E
F3
FE
F9
03
FC
F7
F0
02
0D
EE
DB
E6
0F
F5
05
F3
FE
02
FC
02
F6
FC
0C
F9
12
0C
0D
F8
FD
FB
F6
E9
01
EC
01
F7
E6
FC
0D
1E
01
F1
0F
07
F2
02
04
F0
08
F1
EE
FB
04
0F
06
1B
06
0B
06
18
D6
0E
F0
07
D6
18
EF
F9
E7
F5
06
06
0E
0C
FD
09
09
08
01
06
E6
13
DB
0A
F9
17
03
10
10
FF
0B
EE
02
0B
E8
EB
D4
0B
F9
E5
FB
03
14
D4
F1
02
FE
09
16
FC
EB
00
18
15
F6
2A
F9
EF
F4
FF
FD
1C
E3
0A
03
F7
FE
FF
11
19
F7
EB
F8
00
08
04
09
ED
03
03
12
F4
0B
17
EE
E2
EB
E6
F1
FF
F3
FF
00
0A
F1
01
02
F2
FB
14
F4
FE
09
0B
05
0B
F7
EB
02
08
F4
00
F7
F4
FB
EF
FB
15
05
0F
E7
02
F6
0E
F2
0C
00
07
EA
FD
F2
F9
01
02
FA
F2
F3
09
07
FE
F0
F2
F5
00
F6
1C
04
F9
F5
1A
EF
00
F1
F6
EE
10
05
FC
F9
F8
EE
05
00
FE
ED
FC
F4
09
F2
F8
E7
FE
FC
F5
0B
0C
0E
FF
04
FE
0A
F7
F5
0F
06
0A
DA
05
EB
EF
0E
00
02
E4
F4
F1
F5
FC
07
EB
1A
01
0C
EE
E0
0B
FC
09
ED
F7
FF
2F
07
09
2D
05
FF
01
F9
FA
08
C3
FB
F9
0B
DE
D2
23
17
EC
F1
08
02
F8
DC
02
0A
D7
23
05
0B
F6
FC
07
FD
F9
FC
F1
12
EB
F3
06
07
0C
EE
FC
F7
EE
0B
01
FD
F4
ED
FF
F0
EA
09
F2
07
0A
F7
01
08
13
0D
F6
FB
04
F1
04
09
04
EC
02
00
EF
F5
ED
12
09
F4
01
F8
14
F8
D3
0C
00
FF
EC
EF
DE
0A
E7
E3
F2
2E
02
DD
EE
DF
2B
3A
20
0F
15
F9
E1
CE
E5
EB
E8
08
DA
0A
EA
ED
05
49
EB
FD
01
0B
F6
BD
44
26
EB
12
21
EA
03
1A
09
00
06
FE
EF
E8
0A
FD
05
F1
02
07
1A
05
FC
06
F4
00
01
EA
13
04
12
FF
F8
FE
11
14
F9
08
E9
02
08
FD
F6
EB
FB
00
04
07
02
FE
EC
EA
FA
E6
EE
FF
FB
10
FE
FD
EF
F1
00
13
E9
F8
0C
09
17
1D
01
E3
FE
F3
0C
FC
17
F4
EC
0C
F5
F1
06
1C
1E
FA
FB
00
FE
0A
EF
F2
EE
F0
08
01
EE
F9
0B
F9
FC
F1
F9
10
07
F1
FB
E8
09
FF
19
FB
04
FE
14
FF
F8
FD
09
F5
09
EF
00
EC
FD
F3
0C
05
F1
F7
FC
F4
12
07
FF
10
FE
0E
FE
F5
09
09
FB
0D
01
FE
0C
00
FD
05
0B
10
FC
F8
FF
F9
07
03
0A
F0
F0
F7
06
20
CE
DF
FF
1C
1A
0E
FD
F1
04
04
FF
07
FA
C3
FE
0A
13
0C
00
1A
1C
F3
F1
0A
07
FA
E8
F9
F6
E4
0B
1D
08
E4
0A
10
F0
FD
DB
F9
04
DB
E7
EE
13
FB
0F
FF
EF
11
08
01
F6
0F
0B
0C
01
E9
F4
03
07
FC
04
ED
FA
17
F0
EE
F8
11
FD
E6
ED
F7
0A
FF
02
F0
EF
F7
0B
F7
FB
FD
16
E4
EE
E6
F5
17
F5
01
FB
F7
11
ED
06
01
FD
E8
19
FC
14
F6
F4
0A
0B
EE
F3
F4
0C
07
F3
00
EB
F8
00
F4
1B
FA
14
FA
00
F2
0B
F7
0E
0D
FB
03
0D
FC
F7
00
FF
0C
04
F9
04
F0
EC
F4
02
FF
05
F5
0D
04
FF
ED
FD
F2
0A
DF
04
04
09
FF
F0
EB
F8
FE
07
FF
F8
ED
F6
F2
FB
0E
02
0D
06
EB
EE
F4
17
00
FA
03
11
12
F0
ED
F8
09
FE
FE
09
01
F1
F4
07
0E
06
FD
F5
08
F5
17
F0
21
E2
1D
FB
01
0D
F4
FA
E0
09
F8
19
EA
F2
22
ED
F1
FE
29
12
08
00
08
F2
F1
F1
EF
17
0D
14
09
00
DC
0A
EB
F9
04
F7
12
16
FA
07
F5
12
F7
E8
03
00
1C
E0
08
E1
2A
08
F7
FC
04
F9
EE
F7
F2
08
00
F4
19
00
F7
F8
0F
FB
09
E8
14
F0
01
D1
DF
0A
0E
02
0A
F5
E8
04
F8
FF
11
E1
15
22
01
F7
E8
1F
FA
21
FE
FA
F4
16
D6
18
D6
06
F2
08
0A
FA
FF
0D
03
EB
F8
02
F3
F4
0A
0C
F8
0D
EB
17
EE
17
F8
0C
FD
F3
03
11
08
F5
0B
FE
12
F9
02
11
EC
F1
EE
F5
01
F3
FF
09
EF
FF
F7
15
09
F0
F4
20
FF
0B
E7
F9
FE
F5
FB
F2
F8
0B
E8
E6
F2
10
F2
FF
E1
0F
F3
F2
F7
21
0B
05
F9
FA
0D
FB
00
1B
10
F0
D1
0D
02
F1
FB
E6
FB
F7
F5
0E
08
F3
03
06
F9
07
F2
FF
F9
03
EA
ED
FF
FF
F9
FD
0D
04
F1
FF
FE
02
04
06
02
15
F1
0F
F5
02
13
05
F2
FF
FD
F9
F5
F6
FF
03
ED
15
EE
FD
07
F7
FC
E5
F1
08
0D
04
EF
0C
02
FF
E9
10
08
13
F5
EC
F1
04
00
EA
F4
07
FD
F4
FA
09
F5
16
F1
16
F6
E5
06
05
13
00
F9
F7
00
FC
F9
02
FD
08
FA
13
00
0A
01
F2
FC
EF
F1
DB
FE
F8
F6
F1
15
E9
00
E7
ED
17
18
F2
E3
0B
02
28
0F
3E
0B
17
FA
EE
EA
C3
19
E2
F8
DB
0B
0C
F3
19
14
F9
25
00
F7
32
CD
F7
26
D6
06
F1
15
03
FC
12
F8
FB
F6
F4
FA
F9
0E
0C
FF
0E
04
09
DD
F7
EC
EF
00
07
03
F3
00
00
EE
13
05
13
FD
00
F0
FB
F2
00
F2
0D
EE
01
F3
F1
EC
FC
0E
FE
EA
F5
FF
04
05
F5
FA
F6
F9
E5
F5
F9
F3
F0
27
B4
13
F5
D1
10
1C
05
D6
00
EF
07
39
28
11
16
FE
F1
DC
DA
03
FE
FF
C5
FC
ED
E4
17
46
F9
18
05
EA
04
C7
1E
27
F5
12
1D
01
01
1F
10
FB
0A
02
09
FC
FC
0E
F7
F8
00
07
0B
07
0A
FE
F3
01
0D
F1
F5
10
06
0A
FC
05
04
05
F0
07
FE
00
F3
F4
F4
E1
10
0A
FD
FC
FC
13
F9
F9
FB
FC
01
00
0A
EC
0D
FA
F9
06
FC
01
0B
FF
EB
0B
01
ED
0B
F8
08
01
01
F2
FD
04
0F
0F
09
03
F6
F6
EE
FC
EA
EC
F3
03
FA
01
07
20
0C
02
02
EF
06
EC
FC
F7
F6
12
07
01
FB
F5
F9
FD
F5
01
F7
F2
F9
F9
E8
04
02
F0
F6
07
F9
F0
05
F3
08
18
F8
02
04
EE
EF
FC
F1
0C
F9
03
EA
FB
F4
E8
03
14
FD
0D
F5
04
F3
F4
1F
05
EB
02
1B
FC
1C
0F
0F
01
03
08
07
06
F2
07
0B
FD
FE
F3
F9
EF
05
11
F5
00
FA
EB
F3
FF
F7
FA
05
14
13
12
F9
08
0E
FF
FD
FD
FA
F4
10
FD
F4
04
F4
12
E4
F7
F1
F6
F5
09
0E
F7
FD
FD
0F
03
05
14
0D
FD
0E
15
07
FB
0E
E1
EE
0D
F1
15
05
E6
02
01
F4
F5
11
0B
10
E7
01
F2
15
F9
0B
04
06
EB
04
06
04
0B
0A
EE
ED
E3
FB
FB
FB
F9
EF
00
F8
ED
19
F7
F6
FC
0B
FB
01
F6
F2
00
0C
FC
F1
12
09
0C
EC
F7
01
04
08
F1
0D
FD
01
05
02
FB
1C
F6
06
0B
EE
03
15
0B
01
1E
EF
10
FA
EC
03
E7
F1
03
0E
00
F2
06
00
F3
F6
E4
FC
03
00
F0
1E
FC
0A
06
F0
F6
FD
F6
EE
F8
F9
F4
FB
05
E7
08
18
FE
00
FD
FD
09
00
FE
EF
EC
0D
14
EE
08
02
09
EA
11
04
FD
EF
FD
09
F3
09
FF
08
09
F5
F3
0B
FC
E5
06
0B
D2
2A
FD
F4
09
F0
1D
2B
F6
11
1B
0A
FA
04
02
F2
09
E4
EE
FA
F9
09
0C
15
F5
10
21
F2
F7
1A
BD
E3
06
EB
FF
EA
08
11
01
01
F5
DA
F5
09
13
D4
19
E3
1F
F8
01
DE
12
F2
0D
F9
F4
0A
0C
F1
1A
F9
00
F8
0E
FB
0B
E3
1E
F4
FF
BA
E1
14
0D
FC
04
F1
F2
F4
F0
15
0E
DD
1B
2A
12
17
ED
23
FE
0A
F1
F1
F4
04
F4
15
E0
FA
03
FC
F7
0B
F6
07
09
F1
09
FF
00
10
02
05
04
06
08
FA
F5
F5
0C
06
FF
E3
0E
05
04
04
02
EA
09
16
01
07
ED
0B
EB
05
0B
FA
FD
15
F4
F4
04
0C
0E
0C
EA
03
FC
DD
F7
02
06
F0
EF
DF
0D
07
FA
F8
F6
14
F3
0E
F7
03
00
0A
02
0C
EF
00
0A
F9
FB
F8
F0
DF
07
0B
01
04
1C
EA
EE
E2
E6
0B
F5
1D
ED
FC
F1
05
02
03
FC
F2
F6
FE
E8
FE
08
FD
FB
F4
F1
F9
F4
FC
05
08
06
11
0C
18
02
07
FF
04
FA
FF
01
FA
F9
F3
FD
FE
1C
FF
F5
01
FA
F3
F8
EB
F5
F2
FD
03
01
0B
F3
0A
01
0D
F6
16
FE
FE
FE
03
0E
FB
F5
09
F0
F9
00
FB
FE
02
11
01
11
05
09
00
F0
00
04
03
F2
F1
06
FD
FC
F9
0C
FF
F5
11
F5
05
FB
F4
F7
FD
F0
04
FB
08
E9
00
14
F8
FA
06
E6
11
05
F0
0B
F3
F5
15
F0
17
FA
F0
F8
F7
F5
F0
11
F7
E8
E5
07
0E
01
1A
FD
F6
04
F8
FC
0B
E8
F2
03
00
00
F2
10
07
F4
05
04
04
F2
01
00
FB
FD
FF
F9
03
00
FD
E7
06
13
F6
02
FA
FC
FD
01
FC
03
07
0C
FE
FD
0A
FF
F8
0B
12
0B
0B
FF
FF
00
F7
FD
06
10
F1
EE
FB
01
00
F3
FA
EE
EE
06
FA
FC
FD
04
FB
FB
E8
1C
02
CC
0E
0C
F8
E4
EE
F2
06
11
FA
0F
FA
02
F1
0B
F3
02
FA
F7
EF
FF
00
DE
21
05
02
06
F1
F3
16
D9
FB
02
F9
06
07
FF
06
FE
15
00
03
F6
0B
FF
F3
0D
0C
FD
04
03
FF
F6
F3
0E
01
06
E4
D7
EA
0A
FE
F7
FC
14
15
05
09
12
1F
F0
FB
F4
08
D8
08
F5
F5
F3
F7
13
EE
FF
04
FC
F9
FC
08
F4
FC
EE
07
FF
F8
14
05
03
F8
01
F0
DB
10
FC
FF
03
F0
F6
17
13
03
0A
02
F8
FF
EA
F7
FB
F4
FC
09
FC
05
10
FE
06
0B
03
F4
04
05
F8
FD
FF
FF
10
F9
06
01
05
01
F3
EA
04
F1
FE
CB
18
D8
FF
E2
EF
D9
07
01
07
03
DA
05
12
F2
02
03
F1
F0
F4
E5
18
EC
21
E9
0B
C3
E1
1D
0E
F3
0F
FC
E6
DF
07
34
19
01
0A
39
16
1B
EF
2A
04
10
02
FF
DE
10
EB
FB
E2
F7
F6
FC
EF
0A
15
FB
0E
F3
F5
05
F9
07
FF
15
FD
FA
F5
09
0A
F2
0A
11
16
02
E4
08
01
F1
FE
0F
FA
EE
FB
04
EE
DF
01
F2
FF
F9
F4
10
04
F2
03
FD
07
07
00
FD
05
08
03
EE
13
FC
13
0A
F0
01
FB
FB
06
11
01
0E
F7
FB
00
FF
F2
15
05
F1
F2
FC
02
01
09
04
01
F1
FA
0F
02
EF
04
04
00
EE
01
02
F7
09
01
16
10
0E
06
EA
ED
FE
F7
06
18
02
03
02
F2
0C
F9
F9
F5
02
08
03
FF
FB
F8
01
08
08
04
08
F0
03
FD
F5
09
FC
06
F8
F0
07
0C
E6
1E
05
FE
03
05
FA
09
F4
EE
FA
05
03
F8
F9
1B
ED
00
01
EE
01
F6
EF
FF
FC
EF
FB
08
03
0B
1A
EC
05
0C
05
0B
F3
E2
E4
09
FD
04
F8
F6
EF
24
09
1F
09
F5
00
09
FF
01
FB
FC
2C
F4
04
FE
2B
EC
D8
F9
09
C8
36
F6
08
01
F2
23
1F
08
0C
FB
05
FA
0F
F7
DE
08
EE
DE
FF
09
2A
15
FD
00
1B
0B
08
FE
20
D5
E6
F0
F7
EC
F4
F9
06
16
F0
FB
EA
F3
FC
FB
EE
07
DE
18
04
DF
F4
F5
FF
09
F6
D9
12
0F
DE
FD
E0
05
FE
14
E7
06
EE
01
00
06
C9
F0
11
04
EA
01
FD
E3
03
F6
1A
FE
F4
0A
21
23
ED
FB
16
F2
05
0A
F7
EA
0D
0D
FD
11
F9
08
E7
02
FD
0E
05
DD
FB
09
E6
F2
EA
0A
13
F4
07
EA
08
05
17
07
DA
E5
DC
0E
EB
DA
08
1B
DC
1B
17
FE
0A
09
1F
FB
15
01
F7
FB
FB
FD
02
16
F9
04
02
FC
F3
03
EB
05
EF
05
FC
F6
EA
FC
ED
F9
F2
EF
09
11
0B
06
F3
08
09
FF
F6
EA
ED
0C
07
E5
00
08
F3
06
16
10
03
16
0C
FC
F5
F4
11
F3
F2
F7
FF
FB
F6
F7
01
0C
F4
01
EE
FE
F8
03
F4
03
08
F1
DE
02
03
02
04
01
02
FF
FD
06
0F
0A
F4
FD
F6
EC
FE
EE
F1
FA
F7
0F
07
DD
F7
07
06
05
F1
F0
F0
FE
F8
FD
0C
DF
10
F4
0B
E7
01
19
FF
14
FA
04
EF
06
F7
0C
F4
F5
01
FD
FF
0B
13
ED
04
F8
F9
07
02
FC
EE
F3
06
EE
FB
0A
EA
F8
02
01
12
F8
06
F6
F4
0A
F4
F2
05
F2
03
F8
00
02
0B
FA
04
F4
0B
ED
FF
FA
04
EE
04
F9
FB
F2
F4
FB
02
09
FB
F2
F7
F7
E9
F7
01
FB
FD
F8
04
F4
F7
F1
0C
FC
FE
F8
05
FE
F6
00
FC
0A
F4
EF
03
FA
09
05
00
07
01
FE
07
05
FC
F1
08
11
05
09
0A
02
FF
03
02
F0
0E
FC
0C
FF
06
FF
FC
F9
0C
FF
FF
F3
FF
F8
08
01
F9
01
FA
E7
0C
09
09
F4
FF
F8
FD
EC
08
FA
F5
01
03
05
FA
0F
17
DC
04
0E
F1
F0
F8
FB
F6
FE
10
0E
FF
07
F9
0A
07
03
08
09
08
F3
07
00
02
FB
06
10
FE
07
0F
EB
EC
04
FA
0F
F3
FA
FE
06
07
0A
03
F6
05
FC
FA
0A
06
05
08
07
F2
F9
F2
08
09
FA
05
EE
F2
EC
F0
F1
05
05
04
FF
0D
05
FF
0B
0E
05
EA
E4
FF
F9
EE
F9
03
0A
03
F3
08
08
03
13
02
FC
F7
03
EF
0A
03
04
09
FB
FF
02
F3
C6
FF
19
F1
0A
F3
01
0F
F6
01
E9
EC
FC
02
E8
CC
07
F2
EE
03
F3
04
09
F9
02
F4
F2
F6
07
02
C5
F1
F4
F5
F6
FF
0F
15
02
FA
0B
A4
FA
01
1C
97
17
BC
33
F9
1C
CE
F8
FA
F0
FD
CA
3D
1F
CA
2A
F1
0B
F9
02
F4
FE
DC
14
FE
01
BE
D8
14
08
F6
ED
FB
CD
03
E9
3A
0F
DF
05
68
1D
E0
DE
FC
FC
12
F6
F9
F4
14
01
07
DF
08
B6
09
11
F6
14
FB
03
DD
04
1D
E2
EC
04
FD
00
F0
04
FB
E6
FA
FE
13
03
FF
FF
ED
09
FC
1A
F8
EC
F8
FF
FD
F2
EE
16
01
F2
01
F5
F8
FF
F4
03
07
09
06
F2
EF
F0
F7
F4
F8
06
FC
08
08
F5
F7
00
FC
03
FC
F8
05
F9
05
FF
00
FA
13
1F
F5
F3
FD
E9
00
F6
F8
F9
F5
E7
0D
F6
FA
0C
03
02
F9
FD
F2
0A
0B
08
F0
0B
10
FA
DA
F3
F7
F7
05
F5
F1
EF
F1
02
DE
ED
F1
02
FF
EF
ED
F1
F7
0C
0A
09
ED
FC
FB
EA
F9
DA
03
08
F4
E9
05
08
13
16
FC
0D
FB
01
10
FE
03
02
0C
03
03
EC
F7
0E
04
F7
04
0C
F2
12
0B
05
07
EB
F9
FE
F5
F4
FC
F6
06
04
FE
EE
05
F7
FD
EF
F5
E8
10
E8
EE
08
03
F5
E8
ED
F4
FC
E2
08
00
04
FD
F1
FD
F9
08
FB
F8
ED
07
0B
F7
1C
E1
F8
02
ED
00
F3
0D
FB
E4
F1
F7
F7
F9
02
0D
01
0E
05
08
F5
F2
01
00
FD
FA
FC
F7
0B
ED
0F
11
03
0C
F6
20
F5
04
06
04
F5
12
F1
01
0F
05
F3
12
E8
FB
01
F7
06
09
FC
F5
0E
F5
15
F2
EC
F3
F7
F5
FA
0F
F4
F1
14
1F
FD
F3
F7
F7
F7
02
E8
F1
02
DF
13
06
0B
09
FB
F7
0B
EF
11
01
F5
09
01
02
08
0A
0D
09
00
03
DB
07
FB
F4
FB
F4
F6
F2
14
F3
F7
FC
0A
05
0A
F8
F8
FA
D6
ED
00
04
F8
07
F2
F6
F7
FB
F4
03
FD
E3
F7
FA
FF
E9
FD
00
F8
02
05
10
EE
F1
03
17
F7
16
08
F0
C9
0C
07
F8
E5
F2
F8
0B
FB
02
FB
00
FE
08
FE
00
E7
02
E6
07
FB
0F
F7
04
0F
0F
09
02
08
07
FA
D5
FD
FC
01
DD
D9
05
05
F5
ED
EF
FA
0C
05
06
FD
0C
0C
DE
F2
0E
00
F5
0F
01
FA
FB
01
FF
04
F1
FF
10
F8
FB
EA
00
EA
10
06
F2
06
FF
FB
FA
E3
0B
0A
0B
FE
EC
F3
EA
03
E8
08
1A
15
0A
FE
15
05
02
0D
13
F2
FE
04
04
DD
12
13
0D
05
05
EC
E7
DF
06
F3
ED
F3
18
0C
0E
E4
FF
DD
12
F2
0C
FB
EF
E5
E5
ED
F3
00
05
F8
F1
EB
FB
0D
F9
EA
E5
EC
18
F5
04
EF
FA
19
F2
01
FF
06
11
16
F7
0B
F7
03
F9
08
01
E9
03
19
FB
F6
04
16
16
FA
F4
F8
ED
0B
F8
F1
FA
0A
04
08
0D
FB
F5
F0
FC
0D
F4
0A
F0
EE
01
E1
0A
0A
07
F7
FE
09
FB
F2
07
10
EB
F7
09
EB
F7
FF
F6
02
F6
E6
EA
03
F0
0B
06
10
07
ED
F2
F1
23
04
F6
F0
ED
F9
FF
F8
FB
22
07
0A
DE
14
F2
25
FE
F5
FC
FE
F9
F1
0B
0B
FE
E6
18
0F
E3
D2
F7
F0
1F
05
04
F6
04
0D
E8
14
20
FD
10
07
F8
EC
F5
0A
01
24
D7
0B
03
28
1B
04
15
0B
0A
01
00
FB
00
2D
12
D9
06
03
0B
F8
FA
F3
0B
FA
03
17
0C
EC
05
0B
FB
15
F7
10
0A
FB
FD
FD
FD
EE
ED
F8
F8
08
0D
07
0F
F1
ED
FF
1F
FC
F9
ED
E1
FD
FD
FD
EF
05
F9
0E
F3
F1
03
0A
EC
0C
F9
00
F0
02
EC
FF
F4
01
F1
F3
0A
0F
FD
09
EE
03
F3
03
F0
01
FB
F9
F1
00
EE
EF
06
07
0D
EF
FD
0D
13
FA
EB
F9
0D
F7
02
F8
03
08
07
09
10
FD
F5
12
06
FA
05
0C
06
F5
00
F0
FA
F6
FE
09
FA
06
F2
00
F3
FD
06
FA
01
05
05
18
08
FC
09
04
FC
FA
F6
DD
02
0A
F5
F5
06
02
03
0B
08
FB
04
FF
02
02
11
0F
06
F6
0D
02
0A
14
F5
FD
F6
F9
F9
2C
E8
EF
F9
29
F5
FB
D2
F3
00
06
EF
EC
06
0A
C6
FD
E3
F1
0F
09
08
09
E8
06
1D
07
DB
DA
EB
F4
EB
CE
F4
0A
F5
F6
07
EE
E8
1B
03
F6
FD
01
17
02
F3
FF
0A
22
0A
F7
19
15
00
E1
17
03
F5
F9
09
0F
0D
D7
E7
12
F7
FF
09
06
0F
E5
DB
EA
FE
09
1B
EA
EE
FC
05
EA
FF
2B
14
F5
D0
05
E2
12
D4
EE
03
18
F8
F6
DF
08
0A
E6
FD
10
F5
FC
F7
EF
EA
E3
F9
00
F4
EA
FE
1A
E4
ED
F1
F1
F8
E3
E9
EB
1A
01
28
EF
E0
FF
FD
F9
E9
ED
08
10
DC
FA
14
F8
18
FE
12
FB
06
05
F3
FC
FD
05
FB
FD
F9
08
FC
0A
08
03
17
FE
F8
F5
FD
FE
05
EE
09
04
0C
06
FD
15
06
04
EF
0A
F7
01
FA
F2
F3
04
08
14
F9
FA
07
04
04
0C
E7
0D
FF
00
0B
F2
14
F5
DB
F0
F7
0B
F2
06
FA
0D
F5
0D
E3
F2
FE
00
F9
FE
FE
01
DF
00
04
F2
F8
FD
FE
F7
FF
FC
13
F7
DB
FD
EE
EB
EF
EA
FC
0B
ED
06
0C
F4
03
0A
1C
FB
F8
02
09
F4
18
0C
09
F9
0F
FF
17
F6
EA
0C
FC
04
0B
03
FF
06
E8
0B
EC
F3
08
F6
FC
01
09
08
02
07
0F
03
0C
FD
07
FC
12
EF
07
13
F4
0C
07
11
FE
04
10
02
08
FE
EE
00
14
00
0A
FF
07
FF
F7
FE
00
F6
FF
FA
F6
01
07
06
E4
00
07
0D
06
F5
FA
03
03
F5
F3
14
FE
FD
FF
F4
10
01
03
00
FD
0E
00
FA
0D
05
F8
02
ED
09
F3
F2
02
02
1D
FF
03
11
08
D7
06
0F
FF
DD
0A
03
02
ED
04
06
F6
E9
16
09
0D
FA
0B
05
FB
E6
F0
DB
FE
F8
0E
F9
FD
22
12
F8
F6
12
1B
D7
D7
E5
F6
0B
D5
DC
E3
04
FE
F0
06
05
FB
FA
02
F5
07
F9
FB
F2
FB
0A
EF
07
03
03
FA
FE
0B
04
FC
F9
05
01
00
EC
F2
FD
F6
F4
0F
F3
03
0F
07
08
0B
0C
0E
F5
F6
FA
F5
F9
E3
17
F9
03
00
F8
0B
F7
FE
11
02
E3
05
0D
FD
FE
FF
F6
0A
FB
EF
0A
EA
E3
11
11
05
F0
1F
1A
06
F6
E4
07
0A
03
14
F6
F7
04
07
F7
F0
03
FE
FB
E6
03
D7
FF
FA
E4
FD
EF
11
F5
CE
FC
09
1D
DC
03
E1
27
21
EC
E8
05
F8
E9
FC
06
0C
E9
0E
2A
1C
F1
F2
15
12
1E
DB
F5
FB
0C
FE
D6
FF
0E
0B
19
07
03
12
DF
F1
23
D9
16
1B
F4
19
F8
10
02
E8
07
F0
17
03
F8
0E
22
E8
FB
FC
F7
03
EF
FB
0A
03
F1
E1
06
F9
06
03
10
00
F9
F6
FB
15
F8
F3
F3
F7
F8
04
E5
F0
1E
0A
06
E8
00
F3
0C
FA
F4
FB
FD
13
02
F2
F2
06
EE
FA
0B
FD
05
F3
F2
EE
08
FD
F3
FD
01
ED
24
F8
FA
09
F3
01
DF
EC
E4
F7
0C
FA
FD
FD
EB
06
14
EF
E3
F2
15
0E
07
10
0D
F5
0F
1B
1B
01
0A
0A
ED
F1
01
00
26
F8
EB
02
0F
F9
20
E6
02
F4
0A
04
0F
FA
EA
08
10
0A
F0
0A
11
09
EA
C7
13
FC
01
FF
D6
CC
F0
06
05
06
19
0C
00
FD
09
DA
14
04
FB
F9
F0
18
07
EA
05
02
18
FE
F7
0A
0E
FA
0C
EA
DF
F5
FA
08
01
F5
EF
DC
0F
FF
07
FD
07
0C
F5
F2
FC
16
F7
F6
D9
F0
FC
F4
E6
FA
15
F4
12
02
EB
EF
0F
03
04
F8
F5
14
06
F2
01
F2
F9
FC
0B
FC
11
F7
13
E9
0D
03
FE
F4
09
EE
12
F4
03
08
F6
08
F5
0D
F3
03
07
0B
07
09
03
04
01
F9
FA
F3
F1
05
0C
14
03
FA
0D
FB
10
E4
FD
09
02
FF
08
FC
01
F8
FE
1E
F6
E1
22
E5
EF
07
E5
F4
F4
02
0A
C0
F6
F1
FD
09
F0
FD
E2
02
11
1C
F1
DB
08
E7
E5
F1
D5
F9
0F
DF
12
27
F0
FB
FD
10
FF
0C
1A
02
E9
FA
FC
03
21
FC
E0
1D
11
FC
F9
01
02
FE
09
F2
0C
0C
EE
EF
0F
03
01
10
08
FF
E4
F3
01
0F
01
0E
FD
F7
01
16
F3
03
16
FE
06
EC
E9
E8
07
F8
01
FA
0C
04
EC
F2
F5
04
ED
FF
ED
F0
E7
F5
00
ED
F7
FC
11
FA
06
02
0B
F9
E2
05
F8
0F
F3
F4
EC
15
F5
22
F9
FA
16
EC
FB
DC
E3
F6
0E
E8
0F
02
EE
11
ED
F4
08
03
14
F2
E8
FF
F3
F2
01
0D
08
FB
F5
0E
EE
05
F6
01
00
EF
FA
F7
F0
21
00
EB
FA
FB
0C
01
FE
01
EE
E6
08
05
08
14
02
0B
13
F8
ED
02
F0
F5
0A
FA
04
FB
FB
EA
F5
03
FA
09
09
F8
FC
09
03
07
FC
F2
F9
02
E1
09
FD
04
02
FF
00
E0
FF
F1
F5
F1
08
FB
1C
0E
EA
27
00
F7
11
F4
D5
06
F9
EF
14
F5
15
04
ED
0D
F5
06
FD
08
02
00
0B
F3
FD
F5
07
FE
FC
10
10
E1
0A
D8
06
04
FF
06
05
E0
11
EC
FF
0C
F0
01
E5
FC
F0
F3
1E
0A
FA
FB
E9
EF
01
EF
F6
F2
0D
EA
19
18
FF
FE
FF
11
09
F1
0B
03
F7
1C
01
00
03
10
F0
0B
06
01
FB
FD
FD
07
03
01
FD
E3
FF
03
F1
0E
08
08
0F
12
ED
01
09
1F
F7
09
EE
E8
ED
13
FD
F0
FE
F7
13
F2
F8
FC
06
F0
F0
FA
FA
06
03
0A
FD
00
1A
FB
EA
03
13
0A
07
0A
E3
02
FD
F6
0D
02
DD
00
1B
FF
F2
0E
0D
07
E2
E8
FD
F0
F8
04
F2
00
06
12
16
0B
EE
10
FF
D6
F2
EB
06
F1
E4
E9
F5
01
EB
0B
03
F4
13
13
02
11
02
11
F8
0D
06
FA
FF
02
0F
E6
F4
0A
F4
FA
FD
09
1B
07
04
05
F4
01
02
15
00
F5
F6
12
F8
FA
03
F3
09
F4
12
01
04
E9
F7
FC
E7
FF
FB
1F
F7
06
F9
06
EB
02
0A
FC
17
FF
E9
F5
0C
04
01
F6
E8
F1
02
F4
02
09
15
1C
E7
01
FC
1A
F9
05
F6
E5
FB
02
FF
06
11
FA
0E
EF
EC
0B
00
F8
EB
FF
EF
0E
0B
DB
07
F4
13
CA
18
EF
07
1E
1A
FB
1C
F3
0B
09
0A
01
DE
23
20
02
F5
F4
12
FC
21
E8
18
E4
F7
02
F6
1A
08
12
29
F6
D5
2C
F7
E3
08
E2
02
15
1A
EB
DE
28
02
F9
07
F1
17
00
F9
E6
12
E4
08
F9
00
09
04
FC
01
02
14
EB
06
EC
F5
F6
FC
F9
EC
F4
F7
1C
F3
F7
FA
F9
06
0B
E3
F4
11
02
09
FA
E6
02
14
02
14
F9
FC
F8
04
E4
FC
F7
28
E8
01
F5
18
F3
05
F2
11
EE
02
05
10
FB
00
05
0F
07
F7
0A
F9
03
F7
EB
14
06
08
F7
DD
FD
06
19
02
0A
10
F8
F9
18
01
E8
0D
22
FC
0F
01
14
07
F9
F0
09
00
FD
F2
FE
09
06
14
F8
11
06
09
FF
08
05
DF
F3
FF
FA
02
07
0D
FA
15
EC
0C
FD
F2
FE
E6
05
F8
11
FC
00
F7
F3
04
F0
13
ED
0B
F5
FA
F0
E1
09
08
13
FA
EF
F3
0C
04
09
F7
F4
10
03
E8
F8
FD
FB
04
03
13
E2
F6
F2
0D
FE
E6
F0
F7
02
FA
18
F2
07
FC
F1
EE
00
EA
07
16
EC
0D
06
EF
0C
01
F0
1F
00
0B
F1
ED
01
F9
03
0E
08
05
0A
0C
0B
F7
F7
0A
05
F9
FE
FD
EA
F1
0B
FC
0C
F0
03
07
00
0F
FB
06
FB
FE
0C
EB
FE
FD
0F
11
00
FB
09
FA
FD
17
F8
11
01
F9
F3
E8
18
F4
03
07
02
EF
FE
02
00
ED
F1
0E
06
E8
FE
FB
FB
07
11
F3
D7
0D
F5
04
F9
F4
F8
06
05
F6
19
FA
F3
06
FD
E7
04
F1
F6
05
F6
06
02
06
F8
01
08
F2
08
F8
04
06
F8
F7
FA
1F
09
EA
FC
0E
05
03
02
EF
FD
ED
02
07
FE
FC
E0
FA
F1
F8
05
09
0B
EF
FD
00
12
FB
FD
06
EE
FD
00
FE
05
12
00
FF
FE
EE
FF
FC
FF
F7
FD
F6
EE
FC
FB
F3
09
F1
0D
F4
0F
F0
15
E2
19
F5
06
ED
08
F3
03
FC
F1
EA
F0
EB
0F
F4
FE
FE
08
F8
FE
09
F5
13
15
06
DE
F6
09
12
0A
FD
F9
FC
11
EB
F6
F1
06
05
EC
EC
11
FB
FC
F8
2C
0E
1D
FE
16
DC
FE
F1
F6
EE
06
EE
F3
06
0C
FA
CF
F6
EB
11
0B
FD
1A
DA
0B
FD
1B
00
1D
EE
F5
F1
09
FB
FE
06
E9
F9
18
0D
F6
FF
FD
F7
E9
FF
13
FD
02
12
0B
F4
FD
0C
E9
E8
FF
02
F3
10
FD
19
07
EB
F3
06
04
05
0D
FE
FC
F4
E9
F9
18
F2
17
FB
00
08
12
F7
EF
19
10
F8
F1
E0
F5
FC
EA
05
FB
FF
03
0B
E4
FD
FE
F2
BF
16
D2
F9
F3
FE
FD
00
F6
FB
FC
F3
20
02
F3
0B
FE
FB
E9
FF
E2
01
D9
04
D7
09
E0
F2
0B
15
04
0A
F2
E7
08
E0
21
0E
EA
19
2D
07
F7
E7
09
FE
04
FD
04
F0
08
04
02
F3
F8
0F
F4
F8
09
E5
F3
F1
F9
10
E9
F2
03
F7
F4
03
12
FA
17
0A
00
FE
EC
06
02
F5
03
FC
09
FE
DB
1B
12
09
0D
01
1A
F8
FC
00
E9
0A
F5
03
FB
0C
D9
FA
07
FF
07
23
D7
F8
EE
F6
F9
07
EE
DE
EB
0E
0E
07
FF
15
14
E4
FE
1C
FA
09
EC
D1
DC
0A
16
01
09
E6
E7
13
18
0B
F0
16
08
09
ED
E8
0F
F0
09
FE
EF
F9
EE
E9
0A
ED
06
1B
F0
17
FC
F4
EE
F8
CF
ED
13
01
0C
03
04
27
12
1F
FF
2B
FD
0A
01
EF
E8
EA
14
1C
F0
09
F0
05
FF
2A
F8
FB
0D
D2
0B
F3
1A
02
F9
FC
F0
0D
02
FF
0E
11
0B
14
06
FD
0A
F0
08
05
05
FF
EA
01
FE
ED
FC
09
13
F5
07
0C
0F
F1
F7
08
FC
F3
F6
F3
F2
FE
F8
03
FD
F3
01
07
FD
05
FE
F8
FF
05
19
F2
03
F2
1D
1F
03
EC
03
E7
04
02
F6
0D
F1
19
FA
E5
22
07
08
00
04
FB
F6
05
F4
EF
D5
09
2D
03
22
04
17
09
05
F6
10
07
C5
F8
F5
FB
E6
07
03
F0
F2
F2
0D
F4
F1
04
F5
FA
FF
FF
F5
F1
F7
FD
F6
0B
F4
15
0A
04
E4
F2
E9
FA
12
01
13
FB
0A
F0
20
F1
F7
07
F0
EF
F6
EB
0A
06
FC
03
F6
E5
09
09
FC
F7
01
05
04
EB
EC
FB
04
12
EE
0C
ED
0E
00
FC
F9
07
0B
FB
FE
F0
F2
FF
10
0D
02
FB
F0
04
05
02
FC
FA
F2
03
F9
FD
03
06
FE
07
03
F7
0D
F1
FC
05
F0
FA
03
05
03
FE
07
F8
F2
F9
05
F9
E7
0C
F5
04
09
FA
FC
06
F5
17
08
F5
DE
E2
F0
04
D6
FE
FB
FD
F8
1C
04
FA
F3
F3
08
DE
0E
DE
04
FB
F1
E6
01
EA
EA
16
FC
15
F2
07
D9
D3
02
02
FA
FD
F5
F9
09
01
FF
11
E6
F7
F9
0A
FD
0D
01
16
09
FE
FD
0A
F5
FA
15
EC
EF
DA
E6
F8
04
0B
02
11
FB
03
00
01
06
0C
F6
FA
03
E4
ED
F5
EF
10
0C
01
01
07
06
0B
01
0F
06
07
F2
07
FD
DE
15
0A
02
EE
FE
F3
12
06
06
17
FE
FC
07
FE
FD
16
F1
C8
D9
FC
08
00
12
FD
0F
1A
F9
ED
19
EB
06
0C
F4
14
09
09
F3
F6
02
F3
EF
F9
F8
E9
04
F7
FC
FF
FF
0F
0C
F7
03
01
0C
F8
0E
F6
F6
05
E3
FA
00
F2
F9
F8
F5
F1
FF
0C
03
0A
0C
F4
EE
FC
FF
F7
0B
F5
F1
EF
01
FD
E7
0A
0E
F9
F6
FB
00
F8
04
FB
FF
FB
0F
E4
05
1A
06
F0
FC
F1
FF
02
FF
07
F2
EC
FC
F1
03
FF
06
F5
0A
03
0B
F2
0D
15
F1
05
FE
08
06
11
FC
0F
00
04
10
F5
09
F4
09
05
FA
07
10
0B
01
F6
14
08
FA
E3
ED
E5
1A
FA
02
15
F5
F9
1E
04
F2
FB
D5
F1
EB
EC
F0
EE
0F
DF
0E
0B
0F
1B
FC
F4
02
E5
03
04
F4
DE
EE
F5
17
E9
E4
FD
1C
0D
E9
F5
1A
07
FC
03
26
F6
FA
0A
12
E3
12
EA
F8
F8
F0
EE
0D
0B
FA
FC
E0
F0
EC
FF
FF
12
0A
EB
0F
F1
04
F7
16
E5
F2
E7
0B
05
15
E6
F8
E7
08
02
FF
FF
04
F5
E6
F5
10
F0
F5
E2
0C
E3
02
F3
CF
CC
FF
03
FE
1E
0B
1B
05
FC
08
EF
F6
EC
0D
E7
DD
FC
F5
06
06
07
26
05
F8
F4
F4
E6
F6
36
F7
ED
F2
E8
F5
E9
E2
20
23
F8
FA
0A
DD
F6
F1
1E
C6
1D
D7
1D
E6
03
F5
FE
08
E9
01
E8
26
14
D4
06
F1
F8
DC
00
F0
F9
D4
EA
EF
0A
D1
F3
08
16
EE
F2
F6
CC
28
D7
17
05
F1
0F
30
1F
DA
E4
17
EE
EF
0B
F4
FA
EB
0E
F9
01
0B
17
FA
FE
F5
F2
FB
F0
14
19
C7
FC
F2
F8
FD
EB
FB
F0
01
04
07
F9
DB
01
E6
E4
E2
FA
F0
F9
EE
07
38
F4
04
04
1C
09
FA
0F
E3
F1
F3
06
FC
F4
EB
FC
FF
EE
09
0D
CB
12
EE
0B
F8
D9
D8
F0
04
DA
28
07
FD
1C
11
E4
04
23
FC
FC
D2
D3
B3
FC
E7
10
F9
EE
C9
19
31
15
F0
FF
1F
E8
F7
18
13
09
F9
05
FC
17
E1
DE
FF
FF
04
0F
02
FA
09
EB
FE
EF
F6
07
FD
07
1D
FE
FD
16
16
E8
05
11
05
0C
E8
E2
E5
02
03
09
F9
00
F6
08
0C
1E
F8
F8
27
DD
F3
19
1A
ED
F8
FE
F2
F1
F4
FA
F6
06
FC
1C
07
E4
FC
03
03
03
F9
FC
EF
F8
02
F6
04
F8
FB
FB
06
05
10
05
01
17
E9
EE
F7
F7
0B
0C
01
01
0C
EF
13
F5
12
01
F7
F9
FB
F0
08
FE
F5
06
0C
04
03
FD
F6
E2
FF
F1
F9
19
FA
11
FA
05
01
FF
ED
F5
01
F1
FA
F7
0C
F3
07
F7
17
0B
07
F2
F7
FB
09
F7
0F
04
F3
E1
01
03
DC
10
06
F2
F2
EA
FC
F1
00
FC
09
F5
0A
F9
12
FE
F6
FA
F7
0D
01
F6
F8
04
0A
EB
08
F7
00
F1
01
EA
11
02
00
F8
08
18
F5
FD
F8
F6
EF
0F
F9
10
0B
EA
0F
05
FE
02
07
0A
F2
EA
06
F3
04
FF
11
FE
FB
03
F0
F2
0C
EF
08
07
08
02
F8
04
FF
0F
F3
00
03
F4
F3
0B
FB
E2
FE
F9
06
06
14
04
03
F6
F9
F8
03
F6
F1
EF
FC
10
E7
FA
E4
F3
0A
F8
F1
07
F3
08
07
EE
0B
01
07
E6
EE
17
F3
0E
01
04
FA
F9
00
FC
0F
F7
18
05
04
EC
EE
14
03
04
07
02
EE
02
0E
F1
FE
11
07
17
07
F8
EE
06
FC
FC
FF
F7
F6
F1
02
05
F1
EA
11
0C
FE
F3
D4
D3
03
08
FA
23
FB
06
F9
14
0F
EE
F4
00
1F
D9
C8
DE
FC
EE
07
F8
0E
FD
F7
F2
FD
DC
07
27
F5
EF
F1
F1
06
06
EE
23
20
F6
0A
09
FD
FE
F4
1D
F7
EF
DA
24
DB
E6
16
ED
F3
FE
FA
16
2A
12
F5
1E
E3
07
FC
D9
BC
11
D8
F7
09
F1
F2
2D
0F
DA
FB
E6
0C
04
26
C7
E2
DF
E5
F4
01
FC
11
0D
F9
F2
F9
09
F4
F7
0C
FD
FF
FA
05
E3
FB
29
03
14
F6
FC
EE
04
0A
E7
F7
F8
06
F7
FD
EF
FB
06
07
00
03
06
05
0D
E3
FE
F4
0F
FA
EF
EC
FB
FF
05
EC
05
0B
E7
0F
FE
F9
F1
01
F7
FE
0E
0C
EA
F7
08
E5
11
F5
FA
06
FC
F0
0A
04
E8
19
06
08
FF
0F
F2
06
13
FA
03
FA
FD
F4
24
F6
08
EF
01
E8
0E
24
0C
FD
FA
FC
08
0A
1D
F5
03
FA
FE
FF
E4
F7
16
F3
EE
DF
F5
FB
F6
F0
FB
FF
00
03
28
E9
EC
ED
FC
EE
F1
F7
F8
F5
F3
07
06
E4
15
FF
15
EE
E5
F7
16
E5
0C
0D
1D
15
04
FE
10
1B
1A
07
07
ED
F4
F9
16
E6
F9
FF
1A
E0
18
EF
0C
F2
14
08
0F
01
04
E5
16
EF
FF
F5
F6
08
F9
DD
FA
07
FB
EF
06
F8
01
0A
E4
09
01
0C
FD
13
F5
EE
01
06
09
F0
EF
0E
06
F9
ED
02
FD
F3
06
FF
FD
E9
12
ED
0D
08
FC
04
F5
F2
10
EF
F1
FA
0B
0C
F7
F5
11
FF
11
18
03
00
F6
08
00
F2
F8
08
FA
D7
09
1E
01
04
0B
06
09
FC
02
FA
02
F6
0D
09
EE
EF
10
08
F8
D4
F0
E8
10
04
2A
05
00
E4
02
1A
E6
F4
00
08
DD
E1
F3
F7
FB
19
0A
02
F8
FC
0E
DE
E5
FF
1D
D4
F4
EC
10
FA
08
F7
1C
09
EC
1A
EF
F7
ED
EC
0D
F7
06
0A
02
02
00
0B
E7
FC
F7
F0
08
14
FE
F5
FC
08
02
04
F5
EC
00
01
F6
08
09
E8
10
04
F0
0D
FB
00
FF
F4
FB
F3
DF
08
0B
04
00
FF
12
F2
F9
0E
05
01
FD
11
E0
F3
02
01
00
21
D5
00
CC
00
05
07
06
06
0D
18
F3
FF
09
F0
F1
01
F9
EC
01
FB
0C
FF
DE
1E
27
F4
F3
10
F8
F9
E6
02
FA
03
E6
FD
0B
EC
F4
EF
F0
03
0D
FC
00
FB
0C
E3
01
0E
F4
FE
01
FD
0F
27
07
FE
25
FE
FC
0D
F3
F1
05
D5
EC
F4
FE
F6
01
F5
00
0D
FD
F6
FE
1E
F0
F3
06
E7
0B
F6
0A
06
1E
FF
01
05
F9
05
02
E9
FF
F0
FB
E7
1D
EE
EC
F1
0C
F8
09
0A
F8
DE
0D
FA
05
F8
ED
0A
F7
EF
FD
03
FD
F1
F3
ED
01
05
EE
F3
04
01
02
FE
F8
03
FB
0A
00
F7
F3
FA
EF
09
ED
01
0B
FD
FD
10
FD
F0
09
01
FC
F8
F3
0E
FA
E2
DC
19
04
F5
F0
F4
F4
F8
F8
15
0B
FD
FF
08
04
15
ED
EC
F5
0B
12
EE
01
F7
04
10
12
F4
E6
07
DE
19
05
11
F7
F4
11
FF
01
03
0B
F8
04
02
F9
00
05
01
00
0B
E1
09
19
05
F1
ED
F2
09
01
F5
09
F1
0B
08
0B
F2
F4
04
10
0C
FE
19
ED
02
03
E2
F3
EA
EC
06
FC
16
08
15
09
F8
FA
02
FE
E9
CC
FD
E1
15
08
05
11
F3
F9
F6
E4
1D
E3
0F
FE
0C
F3
F4
0E
0A
FE
F4
07
1A
09
F5
00
F8
FB
EF
FB
0E
EF
D6
19
06
05
BE
E6
EF
F2
0D
F5
F9
F7
05
10
EA
0A
F0
0F
F3
F7
E8
06
02
02
01
EF
05
0D
08
F7
00
07
09
ED
F4
ED
E5
11
0B
F5
EC
F7
05
19
DE
E4
F1
FF
F0
05
0F
F9
03
18
10
02
08
FD
05
06
E8
00
F1
E9
F1
F4
FB
F9
E4
09
ED
05
FA
FC
02
0A
06
0C
E7
F3
EE
05
FB
F7
F7
14
0D
17
13
F8
EF
15
FE
F2
FE
FE
EE
16
E3
0F
01
F4
1A
F4
15
FC
03
0D
0E
F8
FA
F3
F0
F7
EB
00
FB
F3
F2
06
F9
12
00
10
F0
09
00
06
04
07
FD
02
03
FC
FC
04
FF
15
04
0A
FE
FF
07
09
ED
FA
08
0E
F8
F5
00
FF
F2
07
10
03
05
04
FF
FD
EC
FA
F4
E9
02
0B
06
F0
FD
F2
DE
17
08
0B
09
E9
03
11
E3
DD
EE
F3
FC
F0
DE
F8
1B
FB
1F
01
E7
11
09
FE
D0
EC
FC
0C
CF
08
08
08
14
EC
05
07
FB
F6
FA
EE
24
FF
FC
07
08
CB
EC
03
1D
10
2A
E8
FD
FA
F8
08
24
F0
18
15
04
FB
08
0A
10
0A
FE
ED
F3
0B
0F
2E
E4
F1
12
1E
0A
F2
12
01
F6
E5
FB
F2
09
D2
F8
0D
F3
04
07
01
F8
F1
06
FB
1A
F4
E5
02
04
EF
05
05
FA
03
FB
06
E1
F7
E8
09
04
DC
FA
ED
08
FB
15
FE
FA
14
FB
F1
FC
E3
FA
0D
DB
0F
0B
F5
24
01
0A
02
00
0C
F5
01
EB
F5
EF
18
EA
F6
FD
0A
F4
13
04
04
F5
03
FF
0D
02
06
DF
07
04
F8
02
04
FC
F9
F6
0B
0C
F1
E1
04
F0
FE
EC
E9
00
08
0A
F6
01
FA
E1
FC
19
F1
16
1A
19
00
FE
0C
FF
F0
FD
03
01
F3
ED
FE
ED
F6
FC
EE
F4
ED
03
20
E2
F6
F2
05
E6
E4
02
02
11
FD
14
03
E5
F6
FC
03
D2
E9
EE
05
DC
1B
1B
FA
14
04
1E
0A
07
06
02
03
F7
F5
03
04
F5
09
09
00
FC
FC
DF
1A
EE
06
04
F1
F6
0B
14
F4
FA
FC
FE
EA
FB
00
FF
12
10
FE
FD
E9
04
FC
D5
F9
03
11
F3
07
1E
07
FE
FE
EE
10
0A
F5
13
FC
EF
02
F0
10
01
03
01
0D
FA
11
F4
E2
FF
F2
08
0D
FA
01
01
09
02
F8
0D
F1
04
F1
0E
04
0F
07
FF
0A
02
E1
04
F0
0B
FF
00
0E
07
CE
0B
0A
EA
10
F4
F9
EF
06
0C
04
FD
07
15
F8
07
0C
F9
06
FB
D7
F1
C5
F2
06
FD
04
F9
12
FC
FD
0F
EA
01
F9
06
EE
06
FB
0A
02
FC
EC
09
FD
EF
F8
0B
09
F7
DF
10
FE
E9
FB
E2
02
D5
FD
02
FA
F0
17
0D
E3
FE
1B
06
0D
22
0E
FD
FC
00
23
0E
DD
2F
0C
1C
E9
12
13
13
0F
E1
0F
EE
04
1E
FD
DA
0D
27
0B
05
12
16
E6
DF
05
E1
FA
E2
EE
0C
0A
0A
FF
E6
EF
F7
09
F7
0C
FA
FD
FB
05
E7
D8
FC
F2
09
F2
FB
1A
DD
00
F7
F7
08
EB
F6
F2
F2
0F
0B
F7
F0
F1
FD
14
01
EB
03
F1
01
01
06
F1
01
01
FE
10
EC
07
F2
02
17
F4
FD
26
F3
0C
19
13
29
E9
D4
01
F8
02
F8
F4
EC
F7
0E
E5
DA
EE
FD
33
08
0C
E1
FF
18
F2
10
F3
FB
FA
F0
06
04
06
D6
F3
F4
0E
F2
1D
03
F9
FF
D9
15
03
F5
F9
FC
F7
0C
01
03
E9
F6
09
08
F4
F8
F1
EE
08
04
17
EB
EF
06
F5
E6
FC
06
01
0B
01
0C
FA
00
F4
E4
F1
04
06
FB
FB
FD
01
FF
14
FD
F0
0E
00
05
0C
F4
F4
0B
F9
F2
10
09
F3
05
13
F8
E5
F2
1B
0D
17
F1
FA
E2
FA
13
F5
DE
F3
0C
23
FB
04
F5
FC
0A
F4
0E
F0
03
0E
F4
F5
F2
FB
F2
E9
F5
09
EF
1B
EB
FD
F4
E8
1B
FF
EF
00
0C
FF
E3
09
05
FC
FC
02
E4
06
06
FD
0B
EF
FA
F2
08
06
19
04
0A
EB
ED
F6
F7
0A
00
FB
FB
F2
F3
0A
F2
0A
EF
FF
FD
F5
00
12
EA
11
F6
FB
0F
EE
0F
07
FF
F4
04
F8
0B
03
F9
F9
FC
02
FA
FC
F2
FC
07
E5
F5
12
EC
E2
F7
FC
EA
F6
FA
EF
25
0D
17
0B
04
0B
03
02
E2
DC
F0
13
DD
FE
FF
F3
13
F4
02
0E
05
12
EF
F6
F3
02
F6
1A
F7
FE
F8
01
02
08
F8
11
09
FC
0A
07
03
FA
05
04
F4
F4
04
07
00
F3
0A
0C
03
06
0D
0F
0C
11
FA
05
06
F3
02
00
F3
FA
F3
01
0A
FA
02
F1
01
FD
E9
0B
0C
E3
F1
15
F0
E8
E7
00
E5
03
01
FA
FC
E8
FC
27
DA
E7
FC
0A
F6
DA
E1
E6
17
FE
10
F7
E6
05
05
07
CD
E2
02
06
CF
0A
2A
FE
14
05
1D
13
0E
0C
03
FA
09
02
F6
00
FF
04
04
06
00
16
0E
02
02
F3
F8
01
FF
F3
03
13
0B
FF
0C
F9
01
F4
FD
FD
FB
02
06
FE
EC
10
14
09
F6
EC
FF
FD
08
ED
FA
FC
E8
08
F7
F3
E9
F1
03
F9
F3
F7
06
F2
F0
08
E5
ED
FE
F2
F6
F0
00
FB
11
0F
FB
04
08
FA
FB
EF
E7
E7
03
EF
04
01
ED
0D
EC
0F
F8
E8
EE
19
07
F7
11
EF
07
03
0D
0B
00
16
F5
E9
05
F7
F2
FF
22
FC
0C
EE
0C
04
1D
E3
08
EC
05
E7
04
11
02
E9
F6
FA
FB
FF
0F
FA
1D
E9
01
F8
0B
0D
05
0A
E8
ED
0A
F7
F7
FF
07
0B
14
F7
09
FF
06
17
EE
FE
05
F6
F4
FA
0D
07
FE
E4
08
F8
0A
F2
FF
F2
02
EE
13
19
DB
E7
D8
EE
F5
FA
ED
0B
11
F1
01
F0
E4
0D
0E
E7
F4
E3
F4
0E
F0
EC
02
F4
12
F7
13
FA
0D
08
EF
F0
E1
FD
FE
02
E3
0C
02
F2
F7
FF
EA
03
0C
12
FD
02
D7
F5
1A
04
0B
ED
02
04
15
0D
F0
1E
0B
07
01
F6
0F
0A
FA
05
06
FE
E6
15
06
0E
F9
08
FD
0F
FD
EE
23
F9
EE
FE
FB
EF
01
19
08
EB
11
06
EC
E8
F9
FA
02
EC
E2
0A
0D
E3
06
EF
FA
04
0B
F1
16
07
F2
01
05
09
0B
E6
E8
09
02
F9
FB
0C
FB
06
0F
F3
FC
04
F4
02
EA
EF
00
F7
FC
14
FA
05
06
0C
02
0C
EF
FC
F5
F6
06
FD
EE
DE
F2
F7
03
EE
0A
EF
12
E3
FF
FD
0B
06
06
00
F7
F6
01
04
F7
E7
09
16
F4
02
F3
08
E1
F6
F5
F2
06
04
0F
08
FD
FE
0F
12
02
DE
12
F6
10
03
EF
E1
F3
FC
F6
EA
2F
09
23
0A
F4
24
09
F3
FB
FC
D2
F8
1C
F3
19
1C
0B
3F
F1
D2
17
F9
EE
18
FD
F5
FB
F1
06
0B
F6
F3
F8
F6
07
FB
02
14
08
09
09
02
F9
EE
FC
DB
FE
F9
00
1D
05
EE
0D
F8
E7
F8
F0
03
04
F0
FB
05
03
F7
0B
0A
E4
FF
01
EB
00
06
21
F7
00
0E
0F
17
F8
01
EB
09
EA
0C
FF
20
E9
FF
0F
04
28
17
E8
09
01
17
FD
24
E4
D4
15
E6
DB
FD
1B
2D
19
1E
EC
17
25
F6
18
17
F1
D9
00
08
F7
10
F4
F9
E3
E6
F9
05
DC
FF
F6
D8
00
0A
04
04
02
03
0B
11
04
11
DC
FA
F3
E7
F8
F1
08
F8
0C
27
DF
01
04
EE
FA
D7
E8
DA
FA
F3
10
F9
EA
00
00
0A
F5
E4
FE
10
0B
F3
1F
EF
FF
0B
FD
2E
13
17
ED
F3
E4
05
FD
2F
E0
D3
FC
23
04
14
CD
1D
FD
19
F6
04
E3
D2
1D
F4
DA
EE
14
28
18
F5
F6
15
23
00
08
0E
F1
F6
EA
FA
F3
1D
E7
FA
E4
F9
EB
FD
EF
F8
E9
E6
15
F8
0B
0C
FD
06
0D
00
15
0B
F5
11
16
FB
09
FE
F4
F9
06
07
01
02
08
F1
FB
0B
0A
07
04
F8
FB
F2
06
11
FB
FD
04
FF
08
EB
07
F8
FF
FD
05
07
12
F3
F2
0F
EA
F6
04
F3
F4
F5
11
E8
FD
DF
0B
04
0F
F6
09
F0
02
DB
0E
FF
E5
F3
E6
FB
E4
0F
FA
0E
1B
EB
07
F8
DA
09
F2
E2
01
FC
F4
F2
F9
EE
07
02
1F
E9
18
E0
0E
04
EE
EC
28
FC
F5
09
17
04
0C
FC
13
F5
15
FC
FE
F1
F7
ED
F1
EB
F4
12
03
03
0C
26
1F
0E
F8
F4
FB
FC
FE
E5
FE
02
0B
0B
FF
FE
02
05
ED
11
FF
06
03
E0
03
F2
17
FE
F1
0C
0A
EF
00
13
E6
F6
03
02
06
0B
FE
04
F1
F5
0D
FE
05
F3
F5
00
ED
F7
02
12
05
F9
03
F0
ED
0C
16
13
F8
FA
F7
F9
06
F4
0B
07
FE
FF
FD
03
FD
FB
FF
F8
06
01
FD
EE
0F
08
F5
FB
0E
0A
0E
FB
F2
E6
07
FD
09
10
06
08
1D
06
16
F8
EF
DE
06
FD
F7
F2
F5
04
F5
19
0E
0A
07
F9
10
F6
14
F7
F7
F5
0C
FD
14
11
E9
06
FE
FA
F8
FD
05
E4
E8
11
0C
EF
F4
0A
06
F2
05
00
11
0C
0C
F6
F9
04
F7
F9
01
F4
FA
01
FB
F1
FB
F7
F7
0E
FB
FC
00
01
14
EB
04
FC
FC
F1
03
F9
02
05
F7
03
0D
08
F3
04
0A
04
05
FE
F4
EC
05
E6
F4
F2
F7
05
12
FF
F4
F7
E6
ED
FB
EF
02
07
F9
DF
02
F8
00
14
0F
F7
FD
F4
0B
F9
F8
FE
04
00
04
07
FA
03
F5
FD
F2
07
ED
09
00
07
FB
17
FA
FE
EC
16
EB
F2
F5
0A
02
03
05
00
EC
06
FC
05
11
FF
06
03
F5
FE
00
08
FF
F7
09
F4
F0
EE
04
01
F4
0B
FC
F6
EC
0B
E2
10
F7
DD
08
EF
08
F3
07
27
E5
08
F2
13
00
F2
15
FF
F0
F8
EF
13
18
FB
05
1D
10
04
12
11
02
16
F0
F2
0A
FA
F9
FC
FE
03
08
01
F6
0B
0A
FF
FB
18
F1
FA
0C
F5
12
13
2D
F8
0A
FB
07
03
0F
F1
F3
FE
1B
0B
1A
00
0A
F1
EE
E5
1C
06
0A
EC
F6
F0
FE
0D
10
0A
0C
F7
01
FF
F8
0F
FA
E5
EA
04
EF
EA
FC
F0
0D
0A
16
F7
2E
DE
F0
0F
FA
F8
DF
F8
F5
FD
E5
08
FD
05
0D
1E
EA
1C
0B
05
FB
F3
F5
DB
FF
F3
02
F1
02
04
03
EB
0B
17
FA
04
F6
F1
F7
FE
F5
11
F6
01
F0
18
FF
10
FD
04
12
F5
F5
12
0F
F1
05
00
F7
EE
0A
0F
04
D7
09
F1
03
09
07
BE
00
DE
FD
21
0E
05
0E
FC
FA
F9
F9
ED
F8
EF
E8
F8
F9
EB
01
11
04
25
01
FA
03
FB
06
21
F3
0C
03
F4
0C
12
0D
ED
0A
05
F7
1A
13
FF
0B
0E
07
10
0D
FB
04
E2
F9
E5
FB
01
02
01
03
F3
F4
06
07
F1
12
FC
0B
FC
F3
EF
FA
0A
09
08
F0
EF
0C
03
FD
01
04
06
0E
DE
E2
FF
F6
FF
00
F3
FE
F6
F2
FD
10
E6
12
11
F8
0A
F1
EE
0B
F9
E5
D9
F5
01
27
F6
F1
14
1E
1C
0D
21
ED
F3
09
F7
FA
E9
1D
1C
FF
D8
F2
2A
E9
24
F3
04
FB
EA
04
EB
FC
06
ED
0A
FC
19
F9
F9
F7
1D
F4
F6
13
09
05
0D
F4
06
11
02
04
19
0E
02
F6
E9
E5
E0
ED
06
07
FA
F1
F6
01
0C
02
F3
FB
17
0D
E4
0C
FD
E8
FC
02
FC
02
0F
07
F9
0A
0C
01
FA
FE
06
FD
F5
08
04
01
EB
FC
03
04
04
0D
F9
EF
F5
F8
08
04
08
0B
13
06
E5
0E
0E
02
00
02
F5
06
FF
00
FA
05
0E
F4
FA
09
09
F6
0C
0F
F3
F8
F4
FD
01
04
10
F9
26
01
00
F1
00
F0
F5
09
08
F0
F4
FC
16
FF
04
F1
FC
FF
F2
FD
08
04
F7
FA
FF
0C
FE
03
25
04
E4
0A
EA
FF
1E
17
F5
FF
1E
00
18
EC
F6
F0
06
E6
FA
F6
0D
D7
FD
E6
0C
06
1B
F8
0B
01
19
05
10
F3
F4
F3
10
03
F0
EE
02
FA
E0
F9
08
FD
F0
EC
F8
F3
F2
F6
F4
06
0F
08
FB
04
F4
EE
FF
FD
F4
FA
E2
10
F1
1A
F5
FD
12
F8
F6
F7
0E
C8
FE
F6
FB
0D
FB
FD
1B
11
FE
04
16
FA
F9
15
F5
F3
FA
E0
FC
16
FD
0E
0D
01
FF
22
E8
FE
22
02
05
D2
E9
F2
06
E1
00
12
FF
09
00
13
F5
FC
0B
1C
05
FF
1B
05
EF
0A
EA
F0
F1
F2
E9
0B
EF
F7
F7
E5
09
E2
0D
05
13
0D
F4
02
F7
FB
FA
12
E9
05
EB
07
F0
10
E2
EB
FC
06
F7
03
04
FE
EA
F3
FD
FD
00
09
FF
F9
01
EC
03
0C
0E
02
FB
F5
E3
ED
09
07
10
14
FC
2A
09
02
05
07
E3
F4
09
01
FA
F7
0B
DC
00
FF
0C
EF
16
12
FB
0E
01
FD
F4
0C
F0
00
17
04
F4
F4
FD
FA
05
FF
F3
FB
12
E5
FF
03
0B
FA
FA
00
FA
06
F8
01
0B
F8
F9
FB
EC
E8
0B
EE
01
F2
08
FD
F9
01
00
FB
F1
F6
12
03
D8
FA
06
F3
0A
1C
F3
09
FD
13
07
1B
FA
04
EF
09
04
03
00
E5
E1
10
05
FD
F9
03
00
09
01
03
F4
F3
00
EE
EF
F2
F3
F1
FB
FD
FA
02
01
04
02
EF
EC
0B
1B
ED
00
F7
0A
08
00
FF
03
12
0D
F0
FB
DA
02
0B
04
EF
06
09
05
E8
04
F8
18
05
10
04
07
E1
08
13
FC
F6
F9
0F
F8
ED
02
E8
10
03
05
01
08
FB
FF
F3
EF
05
0D
FE
FA
F1
00
EF
1E
F5
0D
15
E7
33
FB
DB
FC
06
1D
EB
21
07
24
E0
F7
E8
FC
08
FF
07
14
F6
FC
FA
19
07
00
1E
EB
F3
E9
FD
E7
FB
F8
1B
17
09
1B
12
F3
01
06
14
0F
E6
EA
D7
2A
FD
02
FF
FD
F9
EE
F3
02
07
05
FD
17
EA
12
02
01
0B
F4
08
F9
02
FA
14
0E
F8
07
D6
03
FD
FE
F0
11
0F
FC
0D
F2
EC
16
0C
F0
F2
E2
05
01
F9
ED
08
E2
FC
02
13
F1
06
0D
F2
09
D3
04
F1
02
E7
F8
F7
E1
26
1F
D5
00
F0
07
09
24
E4
E8
01
D4
20
FA
0A
0C
1B
00
24
26
04
F7
EE
03
BE
EB
F8
12
F6
F2
DC
26
27
FF
01
FC
16
EC
F4
0C
EB
F9
FD
FA
04
05
F8
EB
02
F9
FE
10
F2
16
09
E7
F9
EE
FA
0B
22
FC
1A
04
E7
F6
FF
E1
F3
0B
F6
FE
F0
18
F3
14
0E
0E
FD
1D
08
F8
0F
09
FA
0A
06
E4
0C
1C
FE
01
ED
F5
00
FF
F8
FF
0C
0C
0F
12
E4
F6
F3
13
F4
EE
ED
FB
14
F7
0E
09
02
09
FC
F4
FA
0A
04
F7
09
02
FA
05
F4
F6
05
0A
10
0D
11
0E
F6
00
F3
06
F2
00
0D
F1
F0
01
02
FD
F5
0E
08
F8
FB
F0
F2
0F
FA
FB
0A
F8
F6
FB
17
F5
13
F5
04
F5
06
EC
04
10
FC
05
FE
FA
F9
19
F0
0A
0B
03
F6
06
13
0D
04
FA
ED
0C
FB
FD
F8
F4
ED
FC
0A
FE
F9
ED
F0
09
0C
08
FE
01
02
01
FE
EA
07
FE
05
FA
09
F4
F7
FA
01
EE
FB
04
F2
05
05
01
03
05
F1
F8
F7
F5
09
F7
08
0C
02
04
FC
F2
F8
0A
F9
06
0F
FF
05
EE
07
06
0B
F7
FE
EC
07
F3
EB
04
F8
0A
F6
05
0F
03
01
EE
F3
F2
06
08
0C
F1
FB
F4
FD
0D
0D
0C
FD
F7
F8
02
0B
01
EF
F1
03
FD
E0
FB
03
FD
FC
FB
E7
08
FE
12
F3
0A
E8
09
FA
10
EF
F9
FF
11
04
09
0A
04
F3
08
05
EF
10
03
FD
EC
EA
09
06
FD
F1
FC
F6
F9
18
0E
FB
FA
16
04
08
0C
E4
08
FD
03
E5
F7
FE
FB
CC
00
05
FB
D8
0B
F9
04
FE
0C
FC
13
F4
0D
01
10
F7
F0
1C
02
11
F3
01
00
0B
00
F8
0F
E9
F6
FB
FD
FE
07
0D
0E
FD
FA
0F
04
06
19
F2
12
08
EA
11
F8
10
00
EE
09
F8
FB
EC
EE
00
03
BC
0E
EC
00
F8
1B
01
38
09
F1
0C
04
FB
05
1B
C7
CC
0C
AD
1B
19
FE
31
0C
FC
F3
12
E2
F9
60
FF
DA
DA
E3
CB
E4
E8
25
30
FF
2B
F1
E1
0C
FF
F0
FE
F8
0C
0C
07
0C
F6
0F
FD
0A
01
F0
F3
FD
11
0A
E7
0D
08
0B
FD
EB
FE
0D
06
06
F5
FB
EF
13
F8
F8
F2
07
EF
0B
01
0D
05
03
08
FE
F9
05
11
02
E8
F7
F4
F7
FA
E4
0C
03
10
04
F5
0E
FF
DA
F9
E0
F7
04
1D
EF
09
07
FB
0B
18
DC
15
08
EC
01
FA
06
E2
07
DD
15
F5
EC
02
F8
0F
08
17
FF
14
D1
F2
14
E9
F5
0F
F8
FA
FB
0B
09
04
F6
EB
F2
F4
FC
FE
0C
F8
FA
13
0A
01
FD
0A
FC
F1
EA
FC
F9
EE
06
10
00
F9
11
07
24
08
E8
F0
01
E3
09
F3
06
08
07
07
14
F2
07
FE
FD
EE
FD
FC
F9
F3
0B
06
13
E8
04
E4
09
F3
15
07
04
06
0E
05
09
FB
EF
14
E6
D9
F6
F8
19
15
F6
F9
09
FC
0A
E8
E9
F8
FC
01
0D
12
F2
02
FB
FE
1C
F5
02
FE
FC
F4
02
08
FE
03
0D
09
FA
F9
FE
01
10
0C
0E
FC
01
F2
03
10
EC
FA
FE
FC
FF
00
EC
FC
00
F9
01
07
0D
FC
00
EC
F7
F7
FC
04
FA
F4
F5
15
06
FF
0A
03
F9
00
01
F7
FD
09
F8
F6
07
02
04
C8
FA
12
1A
00
17
08
1D
06
0D
06
FC
10
07
0D
CA
D7
E7
E0
07
08
EF
16
12
E0
0D
FF
E4
05
1D
F7
E8
ED
FA
E2
04
F9
0F
18
1B
0B
F9
F2
03
F8
FA
FE
00
FA
FB
01
06
E6
FD
EE
F5
F8
FD
08
19
EB
03
F9
09
02
FF
F7
FF
18
FB
0B
0A
D5
F1
06
F8
F0
F3
FC
EA
FB
13
18
F9
08
08
15
08
ED
E6
F7
EF
F6
02
00
F6
03
F6
F8
03
1A
FA
F4
E9
F1
EC
F8
F9
0D
FC
EA
03
F4
F4
F8
FF
07
FD
0F
FC
05
FB
EC
F1
0C
E0
E9
F7
EE
E8
FC
0A
0A
ED
FD
FE
18
02
F0
04
09
F3
1C
F8
FC
F7
FB
EB
E8
F2
0E
0F
12
ED
08
E4
F7
FD
16
04
F4
10
0E
F4
EC
12
10
00
09
F9
F9
FD
EE
08
F5
FC
05
0F
04
F6
00
F8
F8
EA
0F
F3
0F
D9
14
20
D9
00
02
F0
F1
06
FB
18
F8
0D
F2
13
F9
10
0B
00
06
01
10
11
F5
16
F2
F3
E5
E7
E6
FA
F9
0E
FF
06
F2
02
1A
06
FA
F2
0A
F7
F5
1A
07
F7
08
03
07
1F
FF
05
0C
FB
05
06
05
F7
0E
E9
08
F3
20
01
11
12
FE
07
06
EC
DB
F4
35
EC
F2
06
F3
FF
FD
F5
01
0B
F0
03
1B
06
0A
F5
E7
06
08
05
15
E5
E5
02
01
04
EB
FA
05
D6
1E
F5
13
F5
F8
F1
17
05
FD
DF
0D
05
16
03
F8
F9
05
0B
10
F3
24
FE
04
FF
05
FF
04
F2
06
02
D6
F9
10
0D
F5
1D
0E
28
FA
F5
1A
D8
F1
F8
E6
F8
0B
EC
02
09
E8
07
FE
F0
FC
19
F9
EA
12
12
03
0A
08
07
00
18
FF
19
FD
F5
F1
07
11
07
FF
FC
00
0B
E0
F0
13
F0
1C
0C
ED
FD
1C
F7
F7
3A
12
FD
DE
EF
E3
0C
E4
F8
11
26
12
0D
F6
F2
F2
EE
F8
03
F2
FC
E9
FA
03
09
00
03
0A
16
03
FF
05
03
11
FF
16
D9
EB
F3
F6
14
F5
05
FD
23
EC
0D
FA
0B
04
08
FE
EC
FB
0E
FC
F6
F4
09
04
08
17
0D
09
0A
F0
E9
00
00
F6
E8
1E
FA
0A
03
08
FC
04
FD
03
05
0C
F2
0E
F3
F4
0B
0D
F3
0F
01
FB
F3
FC
FD
00
0E
FF
12
FA
FB
00
F9
0C
F9
FF
F4
08
DF
03
0F
E9
FA
FB
FC
F9
E9
FC
09
EF
E9
E9
FC
09
FB
07
F3
FE
0B
09
15
0A
04
05
F0
07
EE
E7
06
E8
00
05
02
F2
F9
F0
FF
07
00
02
09
F2
F4
FD
0B
EE
EE
FD
0E
0D
06
F3
F1
E6
F3
FF
DA
0B
06
02
F3
08
F8
01
04
F8
0C
08
0A
F5
FC
15
00
F9
FB
F6
EE
E2
D7
FB
0B
05
0B
0A
0A
06
14
FA
F7
FE
1E
FD
EB
F8
F7
FB
F8
F5
0D
FD
13
FA
09
F8
03
FD
FC
FB
F6
E1
00
17
FF
0F
E9
FC
E8
FD
FA
02
FD
0C
09
0D
F9
F9
24
0E
F1
10
F7
E7
F9
FD
0C
15
E2
06
21
F2
EB
05
06
F5
C9
05
F5
05
E6
DE
EC
F8
EB
FA
F0
03
F0
01
F7
EF
E3
EF
0C
02
00
F7
FF
ED
04
02
0E
00
02
FE
FC
FD
E0
EA
FE
FE
06
F6
08
FC
04
F9
01
FD
F9
F5
04
F3
0F
17
00
03
E4
1E
06
FF
0F
E6
00
06
F5
08
EC
FC
00
ED
F5
DB
04
03
F3
FC
F7
01
FA
08
0E
EE
02
04
01
0E
DA
D6
11
F5
F7
00
00
F0
02
FF
FB
08
0D
03
05
0A
E7
F7
06
F5
E9
06
EE
15
15
F5
F0
F9
04
08
F7
02
FB
F8
EC
FA
02
00
FF
05
00
EF
03
F6
02
02
F3
03
06
F8
E9
F3
EF
FD
F7
E9
FB
08
FA
F8
18
02
06
0B
FC
FD
F2
0C
02
09
FB
0D
05
06
0C
F9
F6
07
F6
0B
E6
07
FA
07
E7
CA
DB
05
14
03
04
07
12
14
10
ED
03
00
06
17
CE
DD
0D
F4
F1
0A
F3
01
09
EF
1E
00
E0
00
28
D7
E5
F8
03
F6
F5
03
21
1E
18
03
02
07
F6
00
09
16
11
16
F4
07
03
00
E8
02
F2
F6
F7
00
08
E9
02
00
FA
FA
FF
12
ED
15
EA
03
06
05
FE
02
00
FB
F1
FC
E5
07
07
F9
DA
16
02
E8
0D
D8
F7
DC
F5
FA
ED
02
0F
FC
0A
F8
FF
22
0E
EB
DD
01
B9
05
E6
F9
0B
F9
00
DE
0A
FE
10
0E
01
12
07
FD
FE
08
0F
1E
FD
FA
08
0B
DF
01
0C
0D
D5
14
04
FC
09
D5
DC
F0
F8
24
F7
06
1C
18
F4
10
14
0C
05
03
E0
FF
FC
FD
13
09
FF
F5
0C
00
09
FD
FB
05
E8
F9
F7
FF
F7
FC
07
F8
F8
0B
01
02
FA
FE
08
03
EA
02
00
03
FA
FD
0A
E3
F3
FE
01
08
0A
06
15
09
FF
03
08
02
EC
F6
0C
0B
01
F6
15
EB
FB
E7
F3
EB
EF
FC
FC
0D
F4
0B
F0
F7
00
13
12
01
EC
FB
FA
FB
0B
1A
EB
13
03
F9
21
E5
F5
E0
FF
DA
F6
09
19
FA
FF
04
12
29
02
E8
04
04
FC
F0
E5
D8
EB
06
D7
F2
08
FF
27
1D
20
01
F7
08
F7
0B
F8
27
06
C7
09
F8
E8
0D
FD
F3
EB
02
28
FD
00
D2
D5
0E
03
E9
F4
F0
E3
F3
FD
F7
F6
07
F3
EC
13
04
F9
FC
F5
E7
0A
05
F0
03
F2
02
F8
EE
E3
F9
0D
F0
FE
F8
05
03
0C
EC
05
F4
F4
F8
F8
0D
FE
09
03
FF
0C
E8
00
E6
FC
FB
FF
04
34
F6
E0
22
21
CC
05
05
16
01
F6
06
11
12
FA
E4
07
E6
FC
10
FE
F7
01
CC
09
1A
F0
FC
09
BD
12
03
D2
F6
29
E5
D0
FA
07
D9
22
01
F7
1E
14
0F
FB
EA
05
F7
EB
F6
0B
E6
F8
0A
FB
0E
02
0A
FE
09
0A
04
07
09
04
18
05
F6
FA
DE
07
F6
03
F7
FF
E5
F6
F8
08
01
13
08
09
04
E3
F8
04
F5
FD
03
0B
0C
13
FE
FB
F7
ED
0B
DE
12
F0
03
F3
0A
F1
F1
02
09
09
F8
FB
0A
1B
0C
EF
FF
EA
05
03
ED
E2
08
F6
F7
FA
02
FB
F5
0F
F4
FC
FB
EF
07
F2
0E
0C
0A
EF
0C
FA
03
06
F5
F4
0D
F2
F4
F5
01
04
EC
F6
E8
FA
15
08
F4
FB
F9
08
1E
0E
F6
02
FA
F2
F4
EC
DF
06
03
EF
07
F2
EE
13
EE
F8
12
EC
F7
1B
0E
F1
0D
F4
0E
EE
18
07
13
28
E7
01
E8
09
0A
EB
03
14
FC
F6
F6
F4
F8
01
FC
F7
F0
F7
11
06
03
EC
F3
04
0C
F1
E3
FA
E4
00
F7
0A
EB
EE
1B
0C
F9
F6
02
F7
02
0C
0C
02
FC
01
FF
14
FB
04
02
FB
F0
02
05
F7
F0
18
F8
FC
20
1C
E5
FF
F7
05
F6
FA
EB
F5
F2
FC
F5
FB
E4
18
12
E7
18
FC
F5
FE
F4
0C
17
F4
06
11
FE
D0
07
20
08
EB
0F
FF
FF
08
D4
D9
03
03
FE
FF
F7
F0
FD
02
01
F4
F7
FD
FF
FE
F2
FE
06
0C
FA
1A
03
01
0B
F7
03
F4
F2
FA
02
FB
07
00
03
07
FD
08
F4
EC
FC
12
00
FB
13
FD
F9
F9
02
FA
06
0A
01
EC
0D
0A
F2
F0
0A
04
F4
F1
FF
0E
07
03
FD
08
FA
FC
1B
09
05
03
05
01
02
FA
E8
00
FE
F9
FE
00
09
02
FB
0D
01
08
F6
FE
0F
EC
05
10
00
F2
F6
EC
0B
00
F6
06
F7
F1
03
F7
F1
06
FD
F7
F7
01
02
00
02
07
FB
EC
05
04
FB
03
06
00
FB
08
F1
17
EE
03
EE
FC
DE
F7
01
06
01
13
F8
EF
00
F4
FB
14
F6
04
0E
F8
13
FE
1B
03
03
F7
05
04
EC
F4
F2
F6
D2
0C
FA
0B
0C
07
00
0C
0D
0E
F8
1C
1E
0B
FB
FC
F0
06
EC
07
FC
F1
E8
04
EA
08
FD
0D
FE
0D
E1
F7
0B
0A
E8
03
0E
C5
0A
17
10
00
02
FD
FE
01
FA
17
F6
F9
FB
FB
01
00
06
DC
FA
07
02
06
07
0A
FC
04
EB
01
F5
E2
FA
F1
E7
06
0A
05
14
12
08
0D
04
EE
19
00
F8
FC
F8
00
F2
19
E6
03
F2
F6
EA
04
FD
E2
F8
16
E7
F2
09
11
01
F8
09
E4
FF
DF
FC
03
13
FD
FC
FB
EA
18
01
CE
0F
00
E4
F2
08
FE
37
11
E3
1C
F3
CD
10
01
09
FF
FC
F4
E7
1E
E0
DC
05
04
11
08
00
07
00
F9
06
09
06
10
24
F6
FB
F2
05
06
0A
EE
05
0F
0E
EB
02
03
FE
F1
F6
05
F4
F0
F9
E4
F2
FD
23
09
04
FD
0E
04
F3
03
EC
08
01
FF
01
04
EA
07
F7
FA
F5
F6
0E
1A
02
05
F2
03
09
FE
FA
F5
F9
F7
0F
14
E7
0A
F3
06
ED
E4
F5
EE
FE
F4
01
0A
ED
01
11
11
F3
01
F3
E2
08
01
0C
06
05
04
03
16
F0
08
F1
F4
ED
EE
F2
13
DD
EF
F5
1E
FF
11
FE
18
F4
13
07
17
14
E8
0D
F8
F7
F6
07
2B
08
30
FA
10
FA
FF
23
1C
08
F4
18
19
FF
E7
16
F7
DC
00
E2
02
EF
15
FD
EE
0C
05
E1
F6
FD
FF
F5
FA
07
0B
00
F7
E4
17
00
09
06
F7
F2
0F
F3
F6
EF
00
F9
F1
0C
E7
F9
F5
FC
FB
FC
01
08
17
F2
E3
03
02
FF
0F
1B
EE
00
FF
FD
0D
F5
FF
04
05
09
FD
0B
EF
FF
FA
F9
ED
D0
0B
12
FD
FC
FF
00
02
08
F8
EA
07
F3
03
F2
F8
EF
11
DF
EF
05
07
FE
F9
FA
ED
12
03
02
0E
EF
EA
EE
01
ED
F7
0E
EB
0D
FB
F3
FD
ED
FD
F8
FF
E3
F4
00
F5
FE
00
F6
FD
FF
03
F5
02
F3
F7
0D
FD
13
F8
F8
00
F9
08
FA
11
FE
F7
F2
E9
00
F4
FC
03
0A
FB
FB
EF
F3
0B
ED
EB
02
05
11
01
0D
09
F2
06
FB
F7
F1
FD
EB
ED
06
0B
06
07
F5
00
08
EF
06
EB
F7
09
FF
04
FB
0C
FC
18
F8
FF
DD
F1
E2
FF
0A
F7
FE
2A
F5
FA
FA
EE
F4
1D
EE
F6
0E
F0
04
F4
13
F1
0F
04
F3
FC
F5
09
00
01
F8
F8
08
F2
02
E6
0B
FC
00
11
F9
07
0E
00
FB
F9
FD
01
E2
05
FB
FC
F1
F0
F4
06
12
12
F5
06
F0
06
08
19
F1
0F
0F
08
05
06
0B
05
FF
00
03
EA
04
F2
E3
E4
F6
F7
0F
0F
F9
02
F2
05
F4
0E
21
EF
15
EF
EC
04
EE
FE
0B
09
E7
06
FE
11
FE
16
F5
07
EE
07
05
DE
FE
08
01
E3
19
F9
03
12
F5
FE
F6
06
F8
EC
FB
04
05
F3
1C
16
F7
F6
06
FC
F3
F5
E8
F6
F8
05
F7
EF
F5
FF
17
F6
03
FB
EC
F2
09
E8
0E
F4
F6
0D
FF
D4
10
1C
FF
00
F8
F9
FE
0C
D5
D5
02
00
03
FA
FA
09
04
E8
F5
09
08
F8
FF
03
F6
0B
FD
0D
0C
0B
10
FA
09
EE
EF
01
F9
F6
07
06
F8
06
F2
F7
ED
F8
F7
09
F8
1C
0E
EC
0D
FE
0A
F7
08
F4
10
07
F5
EB
02
01
07
FB
08
F7
12
07
06
00
FB
0A
02
FF
08
0C
F4
F3
05
04
00
01
05
FE
00
FA
F5
F6
07
F3
FD
0D
F3
08
08
0A
FB
04
F7
08
ED
F9
01
07
F8
03
F9
FC
0D
F1
F8
F6
FF
EF
00
12
F9
FC
04
F0
01
F9
F8
FD
07
F5
07
04
06
F8
F3
01
F9
02
FC
FA
13
FD
08
F8
F8
F9
16
12
F8
00
04
F3
03
01
0F
F6
12
F7
00
10
F3
F6
00
00
03
FF
FB
08
F4
F3
0E
0C
F4
02
E8
01
EE
0D
07
11
E4
F9
EB
04
0B
FB
04
FF
FD
0A
EB
08
FB
0A
06
F1
DE
EC
0B
02
F4
0D
0A
10
F1
FC
EC
02
E9
EC
FF
E9
09
EE
EF
F7
02
17
F8
F4
FF
08
F5
FF
FD
F5
EE
F5
F6
EB
08
FA
FB
F2
F9
FE
F3
0C
02
E9
E3
FA
08
FC
F1
09
FC
F3
F5
F6
F0
12
04
DF
F0
F5
E0
FA
09
F4
0A
FC
F8
EB
07
EC
F6
03
03
DF
F8
FC
0F
F5
02
FF
09
06
F1
F4
16
F5
FB
E9
EB
F5
FD
22
12
FF
F8
F9
18
F0
F2
17
FC
F8
E3
03
FB
01
F9
FF
FE
F7
01
F1
0A
E2
04
0B
E6
FB
F4
EA
06
00
F6
07
0A
08
F7
07
F2
00
F2
07
04
06
F5
FD
02
12
02
F2
F8
F7
F7
E1
E9
F1
0A
F6
0C
FA
0E
FC
0B
F8
F6
1B
13
F8
06
F7
EC
06
E6
15
FD
00
F3
ED
06
FF
08
1F
F3
03
03
17
FD
03
0B
0A
FE
E6
FF
F8
02
15
04
FF
F1
F2
00
F9
FD
F8
F3
FA
F9
00
F8
04
F7
04
F6
F2
F5
F7
10
F0
0E
F3
EE
0E
0D
0C
FB
FC
F9
05
FA
EF
FE
EA
F6
F0
EE
E0
0A
01
05
F4
0B
F3
05
EA
07
FE
02
E5
FB
FF
01
08
09
06
1A
17
F6
05
F2
07
03
FE
05
0F
0E
00
ED
11
03
06
10
F0
05
EB
00
06
01
F2
E2
F9
01
EC
EE
F4
DA
01
11
11
08
FC
05
07
FD
FF
FF
F8
06
04
0B
F6
F4
FC
FC
F8
FA
0A
EB
F5
F7
09
FB
FA
01
0F
F1
F8
17
EE
F7
07
FB
F2
F3
01
03
06
F0
00
FE
F3
F3
F4
0A
0F
03
04
ED
F9
09
02
08
09
FA
03
10
08
F9
09
02
FE
05
ED
E7
0A
F6
F3
FF
02
12
01
03
08
FA
F2
FB
06
05
FA
FA
F2
F8
08
FA
14
0E
00
FD
F4
F9
07
FC
F7
F7
1A
08
08
0A
09
03
1F
F7
F4
04
F4
0B
01
F6
0D
FB
F0
08
04
07
10
F4
08
06
F9
F2
EF
08
01
13
05
0A
FD
05
06
FE
FF
F4
05
FF
05
01
FA
0A
F4
F5
FC
09
EB
F4
E1
F5
EE
16
15
E9
0B
02
23
FB
02
EB
00
16
E6
0E
F3
FB
0E
02
E7
04
15
FF
F5
FE
0A
E7
FA
DA
FD
EF
0D
F0
F7
14
FC
13
DF
04
EE
18
07
10
F1
01
FD
F2
09
FE
0C
1A
01
FB
F3
02
04
02
FE
04
06
F7
DE
FF
01
EA
00
FA
0A
00
E7
EE
03
0B
00
0B
F7
0C
EB
0A
01
FD
08
0C
FD
F2
04
05
18
EB
0C
F7
E0
00
F3
09
0A
05
F5
0C
06
F6
11
0C
F1
14
EB
FE
EB
06
F0
15
08
11
0D
F2
F8
F9
FE
F9
1A
0A
F6
14
F5
EF
09
F7
06
F3
F9
F4
0C
FC
00
0C
05
06
0C
14
06
0A
11
07
FD
04
FE
F9
DF
08
DC
C6
07
16
09
0A
F9
F3
F8
02
E6
FE
FE
14
EE
F6
FC
EA
09
12
F5
14
FD
F6
F6
F4
08
07
FB
ED
06
F2
02
FC
E6
07
07
11
D3
15
E0
05
FB
FE
F3
06
05
F0
05
FC
EE
F3
09
0B
E5
15
06
F2
06
FA
0E
FF
F0
FF
FE
FE
FF
02
FB
EC
08
01
06
F8
FF
F5
08
FD
F6
12
0A
F8
01
FB
F4
04
0A
FE
F2
F5
F0
01
0A
15
06
04
F7
F8
FB
0D
F9
09
F9
F9
E5
0B
0E
0C
02
07
F7
F6
FC
0B
F0
00
F9
F8
F4
04
F3
0A
09
F3
F3
F8
0C
FE
FD
F3
0D
F0
10
01
EE
F8
21
00
01
FD
FE
03
05
0A
0A
EB
F6
F9
E6
E8
F6
F7
05
14
F6
FB
FC
06
06
FE
FC
07
02
F0
F2
FB
07
FD
09
02
F5
19
00
15
0B
F9
0D
09
07
E6
F6
07
06
F8
0A
12
EB
26
EF
08
12
FB
03
FB
05
F5
FF
05
14
EE
FC
19
13
F5
1B
EB
0E
FA
E9
04
11
EC
E3
04
1F
1E
FF
26
FB
11
10
E7
F4
FA
F4
05
F2
01
0B
07
FE
F8
FF
10
02
D5
02
D9
20
D0
12
F4
E9
F8
F1
F4
FA
F0
22
FE
03
FA
09
D5
0D
08
F5
02
F5
FD
14
1D
FD
F7
2E
07
EE
10
E7
E7
F2
D6
FA
F9
F2
F6
F8
FC
05
16
F5
00
0F
30
DF
FB
F6
E1
0E
F0
03
FD
0B
0E
F7
F4
05
F3
20
F0
FF
F0
11
ED
13
F7
DB
F4
FD
F2
0D
18
FE
F6
3E
0A
F1
FC
E7
FD
F8
E4
EF
01
F6
E6
08
F9
F9
1E
F5
01
F6
15
F6
E0
D1
FC
FB
EF
01
FC
03
F5
04
12
F7
F3
F4
F3
F5
F4
00
E9
04
06
E2
05
EF
F8
21
20
EE
E6
3B
0A
04
1A
DC
EC
03
E7
EB
EE
0C
14
EC
05
0A
1B
01
04
14
25
F5
F2
D3
E7
E8
D4
16
FD
16
E1
FC
F8
0A
F7
15
F5
F2
04
20
FD
09
F4
02
0A
02
05
05
03
FD
FE
13
0A
EF
FF
0C
02
ED
FA
FE
06
00
F6
FF
FD
FF
02
FD
02
FA
0E
E0
EC
F8
E9
15
EA
0D
00
F5
0C
FB
F8
F6
03
FB
11
E6
FA
01
05
0B
FA
05
F4
F8
FC
E8
E9
0C
06
EB
FC
07
04
03
0F
F6
0D
03
11
FC
04
05
F8
08
F8
F1
08
11
F9
01
0D
FE
0E
F3
0F
F5
05
08
03
F9
02
F0
EF
F9
FB
DC
E9
F8
0E
FC
13
FC
F1
E9
02
06
19
02
FD
11
0A
F3
F1
05
F9
07
F5
F9
ED
EF
E9
00
F0
0D
00
19
05
00
07
E0
F6
FA
F7
E9
0F
ED
0F
1C
FA
F1
FE
EE
09
12
01
05
0D
F7
FA
ED
00
06
F3
0D
FF
04
FB
F9
0E
FF
06
FB
01
F3
0B
FB
08
F4
00
05
0B
FB
06
0C
FF
EF
F4
12
05
05
05
FB
11
05
F9
01
FB
FB
12
02
10
F3
FE
E5
E8
F4
F3
F8
01
01
F4
19
F8
EA
F7
0E
04
FC
10
21
F5
10
13
11
13
05
F3
0D
FF
0C
04
FC
FE
1B
01
F7
F8
F8
06
05
FB
F2
E5
05
F0
0E
FA
05
0D
06
F0
00
F2
E8
05
DE
E8
E5
11
F1
0E
07
FD
F1
08
FB
FE
00
0F
F6
FB
0A
FD
08
11
FA
15
0E
F9
00
F4
03
12
FA
DF
10
00
FD
EB
0E
03
12
08
DF
11
DB
10
09
10
01
E4
05
F1
01
FF
F5
06
19
0E
F5
F0
0D
F6
12
F0
F6
F6
F6
0E
EE
EC
F7
15
FF
17
0D
11
13
21
06
FC
02
00
FE
F3
F6
05
0E
06
06
F1
F3
0F
1C
EF
28
FF
EA
23
F4
01
03
F4
F6
F8
0D
06
EA
05
F2
FC
FC
0A
F3
04
FB
01
FF
01
20
04
F4
F9
F3
FD
E8
0A
F3
FC
05
05
F6
FE
1A
FD
F4
06
ED
FC
0A
FA
F0
00
0B
EA
03
F8
F6
F0
06
05
06
04
FE
ED
B2
B7
0A
0E
10
13
EF
02
ED
01
01
12
F5
01
0A
01
03
02
18
0D
EF
FF
04
F3
FF
02
17
E1
F7
05
10
F6
16
FE
F1
00
FB
0F
E4
0F
DE
2B
19
FB
F3
F7
EE
01
EE
F6
F8
F4
D0
07
F3
03
0E
F0
05
01
08
00
01
F9
02
10
EC
FA
07
EE
00
0E
04
F3
0A
FC
10
F4
F1
0E
09
F9
0A
0C
03
03
F7
05
F4
1B
F6
FE
0F
EC
FE
09
FA
F2
1B
FC
FF
1D
EA
EF
FC
F9
F7
F5
FF
F5
18
F8
F4
0A
FD
02
F8
02
F9
FD
E9
F6
09
11
F1
17
F1
DF
13
02
F9
FE
1D
00
EB
01
11
00
1B
F6
0A
0B
09
EF
02
F9
03
0A
EE
03
FB
FC
F0
0E
F9
F9
0C
FD
FF
FC
FD
F0
FB
09
EB
FB
EE
FF
03
05
03
09
FC
02
FF
07
1D
F6
08
F7
FD
F5
09
0C
F1
07
0F
0F
EF
04
F9
0B
0B
F8
FA
FE
0D
F9
0A
F7
DD
FA
FD
D8
F2
FE
09
08
20
01
1B
02
04
0A
0D
27
FA
FF
0A
03
00
EF
09
06
03
F0
11
FA
F7
13
F7
04
2D
08
FE
0B
FB
EE
F8
F5
07
20
15
0C
06
0A
F7
FE
E6
F7
00
F1
F3
FA
03
05
FD
F0
F5
F1
F8
0E
F2
EC
07
08
05
FB
09
F3
EF
FD
F3
02
F3
F3
0A
FC
F7
11
07
00
FC
04
00
FB
E9
FC
05
0C
FC
05
F6
04
F7
F0
FA
FC
05
F1
02
F3
02
0A
13
F9
FC
F2
E5
F3
EA
02
FC
F1
FE
01
0B
FE
0F
11
04
0D
00
F8
09
00
F4
13
06
F6
12
F3
D8
0B
15
F9
FB
01
04
16
FD
D6
FD
09
EE
0B
04
FD
10
FE
FC
10
05
F9
FC
08
DA
0B
D4
F1
E4
F8
09
00
01
08
F8
FA
0C
F8
F8
FE
FA
EF
FA
0A
E1
1D
EE
EF
11
02
E4
03
EE
F1
00
FF
0C
F7
F8
FE
F3
14
FB
00
F6
F2
EA
00
E5
00
D2
FF
FA
04
EA
02
0A
F0
F4
F3
FD
16
F3
F3
04
F8
FE
F1
F6
06
01
EA
FC
04
09
07
FB
00
01
F4
02
F2
EE
EC
FC
19
F5
FC
11
0C
FF
F9
EE
0C
01
F5
EC
F1
FF
F7
FA
FE
FE
F8
11
F0
20
0B
1D
F0
FA
1D
07
F6
FC
F8
ED
EB
FB
F7
12
EB
00
1E
FC
12
FD
0A
0D
F1
0D
07
FA
FA
14
FB
EB
E1
FD
0E
FD
10
0C
09
F3
F3
FB
02
0E
12
03
02
DD
FB
EB
0C
FA
00
F5
ED
E5
1C
FE
0A
FC
F9
00
E9
E8
E9
07
D5
01
FB
01
0C
E7
0A
19
0B
FB
1C
E1
E6
05
04
11
DB
FD
05
04
0A
00
FB
0F
F0
F7
DA
F5
CE
F9
E4
18
0A
06
F7
05
F5
3B
2B
17
EC
16
0D
04
EC
F5
F7
1C
F5
1F
FC
0D
E7
11
04
15
19
01
F2
F1
00
F0
13
F4
02
FC
FD
05
04
25
02
FD
F8
FE
03
19
1D
0E
14
06
E4
E1
F1
EB
04
FF
04
0C
EF
FD
FF
06
FF
F3
0D
07
F2
03
D5
E8
EF
FD
0B
F7
02
D1
0E
FF
FF
10
0F
D5
FC
14
EA
F8
D4
F0
0D
F8
FB
0D
01
F7
F1
04
08
F5
F1
ED
FA
02
00
11
F3
02
FB
F9
F1
F5
00
EC
03
F9
F6
17
04
EE
0B
FE
F2
02
0B
FF
0A
18
02
0C
FB
F7
FF
08
08
FD
FD
FF
F7
F7
FF
FF
FC
07
03
F3
FD
07
F4
F8
FC
F2
0A
EE
0D
FB
FE
02
0C
11
02
FF
06
FE
09
03
FA
10
F1
F9
FA
FE
02
00
FE
01
F1
F8
0D
09
07
16
FB
05
FD
FF
00
0B
F2
F7
02
03
FC
05
0C
08
FB
FC
0A
D5
D9
E5
03
E5
19
F6
09
0F
F3
F4
15
16
06
E2
04
F4
05
F5
FF
E8
13
05
0C
FF
07
29
E8
FC
F1
F1
F4
21
F6
EC
05
EA
16
E3
09
0D
08
00
12
05
01
06
08
F4
14
0F
F9
F1
17
EF
14
11
0A
00
F2
F0
09
09
1F
F2
DF
F1
E0
24
01
F1
14
09
EE
0C
06
F8
21
07
DB
12
FC
D1
13
D6
FE
F8
16
12
EF
0D
C7
E9
02
01
F9
02
04
E2
05
EE
F0
E6
F6
E7
05
01
FB
0C
F0
F5
00
20
11
EB
11
F0
FF
F2
FB
05
FF
01
01
F7
0B
08
FD
19
01
0E
FD
0F
FE
F4
05
00
FE
EB
18
FD
12
16
FC
F3
EE
FD
F8
02
FB
00
F3
FD
20
04
E2
06
F0
0D
07
0C
F5
E7
0D
04
06
EF
0A
FA
08
E5
09
08
E8
F5
19
03
F5
FC
FB
17
FA
FC
10
0A
07
FC
EE
04
F4
07
06
F6
FE
06
EA
07
02
F3
F6
F4
D8
ED
0F
FB
0D
10
FF
0D
0B
09
F6
09
23
FA
1C
FB
0A
01
FA
FB
F2
18
FA
04
01
04
E8
0A
06
1A
F1
19
FF
F1
FB
FC
F3
F1
FC
F9
08
05
FB
F7
06
F5
F5
0B
FD
14
0F
0D
D8
D4
09
F5
04
0D
00
06
08
13
EF
1D
EC
06
FD
10
F8
08
F7
DA
0A
09
EB
FB
0D
D8
14
F3
F3
0C
FA
F8
FC
11
F0
1C
1C
F8
10
08
0E
01
FB
05
FA
DA
06
07
FB
E6
FB
08
F5
08
F4
0F
F4
F9
FD
08
02
FE
0D
01
00
04
0D
F7
07
09
FF
07
01
05
FE
05
FF
0C
F8
FA
FB
1A
FE
0C
10
EE
EA
FD
EA
FF
F1
F1
01
07
F4
EE
02
00
FF
F0
13
11
ED
06
07
13
00
F3
E7
FD
09
EB
09
02
F4
11
09
F3
1D
15
EA
F6
07
0F
FE
01
00
09
02
EE
00
0A
07
F8
14
F6
FE
FA
EC
F4
FE
FD
E3
00
F5
EC
EE
02
F4
F6
07
0F
EF
FA
F8
F4
F1
EC
D7
E5
0A
03
03
02
ED
19
15
12
09
04
ED
F5
03
EB
2B
D8
ED
1A
0B
DF
F6
25
EE
FB
05
EB
E8
01
E1
C9
10
F9
04
F1
FD
D6
F9
EB
D9
DB
06
08
F9
FE
FC
0A
F9
EF
08
05
0D
F6
0B
07
06
0D
02
0C
18
07
07
F4
FB
14
FE
F6
07
18
F8
FB
02
0B
04
FC
1A
D9
17
00
02
FD
F2
EE
FF
F2
F2
07
FF
06
F4
FF
FC
0A
0F
00
FA
00
FD
F8
01
F4
F8
FF
0B
F1
06
F4
0D
1B
FA
EF
F1
F5
F2
F6
10
F8
15
0D
F9
15
04
E5
FF
13
E0
0C
1F
04
1D
F3
1C
02
F3
FA
FB
F0
FD
EB
E3
EA
EE
FC
0E
02
00
03
F0
ED
04
0A
0B
DE
FA
ED
F3
F5
E7
E6
14
04
0D
0E
FA
08
05
FD
F8
03
F4
03
0B
EF
F8
F0
14
BF
F6
09
19
0F
01
F1
10
FB
F4
26
FD
1D
21
15
D9
02
F8
E5
F3
FE
F8
08
18
EE
DC
2D
13
03
E7
08
0F
26
E0
E1
FF
FE
FD
E8
0C
F9
30
05
EE
F5
F7
13
EE
0C
EA
21
06
F1
04
FE
FC
F2
FB
09
F4
10
05
EC
02
06
15
FF
EA
F9
0B
01
04
13
FE
EB
13
07
09
FD
FA
16
18
F4
FA
15
E2
F1
0B
F0
1E
F8
1A
0F
FD
E1
06
03
E8
00
F5
F5
F5
0B
F6
EC
00
09
F9
F4
05
F2
00
F3
EE
D8
04
0B
11
11
FB
02
04
13
05
F1
10
FB
0B
F8
F5
FD
F9
EF
06
06
F7
03
0D
12
F1
F8
FD
FE
F6
04
12
F9
01
04
F2
E6
01
0C
13
02
09
00
08
01
F4
01
0E
FB
0B
08
E6
EE
04
08
00
FF
EF
FC
09
0A
F2
0D
F7
03
05
01
F7
F6
FE
E6
0A
F4
00
F4
FF
F4
04
FA
02
05
FD
00
FB
02
14
02
09
00
11
F9
F6
FE
0C
F1
09
DE
FE
EB
DB
E4
02
EF
16
06
FD
07
F0
06
0D
06
FD
F7
F5
EF
00
F7
F1
16
09
FB
0D
00
E7
15
ED
E2
FA
EF
F8
16
F0
F1
0E
07
0C
DE
1C
E9
2C
21
13
F1
08
FF
F2
F5
06
0D
F2
F0
FD
0D
04
F3
00
F5
07
E9
01
08
12
EF
FA
F0
F1
09
FC
10
19
EE
E6
05
FA
16
05
F8
E7
F7
F5
DF
0A
0F
FF
EA
27
F3
00
05
EB
F2
D3
F9
0D
F6
EF
EE
14
F1
DA
FC
0D
FC
1E
0B
FB
F6
F5
F6
16
0B
0D
E4
06
F6
E5
EB
F6
FD
13
01
04
09
FF
1B
EC
F9
E5
F5
F8
16
08
E0
06
F3
19
ED
02
EA
1F
1A
ED
EF
F7
EF
04
E6
F7
EC
E2
EB
27
FD
01
0D
06
01
F2
FE
F9
F7
1D
FC
0C
F1
F2
0A
11
FA
20
19
ED
04
0A
13
FE
FE
E7
1E
07
EA
0C
F9
FB
F5
1D
E5
F7
F9
FB
FB
F8
09
0C
F6
03
0D
FE
04
09
08
E5
E4
07
11
F3
0F
01
0B
FD
08
0D
09
EF
00
07
F4
F5
FB
F0
00
0B
F0
0E
F8
FE
FD
FA
EC
F9
0C
05
F8
F0
12
F4
0D
FC
FF
0D
F7
13
F8
11
08
FB
FF
02
0A
0A
FF
E9
E3
FD
F2
FE
D9
06
1B
07
0D
ED
0C
00
01
08
F2
F5
0E
FB
E1
0D
FC
0B
F2
0A
20
0A
FA
00
10
F5
04
FF
14
EE
0C
EF
03
FA
02
10
01
0B
00
F9
CC
09
06
FC
EF
0A
F3
FD
17
F2
FF
F0
08
E6
0D
FE
F0
00
03
FA
FE
F9
FC
09
07
F1
EF
10
07
0C
0C
FC
00
06
10
F1
FF
12
0B
FE
EE
00
F2
17
08
F8
01
F1
FA
EF
DD
F0
FE
F3
E1
11
03
09
1B
F2
1A
03
01
F0
F1
2F
F6
0C
FC
F4
0D
03
F4
FF
12
DE
02
16
16
FB
01
00
15
05
FC
10
FC
ED
0F
FE
F4
F2
FD
09
03
0B
F9
FC
EF
F3
DF
FD
E1
D0
CE
0B
08
0A
E8
00
FF
F5
FD
F8
E5
EA
06
0B
F4
00
1F
13
05
0E
0E
F2
F4
F7
02
1A
D8
17
20
F8
E6
09
1A
EA
F8
0A
C7
FB
FE
03
F7
01
EF
05
F1
F9
CE
0A
E6
DE
E6
01
F9
0D
10
F3
0A
FA
08
03
F7
15
F8
1A
03
FF
F2
F6
F8
09
11
05
07
02
16
F1
F7
F2
08
EF
0B
EC
F3
FC
07
01
ED
FE
F5
1A
10
07
FF
07
03
0A
0A
F7
15
2A
2A
EE
01
DE
E3
F5
E8
02
C2
05
EC
C2
0A
C1
F4
EF
27
08
20
EE
EC
F9
09
E0
CC
2E
E0
0E
F7
0D
D3
F6
0E
F4
1F
E8
36
11
F9
EE
B6
1F
F4
FA
03
04
DC
03
CA
B7
D6
FD
14
07
0F
F5
01
F9
F7
10
0E
01
F5
F8
01
03
EB
EB
E9
18
0B
0B
06
F2
14
FE
E8
F9
EF
F6
18
EC
F9
10
EE
1A
9F
13
18
19
28
01
F6
01
F0
08
04
16
18
16
0F
E9
F3
F1
F5
FD
01
FB
F7
F8
FF
D2
0C
D9
05
0D
08
11
04
05
F6
0F
F5
FD
E1
0A
FE
00
F2
0C
F4
EE
20
00
FB
F8
23
00
14
FD
F6
12
FD
F8
F6
FF
E4
01
F6
E2
E2
20
20
01
F6
FD
16
F1
1B
FE
F0
22
EB
F3
EF
F8
ED
F4
1E
19
1D
01
F3
01
29
F3
DA
F6
05
F0
10
F9
F6
09
E7
1C
C6
F7
19
FD
F1
0F
05
0B
FC
F8
F3
F7
FC
02
F7
04
F0
12
F6
03
09
F8
FA
FF
F7
02
F0
FC
FC
F1
05
F7
F6
F8
F6
FD
F6
FF
02
FB
04
02
02
07
FE
EA
F6
0C
13
FE
FE
02
0A
1C
08
FF
05
05
03
04
FE
02
16
19
07
06
05
00
F0
08
D5
F2
E4
FB
02
D6
0E
E6
F5
FE
11
0E
13
0A
F3
07
F3
00
E3
10
0E
18
FF
FD
E1
0D
05
F7
0C
FE
23
F8
FE
E7
E6
0A
FF
1E
F7
FA
EE
06
05
F0
F4
DE
E1
15
0E
0C
F8
F6
FE
14
12
0C
0C
05
EF
FB
F1
F2
08
E1
F2
F9
0A
EC
F1
DE
F6
15
22
09
0C
FE
E1
FC
11
DF
FE
1D
ED
1D
12
08
FF
03
0B
07
E4
00
F1
FB
F9
12
16
02
F1
00
FE
FE
F7
01
10
0B
FB
0E
09
F7
FD
09
02
0E
07
03
FA
05
FF
13
0D
F2
02
F8
FD
0A
0C
0E
E5
0E
D3
00
0D
00
1E
F0
F2
00
03
FB
F6
1F
F0
F1
13
FC
FA
09
FE
05
F7
FF
04
06
03
12
01
0B
F6
F7
14
03
F8
FF
F8
02
0A
F9
0C
F3
0A
07
FD
08
FC
04
EE
ED
F9
00
F5
06
F1
FF
0C
E0
E9
EE
0A
04
D6
01
EE
E8
F4
09
17
0A
0F
F9
F4
F6
E9
FF
00
14
E7
F3
07
F2
FA
FF
01
21
11
F3
FB
F5
18
E9
EF
DF
00
FC
F7
0F
F4
FD
FF
1D
CF
14
ED
F8
02
FB
01
0B
08
EE
05
FB
20
19
1C
F6
EC
07
E9
F2
B3
F9
ED
04
04
EC
19
02
00
0B
03
0F
07
F2
D3
FD
F3
09
E4
04
13
04
F0
F3
E3
0B
FE
ED
09
E6
29
F8
08
E3
EF
F8
0E
FC
F9
05
0C
F5
EF
FB
F3
F3
ED
F0
FD
0B
FC
05
23
EA
03
15
0B
1D
F6
25
08
02
F8
00
08
F1
0C
10
F5
FE
0D
11
0F
FC
0E
EF
04
00
14
F6
FA
DC
F2
F0
EC
02
FF
15
F5
00
F8
F9
EA
E7
0C
F0
E6
03
01
F8
FC
F7
12
0A
02
08
17
07
F8
03
F2
EB
00
E6
0B
F7
0C
0A
F5
F6
0F
14
0D
FC
05
F6
D4
FA
08
E2
FE
0A
FD
17
09
17
00
06
EF
09
DF
F1
E8
EF
E4
EF
06
15
0F
EF
0F
F4
19
00
FE
18
05
17
F2
06
F1
EF
D8
FE
19
01
06
1D
12
E5
04
0E
1F
FC
23
F4
E1
F9
0D
0A
F8
FF
E4
0F
02
08
FA
F4
F3
F7
CF
EC
E2
C0
DE
F5
08
FF
09
06
09
FA
17
17
F8
F9
2D
13
06
00
FD
0B
06
E1
06
F2
FC
F8
00
0D
F9
20
0C
06
FA
03
10
F2
0B
E8
CB
E7
06
0B
ED
12
F7
0B
01
08
CF
EF
F8
E3
DA
F2
F3
05
06
FF
04
FE
FD
05
13
07
02
18
03
03
F7
E7
07
F5
03
F0
01
FB
F8
F7
F7
06
00
F2
10
F7
F6
0E
0E
E9
EE
07
F9
0E
0D
14
0B
16
03
03
1E
12
1A
11
14
F9
02
03
ED
0B
D4
03
D6
06
09
D2
0D
D1
05
FE
0F
10
03
EC
EA
0A
07
F1
F7
0C
01
FC
EE
FB
EC
04
01
FE
F7
04
20
0D
F9
E6
06
F5
07
11
FD
01
F6
08
DC
D6
D9
01
F4
09
EA
FF
FC
02
07
1F
FD
FF
FC
F4
08
F5
F8
EB
0C
FB
FC
F3
F7
E9
06
ED
DB
08
FE
F8
17
ED
FB
10
06
FD
CE
01
F6
14
17
E8
F9
08
06
07
10
12
00
18
1B
05
F6
FE
FA
EF
F7
02
E4
FF
01
01
F2
DD
FF
0C
0C
15
EF
FD
09
12
F3
04
05
05
10
EE
E8
FE
05
05
F5
18
04
0D
18
11
06
EB
04
F6
F0
FE
01
F3
F0
F5
E0
E0
D6
05
0B
FE
19
F0
11
0C
2C
0C
09
1C
EE
02
09
FC
ED
EF
09
00
18
08
FE
0B
1A
D6
D2
0D
11
F9
13
F8
FC
FE
04
0A
B8
07
F6
16
0E
08
F4
07
F5
09
EF
0C
0E
03
EF
F8
DC
0D
F4
08
E9
F5
07
08
17
24
F4
FC
F9
FF
EC
EE
0A
07
E8
F8
0B
0E
24
01
10
F7
F6
F5
FE
FE
0D
00
F0
0B
FF
06
04
0A
1F
F6
FC
05
0B
F5
19
FF
15
13
1C
12
E4
F7
E6
07
EB
FE
C9
0D
05
EC
FB
CF
F9
FC
08
0C
08
09
FF
14
F1
ED
E9
0D
07
D5
FF
F3
DD
FE
08
04
08
0C
28
10
0A
E6
EF
FD
05
12
F3
01
02
05
1A
0A
00
E7
D0
05
EF
F3
E0
F4
14
F2
02
FB
11
0C
0C
02
EF
E4
03
DB
E5
EA
00
FA
D3
04
21
29
19
F6
E2
0A
FB
FA
1A
E8
0F
E7
07
F8
E5
05
F9
00
F8
0C
DD
FD
DD
CB
F3
F9
19
0E
05
00
FB
F5
07
FF
F6
FC
EB
EC
09
EC
00
FE
F5
FB
0E
F5
04
E7
F3
FA
CF
FA
02
08
11
F6
F9
05
0A
01
DD
03
F7
03
05
FB
02
F9
05
F4
0C
FC
01
14
FF
0A
F4
FB
F6
FF
F1
09
FB
0B
05
E6
F8
00
F1
0A
FB
E9
F5
F5
F7
F4
09
F3
03
F5
F7
05
FC
FC
FB
03
09
FD
F3
F5
F7
00
05
02
FC
F2
04
F2
06
F9
D6
FB
DF
EA
EE
09
FF
FE
04
03
04
0B
FD
FA
F3
02
D7
F1
F6
FB
0F
FC
DB
1F
06
0D
F5
EC
1D
F2
D4
E1
F1
00
0B
EF
06
0A
F4
1B
E0
11
EA
07
F7
E6
F3
28
FF
09
E5
05
34
0C
E9
E0
FF
16
E3
F9
D9
09
04
20
0C
E6
1E
13
06
F7
E9
E9
10
FF
D4
CB
07
F5
FA
14
27
23
12
F7
E2
08
1B
F6
FB
E5
14
E7
15
05
F5
F7
0A
0F
F1
00
12
15
FF
01
16
11
05
F4
FF
0A
F3
FA
15
EC
F1
FA
FE
FD
01
09
0A
0B
11
06
06
F6
0D
1F
E6
FE
ED
EF
09
07
F3
06
04
E8
FB
FE
0F
E8
ED
DE
F7
02
FE
0B
01
02
09
03
07
0E
14
EA
DC
0E
EF
F0
F2
02
13
29
03
E9
39
07
03
02
ED
EE
EC
E2
F1
EE
FA
03
E8
02
2A
2B
04
F5
F7
1D
09
EE
F0
E2
0B
EB
01
0A
00
0A
F4
FB
EF
05
F6
FD
14
ED
E9
D1
19
16
FD
EF
F7
F0
32
28
0B
18
2F
21
02
0A
D7
D9
FC
CF
F3
ED
F8
19
FC
F2
22
35
03
FF
15
2B
EB
F6
F2
D5
EA
EF
0A
19
0D
FF
FD
F3
FA
06
EC
DE
21
C9
ED
E1
F7
F1
02
F3
05
FD
30
0A
E5
20
42
4A
EB
0C
DD
EC
F8
E9
12
C2
0B
11
05
F9
05
34
2A
05
F4
26
14
CD
F8
E4
D2
CE
0B
0C
06
EF
05
12
F0
08
EB
F1
F6
E5
F2
EA
EE
0E
EC
FD
E7
F0
23
20
02
FB
2B
19
01
0E
F8
DE
FE
EE
EA
D7
F1
EF
FE
FA
FE
1F
11
F1
F6
00
E8
FA
F2
F1
FF
02
F7
16
17
01
07
04
07
07
05
FE
FD
08
FB
F7
00
03
F9
F3
E8
03
01
08
03
F1
02
FE
F1
F9
02
EF
1A
F1
FA
04
F5
EE
04
06
F5
0B
FF
F8
F4
07
F0
07
0A
F6
F1
16
F0
FB
03
F3
FA
1A
F2
FB
E7
FD
05
EE
FD
F3
FA
04
EA
FB
00
0B
21
0A
FC
F4
1E
10
F7
F5
E9
E9
16
E9
01
F5
08
FC
F7
07
00
2D
0E
FF
F9
FE
0B
02
F8
00
F1
FD
07
0F
02
F2
03
09
0A
F0
0F
00
F8
F5
10
00
0C
01
F6
F3
F5
F6
E6
16
FD
03
FD
FA
EF
FB
10
07
FF
02
05
F8
F4
FA
FE
05
F7
F5
F8
08
ED
FD
F8
03
F8
05
F7
02
F0
F2
F8
05
F8
11
06
0C
EC
03
02
05
C9
07
02
FA
FA
FF
EF
F0
02
F1
1E
FF
D9
ED
EF
EC
F9
07
FA
1E
11
1D
00
0B
20
FA
EC
E6
F4
F9
25
C2
13
31
F8
2B
EB
08
FE
00
2C
F5
02
1A
03
F2
F0
08
1C
07
FA
F0
ED
19
E7
FF
D2
F6
05
16
1C
F8
FF
19
F9
08
ED
FF
1D
08
F0
E1
FB
FB
08
0B
22
17
22
01
FB
0C
0C
FF
DD
04
FD
FC
13
13
0A
E8
FC
DF
F3
F6
EE
02
0D
F6
EB
27
0B
15
F2
06
F8
09
DB
13
09
F3
DF
D3
02
10
FD
1D
07
3F
EE
F2
08
E2
33
0B
E4
E5
F7
06
DA
EF
16
1F
EE
2B
ED
27
E8
EC
E7
EE
F2
30
00
FA
15
24
2E
2B
0D
F7
DC
08
F8
06
E1
FE
02
0F
1D
E7
23
10
06
F8
01
FE
0B
EB
CB
F6
02
18
E8
05
32
16
FD
02
E1
12
04
FF
F2
FB
37
EE
09
00
FD
F6
FE
F9
FA
FF
05
01
FD
E3
05
F0
0A
01
FB
04
F8
07
2E
06
F9
1C
09
1B
EC
0B
E4
E7
FB
E7
10
CA
01
03
0D
FA
FB
12
03
F2
0D
FA
DC
E8
06
EB
EB
DC
0D
FA
07
FF

