1F4
012
012
1F6
1D9
1FE
01C
003
007
1FA
1B1
1FB
1FE
008
1EF
009
003
1FF
01C
1FA
1E3
1DC
01B
1E3
1F7
1FC
1BA
1FF
001
1DC
1E9
1DF
005
02B
1F2
1EC
1DB
017
1EB
1E6
00E
017
1EE
032
009
00E
1F9
002
1EB
00F
1EA
02F
1F6
1FC
1CD
038
1EF
1BC
1F5
1E4
1B2
00F
1F7
1E6
02C
004
016
02D
01A
01F
002
1CA
1EA
1F7
1EF
1ED
1E9
035
1D7
1D9
1EF
041
01A
034
1FD
1E0
000
008
1F5
023
1CF
017
014
065
1D9
1F6
1F9
1E4
1E6
1AC
1F0
1DA
1ED
1E3
1D8
1ED
1DB
1F9
1F2
018
01C
00A
025
01A
1DC
1FB
1E9
1E0
009
017
1F6
1F9
1F3
1EC
006
1EF
1F4
1FD
028
1D7
1F0
000
018
1E9
017
00C
012
1E7
1F5
012
1FE
01E
017
009
1E2
01E
1D9
1FB
005
1E8
004
1C7
008
008
007
1DF
1CE
1AA
003
1DD
1FB
034
02F
012
010
1F4
1F6
02E
001
00D
026
1FD
008
1F5
1F9
1EC
007
1FF
1E2
1D4
1FF
014
1EF
1F6
03C
1D4
1BC
003
1FE
020
1A9
1EE
014
1F6
1F0
022
1F1
1CF
1FB
1FF
003
054
1ED
002
040
044
01E
047
1F1
024
1DA
03A
01A
003
001
00D
026
001
1E1
1F8
1FB
1D7
001
01E
03A
02B
1A9
1FB
008
1CC
007
004
010
00B
031
01C
017
007
011
00A
1CF
1CB
1E7
1FD
01B
1C2
1F9
01A
002
1DE
1DB
003
1F9
010
1F6
1EC
1F0
1E1
00C
1DB
1EF
021
1F6
1E5
00D
1F1
017
1F6
1C0
011
019
1EC
1DD
1EE
018
1F9
011
1EB
1F7
010
1FA
011
1E9
1E8
00F
01D
00B
015
012
017
1C8
1D9
015
1E5
010
1CC
1C4
001
014
029
1E6
024
1E4
1F8
009
033
00B
00D
00D
007
1E5
1FF
027
013
1F7
011
1F1
1F1
1F4
1F4
1D0
1E3
001
1FA
001
1E5
1DA
1F6
1EE
1F1
1E8
030
01E
018
1E8
1F9
1FA
011
00E
022
1F0
1F6
1DF
00F
010
005
008
00B
1E8
1F6
005
040
015
01F
1E1
058
040
005
1CC
1E6
1D1
04A
02C
1F4
008
00F
00A
1DC
005
028
1E6
1F1
013
006
1DD
1E7
1E1
015
00C
1E5
1E9
04F
1F6
017
012
1FB
016
1FE
00D
032
1F8
1C2
008
010
1EC
1D8
1E3
02B
017
1AD
007
1F1
1EF
003
010
1FE
021
1EE
1F8
1F0
001
1FE
1E8
1E4
013
1DD
00F
1EA
1EC
00D
020
01D
001
015
1FE
1FB
021
1EF
004
001
1FF
1FB
012
006
007
1F8
1FC
003
025
1F0
1DB
1E1
028
1F0
019
008
1EA
019
1F5
015
1E9
010
007
1E6
1EE
042
1E4
1EC
1FC
017
1BC
02D
1DA
011
1E0
010
1C4
1FD
1DE
001
1EE
1CB
1E5
1E0
1FE
01A
1CE
011
001
016
013
026
005
03E
1F9
013
1D5
00C
1DB
034
1E8
007
01D
00D
022
1EC
023
1E2
1CC
011
1FF
1F6
1E7
1E8
1FB
1E1
010
1F3
006
1E1
00C
028
040
015
1DC
1E4
014
00A
1F5
022
032
002
1EB
004
00B
1EC
012
1F7
016
008
1F8
000
1D4
1FA
039
013
013
011
012
00E
1E9
006
00B
1EE
02C
022
1DC
046
1DF
05C
003
035
1FB
002
1EC
036
1D6
1E9
018
008
1E7
012
1F8
00A
004
1FD
01C
013
010
1F8
01E
1E6
008
1F7
01E
1F1
1D4
029
011
1E7
00B
04A
003
1F8
1DB
1FC
1FD
00B
1E1
02B
1F8
1FC
1FE
036
1E6
1ED
1F5
1F3
1D4
1E5
00A
014
1EE
1E5
1FE
1E8
1E0
1E9
1FF
008
1F2
00A
033
01A
008
1FD
012
00C
009
012
009
003
009
011
1F4
005
1E6
018
1F8
1EC
006
019
015
1E6
1DE
011
002
00A
1ED
012
018
1F6
005
1D5
1EB
1E7
01E
1FA
1E9
003
1F5
1E8
1E8
00C
1EA
00D
1C1
1FE
000
011
000
1E1
033
00F
1E8
1E2
00B
1F6
00D
048
1D1
02A
00C
007
1DA
016
1C9
020
007
1EF
1FA
1F4
018
1F7
1FE
1F5
007
1FE
004
1F9
013
1F4
024
1F7
1CA
1FD
1EF
1F9
022
001
00E
1EE
1FD
008
025
1DD
1F0
1E9
026
005
002
013
002
1E5
1EC
008
002
1F2
1C5
1CA
038
1DE
00E
1E6
027
01D
005
1E4
01F
1F1
1E6
1F8
1CF
1E8
1F5
01A
1E5
1E7
00E
006
1FC
1DC
002
1DA
011
1F2
1E7
005
1EE
014
1E5
027
1F7
1EC
020
00B
014
1FF
018
1F0
1FD
020
1FD
01F
023
1FD
000
1D6
1C2
1F0
007
1B1
1F0
012
005
008
1F9
00A
1FC
010
003
01A
00D
02D
1AB
011
004
1FF
011
00B
012
1E7
00D
1D7
016
1D1
1FE
1F7
1D2
02A
1D3
1C8
1F1
1E6
1E4
1E7
1FB
00C
1DF
1EF
1D7
1FC
005
1EA
005
1EA
1F7
1E0
007
1E8
1CE
1F8
003
1EF
1F0
1E8
1DD
012
1E3
01B
1E5
1DF
1FE
01D
001
008
018
1F7
00F
1A9
02E
001
007
019
012
006
1F3
009
1E4
003
1E0
027
1EB
00F
195
022
1E1
001
1E2
1EA
1D7
013
016
1F2
003
01B
00C
006
036
01F
1F5
023
015
1D8
1F5
1E6
033
02D
00A
004
019
008
010
000
1F9
1F3
1FC
1E4
018
1E9
023
1F8
008
040
1D0
1D7
004
041
007
018
1FB
1E6
015
017
02D
1AD
024
1CD
002
01C
00D
01A
011
1E0
1DD
00C
1E5
1F3
1CD
1E0
015
021
1EB
1FB
038
019
016
018
024
1F6
1FE
1D2
1EF
1FB
005
017
013
1EB
003
1FD
026
006
01D
1DF
007
01D
1E8
1FE
1F3
007
1F9
1EE
1E2
005
01A
1DD
1B7
1CE
01E
1EA
00C
1E7
1FE
006
1FA
004
1ED
1F8
019
1F4
025
018
01A
1F1
1FB
1F6
1ED
1D3
004
1D9
002
1EF
1CC
1FA
01B
03D
002
1E4
01F
010
1E4
005
00A
1E2
010
1E4
1DC
1F8
008
01E
00D
037
00E
017
00D
031
1AE
01C
1E1
00E
1AD
031
1E0
1F2
1CE
1EB
00D
00D
01C
01A
1FB
013
014
010
004
00D
1CD
027
1B6
016
1F3
030
007
021
021
000
017
1DD
005
017
1D1
1D6
1AA
017
1F4
1CB
1F6
008
028
1AA
1E2
004
1FE
012
02C
1F8
1D7
001
031
02B
1EE
055
1F3
1DF
1EA
000
1FA
039
1C8
015
007
1EE
1FD
1FF
024
032
1EF
1D6
1F0
000
011
008
012
1DB
006
006
025
1E9
016
02E
1DC
1C5
1D6
1CD
1E3
000
1E7
1FE
001
014
1E2
004
004
1E6
1F8
029
1E9
1FD
013
018
00A
016
1F0
1D8
004
011
1E9
001
1F0
1E8
1F7
1E0
1F7
02C
00A
01E
1CF
005
1ED
01D
1E4
01A
002
00F
1D5
1FB
1E6
1F3
004
005
1F6
1E5
1E6
012
00E
1FD
1E1
1E5
1EA
001
1ED
03A
009
1F3
1EB
034
1DF
001
1E3
1EE
1DE
021
00B
1F9
1F3
1F1
1DD
00C
002
1FD
1DC
1F9
1E9
013
1E4
1F2
1CF
1FD
1FA
1EB
018
01A
01D
1FF
008
1FC
015
1EE
1EC
01F
00D
015
1B6
00B
1D6
1DF
01C
000
006
1C9
1E9
1E4
1EB
1F8
00F
1D7
036
003
019
1DE
1C1
016
1FA
012
1DC
1F0
1FF
060
010
014
05B
00B
000
003
1F3
1F6
012
187
1F6
1F3
018
1BD
1A4
046
02F
1D9
1E4
010
005
1F0
1B9
006
014
1AF
048
00B
016
1ED
1F9
00F
1FC
1F4
1F9
1E3
025
1D7
1E7
00D
010
019
1DE
1FA
1EF
1DD
017
004
1FB
1E9
1DA
1FF
1E0
1D5
013
1E5
00F
014
1EE
004
011
027
01B
1EE
1F8
008
1E2
00A
014
00A
1D8
004
001
1E0
1EC
1DB
024
012
1EA
002
1F2
029
1F1
1A7
018
002
1FF
1DA
1DF
1BE
016
1CF
1C7
1E6
05D
006
1BA
1DD
1C0
058
075
040
01F
02A
1F3
1C4
19C
1CC
1D6
1D1
011
1B4
015
1D6
1DA
00C
094
1D6
1FA
003
018
1ED
17C
089
04C
1D7
024
042
1D4
008
036
013
001
00D
1FE
1E0
1D2
016
1FB
00A
1E4
005
00F
034
00C
1F8
00D
1EA
002
003
1D6
027
009
025
1FF
1F0
1FD
022
028
1F4
012
1D2
005
011
1FA
1ED
1D8
1F7
001
009
00E
004
1FE
1D8
1D6
1F4
1CC
1DE
1FF
1F7
022
1FE
1FB
1DF
1E3
001
027
1D2
1F2
019
014
02F
03C
004
1C7
1FD
1E6
019
1F9
030
1E8
1D8
01A
1EB
1E3
00E
038
03D
1F6
1F6
000
1FD
015
1DE
1E5
1DC
1E0
011
003
1DD
1F2
018
1F3
1FA
1E3
1F3
022
00F
1E3
1F6
1D1
014
1FE
033
1F7
008
1FD
028
1FE
1F2
1FA
013
1EA
013
1DF
000
1D8
1FB
1E8
019
00B
1E3
1EF
1F9
1E9
025
00E
1FF
021
1FD
01C
1FD
1EA
012
013
1F7
01A
003
1FD
019
001
1FC
00C
018
022
1F9
1F0
1FF
1F3
010
008
016
1E1
1E2
1EE
00C
041
19E
1BF
000
039
035
01D
1FB
1E3
008
009
000
00F
1F6
186
1FE
015
026
01A
000
035
038
1E8
1E3
014
00F
1F4
1D0
1F3
1EE
1C9
016
03B
011
1C9
015
020
1E0
1FA
1B7
1F3
009
1B7
1CF
1DD
027
1F7
01F
1FF
1DE
022
010
002
1ED
01F
017
019
002
1D4
1E9
007
00E
1FA
009
1DC
1F6
02F
1E1
1DE
1F0
023
1FB
1CD
1DC
1F0
015
000
004
1E1
1DE
1EE
017
1EF
1F7
1FB
02C
1C9
1DE
1CD
1EA
02E
1EC
003
1F7
1EF
024
1DB
00E
003
1FA
1D2
033
1FA
028
1EC
1E9
015
016
1DD
1E8
1EA
019
00F
1E6
001
1D8
1F0
000
1E9
037
1F6
028
1F5
002
1E4
017
1EF
01C
01B
1F7
008
01A
1FA
1F0
001
1FE
019
009
1F3
009
1E0
1D8
1E8
005
000
00C
1EB
01B
00A
1FF
1DC
1FA
1E6
016
1BE
009
009
013
1FF
1E1
1D7
1F1
1FD
00F
1FF
1F2
1DB
1EE
1E4
1F8
01D
005
01B
00D
1D7
1DD
1E8
02F
002
1F5
006
023
025
1E0
1DB
1F0
013
1FD
1FD
013
002
1E3
1EA
00F
01D
00C
1FB
1EC
011
1EB
02E
1E1
042
1C5
03B
1F7
002
01C
1E9
1F5
1C0
014
1F1
032
1D4
1E5
045
1DB
1E2
1FE
052
025
011
002
012
1E5
1E3
1E3
1E0
02F
01B
02A
014
002
1BA
015
1D6
1F2
00A
1EE
025
02C
1F5
010
1EB
024
1F0
1D1
008
002
039
1C0
010
1C3
055
011
1F0
1F9
009
1F3
1DC
1EE
1E5
011
002
1E9
033
001
1EF
1F0
01F
1F7
012
1D0
028
1E1
003
1A3
1BE
014
01E
005
014
1EC
1D1
009
1F1
1FF
023
1C3
02B
045
003
1F0
1D2
040
1F4
044
1FD
1F5
1EA
02D
1AD
031
1AD
00D
1E5
011
014
1F5
1FF
01B
007
1D7
1F0
004
1E7
1E9
016
019
1F1
01A
1D7
02E
1DD
02F
1F2
019
1FB
1E8
007
023
010
1EB
017
1FC
025
1F3
004
022
1D9
1E4
1DD
1EB
004
1E7
1FF
014
1E0
000
1EE
02B
014
1E0
1E9
042
1FF
018
1CF
1F4
1FD
1EC
1F8
1E5
1F1
016
1D2
1CC
1E5
021
1E5
1FE
1C2
020
1E7
1E6
1EF
043
018
00B
1F2
1F4
01B
1F7
000
036
022
1E1
1A4
01B
006
1E3
1F7
1CD
1F7
1F0
1EB
01D
011
1E8
007
00D
1F3
010
1E6
1FE
1F3
006
1D4
1DC
000
1FF
1F3
1FC
01C
009
1E3
1FE
1FD
006
008
00E
005
02C
1E3
01F
1EC
005
027
00C
1E6
1FE
1FB
1F3
1EB
1EC
1FF
006
1DC
02A
1DD
1FB
00F
1EF
1FA
1CB
1E2
011
01B
009
1E0
018
005
000
1D4
021
011
028
1EA
1D9
1E3
00A
002
1D6
1E8
00E
1FB
1E8
1F4
013
1EB
02D
1E2
02E
1ED
1CC
00D
00A
027
002
1F4
1EE
000
1F9
1F3
004
1FA
011
1F5
027
002
015
002
1E5
1F8
1DF
1E3
1B7
1FE
1F0
1ED
1E2
02B
1D2
002
1CF
1DC
02F
032
1E4
1C6
016
004
052
01F
07D
017
030
1F6
1DE
1D5
187
033
1C5
1F0
1B6
018
019
1E8
032
029
1F4
04C
002
1EF
065
19A
1EF
04E
1AD
00E
1E4
02C
007
1F9
024
1F2
1F7
1EE
1EA
1F5
1F2
01E
019
1FE
01E
009
012
1BB
1EF
1DA
1DF
001
00F
008
1E7
001
001
1DD
027
00B
026
1FC
000
1E0
1F6
1E5
001
1E5
01B
1DD
003
1E8
1E3
1DA
1FA
01D
1FE
1D6
1EC
1FE
00A
00A
1EB
1F5
1EC
1F3
1CB
1EB
1F3
1E7
1E1
04F
169
027
1EA
1A2
020
039
00C
1AD
001
1E0
00F
073
050
022
02D
1FE
1E2
1B8
1B5
008
1FC
1FE
18C
1FA
1DB
1C9
02F
08C
1F2
031
00B
1D4
00A
18E
03C
050
1EB
026
03B
002
004
03F
020
1F7
014
004
013
1FA
1F9
01E
1EF
1F1
001
010
017
00F
015
1FC
1E7
002
01A
1E3
1EA
022
00D
015
1F8
00B
009
00B
1E1
00F
1FD
001
1E8
1E8
1E9
1C4
022
015
1FA
1F9
1FA
028
1F3
1F2
1F7
1F9
002
001
015
1D9
01B
1F4
1F3
00C
1F8
003
016
1FF
1D6
016
003
1DC
017
1F1
010
003
003
1E5
1FA
009
01E
020
013
006
1ED
1ED
1DD
1F9
1D5
1D9
1E7
007
1F6
002
00F
041
019
004
005
1E0
00D
1D8
1F9
1F0
1ED
026
010
002
1F8
1EA
1F3
1FC
1EC
003
1EF
1E4
1F2
1F4
1D1
008
006
1E1
1ED
00E
1F3
1E0
00B
1E7
010
032
1F1
005
00A
1DE
1DF
1F9
1E2
019
1F3
008
1D5
1F8
1EA
1D0
007
029
1FB
01B
1EB
00A
1E6
1E8
03F
00B
1D7
004
036
1F8
039
020
01F
004
006
011
00E
00C
1E4
00F
017
1FA
1FD
1E7
1F3
1E0
00B
023
1EB
002
1F5
1D7
1E6
1FF
1EF
1F4
00A
029
027
025
1F4
012
01D
1FF
1FB
1FB
1F6
1E8
021
1FB
1E9
008
1EA
024
1C9
1EE
1E4
1ED
1EA
013
01D
1EF
1FB
1FA
020
007
00A
028
01C
1FB
01D
02C
010
1F6
01C
1C3
1DE
01C
1E4
02A
00B
1CD
006
004
1E9
1EB
022
017
021
1D0
004
1E5
02C
1F2
017
009
00C
1D7
009
00E
008
018
016
1DC
1DB
1C7
1F7
1F6
1F7
1F2
1E0
002
1F1
1DC
032
1EF
1ED
1F8
016
1F7
002
1ED
1E4
002
01A
1F8
1E3
025
014
019
1DA
1EF
003
009
011
1E3
01B
1FB
003
00A
005
1F7
03A
1EC
00E
016
1DD
007
02A
018
003
03D
1E0
020
1F4
1D9
008
1CE
1E3
007
01E
002
1E5
00E
002
1E7
1EE
1C8
1F9
007
000
1E2
03C
1F8
015
00D
1E0
1ED
1FC
1ED
1DD
1F1
1F4
1E8
1F8
00C
1D0
012
031
1FD
001
1FB
1FC
013
001
1FC
1E0
1D8
01B
028
1DD
011
006
014
1D6
024
009
1FB
1E0
1FA
012
1E8
012
1FF
011
013
1EA
1E7
018
1F8
1CB
00C
016
1A5
054
1FA
1E9
013
1E1
03B
056
1ED
023
037
015
1F4
009
005
1E6
013
1C9
1DE
1F6
1F3
013
019
02C
1EB
022
043
1E5
1EF
034
17C
1C6
00D
1D7
1FE
1D5
011
023
004
002
1EB
1B4
1EB
012
028
1A9
033
1C6
040
1F2
004
1BD
024
1E5
01C
1F3
1EA
015
018
1E3
035
1F3
002
1F2
01D
1F8
018
1C8
03D
1EA
1FF
175
1C2
02A
01B
1F9
00A
1E3
1E6
1E9
1E1
02A
01E
1BA
037
056
024
02F
1DA
046
1FD
014
1E4
1E3
1E9
008
1E9
02C
1C2
1F6
007
1F8
1F0
016
1ED
010
013
1E4
013
1FF
001
020
006
00C
008
00C
011
1F5
1EB
1EC
019
00D
1FF
1C7
01C
00C
00A
009
006
1D5
013
02D
003
00E
1DB
017
1D8
00B
017
1F5
1FA
02B
1E9
1E8
00A
019
01D
019
1D6
008
1F9
1BC
1F0
005
00D
1E1
1DF
1BF
01C
00F
1F5
1F1
1EC
029
1E8
01D
1EF
007
002
014
005
019
1DF
001
015
1F3
1F6
1F0
1E1
1BF
00F
017
003
00A
038
1D5
1DD
1C5
1CE
017
1EB
03B
1DB
1F8
1E4
00A
004
006
1F9
1E6
1EC
1FC
1D2
1FE
012
1FA
1F7
1EA
1E2
1F3
1E8
1F9
00C
011
00E
024
018
031
004
00F
000
009
1F5
1FF
004
1F4
1F2
1E8
1FB
1FD
03A
1FF
1EA
004
1F4
1E7
1F1
1D7
1EA
1E5
1FA
007
003
017
1E6
014
003
01A
1ED
02D
1FE
1FC
1FE
008
01D
1F7
1EC
013
1E1
1F3
002
1F6
1FD
005
024
004
024
00B
013
000
1E2
000
00A
007
1E6
1E4
00D
1FB
1F9
1F3
019
1FE
1EB
023
1EB
00A
1F8
1E9
1EF
1FA
1E1
008
1F7
011
1D4
002
029
1F1
1F5
00D
1CE
024
00C
1E1
016
1E7
1EB
02B
1E1
030
1F4
1E0
1F0
1EF
1EB
1E0
024
1EE
1D1
1CC
00F
01E
004
035
1FB
1EC
008
1F1
1F8
016
1D2
1E5
006
002
000
1E5
021
010
1E9
00C
00A
008
1E6
003
002
1F7
1FC
1FF
1F3
008
000
1FB
1CE
00D
027
1EE
005
1F5
1FA
1FB
002
1F9
006
00F
019
1FD
1FB
015
1FE
1F1
016
024
018
017
000
000
001
1F0
1FC
00D
022
1E2
1DE
1F8
003
001
1E8
1F5
1DD
1DD
00D
1F5
1F8
1FB
00A
1F8
1F8
1D1
039
005
199
01C
019
1F1
1C8
1DE
1E5
00D
024
1F5
01F
1F6
006
1E3
017
1E6
006
1F5
1F0
1E0
1FF
000
1BE
043
00C
005
00C
1E2
1E7
02E
1B4
1F7
006
1F2
00E
00E
1FF
00E
1FD
02B
002
008
1ED
017
000
1E7
01B
018
1FB
00A
007
1FF
1ED
1E6
01C
002
00C
1C9
1AE
1D4
015
1FD
1EE
1F9
02A
02B
00B
013
024
03E
1E2
1F7
1EA
012
1B0
011
1EB
1EA
1E6
1F0
028
1DD
1FE
009
1F8
1F3
1F8
010
1E8
1F8
1DD
010
1FF
1F0
02A
00B
007
1F1
002
1E1
1B6
021
1F9
1FE
006
1E2
1EC
02F
027
006
014
006
1F1
1FF
1D5
1EF
1F7
1EA
1F9
012
1F9
00B
020
1FE
00C
018
006
1EA
008
00B
1F1
1FA
1FF
1FE
022
1F4
00E
003
00C
003
1E7
1D6
008
1E2
1FD
197
030
1B1
1FF
1C6
1DE
1B2
010
002
00F
007
1B4
00B
025
1E4
005
008
1E3
1E2
1E9
1CC
030
1D9
044
1D3
016
187
1C3
03B
01C
1E7
01F
1F9
1CC
1C0
00F
069
034
004
015
073
02E
036
1DE
055
009
022
005
1FF
1BD
021
1D7
1F8
1C5
1EF
1EE
1F8
1DE
015
02B
1F7
01D
1E7
1EA
00B
1F4
00F
1FE
02B
1FB
1F5
1EB
012
015
1E4
015
022
02C
006
1C9
011
002
1E3
1FC
01F
1F5
1DD
1F7
009
1DD
1BE
004
1E5
1FF
1F3
1E8
021
008
1E5
007
1FB
00E
00E
000
1FB
00B
010
006
1DD
026
1F9
026
014
1E1
003
1F8
1F7
00D
023
002
01D
1EE
1F6
001
000
1E4
02B
00C
1E3
1E4
1F9
005
003
012
008
004
1E3
1F5
01F
005
1DF
009
009
000
1DC
003
004
1F0
013
003
02E
021
01D
00D
1D5
1DA
1FD
1EF
00C
031
004
007
006
1E4
01A
1F3
1F4
1EB
004
010
007
1FF
1F7
1F1
003
011
011
009
011
1E1
007
1FA
1EB
014
1F8
00E
1F0
1E2
00F
019
1CD
03E
00B
1FC
007
00B
1F6
013
1E9
1DC
1F5
00C
007
1F0
1F3
038
1DB
001
002
1DD
003
1EE
1DF
1FF
1F8
1DE
1F7
011
007
017
035
1D9
00B
018
00A
017
1E6
1C6
1C8
014
1FA
009
1F1
1ED
1DF
049
013
03F
013
1EA
001
012
000
004
1F6
1F9
059
1E9
009
1FE
056
1D9
1B1
1F4
013
191
06E
1EC
010
002
1E6
047
03E
010
01A
1F7
00B
1F5
01F
1EF
1BD
010
1DD
1BE
1FE
012
055
02B
1FC
001
036
017
011
1FC
042
1AC
1CD
1E1
1EF
1DA
1E9
1F4
00D
02E
1E1
1F6
1D5
1E7
1FA
1F7
1DE
00E
1BD
030
00A
1C0
1E9
1EB
000
012
1ED
1B3
026
01F
1BD
1FC
1C0
00B
1FC
028
1CF
00E
1DC
003
000
00C
194
1E1
023
00A
1D5
004
1FC
1C7
007
1ED
034
1FC
1E8
015
043
048
1DB
1F7
02E
1E5
00B
015
1EE
1D4
01B
01B
1FC
024
1F3
011
1D0
005
1FB
01C
00B
1BA
1F7
012
1CE
1E5
1D4
015
027
1E9
00F
1D5
010
00B
02F
00E
1B4
1CB
1B8
01D
1D7
1B5
010
037
1BA
037
02F
1FE
016
012
03E
1F7
02B
002
1EE
1F7
1F6
1FB
006
02C
1F3
00A
006
1FA
1E8
007
1D7
00B
1DF
00C
1FA
1EC
1D4
1F9
1DB
1F3
1E6
1E0
014
023
018
00C
1E7
011
014
1FF
1ED
1D4
1DC
019
00E
1CB
001
010
1E7
00D
02D
022
006
02C
01A
1F9
1EB
1E9
022
1E6
1E5
1EE
1FE
1F7
1EE
1EF
004
018
1E9
002
1DD
1FE
1F1
007
1E9
007
011
1E3
1BC
005
008
006
008
004
004
1FF
1FA
00D
01E
015
1E8
1FA
1ED
1D8
1FD
1DC
1E3
1F4
1EE
020
00E
1BC
1EF
00F
00C
00B
1E3
1E1
1E2
1FD
1F2
1FB
018
1C0
021
1E9
016
1CF
003
034
1FF
029
1F5
009
1DF
00D
1F0
019
1E8
1EB
003
1FA
1FE
016
027
1DC
008
1F1
1F2
010
005
1F9
1DD
1E6
00D
1DD
1F8
015
1D4
1F1
005
004
026
1F0
00E
1ED
1E9
015
1E9
1E5
00A
1E5
006
1F0
001
005
017
1F4
00A
1E8
018
1DB
1FE
1F6
00A
1DE
00A
1F2
1F6
1E5
1E8
1F7
004
012
1F6
1E6
1F0
1F0
1D2
1EF
003
1F7
1FB
1F1
009
1E9
1EF
1E4
019
1F9
1FD
1F2
00A
1FC
1EE
001
1F8
014
1E8
1E0
007
1F5
013
00B
002
00F
003
1FE
00F
00B
1F9
1E2
011
024
00C
013
014
005
1FE
007
005
1E0
01E
1FA
019
1FF
00D
1FE
1F9
1F2
018
000
000
1E8
1FF
1F1
010
002
1F4
003
1F6
1CF
019
013
014
1E8
1FF
1F1
1FC
1DA
011
1F5
1EB
002
007
00B
1F6
01E
02F
1B9
00A
01D
1E4
1E2
1F1
1F7
1ED
1FE
021
01D
1FF
00F
1F3
015
00F
006
011
013
010
1E6
00F
001
004
1F6
00D
022
1FE
00F
01F
1D8
1D9
009
1F6
01F
1E7
1F5
1FD
00D
00E
015
007
1EE
00B
1FA
1F5
015
00D
00A
012
010
1E4
1F3
1E4
011
013
1F5
00B
1DD
1E5
1D9
1E1
1E2
00A
00C
009
1FF
01B
00A
1FE
016
01D
00B
1D5
1C8
000
1F3
1DE
1F4
007
014
008
1E6
011
011
007
026
005
1F9
1F0
008
1DE
015
007
009
012
1F6
000
005
1E8
18E
1FF
034
1E2
015
1E8
003
01F
1EC
004
1D3
1D9
1F8
006
1D2
19A
00E
1E4
1DC
006
1E7
009
013
1F3
005
1E9
1E5
1EE
00E
006
18A
1E4
1E9
1EA
1EE
1FF
01E
02B
005
1F6
018
149
1F6
003
03A
130
02F
17A
066
1F3
03A
19C
1F0
1F5
1E2
1FB
195
07A
040
195
055
1E3
017
1F3
005
1E9
1FD
1B9
02A
1FE
002
17D
1B1
029
012
1EE
1DC
1F6
19A
007
1D2
075
01F
1BF
00A
0D2
03B
1C0
1BC
1F9
1FA
025
1ED
1F3
1EA
028
002
00F
1BE
012
16D
014
023
1EC
029
1F7
008
1BC
009
03C
1C5
1D9
009
1FB
002
1E1
009
1F8
1CC
1F5
1FC
028
006
000
1FF
1DB
013
1F8
036
1F2
1DA
1F1
1FF
1FC
1E5
1DD
02D
004
1E4
003
1EC
1F2
1FF
1EA
008
00F
013
00C
1E5
1E0
1E1
1EE
1EA
1F2
00D
1FA
010
011
1EC
1F0
000
1F8
007
1F8
1F2
00A
1F3
00B
1FE
001
1F6
027
040
1EA
1E7
1FA
1D4
001
1EE
1F2
1F3
1EC
1CF
01B
1ED
1F6
01A
007
005
1F2
1FB
1E5
015
017
010
1E0
017
021
1F5
1B4
1E6
1F0
1EE
00C
1EA
1E4
1DF
1E3
005
1BD
1DB
1E3
006
000
1DF
1DB
1E4
1EE
019
015
013
1DA
1F8
1F8
1D5
1F4
1B5
007
010
1E9
1D4
00A
011
026
02C
1F9
01B
1F7
003
021
1FC
006
005
018
007
007
1D9
1EE
01E
009
1EF
009
019
1E5
025
017
00B
00E
1D6
1F4
1FD
1EB
1E9
1F9
1ED
00E
009
1FE
1DE
00C
1EF
1FC
1DE
1EB
1D1
021
1D2
1DD
012
006
1EB
1D1
1DA
1E9
1F9
1C5
011
001
008
1FC
1E3
1FB
1F3
010
1F6
1F0
1DB
00F
016
1EE
038
1C4
1F1
005
1DB
001
1E8
01C
1F6
1C9
1E4
1F0
1EF
1F3
004
01A
003
01D
00B
011
1EC
1E6
004
001
1FB
1F6
1F9
1EF
017
1DB
01F
024
007
01A
1EC
042
1EB
009
00C
009
1EB
024
1E4
003
01F
00B
1E7
026
1D1
1F7
004
1EF
00D
014
1F9
1EC
01D
1EA
02C
1E5
1D8
1E7
1EF
1EA
1F5
020
1EA
1E4
029
03F
1FC
1E8
1EF
1EF
1EE
005
1D1
1E2
006
1C0
027
00E
018
012
1F6
1EF
017
1DF
023
003
1EA
012
003
006
011
014
01C
013
001
008
1B7
00F
1F7
1E9
1F7
1EA
1EC
1E5
029
1E8
1F0
1F9
014
00A
015
1F1
1F2
1F5
1AE
1DC
001
009
1F1
010
1E5
1EC
1EF
1F7
1EA
007
1FA
1C7
1F0
1F4
000
1D2
1FC
001
1F1
004
00A
020
1DE
1E4
006
030
1F0
02C
012
1E1
194
01A
00E
1F1
1CB
1E6
1F1
017
1F7
004
1F8
001
1FD
012
1FE
002
1CF
005
1CD
00E
1F8
01F
1EF
009
01E
01F
012
006
010
00F
1F5
1AB
1FC
1F8
004
1BA
1B4
00B
00B
1EB
1DC
1DF
1F4
019
00A
00C
1FC
019
01A
1BD
1E5
01D
000
1EA
01F
004
1F5
1F6
003
1FF
009
1E3
1FF
022
1F1
1F8
1D5
000
1D5
020
00C
1E6
00E
1FE
1F7
1F6
1C8
017
015
018
1FE
1D8
1E7
1D5
006
1D1
012
035
02C
015
1FD
02B
00A
006
01C
026
1E6
1FC
008
009
1BA
026
028
01B
00B
00C
1DA
1CE
1BF
00C
1E8
1DA
1E7
031
019
01D
1C9
1FF
1BA
025
1E5
019
1F6
1E0
1CA
1CC
1DB
1E6
002
00B
1F1
1E4
1D7
1F7
01B
1F2
1D6
1CB
1D9
031
1EB
008
1DE
1F4
034
1E5
003
000
00C
024
02D
1EF
016
1EF
007
1F2
011
003
1D3
008
033
1F6
1ED
009
02D
02D
1F5
1EA
1F2
1DC
017
1F2
1E2
1F5
016
009
010
01B
1F6
1EA
1E1
1F9
01B
1E9
016
1E1
1DE
004
1C3
016
015
00F
1EF
1FC
013
1F8
1E5
00F
021
1D7
1EE
013
1D6
1F0
000
1EE
005
1ED
1CD
1D4
008
1E0
018
00D
020
010
1DB
1E5
1E3
046
00A
1ED
1E0
1DC
1F3
1FF
1F2
1F6
046
00E
016
1BD
02A
1E5
04C
1FC
1EA
1FA
1FD
1F4
1E3
017
016
1FE
1CE
030
01F
1C6
1A5
1EE
1E2
03E
00B
009
1ED
008
01C
1D1
029
040
1FB
022
00F
1F0
1D8
1EC
014
004
04A
1AF
017
008
052
037
00A
02C
017
015
002
001
1F7
002
05B
025
1B4
00D
008
017
1F1
1F5
1E7
016
1F4
007
030
019
1D9
00A
016
1F6
02A
1EF
021
014
1F6
1FC
1FA
1FA
1DD
1DB
1F0
1F0
010
01B
010
01F
1E4
1DB
000
03E
1F9
1F3
1DB
1C4
1FA
1FC
1FB
1DF
00C
1F3
01D
1E7
1E3
007
016
1D9
01A
1F3
001
1E0
005
1DA
1FF
1E9
002
1E4
1E7
014
01E
1FA
014
1DD
007
1E8
006
1E1
003
1F7
1F3
1E2
001
1DD
1DE
00C
00F
01A
1E0
1FB
01B
028
1F6
1D7
1F3
01C
1EF
006
1F1
008
011
00E
013
021
1FB
1EB
025
00D
1F4
00A
019
00D
1EB
001
1E1
1F5
1ED
1FD
013
1F6
00E
1E5
002
1E7
1FB
00D
1F4
003
00A
00C
030
012
1F9
013
008
1F9
1F4
1EE
1BC
005
014
1EA
1EB
00D
006
006
017
012
1F7
008
1FE
006
005
022
01E
00C
1EE
01A
005
015
02A
1EB
1FB
1EE
1F3
1F2
059
1D1
1E0
1F3
053
1EB
1F7
1A5
1E8
001
00E
1E0
1D8
00D
014
18D
1FB
1C7
1E3
01F
013
011
013
1D1
00E
03C
00E
1B6
1B5
1D7
1E9
1D6
19C
1E9
015
1EC
1EE
010
1DE
1D0
037
008
1ED
1FC
003
02E
005
1E7
1FF
014
044
015
1F0
034
02A
001
1C3
030
008
1EB
1F3
012
01F
01A
1B0
1CE
025
1EF
000
012
00D
020
1CC
1B7
1D4
1FC
012
037
1D5
1DC
1FA
00B
1D5
1FF
058
029
1EB
1A1
00A
1C4
025
1A9
1DC
007
031
1F1
1ED
1BF
011
014
1CD
1FB
022
1EB
1F9
1EE
1DF
1D6
1C7
1F4
002
1EA
1D5
1FC
034
1CA
1DB
1E2
1E3
1F1
1C8
1D3
1D8
035
002
052
1DF
1C1
1FF
1FB
1F3
1D3
1DB
011
020
1B9
1F6
029
1F2
032
1FC
025
1F7
00C
00A
1E7
1F8
1FA
00B
1F8
1FB
1F4
011
1F9
015
011
008
02F
1FC
1F0
1EB
1FC
1FE
00B
1DD
013
009
019
00E
1FB
02B
00D
009
1DF
016
1EF
004
1F6
1E5
1E8
00A
011
029
1F4
1F5
00F
008
009
019
1D0
01A
1FF
001
016
1E5
029
1EA
1B7
1E1
1EF
016
1E5
00D
1F5
01B
1EC
01A
1C6
1E5
1FE
000
1F3
1FD
1FD
003
1BE
000
008
1E6
1F0
1FB
1FD
1F0
000
1F9
027
1EF
1B6
1FC
1DE
1D8
1DF
1D6
1FA
017
1DB
00C
018
1E8
007
014
038
1F7
1F2
005
014
1E9
031
018
012
1F4
01F
1FF
02E
1EE
1D5
01A
1F9
009
017
006
000
00D
1D0
016
1D9
1E7
011
1EC
1F9
002
014
011
005
00E
01F
007
019
1FB
010
1F9
024
1DF
010
027
1E8
018
00E
023
1FE
009
021
006
011
1FD
1DD
001
029
001
016
1FF
00F
1FF
1EF
1FD
001
1EE
000
1F4
1EE
002
00F
00D
1C8
001
010
01B
00D
1EB
1F5
007
007
1EB
1E8
029
1FC
1FB
1FE
1E9
022
003
007
001
1FB
01D
001
1F6
01B
00A
1F1
005
1DB
013
1E7
1E5
006
006
03A
1FF
007
023
012
1AF
00D
020
1FF
1BC
015
007
004
1DA
009
00D
1ED
1D3
02C
013
01B
1F5
017
00C
1F6
1CE
1E1
1B7
1FC
1F0
01D
1F2
1FA
046
025
1F1
1EC
025
037
1AF
1B0
1CB
1EC
018
1AA
1B9
1C7
009
1FD
1E1
00D
00B
1F8
1F6
005
1EC
00F
1F3
1F6
1E4
1F7
014
1DF
00F
008
008
1F5
1FD
017
009
1F8
1F3
00C
003
002
1D9
1E6
1FB
1EC
1E9
020
1E6
007
01F
00F
011
017
018
01C
1EC
1ED
1F5
1EA
1F2
1C6
030
1F3
006
000
1F1
017
1F0
1FD
023
005
1C7
00B
01C
1FA
1FC
1FF
1EC
015
1F6
1DF
015
1D5
1C6
023
024
00A
1E1
040
035
00D
1ED
1C9
00F
016
007
028
1ED
1EF
00A
00E
1EE
1E1
007
1FD
1F6
1CE
007
1AF
000
1F6
1C9
1FC
1E0
022
1EA
19D
1F8
013
03B
1B9
006
1C3
050
043
1D8
1D1
00B
1F1
1D3
1F9
00C
01A
1D2
01D
054
039
1E2
1E6
02B
026
03D
1B7
1EB
1F7
018
1FC
1AD
000
01E
017
033
00F
008
024
1C0
1E2
046
1B3
02D
038
1E9
032
1F2
020
005
1D1
00F
1E1
02F
006
1F1
01D
045
1D1
1F6
1F9
1EF
007
1E0
1F7
015
007
1E3
1C3
00D
1F3
00D
006
022
000
1F3
1ED
1F7
02A
1F0
1E7
1E6
1EE
1F1
009
1CC
1E0
03D
015
00E
1D2
000
1E8
019
1F6
1EA
1F7
1FB
027
006
1E4
1E5
00E
1DE
1F4
018
1FA
00A
1E6
1E6
1DE
011
1FB
1E6
1FB
003
1DB
049
1F1
1F5
013
1E8
003
1C0
1D9
1C9
1EF
019
1F4
1FB
1FA
1D8
00C
029
1DF
1C7
1E5
02A
01C
010
021
01C
1EB
01F
038
038
003
014
016
1DB
1E4
003
001
04C
1F2
1D8
005
01F
1F3
040
1CD
006
1E8
015
009
020
1F5
1D4
012
021
015
1E1
016
022
013
1D5
18F
026
1F9
003
1FF
1AC
19A
1E0
00D
00B
00D
032
01A
001
1FA
012
1B5
029
009
1F6
1F3
1E1
031
00F
1D5
00B
004
031
1FE
1EF
016
01C
1F5
01A
1D5
1BF
1EB
1F4
011
003
1EB
1E0
1B8
01E
1FE
00E
1FB
00E
019
1EB
1E4
1F8
02E
1EF
1EE
1B3
1E1
1F9
1E8
1CD
1F5
02B
1EA
025
005
1D6
1DF
020
007
008
1F2
1EB
02A
00D
1E5
003
1E5
1F2
1F9
017
1F9
023
1F0
027
1D3
01B
006
1FC
1E9
014
1DD
024
1E9
008
011
1ED
012
1EB
01B
1E8
006
00F
017
00E
012
008
008
003
1F3
1F5
1E8
1E3
00B
019
029
008
1F4
01B
1F8
020
1C8
1FC
014
004
1FF
011
1F8
003
1F0
1FD
03E
1EC
1C2
045
1CB
1DF
00E
1CB
1E8
1EA
005
015
181
1ED
1E2
1FA
014
1E0
1FB
1C5
004
023
039
1E3
1B8
012
1CF
1CB
1E3
1AA
1F3
01E
1BF
026
050
1E0
1F7
1FB
021
1FF
019
035
005
1D3
1F4
1F8
007
042
1FA
1C1
03C
024
1FA
1F3
003
005
1FD
013
1E5
019
019
1DD
1DF
01E
007
003
022
010
1FE
1CA
1E8
004
020
004
01E
1FA
1EF
002
02D
1E8
006
02D
1FD
00D
1D9
1D3
1D1
00E
1F1
002
1F4
018
009
1D9
1E5
1EA
008
1DC
000
1DB
1E1
1CE
1EB
002
1DC
1EE
1FA
023
1F5
00D
005
016
1F4
1C5
00C
1F1
01F
1E7
1EA
1D9
02C
1EC
046
1F4
1F6
02D
1DA
1F8
1B9
1C7
1ED
01D
1D1
01E
005
1DC
022
1DB
1E8
010
006
02A
1E5
1D2
000
1E7
1E4
003
01B
011
1F6
1EB
01D
1DD
00B
1ED
003
002
1DF
1F6
1F0
1E1
042
001
1D6
1F5
1F8
01A
003
1FE
003
1DC
1CD
011
00B
010
029
005
017
026
1F2
1DB
006
1E1
1EB
014
1F5
009
1F8
1F6
1D6
1EB
006
1F4
014
012
1F1
1F9
013
007
00F
1FA
1E6
1F3
004
1C4
013
1FC
00A
005
1FF
001
1C2
1FF
1E3
1EB
1E3
010
1F8
039
01D
1D6
04E
002
1EE
023
1E8
1AB
00D
1F4
1DF
028
1EB
02B
00A
1DB
01C
1EB
00E
1FB
010
006
001
017
1E7
1FA
1EB
00E
1FD
1FA
021
021
1C2
016
1B2
00E
00A
1FF
00D
00B
1C2
024
1DA
1FF
01A
1E1
004
1CB
1F8
1E1
1E7
03E
015
1F5
1F8
1D3
1E0
002
1DF
1ED
1E4
01C
1D4
033
031
000
1FC
000
022
013
1E3
018
008
1EF
039
004
002
007
020
1E0
018
00D
002
1F8
1FA
1FA
00F
007
002
1FA
1C8
1FE
007
1E3
01E
012
012
01E
024
1DA
003
014
03E
1EF
014
1DE
1D1
1DA
027
1FA
1E1
1FD
1F0
027
1E5
1F2
1F9
00D
1E0
1E2
1F4
1F5
00D
007
015
1FB
002
034
1F7
1D4
006
028
015
00E
015
1C8
004
1FA
1ED
01A
005
1BC
001
037
1FF
1E6
01D
01C
00F
1C5
1D1
1FC
1E0
1F0
009
1E5
001
00D
025
02D
018
1DD
020
1FF
1AD
1E5
1D8
00E
1E3
1C8
1D2
1EB
002
1D7
017
007
1E8
028
026
004
024
004
023
1F1
01B
00D
1F4
000
004
020
1CD
1E9
015
1E9
1F4
1FA
014
036
00F
008
00B
1EA
004
005
02B
001
1EC
1ED
025
1F1
1F5
006
1E7
012
1E9
025
002
009
1D3
1EF
1FA
1D0
1FE
1F6
040
1F0
00C
1F4
00C
1D7
005
015
1F8
02E
1FF
1D3
1EC
01A
00A
004
1EC
1D1
1E4
005
1EA
004
013
02A
03A
1D0
004
1FA
036
1F2
00B
1ED
1CA
1F7
004
1FE
00E
023
1F4
01E
1DE
1D8
017
001
1F2
1D6
1FE
1DF
01E
016
1B8
00F
1E8
027
195
031
1DF
00F
03D
036
1F6
038
1E7
017
013
014
003
1BE
048
041
005
1EB
1E9
025
1F9
043
1D0
031
1C8
1EF
005
1EC
036
010
025
054
1ED
1AC
059
1EF
1C8
011
1C6
005
02B
034
1D6
1BD
050
004
1F2
010
1E2
02E
002
1F3
1CE
025
1C9
012
1F3
001
012
009
1F8
002
006
028
1D7
00D
1D8
1EB
1EC
1F9
1F3
1D9
1EA
1EF
038
1E8
1EE
1F4
1F3
00E
017
1C7
1E9
023
006
013
1F5
1CD
004
02A
005
029
1F3
1F8
1F2
009
1C9
1FA
1F0
050
1D1
003
1EA
032
1E6
00B
1E4
023
1DD
005
00A
021
1F8
001
00B
01E
00F
1EF
015
1F4
008
1F0
1D7
029
00E
012
1EF
1BC
1FB
00E
032
006
014
021
1F1
1F2
031
002
1D2
01B
046
1FA
01F
002
029
00F
1F3
1E0
012
001
1FA
1E5
1FD
013
00D
029
1F2
023
00E
012
000
012
00A
1BF
1E7
1FF
1F5
005
010
01B
1F5
02B
1DA
018
1FC
1E5
1FD
1CC
00B
1F0
023
1F8
002
1F0
1E6
009
1E2
027
1DC
017
1EC
1F5
1E1
1C4
013
010
028
1F4
1DE
1E6
018
008
014
1EF
1E9
021
008
1D1
1F1
1FA
1F8
009
007
028
1C6
1EC
1E4
01B
1FD
1CE
1E1
1EF
004
1F6
031
1E5
00F
1F9
1E3
1DC
001
1D6
010
02E
1D9
01C
00D
1DE
018
002
1E1
03F
001
016
1E2
1DB
002
1F3
007
01D
010
00A
014
01A
017
1EE
1EE
015
00B
1F2
1FC
1FB
1D5
1E2
017
1F8
019
1E0
006
010
000
01F
1F7
00E
1F7
1FE
019
1D7
1FC
1FB
01F
023
001
1F7
013
1F5
1FC
02F
1F2
023
003
1F4
1E7
1D2
031
1E8
008
00F
006
1DE
1FD
005
001
1DC
1E3
01D
00D
1D0
1FD
1F8
1F8
00F
023
1E7
1AF
01A
1EC
009
1F2
1E8
1F1
00D
00C
1ED
034
1F4
1E7
00D
1FA
1CE
008
1E2
1EC
00B
1ED
00C
004
00C
1F2
004
012
1E5
011
1F1
00A
00E
1F1
1F0
1F5
03E
014
1D6
1F9
01C
00C
007
004
1DF
1FB
1DA
005
010
1FC
1F8
1C0
1F5
1E3
1F0
00B
013
016
1DE
1FA
002
026
1F7
1FB
00E
1DD
1FB
000
1FD
00C
025
002
000
1FE
1DC
1FF
1F9
1FE
1EF
1FC
1ED
1DC
1FA
1F8
1E6
013
1E3
01B
1E9
01F
1E1
02A
1C5
033
1EB
00C
1DC
012
1E7
008
1FA
1E3
1D5
1E2
1D8
01F
1E9
1FE
1FD
011
1F0
1FD
012
1EB
027
02B
00D
1BC
1EE
013
024
016
1FB
1F4
1F9
024
1D7
1ED
1E2
00D
00C
1DA
1D8
022
1F6
1FA
1F1
058
01E
03B
1FD
02D
1B9
1FE
1E3
1ED
1DC
00D
1DD
1E6
00D
018
1F4
19F
1EC
1D6
024
016
1FB
035
1B5
018
1FB
037
000
03C
1DD
1EB
1E4
012
1F7
1FD
00E
1D4
1F3
030
01C
1ED
1FF
1FB
1EF
1D3
1FF
027
1FA
006
025
017
1EA
1FC
018
1D3
1D2
000
005
1E8
022
1FB
034
00E
1D7
1E7
00C
009
00B
01A
1FD
1F8
1E9
1D2
1F3
030
1E4
02F
1F6
000
011
025
1EF
1E0
034
020
1F2
1E3
1C1
1EA
1FA
1D5
00C
1F7
1FF
007
017
1C9
1FB
1FE
1E6
180
02C
1A4
1F3
1E7
1FE
1FC
002
1ED
1F8
1FA
1E7
040
005
1E7
017
1FD
1F8
1D2
000
1C5
003
1B2
008
1AF
014
1C2
1E5
018
02A
008
014
1E5
1CE
011
1C1
043
01D
1D6
032
05B
00E
1EE
1CF
012
1FE
00A
1FC
009
1E1
011
009
005
1E7
1F2
01F
1E8
1F2
014
1CC
1E8
1E2
1F3
022
1D2
1E6
008
1EF
1E8
008
025
1F4
02F
014
000
1FD
1D8
00D
006
1EA
006
1F8
012
1FD
1B8
037
025
012
01B
004
035
1F2
1F9
001
1D3
014
1EA
007
1F6
01A
1B4
1F5
00F
1FF
00F
046
1AF
1F0
1DE
1ED
1F2
00F
1DE
1BE
1D8
01D
01E
00E
1FE
02A
029
1C9
1FD
03A
1F4
013
1D9
1A3
1B9
016
02D
003
013
1CC
1D0
026
032
018
1E2
02D
011
014
1DA
1D1
01E
1E0
014
1FE
1DE
1F4
1DD
1D4
015
1DC
00D
037
1E1
030
1F8
1E9
1DC
1F1
19F
1DB
028
003
018
007
009
04F
026
03E
1FE
057
1FB
015
003
1DF
1D0
1D4
029
03A
1E1
012
1E0
00C
000
055
1F0
1F6
01A
1A6
018
1E8
034
004
1F3
1F9
1E2
01C
004
1FF
01C
022
018
028
00C
1FB
014
1E0
010
00B
00B
1FE
1D6
003
1FD
1DA
1FA
012
028
1EC
00F
019
01F
1E3
1EE
011
1F9
1E6
1ED
1E7
1E4
1FE
1F0
007
1FA
1E7
002
00F
1FA
00B
1FD
1F2
1FF
00B
033
1E4
006
1E5
03B
03F
006
1D9
007
1CF
009
006
1EE
01A
1E2
034
1F5
1CB
046
010
011
000
009
1F7
1ED
00A
1E9
1DF
1AC
013
05B
006
045
009
02F
013
00B
1ED
022
00F
18A
1F1
1EC
1F7
1CD
00E
006
1E1
1E5
1E4
01B
1EA
1E4
00A
1EC
1F6
1FF
000
1EC
1E2
1F0
1FB
1EE
017
1E8
02A
016
008
1CA
1E5
1D3
1F6
026
002
027
1F8
014
1E1
041
1E3
1EF
00E
1E2
1DF
1EE
1D6
014
00C
1F9
007
1EE
1CC
013
013
1F8
1EF
003
00A
009
1D6
1D8
1F6
00A
024
1DE
018
1DC
01D
000
1FA
1F3
00F
017
1F8
1FD
1E1
1E5
1FF
021
01B
005
1F7
1E1
008
00A
006
1FA
1F6
1E5
006
1F3
1FB
006
00D
1FC
00E
008
1EF
01C
1E3
1F9
00C
1E1
1F4
006
00C
007
1FE
00F
1F0
1E5
1F2
00C
1F2
1D0
01A
1EB
00A
013
1F5
1FA
00D
1EC
030
011
1EC
1BC
1C6
1E2
009
1AD
1FE
1F7
1FC
1F2
039
00A
1F4
1E8
1E8
010
1BE
01C
1BD
008
1F7
1E4
1CE
003
1D5
1D4
02E
1F9
02B
1E5
010
1B3
1A8
006
006
1F6
1FB
1EC
1F3
012
003
000
023
1CD
1F0
1F3
015
1FC
01B
002
02D
013
1FD
1FB
015
1EC
1F4
02C
1D9
1E0
1B5
1CC
1F1
009
017
004
023
1F8
007
001
004
00D
018
1ED
1F4
006
1C9
1DB
1EB
1DE
021
019
002
003
00F
00C
017
003
020
00D
00E
1E6
010
1FB
1BC
02A
015
005
1DD
1FE
1E8
025
00D
00D
02F
1FD
1F9
00F
1FD
1FB
02E
1E4
191
1B4
1F9
011
001
026
1FB
020
035
1F3
1DB
033
1D7
00E
018
1EA
02A
014
013
1E7
1ED
005
1E6
1DF
1F3
1F1
1D3
008
1EE
1F9
1FF
1FE
01F
019
1EE
008
002
019
1F0
01C
1EC
1ED
00B
1C8
1F5
001
1E6
1F4
1F1
1EA
1E2
1FF
019
007
016
019
1E9
1DE
1F9
000
1EE
018
1EC
1E2
1DF
002
1FB
1CF
015
01C
1F3
1EE
1F8
001
1F0
00A
1F7
1FF
1F7
01F
1C9
00B
035
00D
1E2
1F9
1E2
1FF
004
1FF
00E
1E6
1D9
1F8
1E2
006
1FF
00D
1EC
015
008
017
1E4
01A
02B
1E3
00B
1FE
011
00C
023
1F9
01E
001
009
020
1EC
013
1EA
013
00A
1F4
00E
021
017
004
1ED
028
011
1F6
1C8
1DB
1CB
034
1F4
005
02B
1EA
1F3
03E
00A
1E4
1F7
1AA
1E3
1D7
1D9
1E0
1DD
01E
1C0
01E
017
020
036
1F9
1E9
006
1CA
008
00A
1EA
1BD
1DD
1EA
030
1D4
1C8
1FB
039
01B
1D3
1EC
036
00F
1F9
007
04C
1ED
1F5
014
026
1C7
025
1D6
1F0
1F1
1E2
1DC
01C
016
1F4
1F9
1C2
1E0
1D8
1FF
1FE
025
015
1D7
020
1E2
008
1EF
02D
1CA
1E6
1CF
017
00A
02A
1CC
1F1
1CE
011
005
000
1FE
00A
1EC
1CD
1EB
021
1E1
1EA
1C4
01A
1C7
005
1E7
19E
19A
1FF
006
1FD
03D
017
037
00B
1FA
012
1DE
1EC
1DA
01A
1CF
1BC
1F9
1EA
00C
00D
00F
04D
00B
1F2
1E9
1E9
1CE
1ED
06D
1EF
1DB
1E4
1D0
1EB
1D4
1C5
040
048
1F0
1F4
015
1BB
1EC
1E3
03E
18E
03A
1B0
03C
1CD
007
1EA
1FE
012
1D3
003
1D2
04D
02A
1AA
00C
1E3
1F2
1B8
001
1E1
1F4
1A9
1D4
1DE
016
1A4
1E8
010
02E
1DE
1E4
1EE
199
051
1AF
02F
00B
1E3
01F
060
03F
1B6
1C9
02F
1DE
1E0
018
1EA
1F4
1D8
01E
1F2
004
016
030
1F5
1FC
1EC
1E5
1F8
1E1
029
032
18E
1F9
1E5
1F2
1FB
1D7
1F7
1E0
003
009
010
1F3
1B7
003
1CD
1C9
1C6
1F5
1E1
1F3
1DE
010
071
1EA
00A
009
03A
013
1F6
01E
1C7
1E3
1E7
00C
1F9
1E9
1D8
1F9
1FF
1DD
013
01C
197
025
1DE
016
1F2
1B2
1B1
1E1
009
1B6
050
00E
1FA
03A
022
1C9
008
046
1FA
1F9
1A6
1A7
168
1F9
1CE
021
1F3
1DD
192
032
063
02A
1E1
1FE
03F
1D1
1F0
031
026
013
1F3
00B
1F9
02E
1C2
1BD
1FF
1FF
009
01F
005
1F4
014
1D7
1FD
1DF
1ED
00F
1FC
00F
03A
1FD
1FB
02D
02D
1D1
00B
023
00B
01A
1D2
1C5
1CB
005
008
014
1F2
001
1EE
012
01A
03D
1F0
1F2
04F
1BB
1E7
032
035
1DC
1F1
1FD
1E6
1E3
1E9
1F5
1ED
00D
1FA
039
00F
1C9
1F8
007
007
006
1F4
1F9
1E0
1F1
005
1ED
00A
1F0
1F7
1F8
00D
00A
022
00B
003
02F
1D4
1DC
1EF
1EF
016
019
003
003
018
1DE
027
1EA
025
003
1F0
1F2
1F7
1E1
012
1FD
1EA
00E
01A
008
008
1FB
1EC
1C5
000
1E4
1F4
032
1F6
023
1F4
00C
004
1FF
1DB
1EB
004
1E3
1F5
1F0
018
1E6
00F
1F0
02E
017
00E
1E6
1EE
1F8
013
1EE
020
00A
1E6
1C3
003
007
1B9
022
00C
1E5
1E5
1D5
1F8
1E3
001
1F9
013
1EC
016
1F4
025
1FC
1EC
1F4
1F0
01B
003
1ED
1F1
009
016
1D6
012
1EF
001
1E3
002
1D5
023
004
002
1F1
011
031
1EC
1FA
1F0
1ED
1DF
01E
1F3
021
016
1D5
01F
00B
1FD
006
00F
015
1E5
1D5
00D
1E6
009
1FE
022
1FE
1F6
007
1E1
1E5
01A
1E0
011
00F
012
005
1F1
00A
1FF
020
1E7
000
007
1E9
1E6
016
1F7
1C5
1FE
1F3
00D
00D
028
00A
006
1EE
1F3
1F2
007
1EC
1E3
1DF
1F9
020
1CF
1F5
1C9
1E8
016
1F1
1E3
00F
1E7
011
00E
1DD
018
002
00F
1CE
1DD
030
1E8
01C
002
008
1F5
1F4
001
1F8
01E
1EF
031
00B
00A
1D9
1DD
029
007
009
00F
004
1DD
006
01E
1E3
1FD
023
00F
02F
010
1F0
1DD
00E
1F8
1FA
1FE
1EE
1ED
1E2
005
00A
1E3
1D6
023
019
1FD
1E8
1A8
1A8
006
010
1F4
047
1F6
00C
1F4
029
020
1DD
1E9
000
03E
1B4
190
1BE
1F9
1DD
00F
1F2
01D
1FB
1F0
1E4
1FA
1BA
00E
04F
1EB
1DE
1E2
1E3
00D
00D
1DE
047
041
1EE
014
013
1FC
1FD
1E8
03C
1EF
1DF
1B4
048
1B7
1CC
02D
1DB
1E7
1FE
1F5
02E
055
025
1EA
03C
1C8
00E
1F8
1B2
17A
022
1B1
1EF
014
1E4
1E5
05A
01E
1B5
1F7
1CC
019
009
04E
18E
1C6
1BF
1CB
1E9
003
1F9
022
01B
1F3
1E4
1F3
012
1E9
1F0
019
1FC
1FF
1F5
00A
1C8
1F6
052
007
02A
1EE
1FA
1DE
008
015
1CF
1F0
1F1
00C
1EF
1FC
1E0
1F7
00D
010
000
007
00D
00A
01B
1C8
1FD
1EA
01E
1F6
1DF
1D8
1F6
000
00C
1D9
00B
017
1D0
020
1FC
1F4
1E2
004
1EE
1FE
01D
019
1D4
1EE
012
1CC
024
1EA
1F5
00E
1F9
1E1
015
009
1D2
033
00E
011
1FF
01F
1E6
00D
027
1F5
006
1F6
1FC
1E9
049
1EE
010
1DF
002
1D0
01E
049
01A
1FC
1F5
1FA
011
014
03B
1EC
008
1F5
1FD
1FF
1CA
1EE
02E
1E6
1DD
1C0
1EB
1F7
1ED
1E2
1F7
1FF
001
007
050
1D2
1D9
1DB
1F8
1DD
1E4
1EF
1F2
1EC
1E6
00F
00E
1C9
02B
1FE
02C
1DD
1CC
1EE
02D
1CB
01A
01A
03B
02B
009
1FD
021
038
035
00F
00F
1DA
1E9
1F3
02D
1CD
1F4
000
036
1C0
030
1DE
019
1E4
028
010
01F
003
009
1CC
02D
1E0
1FF
1EB
1ED
011
1F3
1BA
1F4
010
1F8
1E0
00D
1F0
003
015
1CA
013
003
019
1FC
027
1EC
1DC
003
00C
012
1E1
1DF
01E
00D
1F3
1DB
006
1FC
1E6
00E
1FF
1FA
1D3
024
1DC
01C
010
1F9
00A
1EC
1E4
022
1DF
1E4
1F4
018
01A
1F0
1EA
023
1FF
022
031
006
000
1EE
011
002
1E5
1F1
010
1F5
1AF
013
03D
003
00A
017
00D
014
1F8
004
1F6
006
1ED
01B
014
1DE
1DF
020
012
1F1
1A8
1E0
1D0
021
00A
055
00B
001
1C8
005
034
1CE
1E8
002
011
1BB
1C3
1E7
1EE
1F8
034
015
005
1F1
1F9
01D
1BD
1CA
1FF
03B
1A9
1E9
1D9
021
1F4
012
1EF
039
013
1DA
036
1E0
1F0
1DC
1D9
01B
1EE
00C
015
005
004
001
017
1CF
1F8
1EE
1E2
012
02A
1FD
1EB
1F9
011
005
00A
1EB
1DA
001
003
1EC
012
013
1D2
021
009
1E1
01C
1F7
000
1FF
1E9
1F7
1E6
1C0
012
018
00A
001
1FF
024
1E5
1F4
01E
00A
002
1FC
022
1C0
1E7
004
004
002
042
1AB
001
199
001
00B
00F
00C
00E
01B
032
1E7
1FF
014
1E1
1E2
002
1F3
1D8
003
1F7
019
1FE
1BD
03C
04F
1E9
1E6
022
1F0
1F3
1CD
005
1F6
007
1CE
1FC
017
1DA
1E8
1DE
1E1
006
01A
1F9
001
1F6
018
1C7
002
01C
1E9
1FC
003
1FC
020
04F
00E
1FC
04A
1FD
1FA
01B
1E8
1E3
00B
1AB
1DA
1E9
1FD
1ED
003
1EC
001
01B
1FB
1ED
1FD
03D
1E1
1E6
00C
1CE
016
1ED
014
00E
03D
1FF
002
00C
1F3
00A
004
1D4
000
1E0
1F7
1CF
03C
1DE
1D9
1E3
018
1F0
013
015
1F2
1BC
01B
1F6
00A
1F1
1DB
016
1EE
1E0
1FC
007
1FB
1E2
1E8
1DA
003
00B
1DD
1E8
009
003
006
1FE
1F2
006
1F8
015
000
1EF
1E6
1F4
1E0
012
1DB
002
018
1FB
1FC
020
1FB
1E1
014
003
1F9
1F2
1E8
01D
1F6
1C4
1B9
032
00A
1EB
1E0
1E9
1E9
1F0
1F1
02B
017
1FA
1FE
011
009
02B
1DB
1DA
1EB
017
025
1DD
002
1F0
009
022
025
1EA
1CD
010
1BD
033
00B
023
1F0
1EA
023
1FF
002
008
017
1F1
00A
004
1F3
001
00B
002
001
018
1C4
013
034
00B
1E2
1DC
1E4
013
004
1EA
013
1E4
017
011
017
1E4
1E9
009
020
018
1FE
033
1DC
005
007
1C4
1E7
1D6
1D9
00D
1F9
02E
011
02B
014
1F0
1F5
004
1FD
1D4
19A
1FB
1C3
02C
012
00B
024
1E8
1F3
1ED
1C8
03A
1C7
01F
1FC
019
1E6
1EA
01D
015
1FE
1E9
010
034
013
1EB
002
1F1
1F6
1DF
1F7
01E
1E0
1AE
034
00E
00B
17D
1CD
1E0
1E6
01B
1EB
1F3
1EF
00A
021
1D6
016
1E1
020
1E7
1EF
1D1
00D
005
005
002
1E0
00B
01A
011
1F0
000
00F
013
1DC
1E8
1DB
1CA
024
016
1EA
1DA
1EE
00C
032
1BD
1C8
1E3
1FE
1E2
00A
01F
1F3
007
031
020
005
012
1FA
00B
00E
1D2
001
1E2
1D3
1E3
1E9
1F7
1F3
1C9
014
1DB
00B
1F5
1F8
005
016
00D
018
1CE
1E7
1DE
00A
1F7
1EF
1EE
029
01A
030
027
1F1
1DF
02A
1FD
1E4
1FD
1FC
1DE
02E
1C8
01E
004
1E9
035
1EA
02B
1F8
007
01C
01E
1F1
1F5
1E8
1E0
1EE
1D6
001
1F7
1E7
1E6
00C
1F2
026
000
020
1E1
013
002
00E
009
00F
1FA
005
008
1FA
1F9
008
000
02B
00A
015
1FC
1FF
00F
012
1DB
1F5
012
01D
1F1
1EB
001
1FF
1E4
00E
021
008
00B
009
000
1FC
1D9
1F5
1E8
1D4
005
016
00C
1E2
1FA
1E6
1BD
030
011
017
013
1D4
007
024
1C7
1BB
1DC
1E8
1F9
1E1
1BE
1F1
038
1F7
03E
003
1CE
024
013
1FE
1A2
1DA
1F9
01A
19F
012
011
011
029
1D9
00B
00E
1F6
1EE
1F5
1DD
049
000
1F8
010
011
197
1DA
008
03A
021
056
1D1
1FA
1F4
1F1
012
049
1E1
032
02A
00A
1F7
011
014
021
016
1FD
1DA
1E6
018
01E
05D
1CA
1E4
025
03D
015
1E6
025
004
1ED
1CB
1F6
1E4
012
1A5
1F1
01C
1E6
00A
00E
003
1F1
1E3
00C
1F6
034
1E9
1CA
006
008
1DE
00C
00B
1F5
008
1F6
00E
1C4
1F0
1D0
013
009
1B9
1F4
1DC
010
1F7
02B
1FE
1F4
029
1F6
1E2
1FA
1C7
1F4
01C
1B7
01F
017
1EB
049
002
015
005
001
019
1EA
003
1D8
1EB
1DF
032
1D6
1ED
1FB
015
1E8
027
008
00A
1EC
007
1FE
01B
004
00E
1BF
010
00A
1F1
006
009
1F8
1F4
1ED
018
018
1E3
1C2
009
1E0
1FC
1D8
1D4
001
011
015
1EE
002
1F4
1C3
1FA
033
1E3
02D
035
033
000
1FD
01A
000
1E0
1FC
006
003
1E8
1DC
1FD
1DA
1EE
1F9
1DE
1EA
1DA
007
042
1C4
1ED
1E4
00C
1CE
1C9
006
004
023
1FB
029
007
1CC
1ED
1FA
007
1A5
1D2
1DD
00B
1B9
036
036
1F6
029
009
03E
015
00E
00C
004
007
1EF
1EB
006
008
1EC
013
013
001
1F8
1F9
1BF
034
1DE
00E
008
1E3
1ED
018
028
1EA
1F4
1F8
1FD
1D4
1F6
000
1FF
025
021
1FE
1FB
1D4
008
1F9
1AB
1F2
007
023
1E8
00E
03E
00F
1FD
1FD
1DD
020
015
1EC
027
1F8
1DF
005
1E0
021
002
006
004
01A
1F6
024
1EA
1C5
1FF
1E5
012
01A
1F4
003
004
013
005
1F2
01B
1E3
00A
1E4
01E
008
020
00F
1FE
015
006
1C3
009
1E2
017
1FF
000
01D
00F
19C
016
014
1D6
020
1E8
1F3
1DF
00D
019
009
1FC
010
02A
1F1
010
019
1F3
00D
1F7
1B0
1E2
18B
1E6
00D
1FB
00A
1F2
025
1FA
1FA
01F
1D5
003
1F4
00D
1DC
00D
1F8
014
006
1F9
1D9
012
1FC
1DF
1F1
018
012
1EE
1BF
021
1FE
1D2
1F6
1C5
005
1AB
1FB
004
1F5
1E1
02E
01A
1C7
1FD
036
00C
01B
045
01E
1FA
1FA
001
047
01D
1BB
05F
01A
039
1D3
026
027
026
020
1C2
01F
1DC
00A
03D
1FC
1B6
01B
050
016
00A
025
02D
1CE
1BF
00A
1C3
1F5
1C5
1DE
019
015
015
1FF
1CE
1DF
1EF
012
1EE
019
1F4
1FB
1F7
00C
1CE
1B1
1F9
1E4
014
1E5
1F7
034
1BC
001
1EF
1EF
010
1D7
1EC
1E4
1E5
01F
016
1EF
1E1
1E2
1FA
029
002
1D8
007
1E4
002
003
00D
1E3
002
004
1FE
020
1DA
00E
1E6
004
030
1E9
1FB
04E
1E8
019
033
027
054
1D4
1A8
003
1F2
005
1F0
1E9
1D9
1EF
01D
1CA
1B4
1DE
1FB
067
011
018
1C3
1FF
031
1E4
021
1E8
1F8
1F5
1E1
00D
009
00D
1AD
1E6
1EA
01C
1E4
03B
007
1F3
1FF
1B2
02A
006
1EA
1F4
1F9
1EF
01A
004
006
1D2
1ED
013
010
1E9
1F1
1E3
1DE
012
009
02E
1D6
1E0
00D
1EB
1CD
1F9
00C
003
017
004
01A
1F5
002
1EA
1C9
1E3
009
00E
1F7
1F7
1FC
004
1FF
029
1FA
1E0
01D
001
00B
019
1EA
1EA
016
1F4
1E5
020
014
1E7
00A
027
1F2
1CA
1E6
038
01B
030
1E3
1F5
1C4
1F5
027
1EB
1BC
1E7
01A
047
1F6
008
1EA
1F8
014
1EA
01D
1E1
008
01D
1E8
1EC
1E4
1F7
1E5
1D2
1EC
013
1DF
037
1D7
1FC
1E9
1D2
038
1FF
1DF
002
019
1FF
1C8
012
00C
1F9
1FA
006
1C8
00D
00D
1FB
017
1DE
1F4
1E5
011
00D
034
00A
014
1D7
1DA
1ED
1F0
015
000
1F7
1F8
1E4
1E6
016
1E4
016
1DF
1FF
1FB
1EA
001
025
1D6
023
1EC
1F8
020
1DD
01E
010
000
1E8
008
1F2
017
006
1F4
1F3
1F9
005
1F5
1F9
1E4
1F9
00F
1CB
1EB
024
1D9
1C6
1EF
1F8
1D5
1ED
1F5
1DF
04B
01B
02F
017
008
017
006
005
1C5
1B9
1E1
026
1BC
1FD
1FE
1E7
027
1E9
005
01E
00B
026
1E0
1EE
1E6
004
1ED
034
1EF
1FD
1F1
003
004
011
1F1
022
014
1FA
015
00F
007
1F5
00B
008
1E9
1E8
00A
00E
002
1E7
015
018
007
00D
01C
01F
019
022
1F5
00B
00E
1E6
004
001
1E7
1F5
1E8
003
016
1F6
005
1E3
002
1FB
1D3
017
019
1C6
1E2
02B
1E0
1D2
1CF
001
1CB
006
002
1F4
1F9
1D1
1F9
04E
1B5
1CF
1FA
014
1ED
1B5
1C2
1CE
02E
1FD
022
1F0
1CC
00C
00C
00F
19B
1C5
005
00D
19F
015
056
1FD
02A
00B
03B
026
01E
018
008
1F4
014
004
1ED
000
1FF
009
00A
00D
001
02D
01D
006
004
1E6
1F0
003
1FF
1E8
007
027
018
1FF
019
1F3
002
1E9
1FB
1FB
1F7
004
00D
1FD
1D8
020
02A
012
1ED
1D8
1FF
1FB
011
1DB
1F6
1FA
1D1
011
1F0
1E7
1D3
1E4
006
1F2
1E8
1EF
00D
1E6
1E2
010
1CC
1DC
1FE
1E5
1EE
1E2
002
1F8
023
01E
1F6
008
012
1F5
1F8
1DE
1D0
1CF
006
1DE
009
004
1DB
01B
1D9
01F
1F2
1D2
1DD
034
00F
1EE
022
1E0
00F
008
01B
017
002
02D
1EA
1D3
00B
1F0
1E6
1FF
045
1FA
019
1DC
019
00A
03C
1C7
012
1D9
00C
1CF
009
023
005
1D4
1EE
1F6
1F6
000
01F
1F5
03C
1D4
004
1F1
016
01B
00B
014
1D1
1DC
016
1EF
1EE
000
00E
018
02A
1F0
013
1FE
00D
030
1DD
1FD
00C
1EC
1E9
1F6
01A
00F
1FD
1C8
011
1F0
015
1E5
1FF
1E6
004
1DE
026
034
1B6
1D0
1B0
1DD
1EB
1F5
1DC
017
023
1E2
003
1E2
1C9
01C
01D
1D0
1E9
1C7
1E8
01C
1E1
1D9
005
1E8
025
1F0
028
1F6
01B
010
1DF
1E1
1C4
1FC
1FC
005
1C6
01A
004
1E5
1EF
000
1D5
006
019
026
1FA
005
1AF
1EB
035
009
017
1DA
004
009
02A
01B
1E1
03D
017
010
004
1EC
020
014
1F5
00B
00E
1FC
1CE
02B
00D
01E
1F2
011
1FC
020
1FC
1DC
046
1F2
1DD
1FD
1F8
1DF
004
033
012
1D6
024
00C
1DA
1D1
1F3
1F5
005
1D9
1C5
015
01A
1C6
00D
1E0
1F4
00A
016
1E4
02E
010
1E6
003
00A
012
017
1CE
1D1
014
006
1F3
1F6
01A
1F6
00D
01E
1E7
1F9
009
1E9
005
1D4
1DF
001
1EF
1F8
029
1F4
00A
00D
019
005
018
1DF
1FA
1EB
1ED
00E
1FC
1DC
1BD
1E5
1EE
007
1DD
015
1DF
024
1C8
000
1FC
017
00E
00D
000
1EF
1ED
004
009
1EE
1CF
014
02D
1EA
005
1E7
012
1C3
1EE
1EA
1E5
00E
009
01E
010
1FC
1FD
020
024
005
1BC
025
1EE
021
008
1E0
1C2
1E7
1F9
1EC
1D6
060
012
046
014
1E9
049
013
1E7
1F7
1F9
1A6
1F1
039
1E8
032
039
018
07F
1E3
1A5
02F
1F3
1DD
032
1FB
1EA
1F8
1E3
00D
017
1EE
1E7
1F0
1EC
00E
1F7
005
029
011
013
012
004
1F3
1DC
1F9
1B7
1FE
1F3
000
03A
00B
1DE
01B
1F1
1CE
1F1
1E1
006
009
1E1
1F8
00B
007
1F0
017
015
1C9
000
003
1D7
002
00D
042
1F0
002
01C
01F
030
1F1
002
1D7
014
1D5
01A
1FE
042
1D3
000
01F
009
051
02E
1D2
013
003
030
1FB
04A
1C9
1A9
02A
1CE
1B8
1FB
038
05B
034
03D
1DA
02F
04C
1ED
030
02F
1E3
1B4
002
012
1F0
021
1E8
1F4
1C7
1CC
1F2
00C
1B9
1FF
1ED
1B1
001
016
009
009
005
006
016
024
009
023
1B9
1F4
1E8
1CF
1F1
1E3
011
1F1
01A
04F
1BE
003
00A
1DC
1F5
1AE
1D1
1B5
1F5
1E7
021
1F2
1D5
001
001
015
1EA
1CA
1FC
021
017
1E8
03E
1E0
1FE
017
1FB
05D
027
02F
1DB
1E8
1C9
00A
1FB
060
1C0
1A8
1FA
046
009
029
19B
03C
1FB
033
1EE
00A
1C6
1A5
03C
1EA
1B5
1DE
029
051
031
1EC
1ED
02A
047
000
011
01D
1E3
1EE
1D6
1F6
1E7
03B
1D0
1F6
1C9
1F4
1D8
1FB
1DE
1F1
1D3
1CD
02B
1F0
017
019
1FB
00E
01C
000
02C
017
1EC
023
02E
1F8
012
1FD
1E8
1F3
00D
00F
002
005
010
1E4
1F6
016
015
010
008
1F1
1F6
1E4
00C
023
1F7
1FA
009
1FE
011
1D7
00F
1F0
1FF
1FB
00A
00F
025
1E6
1E5
01E
1D5
1EE
009
1E6
1E9
1EB
022
1D1
1FB
1BE
016
008
020
1EE
012
1E1
005
1B7
01E
1FF
1CA
1E7
1CD
1F7
1C9
01F
1F5
01D
037
1D8
00F
1F0
1B4
013
1E5
1C4
003
1F9
1EA
1E6
1F4
1DD
010
005
03E
1D3
031
1C1
01D
009
1DC
1DA
051
1F9
1EB
013
02E
009
019
1F9
028
1EA
02C
1F9
1FC
1E2
1EF
1DA
1E2
1D7
1E9
025
008
007
019
04D
040
01C
1F1
1EA
1F7
1F9
1FC
1CC
1FC
004
017
018
000
1FD
005
00A
1DB
023
1FF
00C
006
1C2
007
1E5
030
1FE
1E2
01A
015
1E0
000
026
1CD
1EC
006
005
00D
018
1FC
009
1E3
1EA
01B
1FE
00C
1E6
1EB
000
1DB
1F0
005
025
00C
1F4
006
1E1
1DC
019
02D
027
1F0
1F6
1EF
1F2
00D
1E9
016
00E
1FE
1FE
1FB
006
1FB
1F7
1FF
1F1
00D
003
1FB
1DD
01E
011
1EC
1F8
01D
015
01D
1F6
1E6
1CE
00F
1FB
013
020
00E
010
03C
00E
02E
1F2
1E0
1BD
00C
1FA
1EE
1E6
1EB
009
1EA
034
01C
015
00F
1F3
022
1ED
029
1EE
1EF
1EC
01A
1FC
028
023
1D2
00D
1FC
1F4
1F1
1FB
00B
1CA
1D2
023
018
1DF
1E8
015
00D
1E5
00B
002
022
01A
01A
1EE
1F4
009
1EE
1F3
003
1E8
1F6
004
1F8
1E4
1F7
1EF
1EF
01E
1F6
1FA
001
002
029
1D6
008
1F9
1F9
1E3
008
1F3
006
00B
1EF
007
01C
011
1E6
009
015
00A
00B
1FD
1E8
1D8
00C
1CD
1EA
1E5
1EF
00C
026
000
1E9
1EF
1CC
1DC
1F6
1DF
004
00E
1F4
1C0
005
1F0
001
029
01F
1EF
1FA
1EA
016
1F2
1F1
1FC
00A
001
00A
00F
1F6
008
1EC
1FB
1E5
010
1DA
012
002
00E
1F7
02E
1F6
1FE
1D9
02D
1D8
1E6
1EB
015
006
007
00A
001
1DA
00D
1F9
00A
022
1FE
00D
006
1EB
1FD
000
011
1FF
1EF
013
1EA
1E1
1DD
008
003
1E9
017
1F9
1ED
1D9
017
1C5
022
1EE
1BA
011
1E0
011
1E6
00F
050
1CB
010
1E6
027
001
1E5
02B
1FE
1E0
1F2
1DF
027
030
1F7
00C
03C
021
009
025
022
005
02D
1E2
1E6
015
1F5
1F4
1FA
1FD
007
012
003
1ED
018
015
1FF
1F6
032
1E4
1F4
019
1EA
025
028
05B
1F1
015
1F8
010
006
01F
1E4
1E6
1FE
037
018
034
000
016
1E3
1DC
1CA
03A
00C
015
1D8
1EC
1E1
1FD
01C
021
015
01A
1EF
004
1FF
1F2
01F
1F5
1CC
1D5
00A
1E0
1D4
1F8
1E1
01B
014
02C
1EF
05E
1BE
1E0
01E
1F5
1F0
1C0
1F1
1EC
1FC
1CB
010
1FA
00C
01C
03D
1D5
039
018
00A
1F7
1E8
1EB
1B7
000
1E8
005
1E3
005
009
007
1D7
017
02F
1F5
009
1EC
1E3
1EE
1FE
1EA
023
1EE
004
1E1
031
1FF
020
1FB
009
025
1EA
1EB
026
01F
1E2
00B
001
1EE
1DC
015
01E
00A
1B0
013
1E4
007
013
010
17E
000
1BD
1FB
044
01E
00B
01D
1F9
1F6
1F2
1F3
1DB
1F0
1E0
1D0
1F1
1F2
1D7
003
022
009
04C
003
1F6
006
1F7
00D
044
1E8
019
006
1EA
019
025
01B
1DB
015
00B
1F0
036
027
1FF
017
01C
010
021
01C
1F7
008
1C4
1F4
1CC
1F7
003
005
002
007
1E6
1EA
00D
00F
1E4
024
1FA
016
1F9
1E6
1E0
1F5
014
013
012
1E0
1DF
018
008
1FB
003
009
00D
01C
1BD
1C5
1FF
1ED
1FF
001
1E6
1FC
1EC
1E6
1FA
021
1CE
026
023
1F1
015
1E4
1DD
017
1F4
1CB
1B3
1EC
004
04E
1ED
1E3
029
03E
038
01B
042
1DB
1E6
014
1F0
1F6
1D4
03A
038
1FF
1B2
1E4
055
1D3
048
1E8
009
1F6
1D4
008
1D7
1F9
00D
1DB
015
1F9
034
1F3
1F2
1EF
03A
1E9
1EC
028
013
00B
01B
1EA
00D
022
005
009
033
01D
006
1ED
1D2
1CB
1C1
1DA
00D
00E
1F4
1E3
1EE
002
01A
005
1E8
1F6
02F
01C
1C9
019
1FB
1D1
1F8
005
1F8
005
01F
00F
1F3
015
018
003
1F5
1FE
00D
1FC
1EB
010
008
002
1D7
1F9
007
008
00A
01B
1F3
1DE
1EB
1F0
010
00A
011
017
026
00C
1CC
01E
01D
004
001
006
1EB
00E
000
000
1F4
00A
01E
1E9
1F5
012
012
1EE
019
01F
1E7
1F2
1E8
1FC
002
009
020
1F4
04D
003
001
1E2
002
1E1
1EA
013
011
1E1
1E9
1FA
02D
1FF
009
1E3
1F8
1FE
1E6
1FB
012
009
1F0
1F5
1FF
019
1FD
007
04B
008
1CA
015
1D5
000
03D
02F
1EB
000
03E
000
031
1DA
1ED
1E1
00D
1CD
1F5
1ED
01A
1AE
1FA
1CD
019
00D
037
1F0
018
003
034
00B
021
1E8
1E9
1E8
022
008
1E1
1DC
005
1F5
1C0
1F3
012
1FB
1E1
1D9
1F1
1E7
1E5
1ED
1E8
00D
01E
012
1F8
009
1EA
1DC
000
1FB
1E9
1F5
1C5
020
1E4
035
1EC
1FC
026
1F0
1ED
1EE
01D
192
1FC
1ED
1F8
01B
1F7
1FA
038
024
1FD
00A
02C
1F6
1F3
02B
1EB
1E6
1F5
1C2
1FA
02D
1FC
01D
01B
004
1FF
045
1D1
1FD
044
004
00A
1A4
1D3
1E5
00E
1C2
000
025
1FF
012
002
027
1EC
1F8
018
039
00B
1FE
036
00B
1DF
015
1D6
1E1
1E3
1E6
1D3
017
1DE
1EE
1EE
1CB
012
1C6
01A
00B
026
01C
1E9
005
1EF
1F8
1F4
024
1D2
00B
1D7
00F
1E2
022
1C6
1D6
1F8
00D
1EF
007
00A
1FD
1D6
1E6
1FC
1FA
000
012
000
1F3
002
1DA
006
019
01D
004
1F7
1EB
1C7
1DC
013
00F
021
029
1FA
056
013
005
00A
00E
1C8
1E9
012
003
1F4
1EE
016
1B8
000
1FE
019
1E0
02D
024
1F7
01D
003
1FB
1E9
019
1E2
002
02F
008
1E8
1E9
1FB
1F5
00A
1FF
1E7
1F6
025
1CB
000
008
016
1F5
1F4
002
1F5
00E
1F1
003
016
1F0
1F3
1F7
1D8
1D1
017
1DE
004
1E6
011
1FC
1F3
004
002
1F7
1E3
1ED
026
007
1B1
1F6
00D
1E6
015
039
1E7
012
1FC
027
00F
038
1F5
009
1E0
013
009
007
000
1CC
1C4
020
00C
1FB
1F4
008
001
014
003
006
1E9
1E7
000
1DD
1DE
1E5
1E7
1E2
1F7
1FA
1F5
005
002
00A
005
1E0
1D9
017
036
1DB
001
1F0
015
010
002
1FF
007
025
01A
1E2
1F6
1B6
005
017
008
1DF
00E
013
00B
1D0
008
1F2
032
00C
022
008
00F
1C3
011
027
1F9
1EC
1F3
01F
1F1
1DA
005
1D1
020
008
00B
003
011
1F7
1FF
1E7
1DF
00A
01C
1FD
1F6
1E3
000
1DE
03E
1EB
01A
02B
1D0
068
1F8
1B7
1FA
00D
03B
1D7
042
010
04A
1C0
1EE
1D1
1F9
012
1FF
00E
029
1EE
1F8
1F6
032
00E
002
03D
1D7
1E8
1D2
1FA
1D0
1F7
1F2
036
02F
013
038
025
1E8
003
00C
02A
01F
1CC
1D6
1AF
056
1FB
005
1FF
1FB
1F4
1DC
1E6
004
010
00B
1FB
02F
1D5
026
005
004
018
1E8
012
1F4
004
1F4
02A
01D
1F0
00F
1AD
007
1FC
1FE
1E2
023
01F
1F9
01B
1E5
1D9
02D
01A
1E2
1E5
1C5
00B
003
1F4
1DB
010
1C5
1F8
005
026
1E3
00E
01B
1E4
013
1A8
00A
1E4
006
1CF
1F1
1F0
1C2
04C
03F
1AB
001
1E1
00E
013
049
1C9
1D1
004
1A9
042
1F4
014
018
036
002
049
04E
00A
1EF
1DC
007
17D
1D8
1F0
026
1ED
1E5
1BA
04D
050
1FE
003
1F9
02E
1DA
1E9
019
1D7
1F4
1FB
1F4
008
00B
1F1
1D8
006
1F3
1FC
022
1E5
02D
013
1CE
1F2
1DE
1F5
017
046
1FA
036
009
1CE
1ED
000
1C2
1E7
017
1ED
1FC
1E0
032
1E8
02A
01C
01D
1FA
03A
010
1F1
01E
013
1F4
014
00E
1C9
018
039
1FD
004
1DB
1EB
001
1FF
1F1
1FF
018
01A
01F
026
1CA
1EE
1E6
028
1E9
1DD
1DB
1F7
02A
1EF
01E
013
006
013
1F9
1E8
1F5
014
009
1F0
012
006
1F5
00B
1EA
1EE
00A
015
021
01B
022
01D
1EE
001
1E6
00E
1E6
000
01A
1E2
1E0
003
006
1FA
1EB
01E
011
1F1
1F8
1E1
1E5
020
1F4
1F8
014
1F0
1EC
1F6
030
1EC
028
1EB
009
1EC
00E
1D8
00A
021
1F9
00A
1FE
1F4
1F2
034
1E0
015
016
007
1ED
00D
027
01C
008
1F4
1DB
018
1F7
1FC
1F2
1E9
1DA
1F9
015
1FD
1F2
1DA
1E2
014
019
010
1FE
003
006
002
1FD
1D4
00F
1FE
00A
1F4
012
1E9
1EF
1F4
003
1DD
1F7
00A
1E5
00C
00A
003
007
00B
1E3
1F2
1F0
1EC
013
1F0
011
01A
004
009
1F8
1E4
1F1
015
1F3
00D
01F
1FE
00A
1DC
00E
00D
016
1EF
1FC
1D8
00F
1E8
1D8
008
1F0
014
1EC
00A
01F
007
003
1DD
1E8
1E4
00E
011
01A
1E4
1F8
1E9
1FC
01B
01B
01A
1FB
1F0
1F1
004
017
003
1DF
1E4
008
1FA
1C2
1F6
008
1FB
1F9
1F6
1CF
012
1FD
026
1E7
014
1D0
013
1F4
022
1E0
1F3
1FF
023
00A
013
015
008
1E7
012
00C
1E0
021
008
1FC
1D8
1D4
012
00D
1FA
1E3
1F9
1EE
1F3
032
01E
1F8
1F5
02D
008
011
019
1CA
011
1FB
008
1CA
1EF
1FC
1F7
199
002
00A
1F7
1B1
016
1F3
009
1FD
019
1F9
027
1E9
01B
004
022
1EE
1E0
039
004
022
1E8
003
002
017
000
1F1
020
1D2
1EC
1F7
1FC
1FD
00F
01C
01D
1FA
1F6
01F
009
00D
034
1E5
024
010
1D4
023
1F1
021
001
1DD
014
1F1
1F7
1DA
1DD
000
006
179
01E
1D9
001
1F0
038
003
070
012
1E3
01A
008
1F7
00C
037
18E
19A
019
15C
037
033
1FC
063
018
1FA
1E7
026
1C5
1F3
0C1
1FE
1B4
1B4
1C7
198
1CA
1D1
04B
060
1FF
056
1E3
1C2
019
1FF
1E1
1FE
1F2
018
019
00E
019
1ED
01E
1FA
014
002
1E2
1E7
1FB
023
014
1D0
01C
011
017
1FB
1D8
1FD
01A
00E
00C
1EC
1F8
1E0
027
1F0
1F1
1E5
010
1E0
016
003
01B
00B
008
010
1FD
1F4
00B
022
004
1D0
1EF
1E9
1EF
1F6
1C9
019
007
021
009
1EA
01E
000
1B5
1F3
1C2
1EF
008
03C
1DF
014
00F
1F6
017
031
1B8
02B
011
1D9
003
1F4
00D
1C4
010
1BC
02B
1EA
1D9
004
1F1
01E
012
030
1FF
029
1A2
1E5
029
1D3
1EB
020
1F0
1F4
1F7
017
013
009
1EC
1D8
1E5
1E8
1F8
1FD
019
1F2
1F5
026
015
002
1FC
016
1F9
1E4
1D6
1F8
1F2
1DE
00D
022
002
1F4
023
00F
04A
011
1D1
1E1
002
1C7
013
1E7
00C
011
00E
00F
029
1E5
00F
1FD
1FB
1DD
1FB
1F8
1F2
1E7
017
00D
027
1D2
009
1C9
013
1E6
02A
00F
008
00E
01D
00C
014
1F6
1DF
029
1CC
1B2
1ED
1F1
032
02A
1EE
1F4
014
1F8
015
1D1
1D3
1F2
1FA
004
01A
024
1E6
005
1F7
1FC
039
1EB
006
1FE
1F9
1EA
004
011
1FD
007
01B
014
1F6
1F2
1FE
003
020
019
01D
1F9
002
1E6
007
021
1D8
1F6
1FD
1F9
1FF
000
1DA
1F8
000
1F3
002
00F
01A
1FA
002
1D9
1EF
1EF
1F9
008
1F6
1E8
1EB
02C
00D
1FF
016
008
1F4
001
003
1EF
1FB
013
1F1
1ED
00F
004
008
191
1F5
025
035
001
02F
010
03B
00D
01B
00D
1F9
021
010
01B
195
1AE
1CF
1C0
00F
011
1E0
02D
025
1C2
01A
1FE
1C9
00B
03B
1F0
1D1
1DB
1F5
1C6
008
1F3
01F
031
037
018
1F3
1E5
007
1F2
1F4
1FE
001
1F5
1F8
003
00E
1CC
1FB
1DD
1EB
1F1
1FB
011
033
1D7
006
1F3
014
004
1FF
1EE
1FF
031
1F6
016
015
1AC
1E3
00C
1F2
1E1
1E8
1FA
1D5
1F7
026
031
1F4
011
011
02B
011
1DB
1CE
1EF
1DF
1EE
006
001
1ED
007
1EE
1F0
006
036
1F6
1E8
1D2
1E4
1D9
1F0
1F4
01A
1FA
1D6
007
1E8
1E9
1F0
1FE
00E
1FB
01F
1FA
00C
1F7
1D9
1E3
019
1C1
1D3
1EF
1DD
1D2
1FA
015
014
1DB
1FA
1FD
031
004
1E0
009
012
1E7
03A
1F2
1F9
1EF
1F8
1D7
1D1
1E5
01C
01E
024
1DB
012
1C8
1EF
1FB
02E
00A
1EA
021
01D
1E9
1D9
024
022
001
014
1F4
1F4
1FB
1DD
010
1EB
1F8
00A
01F
00A
1EE
000
1F1
1F2
1D5
020
1E7
020
1B2
028
041
1B3
000
005
1E1
1E3
00C
1F6
031
1F2
01B
1E6
027
1F3
021
017
000
00D
004
021
023
1EC
02D
1E6
1E6
1CB
1CF
1CD
1F5
1F3
01E
1FF
00D
1E4
004
036
00C
1F5
1E6
015
1EF
1EB
036
010
1EF
010
008
00F
03F
000
00B
019
1F7
00C
00E
00C
1F0
01E
1D2
011
1E6
042
004
022
025
1FD
010
00E
1D9
1B6
1E9
06C
1D8
1E4
00D
1E7
000
1FB
1EB
002
017
1E1
007
038
00D
014
1EC
1CE
00D
011
00C
02B
1CC
1CA
005
003
009
1D7
1F6
00B
1AC
03D
1EA
026
1EB
1F1
1E2
030
00B
1FC
1BF
01B
00A
02D
007
1F1
1F2
00C
016
020
1E7
048
1FD
00A
1FE
00B
1FE
009
1E5
00D
006
1AD
1F2
021
01A
1EA
03A
01D
050
1F4
1EA
034
1B0
1E2
1F1
1CD
1F1
017
1DA
005
013
1D0
00F
1FC
1E1
1F8
034
1F2
1D5
025
025
008
015
012
00E
001
032
000
033
1FB
1EA
1E3
00E
024
00F
1FF
1F8
001
018
1C2
1E0
028
1E1
038
018
1DB
1FC
039
1F0
1F0
076
025
1FB
1BD
1DE
1C7
019
1CA
1F1
023
04E
025
01B
1EC
1E5
1E5
1DD
1F2
007
1E4
1F9
1D2
1F4
006
013
002
008
014
02C
007
000
00B
006
023
000
02E
1B3
1D8
1E6
1ED
029
1EC
00B
1FA
047
1D8
01B
1F4
016
009
012
1FE
1D8
1F7
01C
1F9
1ED
1E9
012
009
012
030
01A
013
014
1E2
1D2
001
001
1EE
1D1
03D
1F5
014
007
010
1F9
009
1FC
007
00C
01A
1E5
01E
1E7
1E9
016
01B
1E6
01F
003
1F8
1E7
1F9
1FC
000
01C
1FF
025
1F4
1F7
000
1F3
019
1F4
000
1E9
010
1BF
008
020
1D3
1F4
1F7
1FA
1F4
1D3
1F8
013
1DE
1D4
1D4
1F9
014
1F8
00E
1E6
1FD
016
014
02A
016
009
00B
1E2
010
1DC
1D0
00D
1D0
002
00B
004
1E5
1F4
1E0
1FE
00E
002
004
014
1E5
1EA
1FA
018
1DE
1DC
1FA
01E
01B
00E
1E7
1E3
1CE
1E8
1FE
1B4
017
00E
006
1E8
011
1F1
002
00A
1F1
019
011
014
1EB
1F9
02B
002
1F4
1F6
1EE
1DE
1C5
1AF
1F7
017
00C
017
014
015
00E
028
1F4
1EF
1FE
03C
1FC
1D7
1F2
1EE
1F6
1F1
1EB
01B
1FB
027
1F5
012
1F0
008
1FB
1F9
1F8
1ED
1C3
001
02F
1FF
020
1D2
1F9
1D1
1FC
1F5
005
1FB
01A
013
01A
1F3
1F3
049
01D
1E4
021
1EF
1CF
1F2
1FB
019
02C
1C5
00E
043
1E4
1D6
00C
00D
1EB
193
00A
1EB
00C
1CC
1BE
1DA
1F1
1D6
1F5
1E1
007
1E1
003
1F0
1DF
1C7
1E0
019
005
000
1EF
1FF
1DB
009
005
01D
000
005
1FC
1F9
1FC
1C1
1D5
1FD
1FE
00D
1ED
012
1F9
009
1F2
002
1FB
1F4
1EB
008
1E8
020
030
001
006
1C9
03E
00D
1FF
01E
1CC
000
00C
1EB
011
1D9
1F9
001
1DA
1EB
1B8
008
006
1E7
1FA
1EE
002
1F5
010
01E
1DD
006
008
003
01D
1B6
1AE
023
1EA
1F0
001
001
1E0
004
1FF
1F7
011
01A
006
00B
015
1CF
1EF
00D
1EB
1D2
00D
1DC
02B
02B
1EB
1E1
1F3
00A
011
1EF
004
1F6
1F1
1D9
1F5
004
000
1FF
00A
001
1DE
007
1ED
005
005
1E7
007
00E
1F0
1D2
1E8
1DF
1FB
1F0
1D3
1F6
011
1F4
1F2
031
005
00C
017
1F8
1FB
1E4
019
005
012
1F7
01C
00B
00D
019
1F4
1EC
00E
1EE
018
1CD
00F
1F5
00F
1CE
196
1B7
00C
028
007
008
00F
026
029
021
1DA
007
002
00C
02F
19D
1BB
01C
1E9
1E4
014
1E7
004
012
1DE
03E
000
1C2
000
051
1AE
1CB
1F1
008
1EC
1EC
008
044
03D
031
007
006
00E
1ED
002
013
02D
022
02D
1E9
00F
007
001
1D2
005
1E5
1ED
1EE
002
011
1D3
006
000
1F6
1F5
1FE
026
1DB
02B
1D6
008
00E
00B
1FD
006
002
1F7
1E4
1F9
1CA
00E
00F
1F4
1B5
02D
004
1D2
01B
1B0
1EE
1B9
1EA
1F4
1DB
006
01F
1F8
015
1F1
000
045
01D
1D8
1BC
003
174
00C
1CD
1F3
017
1F3
000
1BD
016
1FD
020
01D
003
025
010
1FB
1FE
011
020
03C
1FB
1F5
011
017
1C0
003
019
01C
1AB
029
009
1FA
014
1AA
1B9
1E0
1F0
04A
1EE
00D
038
030
1EA
022
029
019
00B
008
1C1
1FF
1F8
1FB
026
013
1FE
1EB
018
002
012
1FB
1F8
00B
1D1
1F2
1EF
000
1EF
1FA
00F
1F0
1F1
017
003
006
1F5
1FE
010
007
1D6
004
000
008
1F5
1FA
016
1C7
1E7
1FE
004
012
016
00D
02A
012
000
006
010
005
1D9
1EC
01A
017
003
1EC
02C
1D7
1F7
1CE
1E8
1D6
1DF
1F9
1F9
01C
1E9
017
1E1
1EF
000
027
025
002
1D9
1F7
1F6
1F6
017
034
1D7
026
008
1F3
044
1CB
1EB
1C1
1FF
1B5
1EE
012
033
1F6
1FF
00A
024
052
005
1D1
009
008
1F8
1E1
1CA
1B1
1D6
00E
1AE
1E5
011
1FF
04F
03A
041
004
1EF
012
1EE
017
1F2
04E
00D
18F
013
1F0
1D1
01B
1FA
1E8
1D7
005
051
1FC
002
1A6
1AA
01D
007
1D3
1E8
1E2
1C7
1E7
1FB
1EF
1EC
00F
1E6
1D9
026
009
1F3
1F9
1EC
1CE
014
00B
1E0
008
1E5
005
1F2
1DC
1C6
1F3
01C
1E0
1FE
1F0
00B
006
019
1D9
00B
1E8
1E9
1F1
1F1
01A
1FC
012
008
1FE
019
1D0
000
1CD
1F9
1F6
000
009
06A
1EC
1C0
045
042
19A
00B
00C
02E
003
1EE
00D
023
024
1F4
1C8
00F
1CE
1FA
020
1FD
1F0
003
198
014
035
1E2
1F9
012
17A
025
006
1A5
1ED
054
1CB
1A1
1F5
00F
1B4
044
003
1F0
03C
02A
01E
1F7
1D4
00A
1EE
1D8
1ED
017
1CC
1F0
014
1F8
01C
005
015
1FD
014
014
009
00F
013
00A
031
00C
1ED
1F6
1BD
00E
1EE
007
1F0
1FE
1CB
1EC
1F1
011
003
027
011
013
008
1C7
1F0
00A
1EB
1FA
006
017
018
026
1FE
1F8
1EE
1DC
018
1BD
026
1E0
008
1E6
014
1E4
1E3
006
013
012
1F1
1F6
016
036
019
1E0
1FE
1D5
00B
007
1DB
1C5
010
1EC
1F0
1F5
004
1F6
1EC
01F
1E9
1F8
1F6
1DE
00F
1E5
01D
01A
015
1E0
018
1F5
007
00D
1EB
1E9
01B
1E5
1E8
1EA
004
009
1D9
1EC
1D1
1F5
02B
011
1E9
1F6
1F4
012
03C
01D
1ED
004
1F5
1E5
1EA
1D9
1BF
00E
007
1DE
010
1E5
1DE
027
1DC
1F0
025
1D8
1EE
038
01E
1E3
01B
1E9
01D
1DC
032
00F
027
052
1D0
002
1D1
013
015
1D7
007
029
1F9
1ED
1EE
1E8
1F2
003
1F9
1EF
1E2
1EF
023
00D
007
1DA
1E7
00A
019
1E3
1C8
1F5
1CA
001
1EF
015
1D7
1DE
036
019
1F4
1ED
006
1EF
004
01A
018
005
1F9
003
1FF
02A
1F8
00A
005
1F7
1E2
004
00A
1EE
1E1
031
1F1
1F9
041
03A
1CC
1FF
1F0
00B
1EC
1F4
1D7
1EB
1E5
1F8
1EC
1F8
1C9
031
024
1D0
031
1F8
1EB
1FD
1E8
018
030
1E9
00D
022
1FD
1A1
010
041
011
1D6
01F
000
000
011
1AA
1B4
006
008
1FE
000
1F0
1E0
1FB
004
003
1EA
1EE
1FC
1FF
1FD
1E6
1FD
00D
018
1F4
034
007
002
017
1EE
006
1E9
1E6
1F5
004
1F7
00E
002
007
00E
1FA
010
1EA
1D9
1F9
026
002
1F8
028
1FB
1F3
1F2
006
1F6
00C
014
004
1D9
01C
016
1E4
1E1
014
009
1EA
1E3
1FF
01E
00F
007
1FB
012
1F6
1FA
037
012
00B
006
00B
002
006
1F5
1D1
002
1FD
1F3
1FC
000
013
005
1F8
01B
003
010
1EE
1FE
01E
1D8
00B
020
002
1E6
1ED
1D9
017
001
1EE
00D
1EF
1E4
006
1EF
1E3
00D
1FA
1F0
1F0
003
004
001
005
00F
1F7
1DA
00B
008
1F8
007
00E
001
1F7
011
1E3
02F
1DD
006
1DD
1F8
1BD
1EE
003
00C
003
026
1F1
1DF
001
1E9
1F8
029
1ED
008
01C
1F0
026
1FD
036
008
008
1EF
00A
00A
1D9
1E9
1E4
1EE
1A6
01A
1F5
017
018
00E
002
01A
01B
01C
1F1
039
03D
017
1F7
1F9
1E2
00C
1D9
00E
1F9
1E2
1D2
00A
1D5
012
1FA
01B
1FD
01B
1C2
1F0
016
014
1D1
007
01E
18B
016
02F
020
001
006
1FB
1FD
003
1F6
02E
1EE
1F3
1F7
1F7
002
001
00E
1BA
1F5
00E
004
00D
010
014
1FA
009
1D8
004
1EC
1C4
1F6
1E4
1CE
00E
015
00C
029
024
011
01A
009
1DD
033
002
1F2
1F9
1F1
000
1E6
034
1CD
007
1E5
1EE
1D5
008
1FA
1C5
1F1
02E
1CF
1E4
013
024
002
1F2
013
1CA
1FE
1BF
1F9
007
026
1FB
1FA
1F7
1D5
032
004
19D
01E
002
1C8
1E4
012
1FE
06F
023
1C7
039
1E7
19B
020
004
013
1FE
1F9
1E9
1D0
03D
1C0
1B8
00B
008
023
010
002
00E
001
1F2
00D
013
00C
021
049
1ED
1F6
1E6
00B
00E
015
1DD
00C
020
01E
1D7
005
007
1FD
1E3
1ED
00C
1EA
1E0
1F4
1C8
1E5
1FA
046
012
009
1FC
01E
009
1E8
007
1D9
011
002
000
003
009
1D5
00E
1EF
1F6
1EB
1ED
01D
035
004
00A
1E5
008
013
1FD
1F5
1EB
1F2
1EE
020
029
1CF
015
1E6
00E
1DB
1C8
1EC
1DD
1FC
1E9
003
016
1DA
002
022
023
1E8
003
1E8
1C6
011
004
01A
00C
00B
009
006
02D
1E0
011
1E3
1E9
1DC
1DE
1E4
028
1BA
1DF
1EB
03D
000
024
1FD
031
1E9
027
00F
02F
028
1D0
01B
1F1
1EE
1EC
00E
056
011
061
1F4
021
1F6
1FE
046
038
010
1E9
032
032
1FF
1CF
02E
1EF
1B8
001
1C4
004
1DF
02B
1FB
1DE
018
00B
1C3
1ED
1FB
1FF
1EC
1F6
00F
017
001
1F0
1C9
02E
001
012
00E
1EE
1E6
01E
1E7
1ED
1DF
001
1F3
1E3
019
1CF
1F3
1EC
1F8
1F6
1F9
003
011
030
1E6
1C6
007
006
000
01E
038
1DD
002
1FE
1FB
01B
1EB
1FE
008
00A
012
1FB
017
1DF
1FF
1F5
1F2
1DB
1A0
017
025
1FB
1F9
000
000
005
012
1F1
1D4
00F
1E7
008
1E5
1F0
1E0
023
1BF
1DF
00C
010
1FD
1F3
1F5
1DB
026
007
005
01E
1DE
1D5
1DD
004
1DB
1EE
01C
1D7
01B
1F7
1E8
1FB
1DC
1FB
1F0
000
1C8
1E8
000
1EA
1FC
001
1EC
1FC
1FF
007
1EC
005
1E7
1EE
01A
1FB
027
1F1
1F1
000
1F3
011
1F4
024
1FC
1EF
1E5
1D3
002
1EA
1F9
007
016
1F6
1F8
1DF
1E7
016
1DC
1D8
004
00B
022
003
01B
014
1E5
00D
1F8
1EF
1E4
1FB
1D8
1DC
00E
017
00D
00F
1EA
002
012
1E0
00D
1D7
1EF
013
1FF
008
1F6
018
1F9
031
1F1
1FE
1BC
1E2
1C6
1FF
015
1EF
1FD
054
1EB
1F6
1F4
1DD
1E9
03B
1DD
1ED
01E
1E1
00A
1EA
028
1E3
01E
009
1E8
1F9
1EB
014
002
002
1F1
1F1
011
1E6
005
1CC
018
1F8
001
023
1F2
00F
01E
001
1F6
1F2
1FA
003
1C5
00B
1F8
1F9
1E4
1E1
1EA
00C
025
025
1EB
00D
1E1
00C
011
034
1E3
020
01E
011
00B
00C
017
00B
1FF
000
007
1D5
009
1E6
1C7
1C9
1ED
1EF
01F
01F
1F3
006
1E5
00B
1EA
01E
043
1DE
02A
1E0
1D9
009
1DD
1FD
018
014
1D0
00C
1FC
022
1FD
02E
1EB
010
1DD
00F
00A
1BE
1FD
012
002
1C7
032
1F3
007
026
1EC
1FD
1ED
00C
1F1
1D9
1F7
009
00C
1E7
039
02D
1F0
1EC
00C
1F8
1E8
1EB
1D2
1EC
1F1
00B
1EE
1DE
1EC
000
02F
1EC
006
1F6
1D9
1E5
013
1D1
01C
1EA
1ED
01B
1FE
1A8
020
039
000
000
1F2
1F3
1FD
019
1AC
1AA
006
001
007
1F4
1F6
012
00A
1D0
1EB
014
011
1F0
1FF
007
1ED
017
1FA
01B
019
016
021
1F4
013
1DD
1DF
003
1F3
1EE
010
00E
1F1
00C
1E4
1EE
1DB
1F2
1EF
013
1F1
039
01D
1DA
01B
1FD
016
1F0
011
1EA
022
00E
1EA
1D8
005
004
00F
1F7
012
1EF
025
00F
00C
000
1F7
016
005
1FF
012
019
1E8
1E7
00C
00A
002
003
00A
1FE
000
1F6
1EB
1ED
00F
1E8
1FB
01C
1E7
011
010
014
1F6
009
1EF
012
1DC
1F3
004
00F
1F0
006
1F2
1F9
01A
1E3
1F1
1EE
1FF
1DF
000
026
1F3
1FA
009
1E0
002
1F3
1F2
1FC
00F
1EC
00E
009
00D
1F2
1E7
004
1F4
006
1F9
1F5
027
1FC
011
1F1
1F0
1F2
02D
026
1F2
002
009
1E8
006
002
01E
1EE
024
1F0
001
022
1E8
1ED
002
002
006
1FF
1F7
011
1EA
1E7
01C
019
1E9
006
1D1
003
1DC
01B
010
023
1C9
1F3
1D8
008
018
1F8
008
000
1FB
015
1D8
011
1F8
016
00D
1E3
1BE
1D9
016
005
1EA
01C
016
020
1E3
1F9
1D9
005
1D3
1D8
000
1D4
014
1DD
1DF
1F0
006
02F
1F1
1E9
1FF
012
1EB
1FF
1FB
1EB
1DD
1EC
1EE
1D7
012
1F5
1F7
1E6
1F3
1FD
1E6
019
005
1D3
1C7
1F5
011
1F8
1E2
013
1FA
1E7
1EA
1EC
1E1
024
00A
1BF
1E1
1EA
1C0
1F5
013
1E9
015
1FA
1F1
1D6
00F
1D9
1ED
006
007
1BF
1F2
1FA
01F
1EB
005
000
012
00E
1E4
1E9
02D
1EC
1F7
1D3
1D6
1EB
1FB
044
026
1FE
1F1
1F3
031
1E0
1E5
02E
1F9
1F0
1C7
007
1F8
004
1F3
000
1FD
1EE
003
1E3
015
1C5
00A
017
1CE
1F7
1E8
1D6
00D
002
1ED
010
014
012
1EF
00E
1E4
002
1E5
00F
009
00E
1EB
1FA
004
024
004
1E5
1F1
1EF
1EE
1C3
1D2
1E2
016
1EC
019
1F5
01C
1F9
017
1F1
1ED
037
027
1F1
00E
1EF
1D9
00D
1CD
02B
1FB
001
1E6
1DA
00C
000
011
040
1E7
007
008
030
1FC
008
018
015
1FC
1CC
1FF
1F0
005
02C
009
000
1E2
1E5
001
1F4
1FB
1F0
1E7
1F5
1F3
002
1F1
009
1EE
008
1EE
1E4
1EB
1EF
022
1E0
01D
1E7
1DD
01C
01B
019
1F8
1F9
1F3
00C
1F4
1DF
1FD
1D5
1ED
1E1
1DD
1C1
014
002
00B
1E9
017
1E6
00C
1D4
010
1FD
004
1CB
1F6
1FE
004
011
013
00D
036
02E
1ED
00A
1E4
00F
007
1FE
00A
01F
01D
001
1DB
023
007
00D
020
1E1
00C
1D7
002
00D
004
1E4
1C5
1F3
003
1D9
1DE
1E9
1B4
003
022
024
010
1F9
00B
00E
1FA
000
000
1F0
00C
00A
018
1ED
1E8
1F9
1F9
1F1
1F4
016
1D8
1EB
1EF
012
1F7
1F5
004
01F
1E2
1F1
02E
1DE
1EF
00F
1F8
1E5
1E7
003
006
00D
1E2
001
1FD
1E7
1E7
1EA
015
01F
007
009
1DC
1F3
013
005
012
012
1F5
007
021
011
1F3
014
004
1FC
00C
1DB
1CF
016
1ED
1E6
1FE
006
025
004
007
012
1F6
1E6
1F7
00E
00B
1F5
1F4
1E6
1F1
011
1F5
028
01D
001
1FB
1E9
1F3
010
1F9
1EF
1EF
034
011
010
015
013
008
03F
1F0
1E9
009
1EA
017
003
1ED
01B
1F7
1E1
012
009
00E
021
1E9
010
00D
1F2
1E5
1DE
011
004
027
00C
015
1FC
00B
00E
1FD
1FF
1E9
00C
1FF
00B
003
1F5
014
1E9
1EC
1F9
012
1D8
1E9
1C3
1EA
1DE
02C
02B
1D4
017
004
046
1F8
006
1D8
001
02C
1CD
01D
1E8
1F7
01D
005
1CE
00A
02B
1FF
1EC
1FD
015
1CF
1F5
1B6
1FC
1DF
01B
1E2
1EF
029
1F9
027
1BE
008
1DD
030
00F
020
1E2
003
1FB
1E6
012
1FC
01A
035
003
1F7
1E6
005
009
005
1FC
008
00D
1EF
1BD
1FF
003
1D6
001
1F4
015
002
1CF
1DD
007
018
000
016
1EF
019
1D7
014
003
1FC
012
01A
1FB
1E5
008
00A
031
1D6
019
1EF
1C0
002
1E8
013
014
00B
1EA
01A
00D
1EE
024
01A
1E4
029
1D8
1FC
1D7
00C
1E1
02A
011
024
01B
1E5
1F1
1F3
1FE
1F2
034
015
1ED
029
1EC
1E0
012
1F0
00D
1E7
1F2
1E9
019
1F9
002
019
00B
00D
01A
028
00C
016
024
010
1FB
009
1FD
1F3
1C0
011
1B9
18D
00F
02E
014
016
1F3
1E6
1F1
004
1CD
1FD
1FD
029
1DE
1ED
1F9
1D5
013
024
1EB
02A
1FA
1ED
1ED
1E8
011
010
1F7
1DB
00C
1E5
006
1F8
1CE
00F
010
023
1A7
02A
1C1
00C
1F7
1FD
1E8
00E
00A
1E1
00A
1FA
1DC
1E6
013
017
1CC
02B
00E
1E6
00C
1F5
01C
1FE
1E0
000
1FC
1FE
000
005
1F7
1D9
011
002
00D
1F1
000
1EA
011
1FC
1ED
025
016
1F1
004
1F8
1E8
00A
015
1FD
1E5
1EB
1E1
003
015
02B
00D
009
1EF
1F2
1F7
01A
1F4
013
1F3
1F2
1CC
017
01E
018
004
00E
1F0
1EE
1F9
017
1E0
001
1F3
1F0
1E8
009
1E8
015
014
1E7
1E7
1F0
019
1FD
1FC
1E7
01B
1E1
020
004
1DD
1F0
043
001
004
1FB
1FD
006
00B
015
015
1D8
1ED
1F3
1CE
1D0
1EE
1F0
00B
029
1EC
1F7
1FA
00E
00C
1FD
1FA
00E
005
1E0
1E6
1F8
00F
1FB
013
006
1EC
033
001
02A
017
1F4
01B
013
00E
1CD
1EE
00F
00C
1F0
014
025
1D8
04D
1DE
011
025
1F7
006
1F7
00B
1EB
1FF
00B
02A
1DD
1F9
033
027
1EB
036
1D7
01C
1F5
1D3
008
023
1D8
1C7
00A
03E
03E
1FE
04D
1F6
022
020
1D0
1E8
1F5
1E9
00C
1E5
004
017
010
1FD
1F0
1FE
021
006
1AB
004
1B3
041
1A0
026
1E8
1D2
1F1
1E3
1E9
1F5
1E2
045
1FC
008
1F6
014
1AB
01A
012
1EB
005
1EA
1FC
029
03B
1FB
1F0
05E
00E
1DD
020
1D0
1CE
1E5
1AE
1F5
1F2
1E5
1ED
1F0
1F9
00B
02C
1EB
001
01E
060
1C0
1F6
1ED
1C4
01E
1E1
007
1FA
018
01C
1F0
1E9
00A
1E7
042
1E1
1FE
1E0
024
1DA
026
1EE
1B7
1EA
1FA
1E5
01C
031
1FD
1ED
07D
014
1E3
1F9
1CE
1FA
1F0
1CA
1DF
003
1EE
1CE
012
1F4
1F2
03E
1EB
004
1EE
02C
1ED
1C1
1A3
1F9
1F7
1E0
004
1F9
006
1EA
008
025
1EE
1E7
1E9
1E7
1EB
1E9
001
1D4
008
00E
1C4
00C
1DF
1F1
043
040
1DE
1CD
077
014
009
035
1B9
1D9
007
1CF
1D7
1DE
018
028
1D9
00B
014
038
004
00A
029
04A
1EB
1E5
1A6
1CF
1D0
1A9
02C
1FB
02C
1C3
1F9
1F0
015
1EE
02C
1EB
1E6
008
042
1FB
013
1E9
006
015
005
00B
00B
008
1FB
1FD
028
016
1DE
1FE
01A
006
1DB
1F4
1FD
00D
000
1ED
1FF
1FB
000
005
1FC
006
1F5
01C
1C2
1D9
1F1
1D3
02C
1D6
01B
001
1EB
01A
1F8
1F0
1ED
006
1F8
024
1CE
1F6
004
00B
017
1F5
00B
1E9
1F2
1F9
1D1
1D4
019
00D
1D8
1F8
00F
008
007
01F
1EE
01A
007
022
1FA
00A
00B
1F1
011
1F1
1E3
012
023
1F2
003
01C
1FD
01D
1E7
020
1EA
00A
011
006
1F4
005
1E0
1DF
1F2
1F6
1B9
1D2
1F2
01D
1F9
026
1F9
1E3
1D2
005
00D
033
004
1FB
023
014
1E8
1E3
00A
1F3
00F
1EB
1F3
1DB
1DF
1D2
001
1E1
01C
001
033
00C
000
00F
1C0
1EC
1F6
1F0
1D3
01F
1DB
01F
039
1F5
1E3
1FD
1DE
014
025
002
00B
01B
1EF
1F5
1DB
000
00C
1E8
01B
1FF
00A
1F7
1F4
01C
000
00C
1F7
004
1E7
017
1F7
010
1E8
000
00A
016
1F8
00C
019
1FF
1DF
1E9
025
00B
00B
00A
1F8
023
00B
1F3
003
1F8
1F7
025
004
020
1E6
1FD
1CA
1D1
1EA
1E6
1F1
004
003
1E8
033
1F1
1D6
1F0
01E
009
1F9
022
043
1EC
020
028
023
028
00B
1E6
01C
1FE
019
00A
1F8
1FE
038
003
1F0
1F2
1F1
00E
00A
1F7
1E6
1CA
00C
1E1
01D
1F4
00C
01B
00C
1E0
000
1E6
1D0
00B
1BC
1D1
1CB
023
1E3
01D
00F
1FC
1E2
012
1F7
1FC
002
01F
1EE
1F6
014
1FB
011
024
1F5
02A
01C
1F2
001
1EA
008
026
1F5
1BF
020
001
1FA
1D7
01D
008
026
011
1BF
024
1B7
021
013
021
003
1C9
00A
1E4
002
000
1EB
00E
034
01D
1EB
1E2
01A
1EE
025
1E0
1EC
1EC
1EE
01D
1DC
1D9
1EE
02A
000
02E
01A
023
027
043
00E
1FA
005
001
1FC
1E7
1ED
00A
01E
00D
00E
1E4
1E7
01E
039
1E0
052
000
1D6
048
1EA
002
008
1E9
1EC
1F1
01A
00D
1D4
00B
1E5
1F9
1F9
014
1E6
009
1F8
003
1FF
004
042
008
1E9
1F3
1E6
1FB
1D1
015
1E8
1FA
00C
00A
1ED
1FD
034
1FB
1E9
00D
1DB
1F9
015
1F6
1E1
000
016
1D5
008
1F0
1ED
1E1
00D
00B
00C
009
1FE
1DC
164
16F
014
01D
022
026
1DE
006
1DC
003
002
024
1EC
003
015
003
007
005
030
01B
1DF
1FF
009
1E7
000
005
02F
1C2
1EF
00B
022
1EE
02E
1FD
1E2
002
1F6
020
1C9
01F
1BE
056
032
1F7
1E6
1EF
1DD
003
1DC
1EC
1F1
1E9
1A1
00F
1E6
006
01D
1E1
00A
004
012
000
003
1F2
004
021
1DA
1F5
00E
1DD
001
01E
008
1E8
015
1FA
020
1E9
1E3
01C
013
1F3
015
01A
008
007
1EF
00C
1E9
038
1ED
1FD
020
1D9
1FD
014
1F5
1E5
037
1F9
1FE
03A
1D5
1DF
1F9
1F3
1EE
1EB
1FF
1EB
031
1F0
1E8
015
1FA
006
1F1
005
1F3
1FA
1D4
1EC
013
023
1E4
02F
1E3
1BE
027
006
1F2
1FC
03B
000
1D7
004
023
002
037
1EC
015
017
013
1DE
004
1F2
007
016
1DD
006
1F6
1F9
1E0
01E
1F3
1F2
019
1FB
1FF
1F9
1FA
1E0
1F7
013
1D8
1F7
1DE
000
008
00C
008
012
1F9
005
000
00F
03B
1ED
010
1EF
1FB
1EA
013
018
1E3
00F
01E
01F
1DF
009
1F3
017
016
1F1
1F5
1FE
01B
1F3
015
1F0
1BB
1F5
1FC
1B1
1E6
1FD
013
011
041
003
037
006
00A
016
01B
04E
1F4
000
015
006
001
1DE
014
00E
007
1E0
022
1F4
1EE
026
1EF
009
05B
011
1FC
017
1F6
1DD
1F1
1EB
00E
042
02A
018
00D
015
1EE
1FE
1CD
1EF
000
1E4
1E8
1F6
007
00C
1FA
1E1
1EB
1E4
1F1
01C
1E6
1D9
00F
011
00A
1F8
012
1E8
1DF
1FB
1E7
005
1E8
1E7
015
1FA
1F0
024
00F
000
1F9
009
001
1F7
1D3
1F8
00A
019
1F9
00A
1EC
009
1EE
1E0
1F4
1F8
00B
1E3
005
1E7
005
015
027
1F4
1F9
1E5
1CC
1E7
1D6
005
1F8
1E3
1FC
002
018
1FC
01F
022
009
01B
000
1F0
014
002
1E9
027
00E
1ED
025
1E6
1B0
017
02B
1F4
1F6
004
009
02D
1FB
1AC
1FB
013
1DC
016
009
1FB
020
1FE
1F9
021
00C
1F4
1FA
012
1B4
018
1A9
1E4
1C9
1F1
012
000
003
012
1F2
1F6
01A
1F1
1F0
1FD
1F5
1DF
1F5
015
1C3
03B
1DC
1E0
024
006
1CA
007
1DD
1E3
000
000
019
1EF
1F0
1FE
1E7
029
1F7
000
1ED
1E6
1D5
001
1CA
001
1A5
1FF
1F5
009
1D4
004
014
1E1
1E8
1E6
1FA
02D
1E6
1E7
00A
1F1
1FD
1E3
1ED
00C
002
1D5
1F8
008
014
00F
1F7
000
003
1E9
004
1E5
1DD
1DA
1FA
034
1EC
1F9
024
019
1FE
1F3
1DD
01A
003
1EB
1D8
1E3
1FF
1EE
1F4
1FD
1FD
1F0
023
1E1
042
017
03B
1E2
1F5
03C
00E
1EE
1F8
1F0
1DB
1D7
1F8
1EE
026
1D7
000
03D
1F9
025
1FA
016
01B
1E3
01A
00E
1F5
1F4
029
1F6
1D7
1C2
1FA
01C
1FA
021
019
012
1E7
1E7
1F7
004
01E
025
007
005
1BA
1F8
1D6
019
1F4
001
1EC
1DC
1CB
039
1FE
014
1F9
1F2
002
1D2
1D1
1D3
00F
1AB
003
1F8
004
019
1CF
015
032
017
1F8
03A
1C3
1CD
00C
009
023
1B7
1FB
00A
00A
016
001
1F7
01E
1E1
1EE
1B4
1EC
19D
1F4
1C9
032
015
00D
1F0
00B
1EA
078
057
02F
1D9
02D
01C
00A
1D8
1EB
1EE
038
1EA
03F
1FA
01A
1CF
024
00A
02B
033
003
1E5
1E3
002
1E1
026
1E9
005
1F9
1FA
00B
00A
04B
005
1FA
1F1
1FC
007
033
03A
01D
02A
00D
1C8
1C4
1E3
1D8
009
1FF
00A
01A
1DF
1FA
1FE
00D
1FE
1E8
01C
010
1E5
007
1AB
1D1
1E0
1FB
016
1EE
005
1A3
01D
1FF
1FE
021
01F
1AA
1FA
029
1D4
1F1
1A9
1E1
01B
1F1
1F6
01B
004
1EE
1E3
009
011
1EC
1E3
1DB
1F6
005
000
024
1E6
004
1F7
1F3
1E3
1EB
000
1D9
007
1F4
1ED
02F
00A
1DD
017
1FD
1E4
004
016
1FF
015
032
005
018
1F6
1EE
1FF
012
010
1FB
1FB
000
1F0
1EF
000
1FF
1F8
00E
007
1E6
1FC
010
1E9
1F1
1F9
1E4
014
1DD
01A
1F7
1FD
004
019
023
005
1FF
00D
1FE
012
008
1F5
021
1E4
1F3
1F5
1FD
004
000
1FD
003
1E3
1F0
01A
014
00E
02E
1F6
00B
1FB
1FF
000
017
1E5
1EF
004
007
1F8
00A
019
010
1F7
1F8
014
1AC
1B3
1CA
007
1CA
033
1ED
012
01E
1E7
1E9
02B
02C
00E
1C6
009
1E8
00A
1EB
000
1D1
027
00B
01A
1FF
00F
054
1D1
1F8
1E3
1E4
1E8
042
1EC
1DA
00B
1D6
02E
1C8
014
01B
010
001
026
00B
004
00C
012
1E8
028
01E
1F2
1E3
02F
1E0
029
022
015
002
1E6
1E1
013
013
03F
1E5
1BF
1E4
1C2
04A
003
1E4
02A
014
1DC
019
00E
1F0
043
00F
1B7
024
1F8
1A4
028
1AD
1FC
1F1
02D
026
1DF
01A
18E
1D3
005
003
1F4
005
008
1C5
00B
1DD
1E1
1CC
1EE
1D0
00B
003
1F7
019
1E0
1EC
000
041
023
1D6
022
1E2
1FF
1E5
1F7
00B
1FF
004
003
1F0
016
011
1FB
033
003
01E
1FB
01E
1FC
1E8
00A
000
1FD
1D7
031
1FC
026
02E
1FA
1E8
1DE
1FA
1F1
005
1F7
002
1E6
1FC
042
00A
1C6
00D
1E0
01B
00E
019
1EC
1CF
01B
008
00C
1DE
014
1F4
012
1CA
013
012
1D0
1EB
033
006
1EB
1F8
1F8
02E
1F6
1F9
020
015
00F
1F9
1DD
008
1E9
00E
00E
1ED
1FE
00C
1D5
00F
005
1E7
1EC
1E8
1B1
1DB
01E
1F7
01B
021
1FF
01B
017
012
1ED
013
047
1F4
039
1F6
015
003
1F5
1F6
1E5
031
1F5
009
002
008
1D0
014
00E
035
1E3
033
1FF
1E4
1F7
1FA
1E6
1E4
1F9
1F2
010
00B
1F7
1EF
00D
1EB
1EB
017
1FB
028
020
01B
1B1
1A9
014
1EC
009
01B
002
00D
010
027
1DE
03B
1D8
00C
1FC
021
1F1
012
1EF
1B4
014
013
1D7
1F7
01A
1B0
029
1E7
1E7
018
1F4
1F2
1F8
023
1E2
03A
03A
1F0
021
010
01E
003
1F8
00A
1F6
1B5
00D
00E
1F6
1CE
1F7
012
1EC
011
1E8
01F
1E9
1F3
1FB
010
005
1FD
01B
002
001
009
01B
1EE
010
014
1FF
00E
004
00A
1FD
00B
1FE
018
1F2
1F5
1F7
034
1FC
019
021
1DD
1D5
1FB
1D6
000
1E4
1E2
003
00E
1EA
1DC
006
001
1FE
1E2
027
024
1DA
00C
00F
028
001
1E7
1D0
1FA
013
1D8
012
006
1E8
023
013
1E7
03C
02B
1D4
1EC
00F
01F
1FD
004
001
012
006
1DD
001
016
00F
1F1
028
1EC
1FD
1F6
1D8
1E9
1FD
1FB
1C6
001
1EA
1D9
1DC
005
1E8
1EC
00F
020
1DF
1F5
1F1
1E8
1E3
1D9
1AF
1CA
016
008
007
006
1DB
033
02A
025
014
00A
1DB
1EB
008
1D8
057
1B1
1DA
034
016
1C0
1EE
04B
1DD
1F6
00A
1D6
1D1
003
1C3
194
020
1F4
009
1E2
1FB
1AC
1F4
1D7
1B3
1B8
00E
010
1F2
1FC
1F8
016
1F2
1DE
011
00A
01B
1ED
017
00F
00D
01A
005
019
031
00F
00F
1EA
1F7
028
1FD
1ED
010
032
1F1
1F6
005
018
00A
1F8
035
1B3
02E
001
005
1FC
1E5
1DC
1FF
1E6
1E6
00E
1FF
00D
1E9
1FF
1FA
015
01F
001
1F6
002
1FC
1F1
002
1E9
1F2
000
017
1E3
00D
1EA
01B
037
1F4
1E0
1E4
1EB
1E4
1ED
020
1F2
02B
01C
1F2
02C
009
1CA
1FF
028
1C1
018
040
009
03B
1E6
039
005
1E8
1F5
1F8
1E1
1FB
1D6
1C6
1D5
1DE
1F8
01E
004
001
006
1E1
1DA
00A
014
016
1BC
1F5
1DB
1E7
1EB
1CF
1CD
029
00A
01B
01D
1F5
010
00B
1FA
1F0
007
1E9
007
017
1DF
1F1
1E0
02A
17E
1EE
013
032
020
003
1E4
022
1F8
1E9
04D
1FC
03A
043
02B
1B4
006
1F0
1CC
1E8
1FE
1F0
012
032
1DE
1BA
05A
027
007
1D0
011
01F
04D
1C1
1C3
000
1FC
1FB
1D0
01A
1F3
061
00A
1DD
1EB
1EF
028
1DE
019
1D6
044
00C
1E2
00A
1FD
1FA
1E6
1F7
014
1E9
021
00A
1D9
005
00C
02B
1FF
1D6
1F3
016
003
008
028
1FC
1D6
026
010
012
1FC
1F6
02C
030
1EA
1F4
02B
1C5
1E3
018
1E0
03C
1F0
034
01F
1FB
1C3
00D
007
1D1
000
1EA
1EB
1EB
016
1ED
1D9
002
013
1F2
1EA
00B
1E4
001
1E7
1DE
1B0
00A
017
023
023
1F6
006
009
026
00B
1E3
022
1F8
018
1F0
1EB
1FA
1F4
1DF
00D
00D
1EF
006
01C
025
1E3
1F2
1FB
1FD
1EE
008
024
1F3
003
009
1E6
1CC
004
01A
027
005
012
000
011
004
1E9
003
01E
1F6
017
011
1CD
1DE
009
010
000
1FE
1E0
1FA
012
014
1E4
01C
1EE
007
00A
002
1EE
1ED
1FD
1CE
016
1E9
001
1E9
1FF
1E9
008
1F6
005
00B
1FC
002
1F7
005
029
006
014
001
023
1F3
1ED
1FE
018
1E4
012
1BC
1FE
1D8
1B8
1C9
005
1DF
02D
00C
1FC
00E
1E2
00C
01B
00D
1FB
1F0
1EA
1DE
001
1EF
1E2
02C
013
1F7
01C
002
1D0
02B
1DB
1C6
1F5
1DF
1F1
02D
1E0
1E2
01D
00F
01A
1BC
038
1D2
059
043
028
1E3
010
1FF
1E5
1EB
00E
01B
1E5
1E2
1FC
01B
009
1E7
001
1EB
00F
1D2
004
012
025
1E0
1F6
1E2
1E3
013
1F9
020
032
1DD
1CD
00B
1F6
02E
00B
1F1
1D0
1EE
1EC
1BE
014
01E
1FF
1D5
04F
1E7
000
00C
1D8
1E6
1A7
1F2
01A
1ED
1DF
1DC
02A
1E3
1B6
1F9
01B
1F8
03D
018
1F7
1EE
1EA
1ED
02E
017
01C
1C9
00C
1EC
1CB
1D8
1ED
1FC
027
002
009
014
1FE
037
1D9
1F3
1CB
1EB
1F1
02D
010
1C1
00E
1E6
034
1DA
005
1D6
03E
035
1DB
1DF
1EF
1E0
009
1CD
1EE
1DA
1C5
1D8
04E
1FB
002
01B
00C
004
1E5
1FD
1F4
1F0
03A
1F9
018
1E4
1E4
015
023
1F6
041
034
1DB
00A
016
027
1FC
1FD
1CF
03D
00E
1D4
019
1F3
1F7
1EC
03C
1CA
1EE
1F2
1F8
1F6
1F1
013
019
1EC
007
01B
1FE
009
013
010
1CB
1CA
00F
023
1E8
01F
004
017
1FC
011
01C
012
1DF
000
010
1E9
1EB
1F7
1E2
000
017
1E2
01C
1F0
1FD
1FC
1F4
1D8
1F3
019
00B
1F0
1E1
025
1E9
01B
1F8
000
01B
1EE
028
1F2
023
010
1F7
1FF
004
016
015
1FF
1D3
1C7
1FC
1E5
1FD
1B4
00C
038
00F
01C
1DC
018
002
004
012
1E6
1EB
01E
1F7
1C3
01B
1F9
017
1E5
015
040
014
1F6
001
021
1EB
009
1FE
028
1DD
01A
1DF
007
1F5
006
020
002
017
001
1F3
19A
013
00D
1F8
1DF
016
1E7
1FB
02F
1E5
000
1E1
012
1CD
01C
1FD
1E0
002
008
1F5
1FC
1F4
1F9
013
00F
1E2
1DF
020
00F
019
019
1F9
000
00E
021
1E3
000
025
018
1FD
1DC
002
1E6
030
011
1F2
002
1E3
1F6
1DF
1BA
1E1
1FD
1E7
1C2
023
007
013
036
1E4
035
007
004
1E1
1E4
05F
1EE
019
1F8
1E9
01B
006
1E9
1FE
026
1BD
004
02D
02D
1F7
003
001
02B
00A
1F9
022
1F8
1DC
020
1FC
1EA
1E6
1FB
014
007
017
1F4
1FA
1DF
1E8
1BE
1FA
1C3
1A0
19D
016
011
015
1D1
001
1FF
1EB
1FA
1F1
1CC
1D5
00D
017
1EA
001
03F
027
00A
01E
01D
1E5
1E9
1F0
005
036
1B1
02F
041
1F0
1CD
012
034
1D5
1F1
015
18F
1F6
1FC
008
1EF
003
1DE
00C
1E3
1F2
19C
015
1CD
1BD
1CC
004
1F2
01B
021
1E8
015
1F5
010
006
1F0
02B
1F0
034
008
1FF
1E5
1ED
1F0
012
022
00B
00E
005
02D
1E3
1EE
1E6
012
1DF
018
1D8
1E8
1F9
010
004
1DC
1FD
1EA
035
020
010
000
00F
007
015
014
1F0
02B
054
054
1DD
003
1BC
1C7
1EA
1D1
004
185
00B
1DA
185
014
182
1E9
1DF
04F
012
040
1DD
1D8
1F2
013
1C1
199
05C
1C1
01D
1EF
01A
1A8
1ED
01D
1EA
040
1D0
06D
023
1F4
1DD
16E
03F
1EA
1F4
008
009
1B9
007
195
16F
1AE
1FB
02A
010
020
1EA
003
1F2
1EE
022
01E
003
1EB
1F2
004
008
1D8
1D8
1D4
031
018
017
00D
1E5
02A
1FC
1D0
1F4
1DF
1EE
032
1D9
1F3
021
1DC
035
13F
027
031
033
051
004
1ED
003
1E1
010
009
02C
030
02E
020
1D3
1E8
1E3
1EB
1FB
003
1F8
1F0
1F1
1FE
1A4
018
1B2
00A
01B
011
024
009
00A
1ED
01F
1EA
1FB
1C4
015
1FD
001
1E5
018
1E8
1DD
042
002
1F6
1F1
048
002
029
1FB
1EC
024
1FC
1F2
1ED
1FF
1CA
004
1ED
1C5
1C5
042
042
003
1EE
1FC
02D
1E4
036
1FE
1E1
046
1D6
1E7
1E0
1F0
1DA
1E9
03D
032
03A
004
1E8
003
053
1E7
1B5
1ED
00C
1E1
020
1F2
1ED
014
1CE
038
18E
1F0
034
1FB
1E4
020
00B
016
1F9
1F0
1E7
1EE
1FA
006
1F0
008
1E2
025
1ED
007
013
1F1
1F5
1FE
1F0
005
1E2
1F8
1FA
1E4
00B
1EF
1EE
1F2
1EE
1FC
1ED
1FF
006
1F6
009
006
005
010
1FD
1D4
1ED
018
027
1FD
1FE
005
014
038
011
1FF
00C
00B
007
009
1FC
004
02C
032
010
00E
00C
000
1E1
012
1AA
1E5
1C9
1F7
006
1AD
01D
1CD
1EB
1FC
022
01D
027
015
1E7
00E
1E7
002
1C7
022
01E
031
1FF
1FB
1C3
01A
00C
1EF
01A
1FD
048
1F1
1FD
1D0
1CD
016
000
03D
1EF
1F5
1DC
00D
00B
1E0
1E8
1BE
1C2
02B
01E
019
1F1
1ED
1FE
029
025
019
018
00B
1DF
1F7
1E3
1E6
011
1C2
1E5
1F3
014
1DA
1E3
1BC
1ED
02B
045
014
018
1FD
1C3
1F8
023
1BF
1FD
03A
1DB
03A
025
011
000
006
017
00E
1C9
000
1E4
1F6
1F2
025
02C
006
1E3
002
1FD
1FD
1EF
002
020
017
1F7
01C
013
1EF
1FA
013
004
01C
00F
006
1F5
00A
1FF
026
01C
1E5
004
1F2
1FC
015
019
01E
1CB
01E
1A8
001
01B
001
03D
1E1
1E6
002
008
1F8
1EC
03F
1E0
1E3
027
1F9
1F5
013
1FD
00B
1F0
1FE
008
00C
008
025
003
018
1EE
1F0
029
008
1F0
1FE
1F1
005
015
1F3
019
1E6
015
00E
1FC
010
1F9
008
1DD
1DC
1F4
001
1EC
00D
1E3
000
019
1C1
1D3
1DD
014
009
1AE
003
1DC
1D0
1EA
012
02E
015
01E
1F3
1E9
1ED
1D3
1FE
002
029
1CE
1E7
010
1E5
1F5
000
004
042
023
1E7
1F7
1EB
030
1D4
1DF
1C0
001
1F8
1F0
01F
1EA
1FB
1FF
03A
19E
02A
1DB
1F2
004
1F8
003
018
011
1DC
00B
1F8
040
032
03A
1ED
1D9
00F
1D4
1E5
168
1F3
1DB
008
009
1D9
033
005
002
017
008
01F
010
1E5
1A8
1FA
1E7
014
1C9
00A
026
00A
1E1
1E7
1C8
016
1FD
1DB
013
1CD
052
1F1
011
1C7
1E0
1F0
01D
1F8
1F3
00B
019
1EA
1DF
1F7
1E7
1E6
1DC
1E0
1FB
017
1F9
00C
047
1D5
007
02A
018
03C
1ED
04A
011
006
1F0
001
011
1E3
019
021
1EC
1FD
01A
023
01F
1F9
01C
1DE
009
001
029
1ED
1F5
1B9
1E6
1E1
1D9
004
1FE
02B
1EA
000
1F1
1F4
1D4
1CE
019
1E2
1CC
006
003
1F0
1F9
1F0
026
014
005
012
030
00F
1F1
006
1E6
1D8
001
1CD
016
1F0
019
014
1EA
1EE
01F
02A
01A
1F9
00A
1ED
1A9
1F5
010
1C4
1FC
014
1FA
030
014
02F
001
00E
1DE
013
1BE
1E2
1D0
1DF
1C8
1DF
00E
02C
01F
1DF
01F
1E9
032
002
1FE
032
00B
02F
1E5
00D
1E3
1DE
1B1
1FD
033
003
00D
03A
025
1CC
009
01C
03E
1F9
046
1EA
1C4
1F3
01C
015
1F2
1FF
1C9
01F
006
012
1F5
1E8
1E6
1EF
19E
1DA
1C6
181
1BE
1EA
011
1FF
013
00C
014
1F4
02E
02F
1F0
1F3
05A
026
00D
001
1FC
016
00D
1C4
00C
1E5
1FA
1F0
000
01B
1F3
041
019
00D
1F5
006
022
1E4
017
1D1
196
1D0
00D
017
1DB
025
1EF
017
002
011
19E
1DF
1F2
1C7
1B4
1E6
1E8
00A
00D
1FF
008
1FE
1FB
00B
028
00F
005
031
007
007
1EF
1D0
00E
1EC
008
1E1
003
1F7
1F1
1EE
1F0
00C
002
1E6
021
1EF
1EE
01C
01D
1D4
1DD
010
1F3
01E
01A
029
017
02C
006
007
03D
024
034
023
029
1F3
005
007
1DC
018
1A9
007
1AD
00D
014
1A4
01C
1A3
00A
1FD
020
022
007
1D9
1D5
015
010
1E3
1EF
019
004
1F8
1DD
1F7
1D9
009
002
1FC
1F0
009
041
01B
1F3
1CD
00D
1EB
010
023
1FA
003
1ED
012
1BA
1AC
1B3
002
1E9
013
1D5
1FF
1F8
005
00F
03F
1FB
1FE
1FA
1E9
010
1EB
1F1
1D8
019
1F7
1FA
1E7
1EE
1D4
00D
1DB
1B6
010
1FD
1F0
02E
1DB
1F6
020
00C
1FC
19D
004
1ED
02A
02F
1D1
1F2
011
00D
00F
021
025
001
031
038
00B
1ED
1FD
1F5
1E0
1EF
005
1C8
1FF
003
003
1E4
1BA
1FE
01A
01A
02A
1DE
1FB
012
024
1E8
008
00B
00B
020
1DE
1D1
1FD
00B
00C
1EA
030
009
01B
030
023
00D
1D7
00A
1EC
1E0
1FC
004
1E7
1E0
1EB
1C1
1C1
1AC
00B
017
1FE
032
1E0
023
019
058
019
013
039
1DC
006
013
1FA
1DC
1DF
012
001
032
010
1FD
016
036
1AD
1A6
01B
023
1F4
027
1F1
1FA
1FD
00A
015
171
010
1EC
02C
01E
011
1E9
00F
1EB
013
1E0
018
01E
006
1DF
1F0
1BA
01B
1EA
011
1D4
1EB
00E
010
02F
04A
1E9
1F9
1F2
1FF
1D9
1DC
014
00E
1D2
1F2
017
01E
049
003
022
1EF
1ED
1EC
1FD
1FC
01B
001
1E0
016
000
00D
008
014
03F
1ED
1F9
00B
017
1EB
033
000
02A
026
039
025
1C8
1EE
1CE
00F
1D8
1FD
193
01A
00A
1D9
1F8
1A0
1F2
1F9
011
018
011
013
1FF
029
1E4
1DB
1D4
01C
00F
1AB
1FF
1E7
1BC
1FD
010
009
010
019
052
021
016
1CC
1DF
1FB
00B
025
1E8
004
004
00B
034
015
000
1CF
1A1
00A
1DF
1E7
1C0
1E9
029
1E6
005
1F8
024
019
019
005
1DF
1C9
007
1B7
1CA
1D6
001
1F5
1A7
009
043
054
032
1ED
1C5
015
1F8
1F4
035
1D2
01F
1CE
00E
1F1
1CB
00A
1F3
001
1F1
019
1BB
1FB
1BB
197
1E7
1F2
033
01D
00A
002
1F8
1EC
00E
1FF
1ED
1F9
1D6
1D8
014
1D8
001
1FE
1EC
1F8
01D
1EA
009
1CF
1E8
1F4
19F
1F6
005
010
024
1ED
1F2
00C
016
004
1BA
006
1EF
008
00B
1F7
004
1F3
00B
1E9
018
1F8
003
029
000
015
1EA
1F7
1EE
1FF
1E2
014
1F7
018
00A
1CD
1F2
001
1E3
015
1F6
1D4
1EB
1EA
1EF
1EA
013
1E8
007
1EB
1EE
00A
1FA
1F8
1F7
007
013
1FC
1E6
1EC
1EF
002
00C
005
1FA
1E5
00A
1E4
00C
1F3
1AE
1F7
1BE
1D5
1DD
013
1FF
1FD
008
006
009
017
1FA
1F5
1E7
004
1AF
1E4
1EC
1F8
01E
1F8
1B6
03F
00D
01B
1EC
1D9
03C
1E5
1AA
1C4
1E3
001
016
1DE
00E
016
1E9
037
1C0
024
1D4
00F
1EF
1CD
1E7
052
1FF
012
1CB
00C
069
018
1D4
1C1
1FF
02D
1C6
1F2
1B2
012
008
040
019
1CC
03D
028
00E
1F0
1D3
1D3
020
1FF
1AA
196
010
1EB
1F4
028
04F
047
026
1EE
1C5
011
037
1ED
1F7
1CA
029
1CF
02C
00B
1EB
1EE
014
020
1E3
001
025
02B
000
002
02C
023
00B
1EA
1FE
015
1E7
1F4
02A
1D9
1E2
1F4
1FD
1FA
003
014
014
017
022
00E
00D
1EE
01A
03F
1CE
1FD
1DA
1DE
013
010
1E6
00D
008
1D0
1F8
1FD
020
1D1
1DB
1BE
1EF
004
1FC
016
004
005
013
007
00F
01C
028
1D5
1B9
01C
1DF
1E0
1E6
006
026
053
008
1D4
073
010
008
004
1DB
1DC
1D9
1C4
1E3
1DD
1F5
006
1D2
004
056
056
008
1EB
1EF
03C
013
1DE
1E2
1C5
017
1D7
003
014
002
016
1EA
1F8
1DF
00B
1EE
1FA
029
1DA
1D2
1A4
033
02E
1FC
1DF
1EF
1E2
065
051
017
032
05F
044
005
016
1AF
1B3
1F8
19F
1E7
1DC
1F1
033
1F9
1E4
044
06A
006
000
02B
057
1D6
1ED
1E5
1AB
1D6
1DF
015
032
01C
000
1FB
1E7
1F5
00D
1DA
1BC
043
194
1DB
1C3
1EF
1E4
006
1E7
00B
1FB
062
016
1CB
041
085
095
1D7
01A
1BC
1D9
1F1
1D3
026
186
017
023
00C
1F3
00C
068
055
00A
1E9
04D
028
19A
1F1
1C9
1A5
19D
017
019
00D
1E0
00B
024
1E1
012
1D6
1E4
1EE
1CC
1E5
1D4
1DE
01E
1D8
1FA
1CF
1E2
047
041
005
1F7
057
032
003
01D
1F0
1BE
1FE
1DD
1D5
1AF
1E3
1DF
1FE
1F4
1FD
03E
023
1E3
1ED
002
1D2
1F4
1E6
1E2
1FE
004
1F0
02D
030
003
00F
009
00E
00F
00B
1FD
1FA
012
1F7
1EE
001
006
1F4
1E7
1D1
006
004
011
008
1E3
005
1FD
1E3
1F3
006
1DF
035
1E4
1F4
009
1EB
1DD
008
00D
1EC
017
1FF
1F2
1EA
00E
1E2
00F
015
1ED
1E3
02C
1E1
1F6
007
1E8
1F5
034
1E5
1F6
1CF
1FA
00B
1DD
1FB
1E7
1F5
009
1D5
1F7
002
018
043
014
1F9
1E9
03C
022
1F0
1EB
1D3
1D2
02D
1D2
003
1EB
011
1FA
1EE
010
001
05B
01C
1FF
1F3
1FD
018
004
1F1
001
1E4
1FC
00E
020
005
1E5
007
013
015
1E2
020
001
1F1
1EC
021
001
019
003
1EE
1E7
1EB
1ED
1CD
02E
1FA
006
1FB
1F6
1E0
1F7
020
010
1FF
006
00B
1F1
1E9
1F5
1FD
00B
1EF
1EB
1F1
012
1DA
1FA
1F1
007
1F0
00C
1F0
005
1E1
1E5
1F1
00C
1F0
023
00E
019
1D9
008
005
00A
193
00F
004
1F5
1F5
1FE
1DE
1E1
005
1E2
03E
1FF
1B4
1DC
1DF
1D9
1F3
010
1F6
03E
023
03C
002
016
042
1F5
1D9
1CC
1E9
1F3
04C
185
028
064
1F0
057
1D7
012
1FC
000
05A
1EA
005
034
006
1E5
1E1
011
038
00F
1F6
1E1
1DB
033
1D0
000
1A6
1EC
00B
02D
039
1F1
1FF
034
1F3
011
1DB
1FE
03B
011
1E2
1C3
1F8
1F6
012
016
046
02F
045
004
1F8
019
01A
1FF
1BC
008
1FB
1F8
027
026
015
1D1
1F9
1C0
1E7
1EE
1DE
004
01C
1EE
1D6
04E
017
02A
1E4
00C
1F2
014
1B7
027
013
1E7
1BF
1A7
005
022
1FA
03B
00F
07E
1DD
1E5
010
1C6
067
016
1C9
1CB
1F0
00D
1B5
1DE
02E
03E
1DE
058
1DB
04E
1D0
1D9
1CE
1DD
1E4
062
002
1F6
02B
04A
05D
058
01C
1EF
1B9
011
1F0
00D
1C3
1FD
006
020
03B
1D0
048
020
00D
1F2
003
1FD
017
1D6
197
1ED
005
031
1D1
00B
066
02C
1FB
004
1C2
024
009
1FF
1E4
1F8
070
1DD
013
001
1FB
1EC
1FD
1F4
1F6
1FF
00B
003
1FA
1C7
00A
1E0
016
003
1F7
00A
1F1
00E
05D
00D
1F3
038
014
037
1D9
016
1CA
1D0
1F7
1CF
021
196
003
006
01B
1F6
1F6
024
008
1E6
01A
1F5
1BA
1D1
00D
1D7
1D6
1B9
01A
1F4
00F
1FE

