08
7E
71
7F
08
04
75
7F
09
74
02
07
10
7A
6F
7D
06
7C
06
7A
7E
6F
7F
7D
0C
03
0F
70
03
02
04
08
00
0B
0D
69
02
03
01
6A
7E
0B
06
0E
7E
21
12
7C
05
15
09
01
7F
0E
73
5A
7D
06
04
08
08
77
11
0A
79
79
05
72
02
0E
08
7F
0C
77
7B
02
08
7B
06
71
00
72
70
09
7F
78
77
00
0D
0B
7E
0A
0A
08
79
08
0C
0A
10
04
6F
01
79
08
73
7C
74
76
7F
07
08
6E
79
02
06
72
76
03
7E
7D
73
22
77
7D
04
7C
04
0C
7E
60
6E
0E
05
08
5F
6D
72
13
7F
01
75
14
78
71
65
6A
7A
7E
1B
7A
09
03
0B
11
76
7B
0B
11
02
08
7B
14
08
0A
7E
16
06
11
7C
1E
0B
00
7D
0E
77
5D
03
12
10
01
7B
0C
02
09
7C
14
07
12
57
72
7D
65
15
10
4B
7C
0A
02
23
09
16
77
7D
7C
55
6E
09
60
01
64
02
12
7E
79
7B
6F
7E
71
7A
0A
71
0C
08
20
5B
7F
04
19
76
20
13
74
62
08
5D
78
09
69
18
7F
6D
23
15
06
03
19
16
17
0D
0C
70
15
7D
14
60
7F
74
7C
74
05
78
7E
7A
6B
70
77
15
71
18
76
0F
0E
77
15
7A
5C
71
76
71
73
7E
19
7F
7B
61
00
26
13
08
7F
03
6F
7F
76
0E
14
1C
13
73
5F
6E
72
78
00
03
7F
71
02
6E
01
01
19
6E
09
7F
73
7F
73
74
76
00
01
10
73
7B
15
70
10
79
16
27
03
01
0A
77
74
01
0D
05
6E
7F
0C
03
10
0A
24
03
7B
7B
10
76
03
0B
79
7F
6C
0A
14
04
01
71
76
03
08
78
18
6E
0E
05
15
0E
7B
71
08
77
00
79
09
7C
63
79
78
05
13
07
08
13
75
7D
7C
7C
7E
7C
02
05
79
09
05
03
6E
70
7A
79
7D
0E
08
7E
76
0D
06
77
08
06
0D
7B
78
07
75
0C
79
0C
75
7B
75
71
7C
62
04
7E
18
0E
62
72
00
79
75
73
05
1E
75
7E
7C
79
22
6F
12
74
65
12
77
7F
78
0C
03
05
08
09
7D
77
7C
7F
0B
7E
78
7B
04
0D
76
73
75
71
6F
7E
10
00
71
07
75
03
09
03
01
79
08
0D
0E
6A
12
75
0A
07
13
60
00
07
7A
7E
62
19
03
73
10
07
08
64
70
74
0F
24
14
19
13
7F
07
68
1B
19
05
08
69
01
0B
07
06
02
1D
77
7B
02
7E
7F
11
15
00
73
64
06
16
03
06
7B
7A
16
6F
5E
16
0B
03
01
79
77
7A
02
7F
7B
04
02
14
0C
7D
1D
1E
11
0B
13
08
79
0B
00
79
08
73
7A
0D
5B
11
68
1B
06
74
7E
7B
69
76
09
10
00
17
7E
7D
72
05
7C
11
0F
16
10
7F
7F
09
01
21
01
0E
00
0C
7E
15
0D
04
06
7E
01
08
69
12
77
7C
14
06
7C
16
7D
70
7A
6F
02
7B
0C
12
71
73
78
0D
5C
06
6B
76
77
77
10
00
69
0E
74
0E
7D
70
78
66
03
21
12
7A
0A
01
0F
11
60
0D
10
7D
7C
11
70
00
6D
7E
01
77
7E
77
03
70
6C
08
09
70
06
07
02
7A
7B
11
0C
71
06
74
77
78
6C
04
79
71
0E
76
03
18
71
0D
7A
09
03
7F
09
02
0E
7A
74
04
02
05
0F
79
68
06
6E
03
0E
7E
09
11
7D
20
0C
4F
6D
71
7A
00
7F
23
02
04
0B
01
16
02
0A
14
7E
7A
04
76
0A
1D
1E
04
7E
67
7C
15
06
1C
05
6D
7C
7F
7F
08
08
1B
02
1A
7D
7B
24
08
67
17
0D
69
71
02
06
11
16
0D
7D
0C
20
12
17
7C
77
6C
0A
7A
7C
6B
25
7E
0A
14
7A
18
12
65
09
76
0B
71
0D
75
06
78
05
73
7B
67
02
6A
11
7D
79
04
00
75
05
63
78
77
11
7B
15
04
20
13
75
0F
0E
7A
0A
03
0E
09
14
1B
76
69
7B
7D
04
70
7F
0E
65
0E
7E
09
16
03
72
07
7C
74
09
5A
04
7C
00
02
21
76
16
1F
06
79
0C
78
10
0F
03
63
0D
14
11
72
04
08
15
14
03
09
06
6F
09
06
78
0E
1A
7D
0E
04
04
16
71
07
1D
03
08
07
0B
73
08
75
74
6F
0A
78
7F
0C
7D
7D
0F
71
72
7E
6F
70
7B
70
0D
01
0C
03
05
02
7F
79
06
01
7A
0A
7A
7C
77
01
07
18
7E
03
76
05
05
05
17
13
78
0A
79
0A
73
0C
60
6F
7A
7E
17
1A
04
55
7E
02
78
01
79
0C
15
03
02
70
77
71
05
13
1E
7B
7C
06
09
01
0E
09
7B
09
7D
1A
06
0F
06
17
78
0C
6F
07
0C
6B
03
61
7D
6E
1D
7E
73
7A
0F
21
13
02
12
7A
70
7D
6F
78
16
0F
00
04
61
7D
11
7F
6A
1A
77
22
7D
00
7F
77
04
11
71
05
7F
0D
13
79
0D
00
79
00
0B
08
01
00
7F
09
20
0D
78
09
01
5B
6A
10
02
02
03
08
7D
09
64
16
7C
7D
08
09
5B
1B
74
72
6C
5D
00
01
09
0A
05
78
7C
20
69
74
5A
0A
7E
03
7D
76
73
03
7D
14
0B
78
01
77
73
0E
08
67
12
08
16
0D
73
01
11
78
10
7A
74
07
0E
01
7B
10
71
7D
7C
7C
7D
0C
01
0D
0F
7C
72
77
0D
0F
7F
72
70
0C
7A
04
0E
76
0E
78
13
12
7E
10
04
08
48
08
6B
7D
5F
0F
79
79
7C
0E
08
7C
17
10
0F
15
70
7E
15
08
0D
14
69
1B
68
18
04
1A
09
04
76
0E
69
79
7B
08
77
0E
7E
07
75
08
79
75
68
69
06
08
00
7C
73
0A
7D
0A
0A
73
03
76
70
01
75
03
01
1A
63
5F
17
0B
73
08
1F
7B
7C
76
0A
14
79
1D
25
05
7E
04
1A
53
61
10
04
7A
00
0F
02
00
0D
76
7F
7E
02
0E
7D
7B
0A
79
17
13
15
0C
19
09
00
71
02
12
09
0B
6D
0C
6F
70
7B
71
1A
7B
0C
17
78
22
7B
6C
10
5D
6E
16
30
76
22
0D
77
6F
69
6D
05
5D
07
04
73
02
04
71
0F
7A
7D
0D
04
76
7D
0E
15
18
79
04
13
75
7C
13
14
18
01
10
01
78
09
1A
16
7E
7F
05
13
6E
61
03
76
01
08
12
62
77
06
11
1A
09
78
0C
73
7E
75
77
0D
5B
0E
5E
06
15
0B
08
6C
07
05
76
7F
77
73
01
12
67
0F
07
7E
77
0F
7C
0C
06
21
03
1C
0D
02
02
75
70
73
0A
04
62
04
1B
07
22
09
7D
0D
73
09
02
04
76
7F
0C
75
02
0E
75
0B
12
59
79
06
7F
13
79
1A
02
02
05
76
04
79
01
7D
04
04
00
06
7C
08
1B
7A
5B
18
7D
01
0B
1A
15
14
04
7B
00
00
0D
6E
77
01
7A
66
06
0D
07
74
04
7C
09
5B
7B
03
18
71
66
77
08
7A
14
01
01
2C
7D
78
0D
68
7D
17
1B
01
7E
15
16
75
7B
06
1B
1B
7C
02
09
05
72
02
76
14
78
6F
13
11
76
00
0A
0D
66
05
03

