3E4B40F6
BC4C9EAA
3E3BEE3D
BDA1C369
BD9EDB73
3EAED506
3DBDD1A2
3D3FAE36
BE36DCA0
BAB86B16
3D7660E5
3DACF206
BD8EE30D
BCF80560
3E287A07
BDB8C650
3D731D2E
3D1DBEC2
3E091B3F
3DBB4917
3DF46D40
3D99D55E
BED52D45
BE99ABB0
3E46F8F0
3D80E6B0
3DE9FCF4
3DD6848C
3E54CCAB
BE1513B6
BE2D5CFB
3D7EBAF1
BD7F1844
3E9F4A77
BE305B3A
BB33F63C
BE91BB49
3DE29414
BE298DCE
3DC052D6
3E0DA37F
3DBF3E8A
3D1B9735
3DD388A9
BDCAF4F1
3E9C4220
BF05EFE9
3DC6C333
BE73E250
3E15757D
3D97121B
3F015E07
3DB93251
3CE234A8
BE717B0F
BE4AA4BA
3D397DD0
3C6DC3BD
3E618612
BC3FF045
3E6AA64C
3D85692B
3DEC8ABD
BE8458EF
3E85BCED
3DE17870
3E75A145
3DB252CE
3E16EEFA
3E530CED
BE602A78
BE44B5DD
BE9304AB
3E8F5169
3C0244E9
3E8B293D
3EABC255
3C7F5C6C
BE999653
3D9E9EA1
3E5E17A0
BD946AA1
BDBDCBDE
BED7E6D6
3E182A99
BD20029F
BEDACE89
BDD733A9
3EFDE1E3
3E0C5F7C
3E8290CD
3D9584B2
BE009AED
3E89715C
BE5B1705
3D6CBC8C
3DB2ABEF
BE072E6A
3D004A73
3EBA4BDC
BE67A56E
BE063B25
BE25F0B3
3E0849CB
3E88B674
3E3D562A
BD63E6C5
3D24C2F8
3E7DEC1C
3E247454
3E0AD8A1
3E0BC558
BE93DD33
BEE15AD1
3E39E3C9
3E984F09
3E4CA255
3E03C07F
BDDADEA9
3E1ECB32
3E0E8CCE
BE8DD207
3DC5D9E4
BE22502F
3E88EB89
3DEB51BD
3EAFC632
3C9CEF24
3E89A8AC
BEF4B967
3EB1BC99
BE0E83E4
3B920C07
BE8A4C40
BB525EDD
BCC2A23C
3E95F612
3D8AE643
3EE8F8E8
BEC2D491
3E615CEA
3B2CF313
3E07C30D
BDAC3761

