3DA57215
3DEF34D7
3E32702A
BF436588
BDB6A50D
3E465B21
3DD9B5E9
BE9A493D
BE81A587
3E3717DF
BE07DBF5
BE5B3D4B
3C8D77B8
3D7B2357
BE71AD21
3E7A8113
3E19D12D
BCC21188
BE619696
BF73D3F6
BE4B95E6
3E7640A7
3DCCD0FF
3DA436FC
3CBB2570
BBAF78FF
3E8235D6
BD83D5FE
BDD7F6B2
3D5702E6
3E8123E6
3E953719
BD0C7F35
BEA55E6C
BE72E7B4
3E596BFD
BE346AA1
3E05E41D
3D8E2FBE
BE06134D
BE237B4A
BDA5A709
3E23A216
BEAB1CC9
BD1AD42C
BE989C80
3F02CACD
BB67BC3C
3E33AD19
BDC27957
3CF0B8D0
BF572EF1
3E825B53
3D128284
BE95B142
BDE49CB2
BE48D64D
BD7FA2AD
BE859FF5
BEBA0B80
BE49096C
3E7785B6
BDE0218E
3E52B884
3EA6045C
3C8DC11E
BE866CF4
BE538C11
3EF864AA
3E5A083A
3E9211CB
BDD9BA1B
BD753E70
BCF9B34A
BDA2E1AC
BF4A68A1
BE207853
BCA12945
BED51B71
3DF08C3F
3C1C1F86
BE1A17B1
BEFA7E52
3E1ABC0E
3E9FE62E
3EC9AF9F
BED704FF
BE892989
BCBA53B9
BE97A6BD
BC1A77E6
BF155337
BE026784
BE84636B
BDEA569B
BE45AAB4
BE59C62A
3EBA3C43
3D8EB1C4
BF287B46
BE477E5F
BD73519C
3DDA3337
3DA92BC3
BE048F11
3DAEE200
BDBA5EBB
BE0040C0
BE18C155
3E2307AF
BD381B65
BEA15D4F
3DF6E697
3E0CDA6E
BDED727A
BE9A82C7
3D895B79
BEE2BD3C
3D7D72BD
3DEC258D
BE509678
3E3558EA
BDFE3C10
BEE6CC81
BE7EE957
BD5E13B2
BA807358
BF15653D
3EB89DF1
3EBECF85
BECFD999
BE92BE27
3E1D7C70
BEF86D94
3E523C00
3EF6F998
BE8568A5
3B92146A
BE8C2071
BEB1D68C
BE4F00AC
BE01387A
3E16559F
BDB3FC87

