3D4409E5
3DF8ED1C
BC801F75
BED24C40
3D80C0F0
BEA7CAC9
BE55803D
3E14ECA7
3E6331E4
3DC86F8B
BCB382E4
3DC2E98A
3EABD35F
3D005A2D
BDBD6F97
BEF838C1
3D770585
3E63671B
3E02E947
BE510B20
3E03AB43
BEAF214F
BD88F9F4
3B8A2EC3
BD78A5CE
BE22ECAF
3E123E18
3E0E7B81
3E2A5F42
BE9F1F58
BE359253
BE1ED4E5
3E44C448
3DA74214
3EA04620
BDDE785B
3E1DA33C
BE2908E6
BE4B1359
3E035A86
BE7FA9C1
3E5F0308
3DD354C1
3D64C836
3C32788E
BE845D64
BDFADFB5
3D34F50A
3E51EFB7
BE69A3D3
3D304BC2
BF06583F
BC91904B
BE41E68A
BE819829
3DDC371E
3EC2109D
3EBB4B73
3D3B2DD3
BD408B76
3D9BC44C
3E68FBCA
3CE0913A
3E89FC8F
BEAB05FB
BEA80757
BE1C1095
3D52502F
BE47E49B
BE65AEE6
3C502470
3D9A72A8
3DED84D3
3D19BB28
3E9A7AEA
BE0F1FDE
3E83CEC8
BEE949E9
3E3AB4B7
BD710DBF
3E61CDE6
BE331DB4
3E9F1DC5
3E76C333
BE8CB1AB
BF232485
3E104103
3DABA062
BBD7D7C3
3DEC8F75
BE939CB7
BE4CE0B9
3E6E3583
BE13AC4F
BBA1511E
3E6DB61C
3DD1EA79
BD9FF36B
BF1365BA
3D22E3C5
3D6D9DFE
BB64DA0A
3DCA3593
BE45EB31
3EA1C77A
3E904CCF
3DD8FE69
3E0B36BD
3E0168F9
BB6F1349
BEB869C6
3E45F6FD
3E308206
BE1DEE35
3BFD5454
3E186B16
BD8C3C9F
3E35A20E
BCA2B7BB
BE1A0B1C
BE6F61AA
3E61E258
3DC5E5F3
BD831727
3CBFD502
3CF77D0F
3D9DBA0A
3E81CDC4
BDE62132
BE7AA64C
3DA3CA75
3D7F5515
BE501B43
3E3EAD4F
BC61E2DF
BEBCEB79
3CC15F46
BCD0763A
3D9D2FA1
BD883D36
3D1FDCDF
3D7F21B4
3ED11D7A
3E3007DD

