3DA8B008
BC2A087D
3E90420F
BE9EECE1
BD3A82E8
BEBC3223
BE8509E1
3E00C5A8
BD807F67
BD396D09
3E3F2A17
3E91B62C
BDFD7BA6
3B69C454
3E50E12F
BEAEB7CC
BAD9945B
3DAA3C64
3E14A87E
3E91FA55
3E48C7E3
BE2ED634
BD25E679
3D5C304D
BE9C903F
BE3A49C3
3D6EEFA2
BE334507
3E626A66
BE89205C
3D4F7EC3
3C6353F8
3C9EDE12
BD33A9B0
BD195BBC
3E9299D9
3E6C929B
3E321F2A
BE744285
BCF3E89B
BEA567FD
BE221FF3
BE811B3F
3E0CFC40
BD988C1E
3DA3AB00
BDD73B00
BDC88CE7
BD791F71
BE2100E7
BE311E43
3D721709
BD126C7F
BEB769CB
BC434C1B
3E24F6E0
3E9CA0E4
BD51F81A
3E279EE0
3D0BAF96
BD07FDC6
BE8D8EEB
3D59C9D6
3E032CE9
BDD65DC0
3D6A3DF7
3E602752
3D99702E
3DCBD662
BE8A10BF
3DD4C09C
3E1B6849
3CC532A5
BE1CB89D
BD43D684
BE6B9A17
3E16848C
BE419B91
3D6D4A1B
BE0832FD
3DD539B9
BD95F0B3
3DDB8BAC
BE1F8C22
BD569E3D
BEC12AFA
3E963BEF
BAB0AF60
BEBCB2B7
3E3F5F4E
BE87E176
BC42D6AA
BCBE121F
3E9947AE
BE4B3F64
BD8E019B
3E13AB00
3DD0BF1A
BEEDD0FA
3C7AEBC4
3D697AEE
3DCB039F
3DD8D3F2
BDDA8AC6
3E67357E
3E5C2E34
3D0DAB19
3DBD933E
BE2BA909
BE9C1312
BE5CC682
3E1E0AC8
3D60F5E4
3E215A8E
3CADD9C2
3DCF3450
3D97D06C
3E805554
3DE0C847
BD733EBC
BEBC5CFF
BD8DC65C
BEA1DA9D
3E862563
3DD1E42E
3E1796C0
BA8B1141
3E610D39
3DA5796C
BD027E95
3E848C0D
BD672325
BE5EE0F4
3E423AB0
3E6F0E91
BE634D27
BE9CE033
3D529025
BE6980B2
3DB4CE3E
3E42A3CF
3E08676A
3E3EA854
3E739970

