3CC173AD
BF1D6825
3E0E4AC4
BE2FF5F7
3E229813
BDAB4519
BE5ED76D
BD86442A
3DEB5A22
3ED213D7
BF168F55
BDD49D45
3E8A690F
3C4ED697
BD20B208
3E2D664B
BDEEEEF3
BE03CCD1
3C995F49
3DB60677
3D4A5D82
3E030DDD
BDB468FB
3D29C5BA
3E814239
BD47EA1E
BE254E3C
BED6D7BC
3D31E2A3
BE174D64
3BA25C22
3E3524BD
3D13D152
3E26FA8B
3E441C9C
BC80959E
3CD4EB61
3E4A7565
3D8988E7
BE3D59D6
BBB73599
BEB76BEC
3D76CA8A
BF0D8148
3DF9426B
3E8AB36F
3CB33574
3B48C01B
BC141F20
BE3CF9EB
3D842712
3DE92E7A
3E11F696
BE1CE0C8
3D5F3CFF
BC0AF57F
BDC361F2
3E1FCECC
BDDDFF39
BE9A1E64
BE4A7C5F
3DBB999A
3DC4AF72
3DC3E439
3E0A2B83
BDDE209F
BE36FC19
3D27AE07
BE487549
3E6A582C
3E35E2C0
BD821D63
3D4AC20A
3BFC668A
BE49FA3F
3D763DD6
3DBD4E11
3D24AC45
3E11395A
BE0DB9A3
3C6DABA9
BE7D58D7
3EC82B3F
3DD8D941
3DF4FEA7
3E4F18FB
BCA31E0C
3E8B5AD6
BBEEC994
BD844ED1
BE88F641
BCFB651C
3DDFE88B
3E8855A5
BDDECB65
BCEF4C03
3D267CFA
3E5FB114
3E3ED452
BD5DB35A
BE58D3D0
BEDADF4A
3E8275B2
BEB37E43
BE80784F
BDD40DE4
3E408FBD
BDDF7D8B
BE4395EB
BE15CCB9
3E5828EC
BE57A49F
3AF88FF1
3BA655CE
3C8C1D98
3D2040FF
BC9000F3
BCBA1139
3D83BB16
3D9C8CBC
3DCC8DB5
BD06202D
3DA5CD6A
3E212957
3E55A158
3D764A29
BE53938C
3BC58188
3C6EB3BF
BC9711C8
3DB7836B
3E063562
3C38DF68
3E51DA6A
BCC406D8
BDA5FC7E
3DC818B3
3E8422EA
3E06D07F
3E25FF3A
BDA5C76A
3D598029
BEBD10B4
3D022B38

