BE02A563
3D40C6DF
3D626BB7
BD196CBA
BD9B9E64
3D105964
BDF85281
3E508BBB
3E7AC596
BE3CF564
BD4EE05C
BDE2CF70
3EC16010
3E6989FE
BE3EFE7E
BDF61BFE
3D6E98C2
3DCE719C
BDAAB152
BCDBF4B9
BE25EDB5
BECD2549
3B2D6943
3DB54DCA
3E373FF9
BE796D2C
3EA967F1
3DB4A75C
3F0E2A7C
BEFA8379
BD373630
BE42EA4C
BE21D7AC
BF260823
3E7C733C
3CCD43C4
BE890244
BE1CCBD3
BECAF164
BC2F2060
BDE8E18A
BEC25B0D
BDE51B7B
3EDBCF36
3E0F3480
BDE84134
BDBBFA71
BC7A185A
3E34DD86
3E9D9A05
3A828169
3E437492
3E3F4B9A
BE3A3ABA
BE3DCDAF
BE146025
BDBA10C2
BE8F6CE7
3D50A285
BEC7C214
BE281817
3DF90122
3D61ACE8
3E106D88
BD49B77A
3ECCBC36
BCC6F704
BEAAA427
BEBFF967
BE06AFA0
BF11BAEB
3E89C83A
3EC2D64F
BE865009
3DB4BC09
BD52F54F
3E848F2E
BF1ECF5F
BE271F8B
3E978190
BD8E95B3
3EB9BFCF
BE21E688
BE85A0A6
BF149E42
3EC0B9D0
BF0E9520
BE8F60AE
3EE707BF
BED13967
3EC48334
3DA8B681
3DDB2D7D
BD3FFBB0
BE804724
3E1A1D2F
BDD6B45E
3E0233BE
3E04055B
BE53AEE0
BF0A39E1
BEB21F04
BE47A837
3EA3BD7C
BEC61958
BE9B0FF5
3D06F159
BD51CB82
BE557EF5
3CFA4A80
BF0C3EA5
3DCDB4A8
3DB33763
3E504CDE
BE0B85F6
BF111B52
BF217886
BDCEF462
BEA68FAB
BC7510F1
3C8CB2F3
BE604F3D
3E5D49E7
3DA2D368
BE82CA2C
BF085390
BF2F28D9
3EF544AA
3F2346AC
3ED94397
BE744DB5
BF2188EA
BEC48E5B
3EE4713F
3E969025
BEC941FC
3F16CF9C
BE402ECA
3E3D0A85
BE498576
BD24C88B
3E3C0EFF
BE66FA19
3E23912D

