BD1C1E47
BDBECA96
3E4D8D7F
BDE130BD
BC105BC7
3E2E629C
BDB77E2E
BC89314B
3DD464BE
3E08845F
BEEAC98D
BE65E998
3E7A48A8
BE291BAA
BC42B256
BCB25922
BDE65AA9
BD4FECA7
BD502D8E
3E2145D4
3E00B8F2
3D720F5B
BE14D056
3DE723AA
BD977530
BDE17E69
BE2BF8D9
BEEC0741
BD5F9D42
3C90A7E1
3EADD415
3DCB3707
BD24D210
3DB00DA5
3E19B014
3DE341B9
3D501B10
3E652F05
3E1E6C9A
3D8DCC74
BC55A301
BEBF405E
BD9AA6CB
BEA20ADA
BDCB81B8
3DE10B21
BDEE8EAB
BD339848
3DE8568D
BE6E3D3D
BE3D3FA6
3DA49D12
3D970A94
BC618ACB
3E7B5FBA
3D1E02AE
3D96BB54
3DB912B7
3D0429DE
3DA3BD50
3D1E49FE
BE500CBF
3E4FC284
BCF33CC8
BD717033
BC6DF7ED
3DDFB388
BDB6056C
3CA16AD5
BBE99B01
3E54B091
3E4D35DF
3DFE8A1E
BE86A358
BC9028F9
3C6B0F1A
3D18472F
BC469812
3E4E362E
3CF74702
BE28EFDB
BDBF246B
3E2AF239
3E1D18C5
3E9E0480
3D722E03
3D1E3ACD
3DCB2A83
BD570938
3CB0AB65
BDAB5D10
3DFA8475
BE1A6E1A
3E5C2C0D
BECC33ED
3DB91C39
BE26ABDB
BDC9A2CE
BC184227
3D8ED8FB
BEBD7E47
BEA69516
3D96C8FD
BE7484FC
BD8E3CD5
BE382514
3D71AE7B
BE0BE4C6
3CECD0C1
BDD3F02A
3D61131E
3D0B301A
BE04B018
BE0D42E5
3E0C9B2B
BD0DDFF2
BD18020E
BC338F03
BC9EF245
BDF09564
BDE54318
3DA6ECEF
BDB2F84C
3DEAE457
3CE1319C
BD8EEB28
3C88BAB9
3C9B1631
BDC5F94F
BDDB555A
BE4C5333
3D4FE5D5
3E273B55
BBA7C33C
BC8A759C
BED490DC
3E08B458
3E589DF1
3DD1D956
3E0AAA06
BD50CDC3
3D06CE64
BD8D7FEB
3E2EF295

