BDB40D77
BED0D50B
BCFC0A9C
BE1BAA50
3DE490AC
BCED1584
BE700566
3DCCE77C
BDFF17F4
3E9D254F
BEE43075
BE7A23C6
BB6051E0
3C9B98A8
3E06FF3C
BE5D9171
3D2CEF63
BD6072AB
BC23CCF3
BD81BD92
3DC65066
3C6A1079
3DE3E10B
BE0D4BE7
BCDA784B
3CD84EC0
BC3A801F
BEB2A5EC
BA8582AA
BD374E76
3DD7C3A0
BD81FE15
BBF1A01F
3EA873B6
3B0A3A65
3D6BFED0
3E149057
3D955564
BE0005DB
BD4E29FE
BDBB65D4
BEB65DBB
BE7029DB
BE9AD63D
BE009810
3E180C57
BD354DAC
BE5F30AC
BDBAAD8B
3CA767BC
BDC3ADAF
3DE54872
3C291B6D
BE0FC50A
BDAB20ED
3E11039C
3DA4A5DE
3B1D7518
3D94E018
BE5AC3CA
3E1B2844
BDB85B8C
BDB34DDD
BCF0498D
BE0CB082
BE219069
BE0F6D1E
3E03D1FB
BE031B9B
3D2E4AAD
3DFC415C
3E650350
3DCB6327
BD83D575
3C7A0D73
3DBC89CB
3CCD75B0
3DD0CCAE
3E53597F
3DF20BC2
3D307048
BD84D7BB
BE424C67
3C870C2C
3C14B842
BCF57551
BDDBE508
3DB06F43
BD4B59B9
3E451F2A
3E06D198
3E435805
BE9F7772
BD354CAF
BEA510E7
3E466490
3D7B1588
3E5213BC
BD2168D6
3D0EA69D
BE89042A
BECB4B0F
3E17C39B
BEBF7C76
BE472DD1
BE3E0228
3D8A84CE
BCF13138
BD442FE3
BDEE58B9
BCE5F3B4
BEA25C84
3D6D4830
3DD8CAC0
3DD4D8A2
3D36517C
3D81C864
3D9663E8
BE22AF05
BDBA8BCC
3D0E8550
BE0542C3
3E22D33F
3DC0B5CC
3D1DB9F8
BDF1BD4A
BE5048B7
BE2A79E3
3D78C40D
3E2CAA25
BD9E5EB1
BDF64F06
3D58DD28
BD0A4DFF
3DB10B7A
BEAB4C93
3E4B8554
BDB34043
3E8864BE
BD15C2AD
BE945B1D
3E0737B1
BA26A2DA
BE012F55

