BD24D210
3DB00DA5
3E19B014
3DE341B9
3D501B10
3E652F05
3E1E6C9A
3D8DCC74
BC55A301
BEBF405E
BD9AA6CB
BEA20ADA
BDCB81B8
3DE10B21
BDEE8EAB
BD339848
BE28EFDB
BDBF246B
3E2AF239
3E1D18C5
3E9E0480
3D722E03
3D1E3ACD
3DCB2A83
BD570938
3CB0AB65
BDAB5D10
3DFA8475
BE1A6E1A
3E5C2C0D
BECC33ED
3DB91C39
BDC5F94F
BDDB555A
BE4C5333
3D4FE5D5
3E273B55
BBA7C33C
BC8A759C
BED490DC
3E08B458
3E589DF1
3DD1D956
3E0AAA06
BD50CDC3
3D06CE64
BD8D7FEB
3E2EF295

