BE21D7AC
BF260823
3E7C733C
3CCD43C4
BE890244
BE1CCBD3
BECAF164
BC2F2060
BDE8E18A
BEC25B0D
BDE51B7B
3EDBCF36
3E0F3480
BDE84134
BDBBFA71
BC7A185A
BD8E95B3
3EB9BFCF
BE21E688
BE85A0A6
BF149E42
3EC0B9D0
BF0E9520
BE8F60AE
3EE707BF
BED13967
3EC48334
3DA8B681
3DDB2D7D
BD3FFBB0
BE804724
3E1A1D2F
3F2346AC
3ED94397
BE744DB5
BF2188EA
BEC48E5B
3EE4713F
3E969025
BEC941FC
3F16CF9C
BE402ECA
3E3D0A85
BE498576
BD24C88B
3E3C0EFF
BE66FA19
3E23912D

