3E905586
3D3CAC01
BD8F6ADC
3CDC2BF7
BD4D0B7D
3E0E27BA
3F0AEBD5
BE3735AD
BEE69312
BE3571C2
BE202C9E
3EBB1F7C
BE8C840C
BE8413B0
BE56258C
BE8AACD2
BD1BD486
BD24BF58
3E944E04
BE6C0324
BDFBBBA9
3D6C57CA
BD52E0F0
3E86AB8C
BD8619EC
3C83E9A7
BCBDC36F
BF09E80D
BEE6D735
BE0FE66C
BE809F38
BD09E381
3ECED824
BD4415C9
BDBE15A6
3F06966B
BD8947BE
3CE8B6DF
3DAF4189
3D0AB836
3E1DFB1E
3C1D61EB
3DAD3BCC
BDB8D53C
BE548385
BCE73CA4
3E25C75A
3EF4B8C0

