3E528724
BDC70A31
3C5DA5D4
BD4C6E5A
BE06462B
3D0A8027
3E312061
3C5E409E
BDB9A5ED
BD80D0FF
BE12D3F5
3DE85903
BEA0BE59
3E9FF22D
3DAFD32B
3E121655
3D0B3A83
BED796D4
3F0D1FAA
3D9DE021
3E5EF0D8
3E602C65
3E62B52D
BDBD352E
BDC24CB0
3DED51F1
BD4F4CBE
3DE83155
BE5ED1EE
3D456F9B
3EAD866C
BE73F83D
BE110C36
BD62E653
3DBFE4C3
BE3E3CBC
3C8E26AE
BB6FD777
BC6273C2
BE59461F
BE66B41E
3E9EB54F
BDF41B79
BE4D4FC0
3EAFFB46
3C9E2DAC
BE81805E
BF0857CD

