BDB40D77
BED0D50B
BCFC0A9C
BE1BAA50
3DE490AC
BCED1584
BE700566
3DCCE77C
BDFF17F4
3E9D254F
BEE43075
BE7A23C6
BB6051E0
3C9B98A8
3E06FF3C
BE5D9171
BDBAAD8B
3CA767BC
BDC3ADAF
3DE54872
3C291B6D
BE0FC50A
BDAB20ED
3E11039C
3DA4A5DE
3B1D7518
3D94E018
BE5AC3CA
3E1B2844
BDB85B8C
BDB34DDD
BCF0498D
3D7B1588
3E5213BC
BD2168D6
3D0EA69D
BE89042A
BECB4B0F
3E17C39B
BEBF7C76
BE472DD1
BE3E0228
3D8A84CE
BCF13138
BD442FE3
BDEE58B9
BCE5F3B4
BEA25C84

