11
FD
E3
FE
11
09
EB
FF
12
E8
05
0F
21
F4
DE
FB
0C
F8
0D
F5
FD
DE
FE
FB
18
07
1E
E0
07
05
09
10
01
16
1B
D2
04
07
03
D5
FC
17
0D
1D
FC
43
24
F9
0A
2B
13
03
FF
1C
E6
B5
FB
0C
08
11
11
EE
23
15
F3
F2
0B
E4
04
1D
11
FE
18
EF
F7
05
10
F7
0C
E3
01
E4
E0
12
FE
F1
EF
00
1B
17
FD
14
15
11
F3
11
19
14
21
08
DE
03
F2
11
E6
F8
E9
ED
FF
0F
10
DD
F3
05
0D
E5
EC
06
FC
FB
E7
44
EE
FB
08
F9
09
19
FC
C0
DD
1C
0A
11
BF
DB
E4
27
FF
03
EA
29
F1
E3
CA
D5
F5
FD
37
F5
12
06
17
22
EC
F6
16
23
04
10
F7
28
10
14
FD
2C
0C
22
F9
3D
16
01
FA
1D
EF
BB
06
25
21
02
F6
19
05
13
F8
29
0F
25
AF
E4
FB
CA
2A
20
97
F8
15
05
47
12
2C
EF
FB
F9
AB
DD
12
C0
03
C8
05
25
FC
F2
F7
DF
FD
E2
F4
14
E2
19
11
41
B7
FF
08
33
EC
40
27
E9
C5
11
BB
F1
12
D3
31
FF
DB
46
2B
0C
07
32
2D
2F
1A
18
E0
2A
FB
29
C1
FF
E8
F8
E8
0A
F1
FC
F5
D6
E0
EE
2A
E2
31
ED
1E
1D
EF
2B
F5
B9
E3
EC
E3
E6
FD
33
FE
F7
C2
01
4D
27
11
FF
06
DE
FF
EC
1D
28
38
26
E7
BF
DD
E5
F0
01
07
FF
E3
05
DC
02
02
33
DD
12
FF
E6
FE
E7
E8
ED
01
03
20
E6
F6
2A
E0
21
F2
2C
4F
07
03
14
EE
E9
03
1B
0A
DC
FF
19
06
21
14
49
07
F7
F6
21
ED
06
16
F3
FF
D8
15
28
09
03
E2
ED
07
11
F0
31
DC
1C
0B
2B
1D
F6
E2
10
EE
00
F3
12
F8
C7
F2
F1
0B
27
0E
10
27
EA
FA
F9
F8
FC
F8
04
0B
F2
13
0A
07
DC
E0
F4
F3
FA
1C
10
FC
EC
1B
0D
EF
10
0D
1A
F6
F1
0E
EB
19
F3
18
EB
F6
EA
E3
F8
C4
09
FC
30
1D
C4
E4
00
F2
EA
E6
0A
3C
EA
FC
F8
F2
44
DF
24
E9
CB
25
EE
FE
F0
18
06
0A
11
13
FB
EE
F9
FF
17
FC
F0
F7
08
1B
ED
E6
EB
E3
DE
FD
21
01
E2
0F
EB
07
13
06
02
F2
11
1B
1C
D5
25
EA
15
0F
26
C0
01
0F
F4
FC
C5
33
06
E7
20
0F
10
C8
E0
E8
1E
48
29
33
26
FE
0F
D1
36
33
0A
11
D2
02
16
0F
0D
04
3B
EF
F7
05
FC
FF
22
2A
01
E6
C9
0D
2D
06
0C
F6
F5
2D
DF
BD
2C
17
06
03
F3
EF
F5
04
FF
F7
09
05
28
18
FB
3B
3C
22
17
26
11
F3
17
00
F3
10
E6
F4
1B
B6
22
D1
37
0C
E9
FC
F6
D2
EC
12
20
00
2E
FC
FA
E4
0B
F9
22
1F
2D
20
FF
FE
12
03
43
03
1D
00
19
FC
2A
1A
08
0D
FC
02
11
D2
24
EF
F8
29
0D
F8
2D
FA
E0
F4
DE
04
F6
19
24
E3
E6
F1
1A
B9
0D
D7
EC
EE
EF
20
00
D3
1D
E9
1D
FB
E1
F0
CC
07
43
25
F4
15
02
1F
23
C0
1A
21
FA
F9
22
E1
01
DB
FC
02
EE
FD
EF
06
E0
D9
11
12
E0
0D
0F
04
F5
F7
22
18
E3
0C
E8
EE
F0
D9
09
F2
E2
1C
ED
06
30
E3
1B
F5
12
07
FF
12
05
1D
F5
E8
08
05
0B
1E
F3
D1
0C
DD
06
1D
FC
13
22
FB
40
18
9E
DB
E2
F5
00
FE
47
05
08
17
03
2D
05
15
28
FC
F5
08
EC
14
3A
3C
08
FD
CE
F8
2A
0D
38
0A
DA
F8
FE
FF
11
11
36
05
35
FA
F6
49
10
CF
2F
1B
D2
E3
04
0D
22
2D
1B
FB
18
40
24
2E
F8
EE
D9
14
F5
F8
D6
4B
FD
14
28
F4
31
24
CA
13
ED
16
E2
1B
EA
0D
F1
0A
E7
F6
CF
04
D5
22
FA
F2
09
00
EA
0A
C6
F0
EE
22
F7
2B
08
41
27
EA
1F
1C
F5
15
07
1C
13
29
36
EC
D2
F6
FB
09
E1
FE
1C
CA
1C
FD
12
2D
06
E4
0E
F9
E8
13
B4
08
F8
00
05
43
ED
2C
3E
0D
F3
19
F1
21
1E
07
C6
1A
28
23
E5
09
10
2A
28
07
12
0C
DF
13
0C
F1
1C
35
FB
1C
08
08
2D
E3
0F
3A
07
11
0E
17
E7
11
EB
E8
DE
15
F1
FE
19
FB
FA
1E
E2
E5
FC
DE
E0
F7
E1
1A
02
18
06
0A
04
FF
F2
0D
02
F5
15
F5
F8
EF
02
0E
31
FC
06
EC
0A
0B
0A
2F
27
F0
14
F2
15
E7
19
C0
DE
F5
FC
2F
34
08
AA
FC
04
F1
02
F3
19
2B
07
05
E1
EE
E3
0B
26
3D
F7
F8
0D
12
03
1C
13
F6
12
FA
34
0C
1F
0D
2F
F0
19
DE
0E
19
D6
06
C3
FA
DC
3A
FD
E7
F4
1E
43
26
05
24
F4
E0
FA
DF
F0
2C
1E
00
08
C3
FA
22
FF
D4
34
EE
45
FA
00
FE
EF
09
22
E2
0B
FE
1B
26
F3
1B
00
F2
00
16
10
03
00
FE
13
41
1B
F0
13
03
B7
D4
21
04
04
06
10
FA
13
C8
2D
F9
FA
11
13
B6
37
E8
E4
D9
BB
01
02
12
14
0B
F1
F9
40
D2
E9
B5
15
FD
07
FA
ED
E7
06
FA
29
17
F0
03
EE
E7
1C
11
CE
24
10
2C
1B
E6
03
22
F0
20
F4
E8
0F
1C
02
F6
21
E2
FA
F9
F9
FA
19
02
1B
1F
F9
E5
EE
1B
1E
FF
E5
E0
18
F5
08
1D
EC
1C
F1
26
24
FD
21
09
10
91
11
D6
FA
BF
1F
F2
F3
F9
1D
10
F8
2E
20
1F
2B
E0
FD
2A
11
1A
28
D3
37
D1
31
09
34
12
09
EC
1C
D2
F2
F7
11
EF
1D
FD
0F
EB
10
F3
EA
D0
D2
0C
10
01
F9
E6
15
FB
14
15
E6
07
ED
E0
02
EB
07
03
35
C6
BE
2E
17
E6
11
3E
F6
F9
ED
15
28
F2
3A
4A
0A
FC
09
35
A6
C2
20
09
F5
01
1E
04
00
1A
EC
FF
FD
05
1D
FA
F6
15
F2
2E
27
2A
19
33
13
01
E3
04
25
13
16
DB
19
DE
E0
F6
E3
34
F7
19
2F
F0
44
F7
D9
20
BB
DD
2C
60
EC
44
1A
EE
DF
D3
DB
0A
BA
0E
09
E7
05
09
E2
1F
F5
FB
1A
09
ED
FB
1D
2B
30
F2
09
27
EA
F9
26
28
30
02
20
02
F1
13
35
2D
FD
FE
0B
26
DC
C3
07
EC
02
11
24
C4
EF
0D
22
34
12
F0
18
E6
FD
EA
EF
1B
B7
1D
BC
0C
2A
17
11
D9
0F
0B
ED
FE
EE
E6
02
25
CE
1E
0F
FC
EE
1F
F9
18
0C
42
06
38
1B
04
05
EB
E1
E7
14
08
C4
09
36
0F
44
12
FB
1A
E6
12
04
08
EC
FF
18
EB
04
1C
EA
16
24
B2
F3
0C
FF
27
F2
35
04
04
0B
ED
08
F2
03
FB
09
09
00
0D
F8
11
37
F5
B7
31
FB
03
17
35
2A
28
08
F6
01
00
1A
DC
EF
03
F4
CD
0D
1B
0F
E9
08
F9
12
B7
F6
07
30
E3
CC
EF
11
F5
29
03
02
59
FB
F0
1A
D0
FA
2F
36
03
FC
2A
2C
EA
F6
0C
36
36
F8
04
13
0A
E5
05
EC
29
F1
DE
26
22
EC
00
14
1B
CD
0B
06

