3D6E98C2
3DCE719C
BDAAB152
BCDBF4B9
BE25EDB5
BECD2549
3B2D6943
3DB54DCA
3E373FF9
BE796D2C
3EA967F1
3DB4A75C
3F0E2A7C
BEFA8379
BD373630
BE42EA4C
BD49B77A
3ECCBC36
BCC6F704
BEAAA427
BEBFF967
BE06AFA0
BF11BAEB
3E89C83A
3EC2D64F
BE865009
3DB4BC09
BD52F54F
3E848F2E
BF1ECF5F
BE271F8B
3E978190
3DB33763
3E504CDE
BE0B85F6
BF111B52
BF217886
BDCEF462
BEA68FAB
BC7510F1
3C8CB2F3
BE604F3D
3E5D49E7
3DA2D368
BE82CA2C
BF085390
BF2F28D9
3EF544AA

