3EAD4492
3E21D13B
BE0317E6
BDD82236
3DF01EE0
3C8845D4
3EAFD18C
3EC78339
3E34996C
3DE020FD
BE93243C
BE548CAD
3E38B569
3D94F768
BE0C4B5D
3DB4F28E
BE673578
BEEC6733
BD79EFDD
BDED6A28
3E888483
BEBB8CA6
3E027A57
BEB6D8A3
BE907FB2
BC6E892A
BEAF8AE8
3C8B8F4A
BE071375
3E151FE9
BCDC51ED
BDC9BF02
BD80CA81
BD06ED52
3DDF5AC4
BEE040B4
3E3BFFBC
BEA7C912
BDFCE8F7
BECC00BB
BE9B3D13
3E318836
BDB91056
3C688A15
3D217F80
3D052353
3ED8F81E
BE96FDA9

