3E528724
BDC70A31
3C5DA5D4
BD4C6E5A
BE06462B
3D0A8027
3E312061
3C5E409E
BDB9A5ED
BD80D0FF
BE12D3F5
3DE85903
BEA0BE59
3E9FF22D
3DAFD32B
3E121655
BDE65AA9
BD4FECA7
BD502D8E
3E2145D4
3E00B8F2
3D720F5B
BE14D056
3DE723AA
BD977530
BDE17E69
BE2BF8D9
BEEC0741
BD5F9D42
3C90A7E1
3EADD415
3DCB3707
BDEEEEF3
BE03CCD1
3C995F49
3DB60677
3D4A5D82
3E030DDD
BDB468FB
3D29C5BA
3E814239
BD47EA1E
BE254E3C
BED6D7BC
3D31E2A3
BE174D64
3BA25C22
3E3524BD
3D2CEF63
BD6072AB
BC23CCF3
BD81BD92
3DC65066
3C6A1079
3DE3E10B
BE0D4BE7
BCDA784B
3CD84EC0
BC3A801F
BEB2A5EC
BA8582AA
BD374E76
3DD7C3A0
BD81FE15
3D6E98C2
3DCE719C
BDAAB152
BCDBF4B9
BE25EDB5
BECD2549
3B2D6943
3DB54DCA
3E373FF9
BE796D2C
3EA967F1
3DB4A75C
3F0E2A7C
BEFA8379
BD373630
BE42EA4C
BE430211
3DDD944C
3CB58725
BE92C42D
BCADF2D4
BE8CB3D2
BD621A6B
BC8C9EA3
BD16673A
BE50A7C0
3EDE65C2
3E85507A
BE5C6526
BF103AFA
BE006781
BDC97343
3D0B3A83
BED796D4
3F0D1FAA
3D9DE021
3E5EF0D8
3E602C65
3E62B52D
BDBD352E
BDC24CB0
3DED51F1
BD4F4CBE
3DE83155
BE5ED1EE
3D456F9B
3EAD866C
BE73F83D
BD717033
BC6DF7ED
3DDFB388
BDB6056C
3CA16AD5
BBE99B01
3E54B091
3E4D35DF
3DFE8A1E
BE86A358
BC9028F9
3C6B0F1A
3D18472F
BC469812
3E4E362E
3CF74702
3E0A2B83
BDDE209F
BE36FC19
3D27AE07
BE487549
3E6A582C
3E35E2C0
BD821D63
3D4AC20A
3BFC668A
BE49FA3F
3D763DD6
3DBD4E11
3D24AC45
3E11395A
BE0DB9A3
BE0CB082
BE219069
BE0F6D1E
3E03D1FB
BE031B9B
3D2E4AAD
3DFC415C
3E650350
3DCB6327
BD83D575
3C7A0D73
3DBC89CB
3CCD75B0
3DD0CCAE
3E53597F
3DF20BC2
BD49B77A
3ECCBC36
BCC6F704
BEAAA427
BEBFF967
BE06AFA0
BF11BAEB
3E89C83A
3EC2D64F
BE865009
3DB4BC09
BD52F54F
3E848F2E
BF1ECF5F
BE271F8B
3E978190
3EA81C72
BE13D870
BEED2A2B
BEADD66A
BDBFF7F7
BF10C93E
BCD62E8D
3D5C17D3
BEA4C4C9
BE089A9D
BEA4C2F2
3E995AEC
BF2FDC57
BF2C08C1
BC4E8E35
BE0C9C48
BE110C36
BD62E653
3DBFE4C3
BE3E3CBC
3C8E26AE
BB6FD777
BC6273C2
BE59461F
BE66B41E
3E9EB54F
BDF41B79
BE4D4FC0
3EAFFB46
3C9E2DAC
BE81805E
BF0857CD
BE04B018
BE0D42E5
3E0C9B2B
BD0DDFF2
BD18020E
BC338F03
BC9EF245
BDF09564
BDE54318
3DA6ECEF
BDB2F84C
3DEAE457
3CE1319C
BD8EEB28
3C88BAB9
3C9B1631
3AF88FF1
3BA655CE
3C8C1D98
3D2040FF
BC9000F3
BCBA1139
3D83BB16
3D9C8CBC
3DCC8DB5
BD06202D
3DA5CD6A
3E212957
3E55A158
3D764A29
BE53938C
3BC58188
3D6D4830
3DD8CAC0
3DD4D8A2
3D36517C
3D81C864
3D9663E8
BE22AF05
BDBA8BCC
3D0E8550
BE0542C3
3E22D33F
3DC0B5CC
3D1DB9F8
BDF1BD4A
BE5048B7
BE2A79E3
3DB33763
3E504CDE
BE0B85F6
BF111B52
BF217886
BDCEF462
BEA68FAB
BC7510F1
3C8CB2F3
BE604F3D
3E5D49E7
3DA2D368
BE82CA2C
BF085390
BF2F28D9
3EF544AA
3C0A63E8
BE3C394A
3CBF3BA0
3E292621
BEF7F217
BE628954
BDBEA730
3EA43230
3E274083
BEE19A05
BE2B48E0
3E93A22E
BE921820
BF0D9481
BD3BFE3F
3EDDF7E1

