7CF
048
047
7D6
764
7F8
06F
00D
01A
7E9
6C2
7ED
7F7
020
7BC
023
00B
7FD
06E
7E7
78D
771
06D
78B
7DC
7EE
6E6
7FC
003
771
7A5
77B
012
0AA
7C8
7B0
76A
05A
7AB
799
037
05B
7B8
0C7
025
037
7E4
007
7AD
03A
7A7
0BA
7D6
7EE
734
0DE
7BA
6EF
7D2
78F
6C7
03A
7DC
797
0B1
010
056
0B5
069
07D
008
726
7A7
7DD
7BC
7B5
7A3
0D4
75A
765
7BB
104
066
0CE
7F3
77F
000
020
7D3
08C
73D
05A
04E
195
765
7D8
7E5
791
798
6B1
7BE
769
7B2
78A
761
7B5
76B
7E2
7C6
05F
06E
027
093
066
76F
7EA
7A2
781
023
05C
7D9
7E4
7CB
7AF
016
7BB
7CF
7F3
0A0
75C
7C1
7FE
05E
7A4
05A
02E
048
79B
7D4
047
7F7
076
05D
022
788
079
762
7EB
014
7A1
011
71D
01F
01E
01A
77B
737
6A8
00B
775
7ED
0D0
0BA
048
03F
7D0
7D7
0B7
003
035
099
7F4
01E
7D5
7E3
7AF
01C
7FD
786
750
7FD
051
7BB
7D8
0EE
74E
6EE
00B
7F8
081
6A4
7B7
051
7D6
7BF
087
7C3
73A
7EC
7FA
00A
14F
7B4
007
100
10E
079
11C
7C2
091
767
0E8
068
00D
002
034
097
003
785
7DF
7EA
75B
003
079
0E6
0AA
6A4
7ED
01E
730
01A
011
03F
02D
0C2
06F
05A
01C
045
026
73C
72A
79D
7F5
06D
709
7E4
069
008
777
76C
00A
7E4
03F
7D7
7AF
7C1
783
02F
76D
7BD
084
7D7
795
034
7C4
05B
7D8
6FF
045
063
7B1
775
7B6
05F
7E3
045
7AB
7DB
03E
7E9
042
7A3
7A1
03B
075
02A
055
049
05A
721
764
055
793
03E
730
710
004
051
0A4
799
08E
790
7DE
024
0CB
02C
033
034
01C
793
7FD
09B
04D
7DC
042
7C2
7C5
7CF
7CE
741
78D
005
7E6
002
795
768
7D9
7B6
7C4
7A0
0BF
076
060
79E
7E3
7E7
042
036
086
7BE
7D6
77A
03C
041
013
01F
02B
7A1
7D9
012
100
055
07B
784
15E
100
015
72E
798
743
128
0B1
7CF
01E
03D
027
770
013
0A1
799
7C3
04B
019
774
79C
782
055
02F
795
7A4
13A
7D8
05A
046
7EB
058
7F6
033
0C7
7DE
706
01F
03E
7B0
760
78A
0AC
05A
6B3
01A
7C2
7BC
00C
041
7F7
082
7B6
7E1
7BF
004
7F9
79E
78E
04B
773
03D
7A6
7B1
032
07F
074
005
052
7F6
7EB
082
7BA
011
002
7FD
7EC
047
019
01A
7DF
7EF
00B
093
7C0
76A
782
09E
7C1
063
021
7A7
065
7D3
052
7A4
03F
01D
796
7B6
107
78E
7AF
7F1
05D
6F1
0B4
766
042
780
040
711
7F3
777
005
7B6
72B
793
781
7F9
067
737
044
002
058
04B
096
013
0F9
7E4
04A
754
031
76B
0CE
79F
01B
073
033
089
7B0
08A
789
730
043
7FA
7D7
79B
79E
7EB
784
03F
7CA
019
785
030
09F
100
052
770
78F
051
029
7D5
087
0C8
008
7AB
00F
02B
7B1
048
7DD
058
01F
7E0
001
74E
7E8
0E2
04C
04D
042
048
036
7A2
016
02D
7B8
0B1
089
76F
119
77C
16F
00A
0D2
7EB
008
7B0
0D8
757
7A2
05F
01F
79C
046
7E0
028
010
7F3
070
04C
03E
7DF
079
796
020
7DD
077
7C5
750
0A5
042
79D
02B
126
00C
7E1
76D
7EE
7F2
02B
784
0AB
7DF
7EF
7F9
0D9
798
7B3
7D5
7CA
751
795
026
050
7B7
793
7F6
7A0
77E
7A3
7FB
01F
7C9
028
0CD
067
020
7F2
047
030
024
047
024
00C
024
045
7D1
013
799
05E
7DE
7AE
018
062
053
799
779
044
008
026
7B2
049
060
7D8
013
755
7AD
79A
078
7E9
7A3
00A
7D3
79E
79E
030
7A6
033
703
7F7
000
042
7FE
783
0CA
03A
7A0
788
02A
7D8
034
120
743
0A9
02F
01B
767
056
725
080
01A
7BC
7E9
7CE
05E
7DB
7F7
7D4
01B
7F8
00E
7E5
04C
7CF
08E
7DB
727
7F2
7BB
7E5
088
005
039
7B9
7F3
020
094
775
7BF
7A3
099
014
006
04C
006
793
7B1
020
006
7C8
714
729
0E1
779
036
799
09B
075
015
790
07C
7C3
798
7E0
73A
79F
7D2
069
794
79D
039
019
7F1
76F
008
768
044
7C9
79A
012
7B6
04F
792
09C
7DC
7AE
07E
02B
051
7FC
05F
7BE
7F3
07E
7F3
07C
08B
7F4
001
756
709
7BE
01A
6C3
7C0
048
014
01E
7E2
028
7F0
03F
00D
067
035
0B3
6AA
044
011
7FC
042
02A
048
79C
035
75B
057
743
7F6
7DA
748
0A9
74C
71F
7C3
797
78F
79A
7EA
031
77D
7BA
75C
7EF
013
7A6
013
7A6
7DA
781
01B
79E
737
7E1
00C
7BD
7BF
79F
773
048
78C
06C
793
77B
7F9
074
004
020
05F
7DB
03A
6A4
0B9
004
01A
064
048
016
7CB
024
78F
00C
77E
09A
7AA
03A
653
086
783
005
788
7A9
75C
04B
058
7C9
00D
06C
030
018
0D6
07A
7D2
08B
052
75F
7D5
797
0CB
0B5
029
011
064
020
041
000
7E4
7CC
7EF
791
060
7A3
08D
7DE
01E
0FE
741
75A
00E
105
01D
061
7ED
797
055
05D
0B3
6B5
090
735
008
06F
034
066
042
77E
772
031
794
7CD
735
77E
053
082
7AD
7EA
0E1
065
056
05E
08E
7D9
7F8
748
7BD
7EA
012
05D
04C
7AB
00B
7F4
097
019
073
77C
01C
072
79F
7F6
7CD
01D
7E2
7B8
787
013
068
772
6DA
736
078
7A9
02E
79D
7F6
016
7E6
011
7B5
7E0
063
7CF
092
060
068
7C3
7EA
7D8
7B5
74C
00E
763
009
7BD
730
7E7
06C
0F5
009
78F
07A
03E
790
015
026
786
041
78E
771
7DF
021
079
032
0DB
036
05B
035
0C2
6B6
070
785
038
6B2
0C5
77E
7C9
739
7AA
033
034
071
066
7ED
04A
04E
040
00F
035
733
09A
6D9
057
7CA
0BE
01B
085
083
7FE
05D
775
014
05A
744
759
6A6
05A
7CF
72B
7D9
01E
0A0
6A7
788
010
7F7
048
0B0
7E0
75D
005
0C5
0AD
7B6
155
7CB
77C
7A7
7FF
7E9
0E4
71F
052
01B
7B9
7F5
7FC
08F
0C9
7BA
759
7C1
001
042
020
048
76B
019
019
094
7A3
059
0B8
771
715
758
732
78A
7FE
79D
7F9
004
050
789
00E
011
797
7DE
0A3
7A3
7F4
04D
05F
029
059
7BF
75E
010
045
7A5
004
7BE
7A0
7DB
77F
7DA
0AE
028
078
73B
012
7B3
072
791
067
007
03D
753
7EB
796
7CC
00E
014
7D6
794
798
048
039
7F2
785
795
7A9
005
7B2
0E7
023
7CC
7AD
0D0
77C
004
78C
7B7
777
084
02A
7E2
7CC
7C3
773
02E
006
7F5
76F
7E5
7A5
04A
790
7C6
73D
7F4
7E6
7AC
05F
067
074
7FD
021
7F1
055
7B8
7AF
07B
035
055
6D6
02D
758
77D
070
000
016
724
7A2
78F
7AA
7E1
03D
75C
0D6
00B
064
777
705
058
7E7
048
76F
7BF
7FD
17F
03E
04E
16A
02A
7FE
00A
7CD
7D7
047
61C
7D9
7CC
05E
6F3
690
118
0BA
763
78E
040
012
7C1
6E3
017
050
6BD
11E
02A
059
7B4
7E5
03B
7EF
7CE
7E4
78B
093
75D
79C
035
03E
064
777
7E6
7BB
773
05B
00E
7EB
7A4
769
7FB
780
754
04A
792
03A
050
7B8
00E
043
09A
06D
7B7
7DF
021
789
027
04F
026
761
011
002
77F
7AE
76B
090
049
7A7
008
7C7
0A3
7C3
69D
061
006
7FC
766
77A
6F7
057
73B
71D
796
174
017
6E8
773
6FF
15F
1D5
101
07A
0A9
7CC
70F
670
72E
759
744
042
6D1
052
757
768
02F
24F
759
7E9
00B
05F
7B2
5EF
225
131
75B
091
109
750
01E
0D6
04B
003
035
7F7
77E
746
057
7EB
029
78E
014
03B
0D0
02E
7E1
035
7A6
007
00C
756
09B
022
093
7FB
7C1
7F2
088
0A0
7CE
047
749
012
045
7E8
7B2
75E
7DB
004
022
038
010
7F7
760
757
7D1
730
776
7FB
7DA
086
7F7
7EC
77A
78A
005
09D
748
7C6
062
04E
0BB
0EE
00E
71B
7F5
798
064
7E3
0BF
7A0
760
067
7AD
78C
037
0E0
0F4
7D7
7D9
001
7F5
053
779
792
771
780
043
00D
773
7C9
05F
7CC
7E6
78D
7CC
087
03D
78D
7D8
744
04F
7F9
0CD
7DD
021
7F3
0A0
7F9
7C7
7E8
04C
7A8
04D
77A
000
760
7EC
79F
064
02A
78B
7BB
7E4
7A4
095
039
7FC
082
7F3
070
7F5
7A9
049
04B
7DA
068
00B
7F2
065
002
7EF
02E
05E
086
7E4
7C1
7FC
7CD
03E
01F
056
785
787
7B8
031
104
676
6FA
7FE
0E3
0D2
074
7ED
78B
021
022
7FE
03A
7D6
619
7F7
052
098
067
001
0D5
0E1
79F
78C
050
03A
7D1
741
7CC
7B7
725
059
0EB
045
725
052
080
780
7E9
6DD
7CD
025
6DB
73D
773
09A
7DB
07D
7FC
779
089
040
008
7B3
07B
05A
062
008
74F
7A4
01B
038
7E7
025
76F
7D6
0BA
785
777
7C1
08B
7EA
732
76E
7BF
053
7FF
010
782
779
7B8
05C
7BB
7DC
7EB
0B0
723
777
733
7A9
0B8
7AF
00B
7DC
7BA
08E
76D
036
00D
7E9
746
0CC
7E7
0A1
7B0
7A5
052
059
772
79F
7A6
062
03A
798
004
75E
7C0
000
7A5
0DD
7D6
0A0
7D2
006
790
05D
7BC
070
06A
7DA
01E
068
7E6
7BE
002
7F9
062
024
7CC
024
781
760
7A1
013
7FF
02F
7AB
06C
026
7FB
76F
7E9
797
057
6F9
023
022
04C
7FA
783
75D
7C4
7F5
03C
7FB
7C6
76A
7B6
791
7DE
072
014
06C
033
75C
775
7A1
0BA
007
7D3
019
08B
094
781
76A
7C1
04B
7F5
7F3
04C
009
78A
7A7
03C
074
031
7ED
7AF
043
7AD
0B9
783
108
715
0EB
7DB
009
06E
7A3
7D3
700
04F
7C5
0C8
750
792
112
76B
788
7F6
148
095
043
006
046
795
78B
78D
77E
0BD
06D
0A7
04E
007
6E7
055
758
7C8
027
7B8
094
0B0
7D5
03E
7AC
090
7BE
744
01F
007
0E5
700
040
70D
152
043
7BE
7E5
023
7CA
770
7B8
794
044
006
7A2
0CD
004
7BC
7C1
07D
7DA
049
741
0A1
782
00C
68C
6F9
050
077
012
051
7AF
745
022
7C5
7FB
08D
70A
0AB
115
00A
7BF
746
0FF
7D1
10E
7F4
7D5
7A6
0B5
6B2
0C2
6B3
033
793
044
050
7D5
7FA
06A
01C
75C
7C0
010
79A
7A3
057
064
7C3
068
75D
0B8
772
0BD
7C7
065
7EB
79E
01A
08C
041
7AC
05D
7F0
095
7CD
011
089
764
78E
774
7AA
00E
79D
7FD
04E
77E
7FE
7B8
0AA
04F
781
7A5
107
7FA
05E
73D
7CE
7F5
7AF
7DF
794
7C2
059
746
731
794
084
793
7F9
709
07F
79C
796
7BD
10D
05E
02C
7C9
7D0
06C
7DB
000
0D9
086
782
68E
06A
017
78B
7DD
733
7DA
7BF
7AC
072
045
79F
01B
033
7CB
03E
796
7F9
7CC
018
750
76E
7FE
7FC
7CA
7EF
06E
022
78C
7F8
7F2
016
021
036
012
0AE
78B
07A
7AF
013
09D
02E
797
7F8
7EC
7CC
7AD
7B1
7FD
018
76E
0A9
774
7EA
03D
7BC
7E6
72B
788
042
06C
022
77E
061
013
7FE
74E
085
042
09E
7A8
765
78B
026
007
757
7A1
039
7EA
7A1
7D0
04C
7AB
0B2
789
0B6
7B2
72E
035
029
09C
007
7CF
7B9
001
7E5
7CA
010
7E8
045
7D4
09B
006
054
009
792
7E1
77A
78B
6DC
7F6
7C1
7B3
788
0AC
749
006
73B
76E
0BC
0C7
791
719
059
011
147
07D
1F4
05B
0BE
7D7
777
753
61B
0CA
713
7C1
6D9
05F
062
79E
0C9
0A2
7CE
12E
007
7BA
194
669
7BA
136
6B2
037
78F
0AE
01A
7E2
091
7C6
7DD
7B7
7A7
7D2
7C8
077
065
7F8
077
022
049
6EB
7BD
766
77D
004
03D
01F
79C
004
003
772
09D
02C
098
7EF
000
780
7D8
794
005
792
06B
773
00C
79F
78D
766
7E6
073
7F7
757
7AE
7F8
027
029
7AD
7D2
7B0
7CC
72D
7AB
7CB
79A
785
13B
5A2
09D
7A9
689
081
0E3
02E
6B2
003
77F
03D
1CD
141
088
0B2
7F6
789
6E1
6D2
01F
7F1
7F8
62F
7E6
76D
722
0BB
230
7C9
0C5
02A
750
026
638
0F0
13E
7AD
097
0EB
009
00F
0FD
080
7DA
050
011
04A
7E7
7E2
077
7BA
7C5
002
03F
05C
03A
055
7F1
79B
009
069
78B
7A8
086
034
052
7E1
02B
022
02C
782
03C
7F4
005
79E
7A1
7A5
70E
087
055
7E8
7E2
7E6
09F
7CB
7C8
7DD
7E5
009
003
052
764
06C
7D0
7CC
031
7E1
00A
058
7FD
758
059
00C
76E
05B
7C2
041
00B
00A
794
7E9
024
078
07F
04A
019
7B2
7B2
775
7E5
755
765
79A
01A
7D7
008
03D
103
063
011
015
77E
034
761
7E3
7BE
7B2
096
03E
009
7DF
7A9
7CD
7EF
7AF
00C
7BC
791
7C9
7CE
744
021
017
783
7B2
039
7CC
780
02D
79C
041
0C6
7C2
012
027
777
77A
7E5
789
062
7CD
01E
752
7DE
7A7
741
01C
0A2
7EA
06C
7AD
026
798
7A1
0FC
02B
75B
011
0D8
7E1
0E4
07F
07D
00E
019
044
039
030
791
03D
05D
7E9
7F5
79C
7CC
77F
02B
08B
7AD
007
7D5
75A
798
7FC
7BB
7D1
029
0A2
09A
093
7CF
047
075
7FA
7ED
7EA
7D6
7A0
084
7ED
7A2
021
7A7
090
725
7B8
78E
7B5
7A8
04B
072
7BB
7ED
7E9
07F
01B
029
0A1
06E
7EB
072
0AE
03F
7D8
070
70B
776
06E
78E
0A9
02B
735
016
00E
7A3
7AC
089
05C
085
73F
00E
794
0AE
7C8
05A
024
030
75B
023
036
021
05F
056
770
76D
71A
7DB
7D8
7DA
7C9
77E
006
7C4
76F
0C9
7BB
7B4
7E1
058
7DD
008
7B3
790
006
067
7E1
78A
093
04E
064
767
7BB
00C
022
042
78B
06A
7EC
00B
028
015
7DA
0E7
7B0
037
059
773
01C
0A9
05F
00D
0F4
77E
080
7D1
763
01E
738
78D
01C
077
006
793
037
007
79B
7B7
721
7E3
01B
001
787
0F1
7E1
055
034
780
7B5
7EE
7B5
773
7C2
7CE
7A1
7DE
02E
73E
046
0C2
7F2
005
7ED
7EE
04B
005
7F1
77F
761
06B
0A0
773
044
016
04E
756
08F
024
7ED
77F
7E9
048
79E
049
7FC
044
04D
7A9
79C
05F
7E0
72B
031
058
695
150
7E8
7A4
04A
783
0EC
158
7B4
08A
0DD
054
7D0
024
012
796
04C
724
776
7D7
7CC
04A
063
0AF
7AC
087
10D
795
7BC
0D1
5EF
719
034
75B
7F8
753
045
08D
00F
009
7AB
6D0
7AC
048
09E
6A2
0CB
718
0FE
7C6
00E
6F5
091
794
06F
7CC
7A6
054
061
78A
0D5
7CA
006
7C6
073
7DE
05F
71E
0F2
7A7
7FB
5D5
708
0A6
06D
7E2
026
78C
796
7A2
783
0A8
076
6E9
0DD
157
090
0BA
768
119
7F2
051
78E
78D
7A5
021
7A2
0AF
707
7D6
01A
7E0
7BF
059
7B3
03F
04D
78F
04B
7FA
004
080
017
02E
021
031
044
7D4
7AC
7AE
063
033
7FA
71C
071
02F
027
025
016
753
04B
0B2
00C
039
76D
05A
75E
02A
05A
7D5
7E9
0AD
7A2
7A0
027
063
075
065
757
01F
7E5
6EF
7BE
014
033
784
77A
6FA
06E
03B
7D2
7C4
7B1
0A3
79E
073
7BA
01A
006
051
015
064
77D
003
052
7CB
7D8
7C0
784
6FB
03B
05A
00A
026
0E1
752
775
715
737
05A
7AA
0EB
76C
7E1
78E
029
011
019
7E2
796
7B0
7F1
746
7F7
046
7E8
7DB
7A6
788
7CA
7A1
7E4
02F
042
037
08F
060
0C5
010
03B
7FF
023
7D2
7FA
00E
7D0
7C9
79F
7EB
7F2
0E6
7FC
7A8
00F
7D1
79A
7C4
75C
7A8
793
7E8
01A
00C
05A
798
050
00D
069
7B4
0B2
7F6
7F1
7F7
01E
075
7DD
7AF
04C
782
7CA
006
7D8
7F2
015
08F
00F
08F
02B
04B
001
786
000
027
01C
796
78F
034
7EA
7E5
7CC
063
7F8
7AD
08A
7AC
028
7DF
7A3
7BB
7E8
785
020
7DC
045
74F
006
0A2
7C2
7D2
034
736
08E
02E
782
059
79D
7AC
0AB
784
0BF
7D0
781
7C0
7BB
7AC
780
08E
7B9
742
72E
03C
077
00F
0D4
7EB
7B1
021
7C4
7E1
058
747
794
018
006
001
792
083
03E
7A2
02F
026
020
796
00D
007
7DD
7EE
7FD
7CA
01E
001
7ED
739
033
09C
7B7
013
7D2
7E7
7ED
009
7E2
018
03B
065
7F2
7EB
055
7F8
7C2
059
090
05E
05B
7FE
7FE
003
7BF
7EF
034
086
788
777
7DF
00A
005
79F
7D2
774
772
035
7D4
7E0
7EA
026
7DE
7DE
744
0E4
015
665
071
063
7C4
720
776
794
033
08F
7D4
07B
7D7
016
78A
05A
799
016
7D3
7BF
77E
7FC
000
6F6
10D
02F
014
030
789
79B
0B7
6CE
7DC
016
7C9
037
038
7FC
037
7F5
0AB
006
01E
7B3
05A
7FE
79D
06C
061
7EC
026
01B
7FB
7B3
799
070
009
030
722
6B8
750
054
7F5
7B8
7E4
0A6
0AC
02D
04D
090
0F8
786
7DC
7A6
046
6C0
044
7AC
7A8
798
7BE
09F
773
7F9
025
7E1
7CD
7E1
041
7A1
7E1
772
03F
7FA
7C1
0A6
02A
01B
7C5
008
784
6D8
084
7E5
7F8
018
787
7B0
0BC
09D
018
050
017
7C3
7FA
755
7BB
7DC
7A6
7E5
048
7E4
02D
080
7F6
030
05F
019
7A7
021
02D
7C2
7E9
7FC
7F8
086
7CF
036
00B
02E
00A
79A
756
020
788
7F3
65A
0C0
6C5
7FA
716
778
6C9
03E
009
03C
01C
6D1
02D
095
790
015
01E
78D
786
7A4
72F
0C0
765
10F
74B
058
61D
70B
0EA
070
79D
07A
7E4
731
6FF
03B
1A2
0CF
00F
054
1CC
0B7
0D8
779
155
025
087
014
7FC
6F4
085
75A
7DF
712
7BC
7B7
7E1
778
054
0AC
7DD
074
79C
7A8
02B
7CE
03B
7F9
0AB
7EC
7D3
7AC
049
054
791
052
089
0B0
017
724
045
008
78D
7F0
07A
7D4
773
7DB
022
773
6F8
00E
795
7FC
7CC
7A0
084
021
794
01A
7EB
038
038
000
7EA
02A
040
019
774
098
7E2
098
050
785
00C
7DE
7DA
033
08C
009
075
7B8
7D9
004
7FE
791
0AA
02E
78D
791
7E5
014
00D
048
020
00E
78C
7D2
07A
013
77A
022
024
000
770
00B
011
7BF
04D
00D
0B6
085
073
034
753
768
7F5
7BD
030
0C2
010
01A
016
791
066
7CA
7CE
7AD
011
040
01B
7FB
7DC
7C2
00A
045
043
023
044
784
01A
7E9
7AD
04E
7E1
036
7C1
786
03D
064
733
0F7
02D
7F0
01D
02A
7D6
04D
7A4
771
7D2
02F
01C
7C1
7CB
0DE
76A
005
009
775
00A
7B6
77B
7FC
7E1
779
7DD
045
01D
05B
0D2
762
02C
061
029
05C
799
716
720
04E
7E8
022
7C3
7B3
77D
125
04A
0FD
04A
7A9
004
049
7FE
00E
7D8
7E5
162
7A4
025
7F7
158
763
6C4
7CF
04C
643
1B7
7B0
040
008
796
11B
0F8
040
067
7DB
02A
7D3
07A
7BB
6F4
041
775
6F7
7F8
048
154
0AD
7EF
004
0D9
05C
045
7F1
106
6AE
734
784
7BC
766
7A4
7CE
032
0B7
784
7D8
753
79C
7E7
7DA
777
038
6F4
0C1
026
6FE
7A5
7AC
7FF
048
7B2
6CC
096
07A
6F4
7EE
701
02A
7F0
0A0
73C
037
770
00C
001
031
64E
782
08D
026
752
00E
7EE
71C
01B
7B4
0D0
7F1
7A0
055
10A
11E
76D
7DD
0B7
794
02C
055
7B8
750
06A
06C
7EF
08F
7CB
044
73F
013
7EC
070
02C
6E8
7DB
049
736
792
751
053
09C
7A4
03A
754
041
02C
0BB
039
6D0
72D
6E0
073
75B
6D2
040
0DB
6E7
0DB
0BB
7F7
056
048
0F9
7DA
0AD
008
7B8
7DC
7D9
7EB
016
0B1
7CA
027
017
7E7
79F
01D
75A
02B
77B
02E
7E6
7B0
750
7E3
76C
7CA
796
77E
04F
08B
05E
030
79A
042
04F
7FC
7B5
751
76F
062
039
72A
002
040
79A
033
0B5
086
018
0B0
067
7E5
7AA
7A4
089
799
792
7B9
7F9
7DB
7B6
7BA
00F
061
7A4
009
774
7F6
7C2
01B
7A3
01D
045
78B
6F1
012
01F
016
020
00E
010
7FC
7E8
032
078
053
7A0
7E9
7B2
761
7F4
771
78D
7D1
7B8
07F
039
6EF
7BB
03A
031
02B
78D
784
787
7F4
7C7
7EC
061
6FE
085
7A5
058
73B
00B
0CE
7FC
0A5
7D5
022
77C
034
7BF
064
7A0
7AB
00C
7E8
7F9
058
09B
76E
020
7C2
7C8
03E
015
7E2
774
799
032
775
7DE
055
750
7C3
013
00F
096
7C1
037
7B5
7A2
054
7A3
793
028
792
018
7C0
003
012
05C
7D0
027
7A0
05E
76C
7F8
7D7
026
776
026
7C8
7D8
792
7A1
7DA
010
048
7D8
796
7BE
7BF
749
7BA
00C
7DB
7EB
7C2
023
7A5
7BA
78F
064
7E5
7F2
7C6
028
7F0
7B7
003
7E1
050
7A0
77F
01D
7D3
04B
02B
006
03A
00D
7F7
03A
02A
7E3
789
045
08E
02F
04D
050
014
7F8
01C
015
780
077
7E7
063
7FA
034
7F8
7E2
7C9
061
7FF
7FF
79F
7FB
7C2
040
009
7CE
00D
7D6
73C
064
04B
04E
7A0
7FA
7C3
7EE
766
043
7D5
7AA
008
01A
02B
7D6
079
0BA
6E5
026
073
78E
787
7C3
7DC
7B5
7F6
084
073
7FD
03D
7CB
054
03B
018
042
04A
040
799
03B
002
010
7D8
032
087
7F6
03A
07A
75F
765
022
7D6
07B
79A
7D2
7F4
033
039
053
01A
7B7
02D
7E6
7D4
053
034
029
047
03F
790
7CC
791
043
04B
7D4
02D
775
793
763
783
789
029
02F
023
7FC
06C
028
7F8
059
073
02B
754
720
7FE
7CD
777
7CF
01B
050
01F
799
043
044
01A
099
013
7E4
7BF
01F
779
054
01C
024
048
7D8
7FF
012
79F
636
7FC
0CF
788
055
79E
00B
07A
7B1
00E
74B
763
7E1
017
747
666
038
790
770
019
79B
023
04A
7CD
015
7A2
793
7B6
038
017
628
78F
7A4
7A9
7B7
7FA
079
0AD
012
7D6
05E
522
7D6
00C
0E6
4BF
0BB
5E7
198
7CD
0E7
671
7C0
7D5
787
7EC
654
1E8
0FE
654
152
78B
05C
7CC
015
7A4
7F2
6E2
0A7
7F7
009
5F2
6C3
0A3
047
7B6
76F
7D8
669
01C
748
1D2
07A
6FA
029
347
0ED
701
6F0
7E4
7E6
094
7B4
7CA
7A6
0A1
008
03A
6F9
047
5B2
04E
08D
7B1
0A4
7DC
01F
6EE
023
0EE
713
763
022
7EA
006
783
024
7DF
731
7D2
7F0
09F
019
7FE
7FB
76B
04C
7E1
0D6
7C7
767
7C2
7FD
7EE
795
774
0B2
00F
791
00C
7AE
7C7
7FC
7A7
01E
03B
04A
031
792
77E
782
7B8
7A7
7C7
035
7E7
041
044
7AE
7BF
001
7E1
01B
7E0
7C7
028
7CD
02D
7F9
002
7D6
09A
0FF
7A9
79B
7E8
74E
005
7B7
7C6
7CB
7AF
73C
06C
7B3
7D7
067
01C
013
7C9
7EC
793
053
05D
041
780
05A
085
7D2
6D1
799
7BF
7B8
02F
7A8
78F
77C
78D
014
6F5
76C
78D
017
7FF
77A
76B
78F
7B9
063
053
04A
769
7E1
7DE
754
7CE
6D3
01B
040
7A2
74E
029
045
099
0B0
7E4
06C
7DA
00A
085
7F0
019
013
061
01A
01B
765
7B9
077
023
7BB
023
065
793
094
05C
02C
038
758
7CF
7F5
7AB
7A3
7E3
7B2
037
024
7F6
777
02E
7BD
7EF
779
7AD
742
083
746
774
047
019
7AB
742
769
7A3
7E2
715
043
002
021
7EE
78B
7EA
7CC
041
7D9
7C1
76B
03C
058
7B8
0E1
70E
7C3
015
76A
003
79F
06E
7D8
724
78E
7BE
7BA
7CA
010
068
00A
073
02D
045
7AF
796
00F
005
7EC
7D6
7E5
7BB
05C
76D
07C
08E
01D
066
7B1
107
7AC
023
030
025
7AC
091
78E
00C
07C
02B
79B
096
745
7DB
00E
7BA
033
04F
7E4
7AE
075
7A9
0AE
793
761
79D
7BD
7A9
7D3
07F
7A6
78F
0A5
0FB
7EE
79F
7BC
7BC
7B8
014
742
789
016
6FF
09D
037
05E
049
7D8
7BB
05D
77B
08A
00C
7A8
049
00C
016
043
051
06E
04A
003
01E
6DB
03C
7DD
7A4
7DD
7A7
7B0
792
0A2
79E
7BE
7E5
050
029
055
7C3
7C7
7D4
6B7
76F
005
022
7C5
03E
792
7B1
7BA
7DA
7A7
01B
7E9
71D
7BE
7D1
7FF
749
7EE
002
7C2
010
029
080
777
78F
018
0BE
7BF
0B1
047
782
64E
066
039
7C5
72D
797
7C2
05B
7DC
011
7DF
002
7F4
046
7F6
006
73B
012
733
039
7DE
07D
7BC
025
079
07B
049
017
041
03C
7D2
6AB
7EE
7E1
00F
6E9
6CF
02D
02C
7AA
76F
77A
7D1
063
028
031
7EE
062
067
6F3
795
075
001
7A8
07D
00E
7D2
7D8
00D
7FC
023
78D
7FD
087
7C4
7DE
754
000
753
080
030
796
036
7F9
7DD
7D7
71E
05A
054
05E
7F7
760
79B
755
019
743
047
0D3
0AE
052
7F3
0AB
028
017
06E
098
797
7F0
020
025
6E9
096
09F
06D
02A
02E
767
739
6FA
030
79F
768
79D
0C3
062
074
724
7FD
6E9
093
792
064
7D9
77E
729
72E
76B
798
006
02C
7C2
78E
75B
7DC
06A
7C9
757
72D
764
0C3
7AC
020
779
7D1
0CE
795
00C
7FE
031
08E
0B5
7BA
059
7BD
01C
7C9
043
00C
74A
01E
0CB
7D9
7B5
023
0B2
0B3
7D4
7A7
7C6
76E
05B
7C6
789
7D4
056
024
040
06A
7D9
7A9
785
7E4
06D
7A5
056
784
776
00F
70A
057
055
03B
7BB
7F0
04B
7DF
793
03C
085
75B
7B9
04B
758
7BE
7FE
7B6
014
7B5
733
750
01F
780
05F
032
080
03E
76A
795
78D
118
027
7B4
780
76E
7CA
7FC
7C6
7D9
116
038
056
6F4
0A6
792
12F
7F1
7A9
7E7
7F2
7CF
78D
05A
058
7F6
736
0C0
07A
718
692
7B9
787
0F8
02B
024
7B3
020
06E
742
0A5
100
7EB
087
03A
7C0
761
7AF
051
00E
126
6BA
05D
01E
147
0DB
026
0AF
05D
053
009
004
7DA
006
16C
095
6CE
035
01F
05B
7C5
7D2
79D
058
7D1
01A
0BE
062
762
028
059
7D9
0A9
7BB
085
051
7D8
7EE
7E8
7E9
775
76B
7C1
7C1
041
06D
03E
07B
78E
76C
7FE
0F9
7E3
7CA
76A
70E
7E8
7EE
7EA
77D
02E
7CC
072
79C
78C
01B
057
765
067
7CA
004
781
013
767
7FB
7A4
008
78E
79B
050
079
7E9
04F
772
01D
79F
019
785
00D
7DB
7CB
788
005
773
778
030
03D
069
77F
7EC
06A
09E
7D6
75D
7CD
06F
7BB
017
7C4
01F
042
039
04B
082
7EC
7AC
092
035
7D0
028
063
032
7AD
003
785
7D3
7B2
7F4
04A
7D7
037
792
006
79C
7EC
033
7D1
00A
029
02E
0C0
046
7E2
04D
020
7E4
7D1
7B7
6EE
014
050
7A9
7AD
033
017
019
05B
046
7DB
020
7F8
017
012
088
078
031
7B7
068
013
055
0A7
7AC
7EC
7B7
7CD
7C9
163
744
77F
7CC
14C
7AB
7DC
692
79F
003
036
77E
760
034
051
635
7EB
71A
78D
07A
04D
045
04D
742
036
0EE
039
6D8
6D3
75B
7A4
758
670
7A2
054
7AE
7B7
03F
777
741
0DC
01F
7B2
7EE
00C
0B9
015
79D
7FD
051
110
054
7BF
0CF
0A9
004
70A
0BF
01E
7AC
7CC
048
07C
069
6BE
738
095
7BC
7FF
049
035
07F
72E
6DC
751
7F1
048
0DA
754
771
7E6
02C
754
7FC
15E
0A2
7AD
684
028
711
094
6A3
771
01C
0C5
7C2
7B5
6FA
043
050
733
7ED
086
7AA
7E3
7B9
77A
757
71B
7CE
006
7A6
755
7F1
0D0
727
76C
788
78C
7C3
71F
74D
75F
0D5
009
147
77D
705
7FD
7EA
7CA
74A
76B
042
081
6E4
7D7
0A4
7C7
0C6
7F1
094
7DA
031
028
79B
7E1
7E9
02A
7DE
7EC
7CE
043
7E5
052
042
01E
0BA
7F1
7C1
7AC
7EE
7F6
02C
775
04D
024
065
037
7ED
0AC
035
025
77C
056
7BD
00F
7D6
795
79F
026
044
0A2
7CE
7D5
03B
020
025
063
73E
068
7FC
002
059
794
0A2
7A8
6DC
782
7BC
058
794
033
7D2
06D
7AE
068
718
794
7F7
000
7CB
7F3
7F3
00D
6F9
000
021
797
7C0
7EA
7F4
7BE
7FE
7E5
09A
7BA
6D8
7EE
776
75E
77A
757
7E7
05A
76D
031
061
7A0
01B
051
0E0
7DC
7C7
015
04F
7A2
0C2
061
049
7CE
07D
7FD
0B8
7B6
754
067
7E5
025
05C
019
7FF
032
740
059
763
79B
044
7B0
7E2
009
04E
045
014
038
07D
01C
063
7EC
03E
7E3
091
77A
03F
09B
7A0
061
039
08B
7F7
024
085
017
043
7F5
772
003
0A5
004
056
7FB
03B
7FC
7BD
7F5
003
7B6
7FE
7D0
7B7
009
03A
032
721
002
03E
06B
033
7AA
7D4
01C
01C
7AC
79E
0A5
7F1
7EA
7F8
7A2
086
00A
01B
003
7ED
074
005
7D6
06B
029
7C4
014
76D
04A
79C
793
017
016
0E8
7FA
01D
08A
046
6BC
035
07F
7FC
6EF
053
01B
011
769
023
032
7B3
74C
0B0
04B
06D
7D4
05B
02E
7D8
737
782
6DC
7F0
7C1
075
7C9
7E9
117
094
7C3
7B1
094
0DA
6BD
6BF
72A
7B0
05E
6A9
6E4
71D
025
7F2
785
033
02A
7DF
7D6
012
7AF
03B
7CB
7D9
791
7DA
051
77D
03A
01E
01F
7D3
7F4
05B
025
7E0
7CB
02E
00A
007
763
797
7ED
7B0
7A5
07E
799
01D
07B
03B
044
05D
060
070
7AE
7B5
7D5
7A8
7C9
719
0BE
7CA
018
000
7C3
05A
7BF
7F4
08A
012
71A
02C
06E
7E8
7F1
7FD
7B1
052
7D8
77A
052
752
719
08C
08F
028
784
0FE
0D2
034
7B4
724
03A
057
01B
0A1
7B2
7BD
026
038
7B9
783
01D
7F2
7D8
736
01C
6BA
7FE
7D6
723
7EF
77F
089
7A8
675
7E0
04B
0EA
6E4
019
70D
13F
10A
761
745
02C
7C3
74C
7E4
030
066
749
072
151
0E4
789
797
0AD
097
0F3
6DA
7AC
7DD
060
7F0
6B3
7FE
076
05B
0CA
03C
01F
091
6FF
788
119
6CC
0B3
0DF
7A2
0C8
7C6
081
012
742
03B
782
0BC
018
7C5
073
115
744
7D9
7E2
7BA
01A
77E
7DB
052
01C
78D
70C
032
7CC
032
018
086
001
7CA
7B4
7DD
0A9
7C0
79C
799
7B9
7C5
025
72F
780
0F4
055
037
746
001
79F
062
7D7
7A6
7DB
7ED
09D
016
790
793
036
776
7D0
05E
7E8
028
798
797
776
042
7ED
799
7EC
00B
76B
125
7C2
7D2
04C
79E
00D
6FE
763
722
7BD
062
7D1
7EB
7E8
75E
031
0A2
77C
71B
793
0A9
071
03F
085
06F
7AD
07B
0DE
0DF
00D
050
056
76D
78E
00D
002
131
7C7
75F
013
07D
7CB
100
733
016
7A0
055
025
07E
7D3
751
047
083
054
785
057
088
04C
753
63D
099
7E3
00D
7FA
6B0
667
781
032
02A
032
0C9
066
002
7E8
049
6D2
0A3
024
7D8
7CD
785
0C4
03D
754
02D
011
0C4
7F7
7BA
056
070
7D4
066
755
6FD
7AC
7D1
044
00D
7AD
77E
6E0
079
7F9
038
7ED
039
062
7AD
791
7E0
0B7
7BB
7B6
6CD
783
7E2
7A1
735
7D5
0AC
7A6
094
015
758
77C
07F
01A
020
7C7
7AB
0A6
032
795
00D
794
7C8
7E5
05D
7E2
08C
7BF
09C
74B
06B
019
7F0
7A4
04F
775
091
7A5
01F
044
7B5
046
7AB
06C
79F
019
03C
05C
038
049
01F
021
00C
7CC
7D5
79E
78D
02B
063
0A2
01F
7D0
06D
7DE
080
720
7EE
04E
010
7FA
042
7E1
00C
7C1
7F4
0F6
7B1
708
112
72B
77A
038
72D
7A1
7A6
012
052
603
7B3
789
7E8
04F
780
7ED
712
011
08D
0E5
78B
6DF
047
73A
72D
78D
6A9
7CB
078
6FB
096
13E
780
7DC
7ED
082
7FA
064
0D5
014
74A
7D0
7E0
01C
108
7E6
703
0EF
08F
7E6
7CC
00C
012
7F2
04C
795
063
062
775
77D
079
01D
00B
087
041
7F9
727
79E
00F
07E
00F
076
7E9
7BD
008
0B3
79F
018
0B3
7F4
032
763
74B
743
039
7C4
008
7D0
060
024
762
794
7A9
021
76F
7FE
76B
784
739
7AC
007
76F
7B8
7E7
08B
7D4
034
014
059
7CF
713
02E
7C5
07B
79B
7A6
764
0AE
7AF
117
7CF
7D6
0B2
767
7DE
6E5
71B
7B5
075
745
078
013
770
089
76C
7A0
041
019
0A7
792
746
7FE
79C
791
00A
06D
042
7D9
7AB
073
773
02A
7B2
00D
006
77A
7D7
7BE
784
109
005
758
7D4
7DE
066
00C
7F6
00C
770
733
043
02D
040
0A5
012
05A
099
7C7
76C
017
784
7AC
050
7D4
023
7DF
7D9
756
7AA
019
7D1
04F
048
7C3
7E4
04D
01B
03C
7E7
797
7CC
011
70F
04A
7EF
027
013
7FC
002
706
7FC
78C
7AC
78B
041
7DF
0E4
072
756
138
006
7B8
08A
7A1
6AD
033
7CE
77C
0A1
7AD
0AD
027
76D
06E
7AB
036
7EC
040
016
004
05A
79A
7E8
7AA
039
7F2
7E7
085
082
709
056
6C6
036
026
7FA
032
02D
706
08F
767
7FD
067
782
00E
72B
7E1
782
79C
0F6
053
7D3
7DE
74C
77F
008
77A
7B5
790
06F
750
0CC
0C2
7FF
7F1
7FE
089
04A
78B
05F
01F
7BB
0E2
00E
007
01D
081
781
05F
034
008
7DF
7E8
7E8
03B
01A
009
7E9
71F
7F8
01A
78A
077
046
047
079
091
768
00D
04F
0F8
7BA
04E
776
742
769
09D
7E9
783
7F4
7BE
09D
795
7C7
7E5
034
781
786
7D0
7D5
035
01D
052
7EA
007
0D0
7DC
750
018
09F
055
039
055
71F
010
7E9
7B2
068
015
6EE
005
0DD
7FB
796
072
06E
03B
713
743
7EF
781
7C1
023
794
002
033
095
0B2
05F
775
080
7FC
6B4
795
75F
037
78C
720
749
7AD
009
75A
05D
01A
7A0
09F
099
010
08E
011
08A
7C2
06B
035
7D0
7FF
011
07E
735
7A4
053
7A3
7D1
7E9
04E
0D9
03A
020
02B
7A6
00F
012
0AD
005
7AF
7B2
092
7C2
7D5
018
79A
048
7A5
092
009
022
74C
7BB
7E6
73E
7F8
7D8
0FE
7BF
030
7CE
030
75B
015
054
7E0
0B9
7FA
74D
7AF
066
026
00F
7B1
742
78E
012
7A7
010
04C
0A8
0E6
73E
00E
7E6
0D6
7C8
02A
7B3
728
7DA
011
7F8
036
08B
7D0
077
779
760
05A
004
7C7
759
7F9
77D
077
058
6DF
03D
7A1
09C
652
0C2
77D
03A
0F3
0D6
7D9
0E0
79B
05D
04A
050
00D
6F7
11F
105
012
7AA
7A4
094
7E4
10C
740
0C2
721
7BC
014
7B1
0D7
040
095
14F
7B2
6AE
162
7BA
71F
045
716
015
0AB
0D0
758
6F2
141
010
7C8
03F
789
0B8
007
7CD
736
095
722
047
7CD
005
048
023
7E1
008
016
0A1
75A
033
760
7AA
7B1
7E3
7CA
764
7A6
7BC
0E0
79F
7B9
7D1
7CA
037
05B
71D
7A5
08A
017
04A
7D2
733
010
0A7
014
0A2
7CA
7E1
7C7
023
725
7E6
7BE
140
742
00D
7A8
0C6
799
02C
790
08B
773
013
029
083
7DF
005
02C
079
03B
7BC
054
7CF
01F
7BE
75B
0A2
037
046
7BB
6EE
7ED
037
0C9
016
050
082
7C2
7C8
0C4
008
747
06D
116
7E6
07D
009
0A4
03A
7CD
781
048
003
7E9
792
7F2
04B
032
0A2
7C6
08D
037
049
7FF
047
029
6FB
79D
7FD
7D4
014
03E
06A
7D5
0AC
766
061
7EF
794
7F5
730
02D
7C1
08A
7E0
006
7BE
798
024
787
09C
76E
05A
7AF
7D2
784
70F
04A
040
09F
7D0
778
799
061
020
04E
7BD
7A3
082
01E
745
7C5
7E9
7DE
025
01A
09E
717
7B0
790
06C
7F3
737
785
7BC
011
7D7
0C3
795
03C
7E2
78D
771
005
756
03E
0B7
762
06E
035
779
061
008
784
0FC
005
059
789
76C
009
7CD
01D
072
041
028
050
067
05B
7B9
7B8
053
02B
7C9
7F0
7EA
752
789
05C
7E1
063
780
019
03F
001
07A
7DD
037
7DC
7F6
062
75A
7F1
7EA
07D
08C
004
7DC
04C
7D4
7EE
0BD
7C7
08B
00A
7CE
79A
747
0C4
7A1
01E
03B
017
778
7F3
014
005
76F
78A
072
033
741
7F3
7DE
7DF
03D
08C
79D
6BC
068
7AE
025
7C9
7A1
7C2
033
02E
7B5
0CF
7D1
79C
032
7E9
739
021
789
7B1
02D
7B4
031
011
030
7C6
00F
047
794
045
7C5
026
037
7C5
7BF
7D5
0F9
04E
756
7E2
070
02F
01A
010
77A
7ED
769
014
03F
7F0
7E0
700
7D2
78D
7C1
02A
04D
059
779
7E8
007
096
7DA
7EC
036
772
7EB
001
7F3
02F
093
006
7FE
7F6
770
7FD
7E3
7F8
7BD
7EE
7B5
771
7E7
7DE
799
04B
78A
06C
7A5
07D
785
0A8
712
0CA
7AC
030
76E
047
79C
01E
7E6
78D
754
787
75F
07B
7A2
7F6
7F3
045
7C0
7F5
048
7AD
09D
0AB
034
6F0
7B7
04B
091
057
7EB
7CF
7E4
08F
75A
7B5
788
034
02F
767
760
089
7D9
7E6
7C3
160
077
0ED
7F4
0B2
6E5
7F7
78B
7B4
771
034
772
799
035
061
7D0
67D
7B1
759
08F
059
7EA
0D2
6D2
05E
7EC
0DD
001
0EF
773
7AB
78E
048
7DC
7F4
036
74E
7CA
0C0
06E
7B5
7FD
7EA
7BB
74D
7FD
09A
7E8
016
094
05B
7A6
7EF
060
74D
747
7FF
013
79E
086
7ED
0CE
039
75D
79A
030
023
02A
069
7F5
7E1
7A5
748
7CB
0C0
790
0BC
7D8
001
042
092
7BC
77F
0CF
080
7C7
78A
705
7A9
7E6
755
02F
7DC
7FC
01D
05B
723
7EA
7F6
797
5FE
0B1
690
7CC
79A
7F6
7EF
007
7B4
7DE
7E6
79C
101
012
79C
05A
7F4
7DF
748
7FF
713
00D
6C8
021
6BC
04F
707
794
05E
0A8
021
050
793
739
043
704
10D
072
757
0C8
16B
038
7B9
73C
049
7F6
027
7EE
023
783
043
024
015
79B
7C6
07C
7A1
7C7
04E
72F
79F
789
7CA
087
748
797
01F
7BA
7A0
01F
093
7D0
0BD
050
000
7F2
760
032
016
7A8
018
7E1
048
7F4
6DF
0DC
095
048
06A
00F
0D5
7C7
7E5
002
74C
050
7A9
01B
7D8
067
6CE
7D2
03D
7FC
03A
119
6BD
7C1
776
7B4
7C9
03B
777
6F7
75E
075
077
038
7F8
0A9
0A2
725
7F3
0E6
7D0
04C
763
68C
6E2
056
0B3
00B
04B
730
73E
098
0C7
05E
786
0B5
045
04E
768
744
078
781
04F
7F7
778
7CF
775
74F
052
76E
034
0DC
785
0BF
7E1
7A2
770
7C3
67C
76B
09E
00C
060
01B
024
13B
096
0F9
7F8
15C
7EA
054
00C
77D
741
751
0A5
0E7
783
049
781
02E
7FF
154
7C1
7D9
068
697
05E
79E
0D0
011
7CC
7E4
787
06F
010
7FC
071
088
05F
0A0
030
7ED
051
781
041
02D
02D
7F9
756
00D
7F4
768
7E6
049
09F
7AE
03C
062
07A
78B
7B9
042
7E4
798
7B5
79D
791
7F7
7C0
01D
7E9
79A
009
03D
7E9
02A
7F5
7C7
7FD
02D
0CD
790
019
793
0ED
0FD
018
764
01B
73B
024
016
7B6
068
789
0CE
7D3
72D
117
03F
043
001
022
7DB
7B3
029
7A5
77A
6AF
04B
16C
018
115
022
0BC
04D
02C
7B4
086
03D
629
7C5
7AF
7DD
734
038
019
784
792
790
06A
7A6
78E
026
7AF
7D7
7FA
7FF
7AE
788
7BF
7EA
7B6
05A
7A0
0A8
056
021
726
794
74A
7D7
097
009
09C
7DF
050
784
103
78B
7BB
039
787
77B
7B6
758
050
030
7E4
01B
7B6
72F
04D
04A
7E0
7BB
00C
029
022
759
761
7D8
026
091
777
060
76F
074
001
7E7
7CC
03C
05B
7DF
7F4
783
794
7FA
084
06C
012
7DA
785
020
029
016
7E7
7D7
794
019
7CD
7EA
018
035
7F1
038
01F
7BD
06E
78B
7E4
02E
784
7D1
019
02F
01A
7F7
03A
7C0
795
7C8
02F
7C9
73F
066
7AC
026
04C
7D5
7E7
032
7AF
0BF
043
7AE
6F1
716
787
022
6B3
7F6
7DB
7EF
7C7
0E5
027
7D0
79F
79F
041
6F6
070
6F5
020
7DD
78E
736
00A
752
751
0B7
7E4
0AC
794
03F
6CD
69F
016
017
7D7
7EA
7AE
7CD
048
00C
7FF
08A
732
7BE
7CB
055
7EE
06D
009
0B4
04A
7F3
7EC
052
7AE
7D1
0AF
765
77F
6D5
731
7C2
024
05D
010
08A
7DF
01C
003
00F
033
061
7B4
7D1
018
722
76A
7AC
779
084
064
009
00A
03A
030
05B
00B
07F
034
039
796
03E
7EC
6F0
0A9
052
014
775
7F7
79E
093
035
033
0BB
7F3
7E3
03D
7F2
7EB
0B7
78E
643
6CE
7E3
042
003
096
7EB
07E
0D2
7CA
76A
0CC
75C
036
060
7A6
0A7
04E
04D
79D
7B3
012
799
77B
7CA
7C4
74B
020
7B9
7E3
7FA
7F8
07A
063
7B8
01F
009
065
7C0
071
7B0
7B4
02B
71E
7D5
004
797
7CE
7C2
7A8
788
7FB
063
01C
056
062
7A3
777
7E5
7FF
7B9
05E
7AF
788
77C
009
7ED
73B
052
071
7CA
7B6
7DE
004
7C1
027
7DA
7FA
7DC
07C
725
02C
0D3
032
787
7E5
789
7FA
011
7FA
039
796
765
7E0
788
019
7FC
034
7AF
054
01E
05D
791
068
0AC
78D
02A
7F7
042
030
08A
7E4
078
004
024
080
7AF
04D
7A7
04B
029
7D1
039
085
05B
00F
7B2
0A0
043
7D7
71F
76D
72A
0D1
7D0
014
0AA
7A9
7CA
0F6
026
790
7DA
6A9
78C
75B
763
781
774
079
6FF
076
05D
07F
0D9
7E5
7A4
017
729
01F
027
7A6
6F5
773
7A9
0BE
74E
721
7EC
0E3
06A
74A
7AF
0D6
03C
7E3
01A
130
7B4
7D2
051
096
71B
093
756
7C0
7C2
787
770
06F
058
7D0
7E3
706
781
760
7FB
7F9
095
055
75A
07E
789
020
7BC
0B5
728
796
73C
05A
028
0A8
731
7C4
738
042
014
7FF
7F8
027
7AF
734
7AA
083
783
7A8
711
066
71D
013
79B
678
667
7FB
018
7F4
0F4
05B
0DC
02A
7E7
047
779
7B0
766
069
73C
6EF
7E2
7A9
030
034
03D
134
02A
7C7
7A3
7A4
737
7B4
1B3
7BC
76C
791
740
7AC
74E
715
101
11F
7C0
7D0
054
6EC
7B1
78B
0F7
637
0E8
6BE
0EF
732
01A
7A9
7F6
047
74C
00D
746
134
0A6
6A6
031
78A
7C7
6E0
005
783
7CF
6A2
751
778
057
68E
79F
040
0B7
777
791
7B7
665
143
6BC
0BA
02B
78C
07D
180
0FD
6D7
724
0BA
777
77E
05E
7A6
7D0
75E
076
7C9
00F
058
0BF
7D4
7F1
7AE
793
7DF
782
0A2
0C8
639
7E3
795
7C7
7EA
75C
7DB
780
00C
022
03E
7CA
6DA
00A
735
722
716
7D4
785
7CD
776
03F
1C4
7A7
027
023
0E6
04A
7D6
078
71C
78D
79C
030
7E4
7A5
75E
7E4
7FA
772
04B
06F
65B
094
777
059
7C7
6C8
6C3
784
024
6D6
140
039
7E9
0E7
089
724
021
118
7E6
7E5
696
69C
59E
7E5
739
083
7CA
772
649
0C9
18A
0A9
782
7F9
0FB
745
7BE
0C3
099
04C
7CA
02D
7E2
0B9
708
6F4
7FB
7FB
025
07D
015
7D1
04E
75D
7F5
77C
7B4
03A
7EF
03B
0E8
7F2
7EC
0B5
0B4
745
02C
08D
02D
066
747
713
72D
014
01E
04F
7C8
003
7B6
046
066
0F3
7C0
7C6
13D
6EC
79A
0C8
0D4
76F
7C4
7F5
797
78C
7A5
7D2
7B4
032
7E6
0E2
03A
725
7E0
01D
01A
019
7CE
7E2
77E
7C5
012
7B4
027
7C0
7DA
7DF
034
029
087
02C
00D
0BB
74F
770
7BD
7BA
058
063
00C
00C
061
778
09A
7A8
093
00D
7BE
7C8
7DC
783
047
7F5
7A8
036
066
021
01E
7EC
7B0
714
7FE
78E
7CE
0C9
7D6
08D
7D0
02F
00F
7FB
76D
7AC
00F
78D
7D5
7BF
060
799
03A
7BE
0B8
05D
039
796
7B9
7DE
04A
7B9
07F
026
799
70B
00C
01D
6E5
086
030
794
794
753
7E0
78D
004
7E3
04B
7AE
057
7CE
094
7F1
7B1
7D1
7BE
06B
00B
7B5
7C3
022
056
759
046
7BA
004
78C
008
755
08C
010
007
7C3
043
0C5
7AE
7E9
7C0
7B2
77D
079
7CA
085
059
754
07B
02D
7F5
017
03A
055
794
753
033
798
024
7F8
088
7F6
7D9
01C
784
793
067
77F
043
03D
046
012
7C5
026
7FA
07F
79B
000
01D
7A3
798
059
7DD
712
7F7
7CD
035
032
0A1
027
019
7B7
7CC
7C7
01C
7B1
78C
77B
7E5
081
73A
7D4
724
79F
056
7C4
78B
03A
79B
045
039
774
05F
009
03D
737
775
0BE
79F
071
009
021
7D4
7CE
003
7E1
078
7BC
0C3
02B
026
763
773
0A2
01A
022
03A
010
772
016
077
78D
7F4
08A
03D
0BB
03E
7C1
775
036
7E0
7E6
7F9
7B8
7B5
788
015
028
78B
756
08D
062
7F5
79E
6A1
69E
018
040
7D1
11C
7D9
031
7CE
0A4
07E
773
7A2
000
0F9
6CE
641
6F7
7E5
774
03C
7C6
072
7EC
7BF
791
7E8
6E7
039
13D
7AB
778
789
78C
033
034
777
11C
104
7B7
051
04C
7EE
7F4
7A0
0EF
7BD
77A
6D1
121
6DA
731
0B2
76A
79B
7F7
7D3
0B7
154
092
7A9
0F1
71E
038
7E0
6C9
5E7
088
6C4
7BA
04E
78F
792
168
079
6D5
7DC
730
064
023
136
639
716
6FB
72A
7A5
00D
7E5
089
06A
7CC
790
7CC
048
7A3
7BE
065
7EE
7FC
7D3
029
71E
7D8
148
01D
0A6
7B6
7E7
776
020
055
73A
7BF
7C4
031
7BA
7EE
77F
7DA
032
03E
000
01C
035
029
06D
71F
7F5
7A7
078
7D7
77C
761
7D9
7FE
02E
765
02B
05C
73E
07F
7F1
7CF
789
00F
7B8
7F6
075
063
751
7B9
047
72F
08E
7A8
7D3
037
7E2
782
052
025
746
0CA
037
044
7FD
07D
796
034
09A
7D2
018
7D7
7EF
7A4
124
7B7
041
77B
008
741
077
124
066
7EE
7D3
7E7
043
050
0EC
7AF
01E
7D2
7F2
7FA
726
7B9
0B6
799
773
6FF
7AC
7DB
7B5
786
7DD
7FB
004
01A
140
748
762
76A
7E0
775
78F
7BA
7C7
7AF
798
03C
037
725
0AA
7F9
0AE
775
72E
7B8
0B5
72A
067
068
0ED
0AA
022
7F2
082
0DF
0D4
03B
03D
768
7A3
7CC
0B4
732
7CE
7FE
0D6
700
0C0
779
062
790
0A1
041
07A
00C
025
72E
0B4
77F
7FD
7AB
7B5
044
7CD
6E9
7D1
03E
7DE
77E
035
7C1
00C
054
727
04A
00C
065
7EF
09B
7AE
771
00C
030
048
782
77D
077
034
7CD
76C
016
7EF
798
036
7FA
7E9
74B
091
76F
06E
040
7E2
027
7AF
790
086
77A
78F
7D0
05F
066
7BE
7A9
08C
7FB
089
0C4
019
001
7B7
044
007
795
7C3
041
7D3
6BB
04C
0F5
00D
027
05C
035
04E
7E0
010
7D6
016
7B4
06D
04E
777
77D
080
046
7C5
6A0
780
741
083
026
154
02A
002
721
012
0D1
736
7A1
007
044
6ED
70B
79C
7B9
7DE
0CE
054
015
7C4
7E5
073
6F5
728
7FA
0EB
6A3
7A2
764
083
7D0
047
7BB
0E2
04C
766
0D7
77E
7BF
76E
763
06C
7B8
030
052
013
011
005
05C
73D
7E1
7B9
786
046
0A7
7F3
7AB
7E4
042
013
026
7AA
767
004
00A
7B0
046
04C
747
085
025
782
06E
7DB
001
7FB
7A5
7DB
799
6FE
046
05E
026
004
7FD
090
794
7CE
077
029
009
7EE
089
701
79B
011
00E
006
108
6AD
004
662
005
02B
03B
030
036
06C
0C7
79A
7FA
04E
784
789
009
7CD
761
00D
7DB
063
7F9
6F2
0F0
13D
7A4
798
087
7C0
7CD
733
014
7D6
01B
736
7EE
05B
766
7A0
778
784
019
069
7E5
004
7D8
061
71B
008
071
7A5
7F1
00C
7EF
07E
13C
038
7F1
128
7F5
7E6
06A
79E
78C
02D
6AD
767
7A4
7F3
7B3
00B
7AF
002
06B
7EB
7B2
7F5
0F4
783
799
030
738
059
7B4
051
036
0F2
7FC
008
02E
7CD
028
010
74F
7FF
781
7DD
73D
0EF
776
763
78B
060
7C1
04A
054
7C6
6F0
06A
7D6
028
7C2
76A
057
7B8
77F
7EF
01A
7EA
788
79F
768
00C
02C
775
79F
025
00C
016
7F6
7C7
019
7DF
052
000
7BA
798
7D0
77E
048
76B
008
05F
7ED
7EF
080
7EC
785
04E
00C
7E5
7C7
79F
074
7D6
710
6E4
0C9
026
7AA
780
7A4
7A4
7C1
7C3
0AD
05B
7E9
7F8
043
022
0AB
76B
767
7AA
05C
095
774
008
7BF
023
086
093
7A6
734
03E
6F4
0CD
02C
08B
7BF
7A7
08B
7FA
009
01F
05C
7C2
027
011
7CB
005
02A
008
002
05F
70F
04A
0CF
02D
788
76F
790
04B
00E
7A9
04C
78E
05C
043
05A
791
7A5
022
080
060
7F6
0CB
76E
015
01B
711
79C
757
764
035
7E4
0B6
044
0AB
04F
7C0
7D4
011
7F4
74F
666
7ED
70B
0AE
046
02A
08E
79E
7CA
7B4
720
0E9
71C
07B
7F0
064
798
7A6
075
054
7F7
7A4
03F
0D1
04A
7AC
006
7C2
7D8
77C
7DD
077
77F
6B6
0CF
036
02D
5F3
734
77F
796
06B
7AB
7CA
7BA
029
085
757
057
785
07E
79C
7BA
742
033
013
015
009
77E
02B
068
044
7BF
000
03A
04C
76F
7A1
76A
728
08E
058
7A9
767
7B9
02E
0C9
6F3
720
78A
7F9
786
028
07A
7CA
01B
0C4
081
012
047
7E9
02A
037
747
005
789
74A
78A
7A5
7DA
7CB
725
04E
76D
02B
7D2
7E1
013
057
035
061
739
79C
777
029
7DD
7BC
7B9
0A2
069
0BF
09B
7C3
77C
0A9
7F4
791
7F4
7F1
776
0B6
71E
078
00F
7A3
0D5
7A6
0AC
7E1
01B
06E
076
7C4
7D3
79E
780
7B9
758
003
7DC
79B
796
031
7C9
096
001
080
785
04B
007
036
022
03C
7E9
012
01F
7E7
7E3
020
7FE
0AD
027
054
7F0
7FB
03D
049
76D
7D2
046
072
7C5
7AC
003
7FA
791
039
083
01E
02C
023
7FE
7EF
764
7D5
7A1
74F
012
059
031
786
7E9
797
6F4
0BE
043
05A
04C
74F
01A
08F
71B
6ED
771
79E
7E3
784
6F7
7C5
0DF
7DD
0F8
00B
739
08F
04A
7F6
687
766
7E4
066
67D
046
042
044
0A4
762
02D
038
7D8
7B7
7D3
772
124
7FF
7E1
03E
042
65D
767
01F
0E9
082
156
745
7E8
7D1
7C3
047
125
782
0C7
0A8
027
7DC
044
050
085
057
7F3
769
798
05E
079
175
727
78F
095
0F4
052
796
093
00F
7B5
72D
7D8
790
049
694
7C3
06F
798
027
039
00C
7C2
78B
031
7D8
0D0
7A5
729
017
020
778
02F
02B
7D4
01E
7D8
036
70E
7BF
741
04A
022
6E4
7D0
76F
040
7DC
0AC
7F7
7D1
0A2
7D9
789
7E7
71B
7D1
06E
6DD
07D
05B
7AD
124
009
052
013
005
064
7A8
00A
75E
7AB
77C
0C6
756
7B2
7EA
054
7A1
09D
020
027
7AF
01B
7F9
06B
011
037
6FC
03F
026
7C2
017
024
7E1
7CF
7B4
05E
061
78A
708
022
781
7F1
760
74F
005
043
053
7B7
009
7D0
70A
7E7
0CA
78A
0B4
0D5
0CC
000
7F4
067
7FF
781
7EF
018
00A
79E
76F
7F3
769
7B6
7E2
776
7A7
769
01A
106
711
7B3
790
02E
736
724
017
010
08C
7EB
0A2
01D
72E
7B2
7E6
01A
693
748
772
02C
6E5
0D8
0D9
7D7
0A2
023
0F7
055
038
030
011
01C
7BB
7AC
019
020
7AF
04A
04B
004
7E1
7E3
6FA
0D1
776
036
020
78A
7B4
05E
0A0
7A7
7D0
7E1
7F5
750
7D9
000
7FB
094
085
7F6
7ED
74F
021
7E5
6AC
7C9
01B
08D
79F
039
0F7
03C
7F4
7F5
772
080
054
7AE
09B
7E1
77A
012
780
082
008
019
00E
069
7D6
08E
7A7
715
7FC
794
046
068
7D0
00D
00E
04A
013
7C6
06C
78A
026
78F
077
021
07F
03A
7F9
055
016
70D
025
786
05B
7FB
001
074
03B
671
058
050
756
080
7A1
7CD
77D
035
062
025
7EE
03F
0A9
7C4
03F
065
7CB
032
7DB
6BE
789
62C
797
034
7ED
027
7C9
094
7E7
7E8
07B
753
00D
7CE
034
771
032
7DE
050
017
7E2
765
048
7EE
77A
7C2
05E
049
7B8
6FA
082
7F7
748
7D8
714
012
6AC
7EB
011
7D4
785
0B9
069
71D
7F4
0D9
030
06A
114
077
7E9
7E6
004
11D
075
6ED
17D
067
0E3
74D
096
09C
098
07E
709
07D
770
026
0F5
7EF
6D6
06B
13E
059
028
094
0B2
736
6FA
028
70A
7D2
712
776
064
054
052
7FB
736
77D
7BD
049
7B8
064
7D1
7EB
7DA
02E
739
6C2
7E5
791
04F
794
7DC
0D1
6EE
003
7BB
7BD
041
75C
7B1
790
794
07A
058
7BB
785
788
7E8
0A5
009
75F
01C
78E
009
00B
032
78C
008
00F
7F6
081
766
038
797
010
0BE
7A2
7EB
136
79F
062
0CA
09A
14E
74F
6A1
00B
7C7
015
7C0
7A2
763
7BA
073
728
6D0
777
7EB
19D
043
061
70A
7FC
0C3
791
082
79F
7DF
7D3
782
032
025
033
6B5
799
7A6
071
790
0EC
01D
7CA
7FC
6C8
0A9
018
7A9
7CF
7E5
7BB
066
00E
019
748
7B4
04C
041
7A2
7C4
78C
776
046
024
0B9
759
77E
032
7AC
732
7E2
031
00A
05A
00E
067
7D5
007
7A7
724
78A
025
036
7DD
7DD
7EE
00F
7FA
0A2
7E9
781
073
003
02B
063
7A6
7A6
059
7CE
793
081
04E
79B
029
09C
7C7
728
796
0DF
06A
0BE
78C
7D3
710
7D4
09B
7AC
6F1
79B
067
11C
7D9
020
7A9
7E0
050
7A7
073
784
01E
073
7A0
7AE
790
7DB
792
748
7AF
04C
77C
0DD
75A
7EE
7A4
747
0DE
7FC
77C
007
065
7FC
71F
048
02F
7E4
7E7
016
721
033
033
7EA
05A
778
7D0
793
043
033
0CF
027
051
75D
769
7B2
7BF
055
001
7DA
7DF
790
798
056
791
057
77B
7FB
7EB
7A9
003
095
756
08C
7B1
7DF
07E
775
078
03F
7FE
7A0
021
7C6
05B
018
7CE
7CB
7E4
013
7D5
7E4
790
7E5
03D
72A
7AD
091
763
716
7BA
7E0
753
7B3
7D3
77B
12B
06C
0BA
05D
020
05B
018
013
712
6E4
782
099
6EE
7F5
7F9
79C
09A
7A4
014
076
02A
097
77F
7B7
799
010
7B5
0D0
7BC
7F2
7C3
00B
011
045
7C2
089
04F
7E6
054
03B
01A
7D3
02A
021
7A5
7A1
027
039
007
79A
055
061
01C
034
06F
07C
063
089
7D4
02D
037
798
011
005
79D
7D5
79E
00D
056
7D7
012
78B
009
7EC
74A
05B
064
718
788
0AC
780
747
73A
002
72A
019
008
7D1
7E5
745
7E3
138
6D3
73C
7E6
051
7B4
6D4
709
736
0B9
7F5
087
7BF
730
02E
02F
03D
66D
712
015
035
67D
055
157
7F3
0A6
02C
0EC
098
076
061
01F
7D0
04E
010
7B5
001
7FD
023
026
032
005
0B5
072
016
010
798
7C1
00A
7FC
79E
01B
09D
05E
7FC
063
7CA
009
7A2
7EB
7EC
7DC
010
033
7F3
761
081
0A6
049
7B5
761
7FB
7EB
045
76D
7D7
7E7
744
045
7BF
79C
74D
78F
019
7C8
79E
7BB
035
797
787
041
72F
76F
7F7
792
7B7
787
007
7DE
08C
079
7D9
020
046
7D5
7DF
779
73E
73A
019
778
022
00F
76D
06D
763
07B
7C7
747
773
0CF
03D
7B9
089
77F
03C
01F
06A
05B
006
0B3
7A8
74D
02C
7BE
797
7FD
114
7E6
064
771
065
026
0EE
71C
046
762
02F
73B
023
08A
012
74E
7B7
7D7
7D9
7FF
07C
7D2
0EE
74E
00E
7C3
059
06C
02B
050
742
76E
056
7BC
7B8
7FE
039
05E
0A7
7BE
04D
7F9
035
0BF
775
7F3
02F
7B1
7A4
7D7
068
03B
7F4
720
042
7C0
053
793
7FD
796
011
777
099
0CF
6D9
73F
6C1
774
7AD
7D5
76E
05D
08C
789
00D
787
722
06E
074
73F
7A5
71B
7A1
071
782
762
014
7A1
092
7BF
09E
7D6
06B
041
77D
785
70E
7EF
7F0
012
718
066
010
792
7BB
7FE
752
018
063
096
7E8
014
6BC
7AA
0D5
023
05A
769
011
025
0A8
06A
783
0F4
05C
03F
00F
7B0
07F
051
7D5
02D
037
7F1
736
0AD
033
077
7C8
044
7EF
07E
7EF
770
119
7C8
772
7F3
7DF
77C
00E
0CA
046
759
08E
031
766
745
7CD
7D5
013
764
713
055
069
719
035
77E
7D0
027
058
78F
0B7
03F
796
00B
028
049
05A
736
742
04F
016
7CB
7D9
066
7D9
032
078
79B
7E4
022
7A3
012
750
77A
002
7BB
7E0
0A2
7D0
028
032
064
013
061
77B
7E7
7AA
7B5
037
7EF
770
6F2
792
7B9
01B
774
053
77B
090
71F
7FE
7EF
05B
037
035
000
7BA
7B3
00F
024
7B8
73A
04F
0B2
7A6
013
79B
046
70B
7B7
7A8
792
037
025
078
040
7EF
7F2
07E
091
015
6F1
093
7B7
082
01F
77E
708
79B
7E5
7B1
756
17F
049
119
050
7A2
124
04C
79B
7DC
7E3
697
7C3
0E2
79F
0C9
0E3
05E
1FB
78C
693
0BC
7CB
775
0C7
7EC
7A9
7DE
78B
035
05C
7B6
79B
7C1
7B1
038
7DD
015
0A2
042
04D
049
011
7CA
770
7E5
6DC
7F6
7CB
000
0E9
02C
776
06A
7C5
739
7C3
785
018
025
785
7DE
02B
01D
7BE
05C
053
724
7FE
00D
75A
007
034
108
7BE
006
071
07C
0BE
7C3
008
75C
04F
753
067
7F8
107
74B
7FE
07A
024
143
0B9
746
04C
00B
0BE
7EC
127
724
6A2
0A8
736
6DF
7EA
0DE
16B
0CE
0F5
767
0BC
12E
7B3
0C1
0BB
78D
6CE
007
046
7BE
082
7A0
7CF
71C
731
7C9
02F
6E2
7FC
7B5
6C4
003
056
025
024
015
019
058
08E
025
08A
6E2
7D1
79E
73D
7C3
78C
044
7C5
067
13B
6F9
00C
027
770
7D2
6B9
742
6D3
7D3
79A
084
7C8
752
005
005
055
7A9
726
7F0
085
05C
79E
0F9
77F
7F9
05C
7ED
175
09D
0BC
76D
79F
723
029
7EB
17E
700
69F
7E6
119
025
0A4
66B
0EE
7EB
0CA
7B7
026
718
692
0EE
7A7
6D4
777
0A5
144
0C4
7AF
7B2
0A9
11B
000
044
072
78A
7B6
756
7D6
79B
0ED
73E
7D7
725
7CF
75E
7EC
778
7C5
74D
733
0AB
7C1
05B
062
7EA
037
06E
000
0AF
05D
7AE
08C
0B7
7DE
049
7F4
7A0
7CB
032
03C
009
012
040
78E
7D9
059
055
03E
020
7C2
7D8
790
030
08D
7DD
7E8
025
7F8
043
75A
03B
7C1
7FD
7EC
028
03A
095
798
795
078
754
7B7
024
799
7A3
7AA
088
742
7EB
6F8
059
021
07E
7B6
048
783
015
6DB
076
7FD
729
79B
733
7DA
722
07A
7D3
074
0DB
75F
03A
7C0
6D1
04D
795
710
00D
7E2
7A6
796
7CE
775
03E
012
0F8
74A
0C3
703
072
023
770
767
142
7E4
7AC
04A
0B8
023
062
7E3
09E
7A8
0AF
7E2
7F1
789
7BA
768
788
75A
7A4
094
01F
01D
062
132
0FE
071
7C5
7A6
7DB
7E2
7F1
72E
7F0
011
05B
05F
7FF
7F3
015
029
76A
08C
7FD
030
018
707
01A
793
0BF
7F7
788
066
055
77E
001
098
733
7B1
018
015
034
05E
7F1
024
78A
7A8
06C
7F6
02E
798
7AA
000
76D
7BF
015
092
02E
7CE
019
785
76E
062
0B5
09A
7C1
7D6
7BB
7C9
035
7A5
058
039
7F7
7F9
7EC
018
7EA
7DA
7FA
7C5
033
00A
7EC
773
078
045
7AE
7DF
073
055
074
7D8
796
737
03B
7EC
04A
081
036
041
0EF
037
0B7
7C6
77F
6F5
030
7E9
7B8
796
7AB
025
7A9
0CE
071
055
03B
7CC
087
7B4
0A2
7B9
7BD
7AF
066
7EF
0A0
08D
749
032
7F1
7D0
7C4
7EB
02A
726
746
08C
060
77B
7A1
053
035
793
02B
006
088
066
067
7B6
7CF
025
7B9
7CA
00C
7A1
7D6
00E
7DE
78E
7DD
7BD
7BA
077
7D8
7E6
002
008
0A5
759
021
7E3
7E2
78B
01E
7CB
016
02A
7BB
01D
06E
044
799
023
052
026
02B
7F2
7A1
760
02F
734
7A6
793
7BC
02E
096
7FF
7A4
7BB
731
76E
7D8
77A
010
038
7CE
6FF
015
7C0
003
0A4
07D
7BC
7E9
7A6
058
7C9
7C5
7F0
026
004
026
03D
7D6
01F
7AE
7EB
792
03E
768
049
007
039
7DC
0B9
7D6
7F6
765
0B2
75E
796
7AA
055
016
01C
028
002
766
032
7E2
028
089
7F9
033
019
7AC
7F3
001
042
7FD
7BC
04B
7A7
784
774
021
00D
7A2
05B
7E3
7B4
763
05C
713
086
7B8
6E9
044
77F
045
799
03D
13E
72A
041
796
09D
005
795
0AD
7F8
780
7C6
77D
09A
0C1
7DB
02E
0EE
083
023
093
089
015
0B3
787
797
052
7D3
7CE
7E6
7F2
01B
046
00B
7B4
05E
054
7FB
7D9
0C6
78E
7D0
063
7A8
093
09E
16B
7C5
055
7DF
03F
019
07B
78F
798
7F6
0DD
05F
0D0
001
057
78A
771
728
0E7
031
054
761
7B1
785
7F3
06E
083
055
067
7BC
00F
7FA
7C7
07A
7D4
72F
755
027
77E
751
7E0
784
06B
050
0B0
7BC
176
6F6
780
078
7D2
7C1
6FF
7C3
7AF
7EE
72B
040
7E9
02E
06E
0F3
755
0E2
05F
028
7DC
79F
7AD
6DB
7FE
79F
015
78A
015
024
01B
75C
05B
0BC
7D3
025
7B0
78B
7B9
7F6
7A8
08A
7B7
00E
783
0C2
7FD
080
7EA
025
093
7A8
7AC
096
07B
789
02A
002
7B8
770
052
079
026
6BE
04A
78F
01D
04C
03F
5F6
000
6F2
7EB
10E
077
02C
072
7E2
7D7
7C9
7CD
76D
7C1
77F
740
7C2
7C8
75D
00A
088
023
12E
00D
7D7
019
7DD
032
10E
79F
063
019
7A7
062
092
06A
76B
054
02D
7BE
0D7
09A
7FC
05C
071
03E
082
06F
7DD
021
710
7CF
72E
7DA
00A
015
008
01D
798
7A6
034
03A
78E
091
7E6
059
7E2
799
77F
7D5
051
04B
046
780
77B
060
01E
7EC
00D
025
035
071
6F5
712
7FC
7B4
7FD
004
798
7F0
7B1
797
7E9
085
736
096
08D
7C3
054
78F
772
05C
7CF
72A
6CD
7AE
00E
138
7B3
78B
0A3
0F7
0E0
06D
108
76B
799
04F
7BE
7D7
74F
0E8
0E1
7FD
6C6
791
152
74C
120
79F
023
7D8
750
021
75C
7E2
032
76C
053
7E4
0CF
7CD
7C8
7BD
0E9
7A5
7B1
09E
04D
02D
06B
7A7
034
089
014
023
0CA
075
016
7B2
749
72A
703
768
033
038
7D1
78B
7B6
009
067
012
79E
7D8
0BA
06F
722
064
7EB
745
7E0
013
7E1
014
07C
03D
7CA
055
060
00A
7D3
7F7
034
7EF
7AC
040
021
008
75B
7E2
01D
021
026
06C
7CC
778
7AC
7C1
040
027
045
05C
099
030
72F
077
073
010
004
016
7AD
036
7FF
001
7D0
028
076
7A3
7D4
049
049
7B7
064
07C
79B
7C6
7A0
7EF
008
024
081
7CE
133
00B
002
789
007
784
7A9
04C
042
784
7A5
7E7
0B2
7FD
022
78A
7E1
7F9
796
7EA
046
024
7BE
7D2
7FC
064
7F3
01D
12B
021
727
055
755
7FF
0F4
0BC
7AD
7FE
0F7
000
0C5
766
7B3
785
032
734
7D4
7B4
068
6B8
7E8
734
065
032
0DA
7C0
05E
00C
0CE
02A
085
79E
7A3
79E
087
01F
782
770
012
7D5
700
7CA
046
7EC
782
764
7C5
79A
794
7B5
7A0
035
078
046
7DF
022
7A7
771
7FE
7EA
7A2
7D5
713
080
78E
0D4
7AE
7EE
097
7C0
7B2
7B8
074
646
7F0
7B3
7DF
06A
7DB
7E9
0DF
08F
7F2
027
0B1
7D6
7CB
0AA
7AD
798
7D2
706
7E7
0B5
7EE
075
06C
00E
7FB
114
743
7F3
111
011
029
690
74C
792
037
708
001
094
7FD
049
006
09A
7AE
7E1
05E
0E3
02A
7F8
0D9
02A
77A
052
757
784
78C
796
74A
05B
778
7B8
7B8
72B
049
717
069
02A
099
06F
7A2
015
7BA
7DF
7D0
090
749
02B
75B
03A
787
087
717
759
7E1
035
7BC
01C
026
7F3
757
799
7EE
7E9
001
049
7FE
7CB
008
767
018
063
073
011
7DC
7AB
71A
76F
04B
03A
084
0A5
7E7
156
04A
014
029
039
71F
7A3
049
00C
7D1
7B8
058
6E1
000
7F9
063
77F
0B4
090
7DC
075
00A
7ED
7A3
063
786
006
0BD
021
7A0
7A4
7EB
7D3
028
7FD
79C
7D8
094
72B
7FE
01E
059
7D4
7D0
006
7D5
036
7C2
00D
059
7C0
7CA
7DA
760
745
05B
777
00E
797
043
7EE
7CA
00E
007
7DB
78C
7B4
096
01B
6C5
7D7
035
798
055
0E3
79B
048
7EE
09B
03B
0DF
7D2
025
77F
04C
024
01B
000
72F
70E
081
02E
7EA
7CE
01E
003
04E
00B
019
7A3
79D
001
772
779
795
79C
789
7DB
7E9
7D4
015
008
026
014
77E
765
05A
0D9
76C
002
7BE
055
041
007
7FA
01A
093
069
786
7D8
6D6
014
05B
020
77D
037
04C
02B
740
020
7C7
0C6
02E
086
020
03D
70A
044
09B
7E5
7B1
7CA
07D
7C2
769
012
744
081
01F
02D
00B
044
7DD
7FD
79C
77C
029
06F
7F2
7D7
78B
000
779
0F6
7AA
069
0AC
73F
19F
7DE
6DD
7E6
035
0ED
75A
109
03E
126
701
7B8
743
7E4
046
7FC
038
0A4
7B7
7E0
7D6
0C9
038
007
0F2
75B
79F
748
7E9
73F
7DC
7C6
0D9
0BB
04A
0DE
094
79F
00B
030
0A7
07D
730
756
6BB
157
7EB
014
7FA
7EC
7CE
770
799
010
03F
02C
7ED
0BA
755
096
013
00E
05F
7A0
046
7CF
010
7D1
0A7
073
7C1
03C
6B4
01D
7EE
7F6
786
08A
07B
7E2
06A
794
764
0B5
067
787
795
714
02B
00B
7CE
76A
040
715
7E1
015
098
78D
037
06B
791
04B
69E
026
78E
017
73B
7C5
7BF
709
131
0FD
6AB
002
785
039
04B
124
722
745
00F
6A3
107
7D0
050
060
0D9
007
123
137
026
7BD
771
01C
5F5
75F
7C0
097
7B3
792
6E7
133
13F
7F9
00B
7E4
0B6
767
7A2
063
75A
7CE
7EC
7D0
020
02D
7C3
75E
017
7CC
7F0
086
793
0B5
04B
739
7C8
777
7D5
05A
117
7E6
0D6
023
738
7B4
7FE
708
79A
05B
7B4
7F1
780
0C7
79E
0A7
071
074
7E9
0E8
041
7C3
078
04A
7D0
050
037
722
060
0E2
7F3
00F
76D
7AD
003
7FD
7C5
7FC
061
066
07B
097
726
7B7
798
09F
7A2
773
76C
7DA
0A6
7BB
077
04A
016
04A
7E3
7A0
7D2
051
022
7BF
049
016
7D4
02B
7A7
7B6
028
053
082
06B
089
074
7B7
005
799
036
797
000
068
789
780
00C
016
7E8
7AD
077
044
7C2
7DF
782
795
07E
7D1
7DF
051
7C1
7B0
7D8
0BF
7AF
09E
7AA
025
7AF
037
761
026
084
7E4
029
7F7
7D1
7C9
0CE
780
054
058
01B
7B4
034
09A
06F
020
7D0
76D
060
7DC
7EE
7C6
7A3
768
7E5
053
7F4
7C9
768
787
04F
063
040
7F7
00D
017
008
7F5
750
03A
7F7
029
7D1
049
7A3
7BA
7D0
00D
774
7DA
027
792
02E
028
00B
01C
02A
78C
7C6
7BF
7AE
04C
7BE
043
066
011
025
7E0
791
7C4
055
7CC
035
07D
7F8
028
770
038
035
058
7BB
7F1
761
03D
79F
75F
020
7C0
051
7B1
028
07B
01B
00A
774
79E
790
036
042
067
78E
7DE
7A5
7EF
06D
06B
066
7ED
7BE
7C4
011
05B
00D
77C
78F
01E
7E8
707
7D9
01F
7ED
7E5
7D8
73D
046
7F4
096
79B
050
741
04D
7D0
086
77F
7CD
7FA
08D
027
04C
053
021
79A
046
02F
77E
082
01E
7EF
761
750
048
033
7E8
78A
7E4
7B7
7CA
0C7
076
7DE
7D4
0B2
021
042
065
727
043
7EA
01E
728
7BA
7F1
7DC
662
007
029
7DB
6C3
058
7CA
023
7F2
063
7E4
09D
7A4
06A
00F
087
7B9
780
0E5
010
089
79E
00C
007
05A
001
7C5
07F
749
7B1
7DA
7EF
7F3
03C
06E
074
7E9
7D6
07B
025
035
0CE
794
090
040
750
08A
7C3
084
005
772
04F
7C2
7DB
767
772
001
018
5E4
076
765
004
7C1
0DE
00B
1C0
048
78B
066
021
7DB
02F
0DB
639
666
064
56F
0DC
0CA
7F1
18D
061
7E7
79B
096
713
7CD
304
7F8
6D0
6D0
71C
65E
727
744
12D
180
7FB
158
78B
709
064
7FD
783
7F7
7C7
061
062
039
064
7B5
079
7E9
051
008
787
79C
7EA
08A
051
73F
06E
045
05D
7ED
75F
7F5
068
036
030
7AE
7DE
77E
09A
7C1
7C2
792
03E
77E
059
00D
06B
02B
01F
040
7F2
7CF
02C
089
010
741
7BA
7A3
7BC
7D6
725
065
01D
082
024
7A8
076
7FE
6D2
7CC
706
7BD
020
0EF
77C
04E
03C
7D9
05B
0C3
6E1
0AC
044
765
00C
7D0
035
711
03F
6EE
0AD
7A9
763
011
7C3
078
046
0BE
7FC
0A4
689
792
0A5
74A
7AC
07E
7C0
7D1
7DA
05C
04A
022
7B1
75F
795
7A0
7E0
7F3
063
7C6
7D5
099
055
009
7EE
056
7E3
78F
757
7E1
7C8
776
032
086
006
7CE
08A
03B
126
045
744
782
008
71D
04B
79D
031
043
039
03D
0A3
793
03B
7F2
7EC
772
7EB
7E0
7C9
79C
05B
033
09B
747
022
724
04B
798
0A8
03B
021
037
074
02E
04F
7D9
77A
0A5
730
6C9
7B3
7C3
0C8
0A8
7B7
7CE
04F
7E0
054
743
74B
7C6
7E7
00F
068
091
797
014
7DB
7F1
0E2
7AA
016
7F6
7E5
7A6
010
042
7F3
01B
06D
04F
7D6
7C8
7F6
00D
080
063
073
7E4
009
796
01A
085
760
7D7
7F3
7E5
7FD
001
767
7E0
001
7CA
009
03D
068
7E7
006
764
7BC
7BA
7E2
021
7D6
7A0
7AB
0AE
033
7FD
056
01E
7CE
005
00A
7BB
7ED
04C
7C4
7B5
03B
011
021
645
7D5
093
0D5
005
0BB
040
0EC
035
06B
034
7E3
082
03E
06C
655
6B9
73A
700
03D
042
77E
0B3
095
707
069
7F8
725
02B
0EB
7BE
742
76C
7D4
716
021
7CA
07A
0C5
0DA
05E
7CC
793
01D
7C6
7D0
7F7
002
7D3
7DE
00C
037
731
7EC
774
7AD
7C2
7EC
044
0CC
75D
019
7CC
04E
011
7FB
7B8
7FD
0C5
7D9
058
052
6AE
78B
030
7C7
785
79E
7E7
752
7DB
099
0C5
7CF
043
045
0AA
042
76B
736
7BB
77C
7B6
017
002
7B4
01D
7B6
7C1
019
0D6
7D7
7A1
749
78E
764
7C1
7CF
069
7E6
756
01C
7A1
7A4
7C0
7F8
038
7EB
07A
7E7
02E
7DC
765
78D
065
704
74A
7BD
774
747
7E6
054
051
76C
7E9
7F3
0C4
010
780
022
049
79B
0E6
7C7
7E5
7BA
7DF
75A
742
793
070
078
091
76A
046
721
7BD
7ED
0B7
026
7A6
085
074
7A5
764
091
086
003
04E
7CE
7CF
7ED
773
041
7AD
7E1
028
07B
027
7B7
001
7C4
7C6
753
07E
79B
07E
6C8
0A0
104
6CB
001
014
784
78B
031
7D8
0C2
7C6
06C
796
09B
7CB
084
05B
001
032
00F
082
08C
7AE
0B4
797
798
72C
73A
735
7D2
7CC
076
7FB
035
790
011
0D6
030
7D2
796
054
7BD
7AD
0D6
03E
7BA
040
01F
03D
0FB
7FE
02C
064
7DC
02E
037
02F
7BF
077
748
043
799
107
00E
088
093
7F5
03E
036
763
6D8
7A2
1AE
761
790
035
79A
7FE
7ED
7AB
008
05C
784
01D
0DE
034
050
7AE
739
033
045
02E
0AC
72E
728
014
00C
025
75A
7D7
02B
6B1
0F5
7A9
099
7AA
7C5
788
0BF
02C
7EE
6FA
06C
029
0B2
01D
7C4
7C8
02E
059
080
79A
120
7F5
027
7F8
02B
7F9
023
793
034
016
6B2
7C9
085
069
7A9
0E9
072
141
7D1
7A9
0D0
6C0
788
7C2
733
7C2
05B
767
012
04A
741
03B
7F1
784
7E1
0CE
7C9
753
095
093
01F
053
047
038
003
0C7
7FE
0CC
7EB
7A8
78B
039
08F
03D
7FA
7E1
005
05E
706
781
09E
782
0E0
060
76B
7EF
0E2
7BE
7BF
1D6
095
7ED
6F2
779
71C
063
726
7C4
08D
137
092
06B
7B0
792
794
773
7C6
01C
791
7E4
749
7D1
019
04C
007
01E
051
0B1
01B
7FF
02D
018
08A
7FE
0B6
6CD
75E
799
7B4
0A3
7AE
02C
7E9
11A
761
06B
7D0
058
022
046
7F6
760
7DD
071
7E3
7B4
7A3
048
025
047
0BE
069
04A
050
787
749
003
005
7B7
745
0F3
7D3
050
01A
040
7E4
025
7EE
01A
02F
066
793
076
79C
7A2
059
06C
799
07A
00A
7DE
79C
7E5
7EF
000
070
7FC
092
7D0
7DC
000
7CA
064
7CF
7FE
7A5
041
6FB
01F
07F
74C
7D0
7DA
7E7
7CE
74B
7E1
04C
778
74F
74F
7E2
04E
7DE
038
798
7F5
058
04E
0A9
056
024
02C
786
03E
771
73E
035
740
007
02B
011
795
7CE
781
7F8
038
007
011
04E
792
7A7
7E9
05E
777
770
7E9
077
06B
037
79D
78D
737
79F
7F8
6D1
05B
036
017
79E
043
7C5
008
027
7C3
064
044
050
7AC
7E2
0AB
006
7CE
7D9
7B6
776
712
6BC
7DD
05C
02E
05D
050
053
036
0A1
7D1
7BA
7F6
0F1
7EF
75B
7C6
7B8
7D8
7C4
7AD
06B
7EC
09B
7D5
048
7C1
01E
7ED
7E2
7DF
7B4
70C
005
0BD
7FC
07F
749
7E3
743
7EE
7D2
015
7ED
066
04D
068
7CD
7CA
122
072
78F
082
7BA
73C
7C8
7ED
065
0AF
713
037
10D
790
759
02E
035
7AB
64B
029
7AB
02E
730
6F7
767
7C2
759
7D3
784
01A
782
00A
7BF
77D
71C
77F
065
013
001
7BB
7FD
76B
024
013
075
000
013
7F1
7E4
7EE
702
755
7F3
7F7
033
7B4
047
7E3
023
7C9
009
7EB
7CF
7AA
021
79F
07E
0BE
002
019
725
0F7
033
7FB
078
731
001
030
7AA
045
762
7E3
002
769
7AD
6DE
020
019
79A
7E7
7B9
009
7D2
040
076
775
016
020
00B
072
6D7
6B6
08D
7A8
7BF
004
003
781
011
7FB
7DB
044
069
019
02A
054
73D
7BC
032
7AA
748
034
770
0AC
0AB
7AD
785
7CB
027
043
7BC
010
7D8
7C5
762
7D3
011
001
7FA
029
005
778
01C
7B5
014
014
79A
01A
036
7C1
749
79E
77C
7EA
7BF
74C
7D9
044
7D0
7C7
0C5
012
030
05C
7E1
7EA
790
065
012
049
7DD
06E
02A
035
064
7CE
7B0
038
7B7
05E
734
03A
7D5
03D
739
657
6DC
02E
0A1
01A
021
03A
096
0A4
085
769
01D
007
030
0BC
674
6EC
06F
7A2
78F
051
79C
00F
048
779
0F6
000
707
001
144
6B9
72C
7C3
01F
7B1
7AE
01F
10F
0F3
0C4
01C
016
039
7B3
007
04A
0B2
089
0B3
7A5
03B
01D
002
746
015
792
7B4
7B9
006
043
74C
017
001
7D6
7D5
7F9
097
76D
0AC
757
01E
037
02A
7F4
017
006
7DA
78E
7E5
728
039
03D
7CF
6D3
0B4
010
747
06B
6C1
7B8
6E4
7A8
7D1
76D
016
07D
7E0
053
7C5
7FE
114
074
75F
6EE
00B
5CE
02E
732
7CA
05A
7CB
001
6F4
056
7F2
080
075
00A
094
03F
7EC
7F6
045
07F
0F0
7EB
7D3
044
05B
6FE
00B
063
06E
6AB
0A4
023
7E6
04E
6A9
6E2
781
7C1
126
7B8
033
0E1
0C1
7A7
087
0A4
065
02B
01F
702
7FA
7E1
7EC
099
04C
7F8
7AB
061
007
049
7ED
7DF
02D
745
7C9
7BC
7FF
7BC
7E6
03D
7C0
7C5
05B
00B
017
7D5
7F7
041
01B
757
010
000
01F
7D2
7E9
056
71D
79A
7F7
00F
047
057
034
0A8
049
7FF
019
040
014
764
7B1
067
05D
00D
7B0
0AF
75A
7DB
738
79E
759
77A
7E2
7E4
06E
7A2
05B
783
7BD
000
09D
093
008
762
7DA
7D6
7D8
05C
0D1
75C
099
01F
7CD
10F
72D
7AB
705
7FA
6D4
7B7
048
0CA
7D6
7FD
027
090
149
014
742
025
020
7E0
782
729
6C5
759
036
6B9
793
043
7FA
13D
0E8
105
00F
7BA
046
7B9
05C
7C7
139
033
63C
04D
7C0
744
06B
7E8
79E
75B
015
143
7EE
007
696
6A9
075
01D
74A
7A0
787
71C
79A
7EA
7BB
7B1
03C
799
765
099
025
7CB
7E3
7AF
739
051
02A
780
01F
793
013
7C6
770
719
7CC
06E
780
7F7
7C1
02B
018
062
764
02D
7A1
7A3
7C5
7C5
069
7F0
048
01F
7F9
063
740
001
735
7E3
7D9
7FF
022
1A7
7B1
700
112
109
667
02D
02E
0B7
00B
7B6
033
08D
091
7D1
721
03B
736
7E7
080
7F2
7BE
00D
661
04E
0D2
786
7E3
048
5E8
094
019
692
7B3
14E
72A
684
7D2
03D
6CF
110
00C
7BE
0F1
0A7
078
7DA
751
029
7B9
75E
7B2
05A
731
7C0
050
7DE
070
014
055
7F2
04F
050
023
03B
04A
026
0C5
02F
7B2
7D6
6F4
039
7B6
01A
7BE
7F8
72A
7B1
7C3
045
00C
09A
044
04C
020
71A
7C0
027
7AA
7E9
018
05A
060
099
7F6
7DF
7B9
76E
05E
6F3
096
780
01F
798
050
78E
78B
016
04B
048
7C2
7D9
057
0D9
064
77F
7F8
755
02B
01B
76A
714
040
7B0
7BE
7D5
011
7D9
7AE
07D
7A2
7E0
7D8
778
03C
793
073
067
054
77E
061
7D2
01C
032
7AC
7A2
06B
793
7A0
7A8
00E
024
762
7B0
745
7D3
0AD
042
7A2
7D8
7CE
047
0F0
072
7B4
011
7D4
794
7A7
763
6FD
036
01B
779
03F
793
776
09A
771
7C1
095
760
7B9
0DF
076
78D
06D
7A2
072
770
0C6
03B
09A
146
73F
009
742
04B
053
75C
01A
0A4
7E3
7B5
7B7
7A1
7C6
00B
7E2
7BB
786
7BC
08C
035
01C
766
79C
027
063
78B
71F
7D2
726
005
7BD
052
75D
777
0D9
065
7CE
7B5
017
7BB
010
066
060
015
7E4
00A
7FB
0A7
7DE
026
013
7DC
787
010
028
7B8
784
0C5
7C2
7E4
105
0E7
72F
7FC
7BE
02D
7B1
7D1
75B
7AB
793
7E1
7AE
7DE
722
0C4
091
73F
0C3
7E1
7AD
7F5
7A0
061
0BF
7A5
034
089
7F5
684
03F
105
042
758
07B
7FE
7FF
043
6A7
6CE
019
01F
7F7
7FF
7BE
781
7EB
011
00D
7A6
7B9
7EE
7FA
7F2
796
7F2
035
060
7D1
0D0
01B
008
05C
7B8
018
7A3
796
7D5
011
7DA
038
007
01B
039
7E8
040
7A7
762
7E5
096
007
7DE
09E
7ED
7CA
7C8
016
7D7
030
051
00F
763
06F
057
791
783
050
023
7A6
78D
7FC
076
03D
01A
7EA
046
7D6
7E7
0DB
048
02A
018
02B
009
016
7D3
743
007
7F2
7CD
7F1
000
04A
014
7DF
06A
00B
040
7B7
7F6
079
761
02D
080
006
797
7B5
762
05A
005
7B7
033
7BC
78F
019
7BD
78C
033
7E8
7BE
7BE
00A
010
003
014
03A
7DC
767
02D
021
7DE
01D
037
005
7DC
043
78C
0BD
775
018
774
7E1
6F5
7B9
00D
030
00A
098
7C3
77D
003
7A2
7DF
0A4
7B5
021
070
7C0
099
7F3
0D8
01F
01F
7BB
029
027
765
7A3
790
7B7
696
067
7D5
05C
060
039
007
066
06B
070
7C2
0E5
0F5
05A
7DC
7E5
786
030
763
038
7E2
789
746
027
753
046
7E9
06C
7F5
06B
708
7BE
059
051
742
01D
076
62D
056
0BA
081
005
017
7ED
7F3
00A
7D7
0B9
7B7
7CB
7DA
7DB
009
003
037
6E6
7D2
038
011
035
03E
050
7E6
025
75E
00E
7AE
710
7D7
78F
738
036
052
02F
0A3
090
042
069
025
774
0CA
006
7C7
7E4
7C5
001
796
0CE
734
01A
795
7B7
753
021
7E8
712
7C5
0B6
73C
790
04C
08F
008
7C6
04D
726
7F8
6FC
7E3
01A
099
7ED
7E7
7DC
754
0C6
00E
673
078
006
721
791
047
7F7
1BD
08D
71C
0E3
79A
66D
081
00E
04D
7F9
7E5
7A3
73E
0F2
700
6E1
02D
020
08B
040
007
039
004
7C8
033
04D
031
085
122
7B2
7D8
796
02A
036
053
772
02F
07F
077
75A
014
01D
7F5
78B
7B3
02F
7A7
780
7CE
720
792
7E8
119
048
023
7EF
077
022
79F
01B
763
045
009
7FE
00A
025
754
039
7BA
7D7
7AB
7B3
073
0D3
011
028
795
01F
04B
7F2
7D4
7AC
7C8
7B9
07E
0A4
73D
054
799
036
76D
721
7AF
773
7F0
7A2
00A
057
769
009
089
08B
79F
00B
79E
716
044
00E
067
030
02A
023
018
0B3
780
042
78B
7A3
76F
776
790
09F
6E8
77D
7AC
0F3
7FF
08F
7F5
0C3
7A3
09B
03C
0BB
0A0
741
06C
7C4
7B8
7B0
039
158
044
182
7D1
083
7D7
7F9
119
0E1
040
7A2
0C7
0C8
7FA
73A
0B7
7BB
6E0
003
711
011
77A
0AD
7ED
776
060
02C
70C
7B2
7ED
7FC
7AF
7D7
03B
05A
005
7BF
725
0B9
002
049
037
7B9
797
079
79C
7B5
77C
003
7CD
78D
063
73D
7CA
7AF
7E1
7D9
7E5
00D
042
0BF
797
719
01D
017
7FF
078
0DF
773
007
7F9
7EC
06C
7AD
7F9
021
028
048
7EB
05D
77C
7FD
7D3
7C9
76A
681
05C
095
7EB
7E3
7FF
000
015
046
7C2
751
03D
79C
01E
792
7C0
77E
08A
6FA
77B
02E
03E
7F3
7CC
7D4
76C
097
01C
012
077
779
752
772
00F
76B
7B8
070
75A
06B
7DD
79F
7EB
76E
7EC
7C1
7FE
71F
7A1
000
7A8
7F0
003
7B0
7EF
7FC
01C
7AF
014
79B
7B8
069
7EB
09D
7C2
7C2
001
7CD
044
7D0
08F
7F1
7BD
795
74C
006
7A7
7E4
01A
056
7D9
7DE
77D
79C
058
76F
75E
010
02B
088
00D
06C
04F
794
032
7DF
7BD
78E
7ED
75F
76F
037
05A
034
03A
7A8
007
047
77F
035
75D
7BD
04D
7FD
020
7D8
060
7E5
0C2
7C3
7F8
6EE
788
717
7FC
054
7BC
7F2
151
7AA
7D6
7D0
772
7A4
0EA
774
7B5
076
785
026
7A6
09E
78A
078
025
79E
7E5
7AB
04F
007
008
7C5
7C5
045
797
014
730
05F
7E0
002
08B
7C8
03A
076
004
7D9
7C8
7E8
00C
712
02A
7DE
7E3
78E
782
7A6
031
095
092
7AC
033
785
030
045
0CE
78A
07F
078
045
02A
030
05A
02D
7FC
001
01B
753
022
796
71C
722
7B5
7BB
07C
07C
7CD
017
794
02A
7A6
076
10B
779
0A9
77E
764
022
774
7F2
05F
04E
73E
030
7F1
088
7F5
0B7
7AB
03E
774
03B
028
6F7
7F3
046
009
71C
0C9
7CC
01C
097
7AF
7F5
7B5
031
7C4
762
7DA
022
02F
79D
0E4
0B2
7BE
7B0
030
7E0
79F
7AA
747
7B0
7C5
02D
7B9
778
7AF
7FE
0BD
7B0
019
7D9
762
795
04B
743
071
7A6
7B3
06D
7F8
6A0
080
0E3
7FE
001
7C7
7CB
7F4
065
6AF
6A8
017
003
01D
7D1
7D6
049
027
741
7AA
04E
045
7C0
7FB
01A
7B2
05A
7E8
06B
065
059
083
7D1
04C
775
77B
00A
7CD
7B7
03E
037
7C2
030
790
7B9
76C
7C6
7BC
04A
7C2
0E2
074
766
06A
7F5
056
7BF
045
7A7
086
039
7A9
75F
014
00E
03A
7DC
046
7BB
095
03B
031
001
7DD
056
013
7FB
046
065
7A1
79A
02E
026
006
00B
028
7F7
001
7D6
7AD
7B5
03D
79F
7ED
06E
79A
045
040
051
7D9
025
7BB
046
76F
7CA
00E
03A
7C0
019
7C9
7E2
069
78D
7C3
7B7
7FB
77D
000
096
7CC
7E6
024
780
008
7CD
7C6
7EF
03C
7AE
038
024
033
7C6
79D
00F
7CF
016
7E3
7D5
09B
7EF
044
7C4
7C1
7C8
0B4
096
7C7
006
024
79E
018
009
079
7B6
090
7BE
005
087
79E
7B4
007
007
018
7FB
7DC
044
7A7
79A
071
065
7A5
017
743
00C
770
06B
03F
08C
722
7CA
75F
021
05E
7DF
020
7FE
7ED
053
75F
044
7DF
056
032
78C
6F7
762
058
015
7A6
06E
056
081
78A
7E4
764
013
74B
760
7FE
74E
04E
775
77D
7BF
016
0BB
7C4
7A2
7FD
047
7AD
7FB
7ED
7AC
773
7AE
7B7
75A
047
7D5
7DA
797
7CB
7F3
799
062
014
74B
71C
7D2
042
7E1
789
04D
7E6
79C
7A8
7B1
782
090
026
6FD
785
7A8
701
7D3
04C
7A3
053
7E7
7C3
758
03B
764
7B3
019
01D
6FA
7C7
7E7
07D
7AA
012
7FE
048
037
78E
7A3
0B2
7AE
7DC
74B
759
7AD
7EA
111
097
7F9
7C4
7CC
0C2
781
793
0B9
7E4
7C1
71A
01C
7DE
00E
7CD
7FF
7F5
7B8
00D
78D
055
714
026
05B
737
7DB
7A0
757
035
007
7B3
03E
051
047
7BB
038
790
006
795
03A
023
036
7AA
7E9
010
091
011
795
7C4
7BD
7B9
70D
748
788
057
7B1
062
7D2
070
7E2
05A
7C3
7B3
0DD
09A
7C2
037
7BC
764
035
733
0AB
7EB
003
798
769
031
7FF
042
0FF
79A
01A
01F
0BF
7EF
01E
05F
053
7F0
731
7FC
7C0
014
0AE
025
7FF
789
795
003
7CE
7EC
7C1
79D
7D2
7CB
007
7C4
024
7B9
020
7B7
791
7AC
7BA
087
781
075
79A
775
070
06A
063
7DE
7E2
7CB
02E
7D1
77B
7F5
752
7B4
782
774
704
050
008
02A
7A3
05B
798
02F
750
03F
7F5
010
72C
7D9
7F8
00E
043
04C
034
0D6
0B8
7B3
029
790
03A
01B
7F6
029
07B
075
002
76C
08B
01B
032
080
783
02E
75B
006
035
00F
791
713
7CB
00C
763
777
7A3
6D1
00C
088
08F
041
7E2
02D
038
7E9
7FF
7FE
7C0
030
027
05E
7B3
7A1
7E5
7E5
7C3
7D0
057
75E
7AB
7BC
049
7DD
7D2
00F
07D
789
7C4
0B8
777
7BD
03A
7DF
793
79D
00C
018
033
787
003
7F3
79C
79D
7A7
053
07A
01C
025
76F
7CD
04C
015
047
048
7D2
01A
085
043
7CC
04E
010
7F1
02E
76D
73A
057
7B4
799
7F8
017
095
00E
01A
046
7D6
797
7DD
037
02B
7D5
7D1
797
7C5
045
7D5
0A0
073
002
7EC
7A5
7CA
03E
7E3
7BD
7BC
0D1
044
041
053
04B
01F
0FA
7BF
7A5
025
7A7
05D
00B
7B5
06A
7DD
782
047
025
038
083
7A4
040
032
7C9
792
779
044
00F
09D
02F
052
7EE
02C
036
7F4
7FA
7A4
02F
7FB
02C
00A
7D2
051
7A5
7AE
7E4
048
75F
7A3
70A
7A9
776
0B0
0AC
74E
05C
011
118
7DF
016
75E
002
0B0
733
072
79F
7DA
075
013
738
027
0AA
7FB
7AE
7F5
053
73C
7D3
6D7
7EE
77A
06D
786
7BC
0A4
7E3
09A
6F9
020
774
0C1
03C
080
788
00D
7EA
796
049
7F0
067
0D2
00B
7DC
798
012
025
015
7F1
021
035
7BC
6F5
7FA
00B
756
005
7D0
052
007
73C
775
01C
05F
001
059
7BC
064
75B
051
00C
7EF
046
066
7ED
792
021
028
0C3
758
065
7BA
700
006
79E
04A
051
02A
7A8
066
032
7B7
08F
067
78E
0A3
75F
7F1
75D
031
784
0A9
043
08F
06B
792
7C3
7CB
7F6
7C8
0D0
055
7B4
0A4
7AF
77F
048
7BE
032
79A
7C9
7A3
064
7E2
006
065
02B
032
067
0A0
031
056
08E
03E
7EB
024
7F4
7CB
6FF
043
6E2
635
03D
0B7
04E
057
7CB
798
7C2
011
734
7F5
7F4
0A3
776
7B2
7E5
753
04D
091
7AB
0A6
7E8
7B2
7B5
7A1
042
03E
7DB
76C
031
793
016
7E1
737
03B
03F
08C
69C
0A8
702
02F
7DC
7F3
79F
037
029
783
029
7E7
771
798
04D
05D
72E
0AC
036
797
031
7D4
071
7F9
781
7FF
7F1
7F7
7FE
014
7DC
763
043
009
033
7C3
7FF
7A8
045
7EE
7B5
092
057
7C4
00F
7DE
7A1
026
055
7F4
792
7AD
783
00A
054
0AA
035
023
7BC
7C7
7DA
069
7CE
04D
7CC
7C9
72F
05A
076
060
010
038
7BF
7B7
7E3
05B
780
003
7CC
7C1
7A0
025
79F
052
04F
79D
79A
7C0
062
7F5
7EF
79D
06A
784
080
00F
774
7C1
10B
003
00E
7EA
7F3
018
02D
055
054
75E
7B5
7CC
737
741
7B6
7BE
02D
0A5
7B1
7DC
7E7
036
030
7F5
7E7
038
013
781
797
7DF
03D
7EA
04C
017
7AF
0CB
004
0A9
05D
7CE
06C
04D
038
735
7B6
03B
031
7C0
050
094
75F
134
779
042
093
7DD
019
7DB
02B
7AB
7FC
02A
0A7
772
7E2
0CB
09B
7AC
0D9
75B
071
7D5
74B
021
08A
761
71C
027
0F9
0F6
7F8
132
7D8
088
081
73F
7A0
7D3
7A5
02F
795
00F
05D
03F
7F2
7C1
7F9
084
017
6AA
010
6CD
103
680
096
7A1
749
7C4
78D
7A2
7D5
787
112
7F0
01E
7D6
04F
6AA
068
046
7AC
014
7A8
7EE
0A3
0ED
7EB
7BE
177
038
772
080
73F
738
792
6B7
7D3
7C9
792
7B2
7C0
7E4
02B
0B1
7AD
004
079
180
6FF
7D9
7B5
70E
076
782
01B
7E9
05F
070
7BF
7A4
029
79A
107
784
7F8
780
08E
768
099
7B9
6DC
7A7
7E9
794
06F
0C4
7F2
7B5
1F4
050
78A
7E3
739
7E8
7C1
727
77D
00B
7B7
736
046
7CE
7C8
0F6
7AA
00E
7B7
0AE
7B2
703
68A
7E4
7DD
77F
00E
7E4
018
7A9
020
094
7B9
79A
7A5
79B
7AD
7A3
005
74F
021
037
710
02E
77C
7C2
10B
101
777
733
1DC
050
024
0D4
6E2
763
01B
73B
75B
777
060
0A1
765
02C
050
0DF
00F
027
0A2
129
7AB
794
698
73D
740
6A2
0B0
7EC
0B0
70B
7E5
7C1
052
7B9
0AF
7AC
796
021
107
7EB
04C
7A5
016
053
012
02C
02A
01F
7ED
7F2
09E
057
778
7F9
066
017
76B
7D0
7F4
032
001
7B3
7FB
7ED
7FE
014
7EE
016
7D2
071
706
764
7C2
74D
0AF
756
06B
004
7AC
066
7DF
7C1
7B3
018
7DE
08E
737
7D7
00E
02B
05B
7D5
02A
7A2
7C6
7E5
743
74F
062
034
75E
7E0
03D
020
01C
07A
7B6
068
01C
088
7E7
027
02D
7C5
045
7C2
78A
046
08B
7C9
00A
06E
7F4
073
79A
07F
7A9
028
042
018
7CF
013
781
77D
7C8
7D8
6E5
749
7C7
075
7E5
099
7E3
78C
749
012
034
0CD
011
7ED
08D
051
79F
78C
029
7CA
03A
7AC
7CB
76A
77D
749
005
782
06E
002
0CD
02F
000
03C
701
7B0
7D6
7BF
74A
07D
76B
07A
0E3
7D2
78D
7F2
777
04E
094
008
02B
06B
7BD
7D4
76C
001
031
79F
06A
7FD
026
7DA
7CF
071
7FE
031
7DC
00E
79D
05A
7DD
040
7A0
001
029
058
7DF
030
062
7FB
77A
7A2
092
02A
02A
029
7DF
08D
02D
7CB
00A
7DE
7DB
094
010
080
798
7F2
729
744
7A6
798
7C5
00F
00A
7A1
0CB
7C3
756
7BF
077
022
7E5
087
10C
7AF
081
09E
08C
09E
02A
799
06F
7F9
064
027
7E0
7F6
0DE
00B
7BF
7C6
7C3
036
029
7DD
796
729
02F
782
075
7D0
02E
06A
031
781
000
796
741
02A
6F1
743
72B
08C
78A
075
03A
7EF
789
047
7DC
7F1
007
07A
7B7
7D8
051
7EA
043
08E
7D5
0A8
071
7C8
004
7A7
01E
096
7D3
6FB
080
004
7E9
75B
074
01E
096
042
6FA
08E
6DC
082
04D
085
00B
725
028
78F
008
7FE
7AC
037
0CF
073
7AD
786
068
7B7
092
780
7B0
7B1
7B6
072
770
762
7B8
0A8
7FF
0B8
069
08D
09D
10A
036
7E7
014
004
7F0
79D
7B2
029
076
032
037
78F
79A
079
0E2
77E
147
7FF
757
11E
7A7
008
01E
7A3
7B0
7C4
068
035
751
02C
793
7E2
7E5
050
799
022
7DE
00D
7FC
00F
107
021
7A4
7CD
799
7ED
743
053
79F
7E7
02E
029
7B3
7F2
0D0
7ED
7A3
034
76D
7E3
054
7D7
784
001
059
754
01E
7C0
7B3
784
033
02C
030
024
7F7
76F
590
5BB
050
072
086
098
779
016
76F
00A
009
090
7AF
00D
054
00D
01A
015
0C1
06C
77B
7FD
025
79D
7FE
014
0BD
708
7BC
02A
086
7B7
0B6
7F4
788
006
7D8
07F
725
07A
6F7
159
0C8
7DB
799
7BB
775
00C
770
7B0
7C3
7A3
685
03A
798
019
075
783
029
00E
046
000
00D
7C8
011
085
766
7D2
039
775
004
077
020
79E
052
7E6
081
7A5
78A
071
04D
7CD
052
067
01F
01B
7BA
02E
7A2
0DF
7B3
7F2
07E
762
7F4
04E
7D2
792
0DC
7E5
7F8
0E8
753
77D
7E4
7CB
7B9
7AC
7FB
7AA
0C3
7C1
7A0
052
7E9
016
7C4
013
7CC
7E8
74F
7B0
04A
08B
78F
0BD
78A
6F9
09B
016
7C8
7F0
0EC
001
75A
00E
08A
007
0DD
7B0
052
05B
04C
779
010
7C9
01B
057
774
019
7D9
7E4
781
076
7CC
7C8
065
7EB
7FB
7E2
7E9
780
7DD
04D
75E
7DC
776
7FF
01F
02F
01F
048
7E2
012
7FE
03B
0EB
7B3
041
7BA
7EC
7A9
04A
060
78C
03B
078
07C
77C
025
7CD
05A
058
7C5
7D5
7F7
06A
7CA
052
7BE
6EB
7D3
7EF
6C2
796
7F4
04C
042
102
00C
0DC
016
026
057
06A
138
7D0
7FE
052
019
004
779
04E
037
01A
781
088
7D1
7B9
099
7BD
025
16A
043
7F1
05C
7D9
773
7C2
7AC
038
106
0A8
061
035
055
7B8
7F6
733
7BB
000
78E
79E
7D6
01B
02F
7E9
784
7AD
78E
7C5
070
796
762
03B
045
028
7DF
048
79E
77B
7EC
79A
012
79F
79D
053
7E7
7BE
08F
03C
001
7E2
025
005
7DB
74C
7E1
029
064
7E3
028
7B1
023
7B9
781
7D0
7E1
02C
78D
012
79C
015
052
09B
7CE
7E4
795
72E
79C
756
015
7E1
78D
7F0
008
05E
7F0
07B
088
024
06A
000
7C1
04E
007
7A5
09B
036
7B2
092
799
6C0
05C
0AC
7CF
7D9
00F
023
0B4
7EA
6B1
7ED
04D
771
059
025
7EB
081
7F6
7E2
084
02E
7CF
7E7
047
6D0
05E
6A5
78E
723
7C4
049
001
00C
047
7C6
7D7
067
7C2
7C0
7F5
7D3
77C
7D4
055
70A
0ED
770
77F
08E
017
727
01B
773
78B
000
7FE
064
7BB
7C1
7F7
79D
0A5
7DD
000
7B2
797
753
005
729
003
692
7FA
7D4
024
751
010
050
785
7A1
798
7E8
0B4
799
79A
027
7C4
7F2
78C
7B5
031
008
755
7E1
021
04F
03B
7DA
001
00B
7A3
011
795
774
766
7E6
0CF
7AE
7E3
08F
065
7F8
7CD
772
067
00C
7AA
760
78C
7FD
7B8
7D1
7F4
7F3
7C1
08D
784
107
05B
0EA
786
7D4
0EE
038
7B7
7E0
7C1
76B
75B
7DE
7B8
097
75D
000
0F5
7E4
093
7E8
057
06B
78C
069
039
7D5
7D1
0A4
7D9
75D
708
7E9
071
7E8
082
063
048
79A
79B
7DA
011
076
092
01A
015
6E8
7DF
759
064
7D1
004
7AE
76F
72D
0E5
7F7
050
7E4
7C8
006
748
745
74C
03B
6AA
00C
7DF
00E
062
73A
054
0C9
05C
7DE
0E7
70A
734
02E
025
08C
6DA
7EA
028
027
057
005
7DA
078
783
7B8
6D1
7AF
674
7CE
725
0C6
053
032
7BF
02C
7A8
1DF
15A
0BC
762
0B4
06E
026
761
7AA
7B8
0E0
7A9
0FC
7E7
068
73D
08E
027
0AD
0CB
00B
792
78B
007
783
098
7A3
013
7E3
7E8
02A
026
12A
012
7E9
7C2
7F0
01D
0CD
0E8
074
0A7
033
720
70F
78B
75E
024
7FB
027
067
77C
7E9
7F9
032
7F8
79F
06E
03F
794
01A
6AA
744
77F
7EB
058
7B9
015
68C
074
7FB
7F9
082
07D
6A8
7E7
0A3
751
7C5
6A5
784
06D
7C3
7D8
06C
00F
7B9
78A
024
042
7AF
78A
76D
7D7
012
001
08F
798
010
7DA
7CD
78C
7AD
001
765
01A
7CE
7B3
0BA
027
774
05D
7F4
790
011
059
7FA
053
0C6
012
061
7D8
7B8
7FA
047
041
7ED
7EC
7FE
7BE
7BA
7FF
7FD
7E0
038
01D
799
7EE
03F
7A5
7C5
7E5
790
051
774
069
7DB
7F4
010
065
08B
012
7FC
035
7F7
048
01E
7D2
083
78E
7CA
7D4
7F2
010
001
7F4
00C
78C
7C1
069
04E
038
0B7
7D8
02C
7EA
7FD
001
05A
794
7BA
010
01A
7E1
029
063
041
7DB
7E0
050
6AF
6CC
729
01C
729
0CA
7B4
049
079
79A
7A4
0AB
0B1
036
717
025
7A1
029
7AD
7FF
744
09B
02A
066
7FB
03C
14E
743
7E1
78A
78F
7A0
108
7B0
767
02A
757
0B6
71F
04F
06B
040
002
096
02A
00E
030
047
7A0
0A1
079
7C8
78A
0BB
77F
0A4
089
055
007
797
783
04B
04D
0FB
793
6FC
78F
707
127
00C
78F
0A7
04E
770
063
037
7C0
10C
03D
6DB
090
7E0
68F
09F
6B4
7F0
7C3
0B5
097
77D
069
638
74C
012
00B
7CF
013
020
712
02B
773
784
730
7B6
73E
02B
00A
7DD
065
781
7AE
001
102
08C
759
089
786
7FA
795
7DC
02B
7FB
00E
00D
7BF
058
042
7EB
0CA
00D
077
7EA
079
7F1
7A0
029
001
7F4
75D
0C5
7EF
096
0B7
7E6
79E
776
7E8
7C4
012
7DB
007
798
7EE
107
026
716
035
780
06A
039
064
7AF
73A
06D
021
031
779
050
7D0
047
729
04C
047
741
7AB
0CB
018
7AB
7E0
7DE
0B9
7D6
7E3
080
052
03C
7E2
775
021
7A5
039
036
7B4
7F7
031
754
03A
014
79C
7B1
7A0
6C4
76B
078
7DA
06A
084
7FD
06A
05B
048
7B5
04B
11C
7D1
0E5
7D8
052
00A
7D2
7D8
794
0C5
7D2
023
008
021
740
051
037
0D3
78B
0CD
7FC
78E
7DA
7E7
798
78E
7E4
7C9
041
02B
7DA
7BD
033
7AD
7AC
05A
7EA
0A0
07F
06D
6C2
6A3
04E
7AE
025
06B
006
032
041
09D
779
0EB
761
031
7EE
082
7C5
046
7BB
6D1
050
04A
75D
7DA
069
6C0
0A3
79D
79A
061
7D1
7C7
7E0
08D
787
0E6
0E6
7C0
082
041
076
00C
7DE
029
7D6
6D3
033
038
7D9
737
7DD
047
7AE
043
7A1
07B
7A5
7CA
7EA
041
012
7F4
06D
009
002
023
06D
7B9
03F
04F
7FD
039
00E
028
7F5
02B
7F9
060
7C6
7D3
7DB
0D1
7F0
064
083
775
755
7EB
756
7FE
78F
789
00B
039
7A6
770
017
002
7F8
786
09D
08F
768
031
03D
09F
004
79A
73F
7E8
04C
75F
048
016
7A1
08D
04C
79A
0EE
0AC
750
7B1
03C
07B
7F5
00E
005
048
016
772
004
056
03C
7C4
0A0
7B1
7F4
7D7
760
7A4
7F4
7EA
719
002
7A9
764
770
012
7A1
7B0
03D
07F
77B
7D4
7C2
7A1
78D
763
6BC
728
056
01F
01B
016
76C
0CD
0A8
092
04E
027
76C
7AC
01E
75F
15A
6C3
769
0D0
058
6FF
7B7
12C
773
7D9
029
758
745
00D
70A
64E
081
7CE
022
788
7EB
6B0
7CF
75D
6CC
6DF
037
040
7C9
7F1
7E1
057
7C9
779
044
028
06A
7B3
05C
03A
032
069
012
062
0C2
03B
03A
7A7
7DD
0A0
7F5
7B4
03E
0C6
7C2
7D9
012
05F
026
7E0
0D3
6CB
0B9
003
012
7EF
795
770
7FA
797
797
039
7FA
033
7A3
7FC
7E7
052
07A
005
7D7
006
7EE
7C3
009
7A3
7C6
7FE
05A
78B
035
7A6
06B
0DA
7D0
77F
78E
7AC
791
7B5
081
7C6
0AD
06F
7C8
0AF
024
729
7FD
09E
704
061
0FE
023
0EB
799
0E5
012
79E
7D4
7DE
784
7EB
758
719
752
776
7E0
076
010
003
018
784
768
027
050
059
6F0
7D3
76C
79A
7AC
73D
732
0A3
026
06A
074
7D4
040
02B
7E9
7C1
01D
7A2
01C
05D
77C
7C5
781
0A7
5F9
7B6
04A
0C9
07E
00A
78F
087
7DE
7A3
135
7EE
0E8
10B
0AB
6CF
017
7C0
72E
79E
7F6
7C0
046
0C7
777
6E7
168
09D
01A
73F
045
07C
134
704
70B
7FF
7F0
7ED
741
066
7CC
182
029
773
7AD
7BC
09F
777
064
756
10E
031
789
027
7F5
7E7
797
7DB
04E
7A3
082
029
764
014
030
0AA
7FB
757
7CC
059
00B
021
09E
7F0
758
098
03F
048
7EE
7D7
0B0
0C0
7A7
7D0
0AC
713
78A
05E
781
0F1
7C1
0D0
07A
7EA
70D
033
01A
745
000
7A9
7AB
7AA
059
7B5
764
007
04D
7C8
7A6
02D
791
004
79D
776
6C1
026
05C
08A
08D
7D9
017
022
098
02B
78D
087
7DE
05F
7C1
7AA
7E9
7CF
77C
032
034
7BA
018
06F
094
78C
7C7
7ED
7F2
7B7
020
090
7CC
00D
024
797
731
00F
067
09C
013
048
001
042
00F
7A5
00B
077
7D8
05C
045
732
776
024
040
000
7F9
77F
7E6
049
050
790
06E
7B8
01B
029
009
7B8
7B3
7F3
736
057
7A5
003
7A5
7FA
7A2
020
7D6
015
02D
7EE
006
7DA
014
0A4
017
04E
005
08B
7CB
7B3
7F6
061
78F
049
6F0
7F6
75F
6DF
723
015
77C
0B5
031
7EE
038
787
030
06B
034
7EC
7BE
7A8
778
005
7BC
788
0B0
04A
7DD
06F
007
73F
0AB
76D
717
7D2
77D
7C3
0B2
780
789
072
03C
067
6F0
0E1
749
164
10A
09E
78B
040
7FC
795
7AC
036
06B
792
786
7EF
06C
024
79B
005
7AA
03C
748
00F
046
092
77F
7D6
787
78A
04D
7E2
080
0C9
772
734
02B
7D7
0B7
02A
7C4
73F
7B8
7AE
6F9
050
078
7FA
753
13D
79B
000
02E
75F
797
69B
7C9
069
7B3
77A
771
0A7
78A
6D7
7E5
06D
7E0
0F2
05E
7DC
7B7
7A9
7B4
0B6
05B
06F
724
030
7B1
72C
75E
7B2
7EF
09B
009
025
04E
7F8
0DB
762
7CA
72A
7AB
7C4
0B2
040
704
036
799
0CE
769
013
757
0F8
0D2
76D
77C
7BC
77F
025
734
7B9
766
713
75F
138
7EA
008
06D
030
00E
792
7F5
7CE
7BE
0E8
7E2
061
78F
790
055
08A
7D6
104
0CE
76C
027
056
09D
7F1
7F2
73B
0F2
039
751
063
7CC
7DD
7AE
0EE
728
7B9
7C9
7DF
7D9
7C3
04D
063
7B1
01B
06C
7F7
025
04A
040
72D
727
03B
08C
79F
07D
00E
05C
7EE
044
06F
048
77D
000
03F
7A3
7AA
7DA
786
000
05B
786
070
7C0
7F3
7EF
7D1
761
7CD
065
02A
7C1
784
094
7A4
06A
7E1
7FF
06A
7B9
09E
7C6
08D
041
7DC
7FD
010
056
054
7FA
74A
71B
7EE
793
7F3
6CF
031
0DF
03D
06E
76E
061
007
00E
046
797
7AA
076
7DD
70B
06C
7E5
05D
792
052
101
050
7D6
002
084
7AD
023
7F8
0A1
773
066
77B
01D
7D3
016
081
008
05C
005
7CB
667
04A
032
7E0
77A
056
79B
7ED
0BB
794
7FE
783
046
734
06E
7F4
781
006
01F
7D3
7F1
7CF
7E3
04B
03A
788
77D
081
03A
065
064
7E5
001
037
083
78B
7FF
093
05E
7F3
771
006
796
0BF
045
7C6
008
78C
7D6
77B
6E9
783
7F4
79C
708
08D
01B
04A
0D8
791
0D3
01C
00F
785
78E
17D
7B7
062
7E0
7A5
06A
018
7A4
7F9
096
6F2
011
0B4
0B4
7DA
00C
002
0AB
028
7E3
086
7E0
76E
07E
7F1
7A6
797
7EC
04F
01C
05D
7CF
7E7
77A
79E
6F9
7E8
70C
680
675
059
042
053
743
004
7FC
7AA
7E8
7C2
72E
754
033
05A
7A7
003
0FB
09B
029
077
074
792
7A2
7BE
013
0D7
6C5
0BB
105
7C1
733
048
0D0
753
7C5
052
63D
7D9
7F0
01F
7BB
00B
779
02E
78C
7C9
671
053
733
6F2
730
00E
7C8
06B
085
79F
055
7D5
041
019
7BE
0AD
7C0
0D1
01F
7FB
793
7B5
7C1
048
089
02D
038
014
0B3
78C
7B8
796
046
77B
05E
760
79F
7E3
03E
00E
76E
7F2
7A9
0D4
080
03E
7FE
03D
01B
054
051
7BE
0AD
150
150
773
00C
6F1
71A
7A8
742
011
612
02A
766
612
050
608
7A2
77C
13C
046
100
772
760
7C8
04D
702
664
170
705
072
7BC
068
69E
7B4
075
7A6
0FE
741
1B2
08C
7CF
773
5B6
0FB
7A7
7D1
01F
024
6E4
01B
655
5BC
6B7
7EB
0A7
03E
07E
7A8
00A
7C9
7B8
087
076
00C
7AA
7C7
00F
01E
75F
75E
74F
0C2
05E
05D
034
794
0A7
7F0
740
7CF
77B
7B7
0C6
765
7CC
084
771
0D3
4FA
09C
0C3
0CB
144
00E
7B5
00A
785
041
025
0B0
0C1
0B7
07E
74B
79F
78A
7AC
7EB
00A
7DE
7BF
7C4
7F8
690
061
6C8
028
06B
042
08F
024
028
7B4
07C
7A8
7EB
70F
055
7F2
003
792
060
7A0
774
107
007
7D8
7C2
11E
006
0A4
7EA
7B1
091
7EE
7C7
7B4
7FC
726
00E
7B2
715
713
106
107
00B
7B7
7EE
0B2
78F
0D8
7F7
783
116
759
79B
77E
7C0
769
7A4
0F3
0C9
0E9
00F
79F
00B
14C
79B
6D5
7B3
02F
785
080
7C9
7B5
04F
738
0E0
636
7BE
0CF
7EA
78E
07F
02C
058
7E4
7C0
79B
7B9
7E7
017
7BF
021
786
092
7B5
01B
04A
7C5
7D3
7F9
7BE
014
787
7E0
7E7
78F
02D
7BB
7B7
7C7
7B6
7EF
7B2
7FC
016
7D8
022
016
013
03F
7F5
751
7B3
060
09B
7F4
7F6
012
051
0E0
042
7FD
02E
02B
01A
022
7F1
010
0B1
0C8
03E
037
02F
001
784
046
6A9
793
724
7DB
017
6B5
073
735
7AC
7F0
089
075
09B
054
79D
039
79B
006
71B
086
077
0C2
7FB
7EC
70A
068
02F
7BD
067
7F3
11E
7C5
7F5
73E
735
057
7FE
0F4
7BB
7D4
771
034
02B
780
7A1
6F7
709
0AD
076
062
7C5
7B3
7F6
0A3
095
063
060
02A
77A
7DC
78D
797
042
708
795
7CB
050
766
78C
6F1
7B2
0AD
112
04F
061
7F5
70C
7E1
08A
6FD
7F2
0E8
76A
0E8
092
045
7FE
019
05D
038
725
001
78E
7D8
7C9
092
0B0
016
78D
006
7F4
7F3
7BD
008
080
05D
7DC
070
04A
7BB
7E9
04D
011
071
03B
019
7D4
028
7FD
098
06E
794
011
7C6
7EE
055
064
077
72B
076
69E
002
06D
002
0F2
783
797
007
01E
7DE
7B1
0FD
780
78A
09B
7E5
7D5
04A
7F3
02C
7BF
7F9
021
031
01E
095
00C
05F
7B7
7BF
0A2
01F
7C1
7F9
7C2
013
055
7CA
064
799
055
039
7EE
041
7E3
020
774
76F
7CE
005
7AE
033
78A
7FE
064
702
74C
774
051
025
6B7
00B
770
741
7A6
048
0B8
054
078
7CD
7A2
7B4
74D
7F8
006
0A5
738
79B
03F
795
7D3
7FF
00E
109
08C
79D
7DC
7AC
0C1
74E
77B
6FF
005
7E1
7BE
07A
7A7
7ED
7FA
0E8
678
0A6
76D
7C6
011
7DF
00C
05E
044
770
02B
7DF
101
0C8
0E7
7B5
764
03A
74E
792
59E
7CC
76A
020
024
764
0CC
013
007
05A
01F
07B
03E
795
69F
7E8
79C
04E
724
026
098
027
784
79B
71E
058
7F2
76D
04A
732
148
7C2
044
71C
77F
7C0
074
7E1
7CA
02B
063
7A9
77B
7DC
79B
798
76E
780
7ED
05C
7E5
02E
11B
753
01C
0A8
05F
0EE
7B5
129
045
016
7C0
005
043
78A
064
084
7AE
7F4
068
08D
07B
7E4
071
779
024
005
0A5
7B5
7D5
6E3
797
784
763
011
7F9
0AD
7A9
000
7C3
7CF
750
739
063
787
730
018
00C
7C0
7E5
7BF
096
051
013
047
0BF
03A
7C2
019
797
75F
004
735
058
7BF
062
051
7A9
7B6
07A
0A6
068
7E4
029
7B3
6A4
7D5
040
711
7F0
050
7E9
0BE
04F
0BD
004
037
779
04C
6F9
788
741
77D
720
77B
036
0AF
07C
77C
07A
7A2
0C9
007
7F7
0C6
02A
0BA
793
032
78A
778
6C5
7F2
0CB
00A
032
0E9
092
72E
024
070
0F8
7E3
119
7A7
70E
7CC
06E
053
7C7
7FA
725
07A
016
047
7D2
7A0
799
7BB
678
767
716
603
6F6
7A8
043
7FC
04B
030
04F
7D1
0B9
0BD
7C0
7CD
168
098
032
002
7EE
059
032
70E
031
794
7E7
7C1
001
06C
7CB
104
064
034
7D3
019
086
791
05B
743
658
73F
033
05B
76B
093
7BD
05C
008
042
678
77D
7C6
71B
6D1
797
79E
029
033
7FC
020
7F6
7ED
02C
09E
03D
012
0C3
01C
01C
7BA
73E
039
7AF
01E
783
00A
7DB
7C4
7B8
7BF
030
007
797
084
7BD
7B7
070
074
74F
774
03E
7CA
077
069
0A4
05A
0B0
019
01A
0F4
090
0D0
08D
0A3
7CD
012
01C
76F
05E
6A4
01D
6B3
034
04E
691
06E
68C
029
7F2
07E
087
01D
764
755
054
03F
78B
7BD
064
00F
7E0
773
7DB
764
025
008
7F0
7BE
025
103
06A
7CB
735
032
7AD
03F
08C
7E8
00B
7B4
047
6E7
6B1
6CA
008
7A2
04A
752
7FD
7E0
013
03D
0FB
7ED
7F8
7E7
7A3
041
7AB
7C2
75E
062
7DC
7E6
79B
7B9
74F
033
76C
6D9
041
7F4
7C0
0B8
76C
7D8
081
030
7EE
675
00F
7B3
0A7
0BC
742
7C9
042
035
03B
083
095
004
0C5
0DF
02C
7B2
7F2
7D3
77F
7BD
015
720
7FA
00A
00A
791
6E8
7F9
067
066
0A8
778
7EA
049
091
79F
021
02C
02B
080
776
742
7F5
02B
02F
7A9
0C0
024
06C
0C0
08D
034
75B
026
7B1
780
7F1
00F
79C
780
7AA
704
705
6B0
02D
05B
7F6
0C8
780
08A
064
161
065
04D
0E4
771
016
04A
7E7
76E
77C
048
004
0C6
041
7F2
059
0D7
6B2
697
06A
08C
7CE
09A
7C2
7E6
7F2
027
053
5C4
03E
7B0
0B0
077
045
7A3
03A
7AD
04D
77F
060
077
019
77B
7C0
6E6
06C
7A7
044
74E
7AD
038
040
0BD
127
7A4
7E4
7C9
7FD
764
771
050
039
747
7C7
05B
077
122
00A
087
7BB
7B3
7AE
7F3
7F1
06D
003
781
058
7FE
034
021
051
0FD
7B5
7E2
02D
05A
7AB
0CC
7FF
0A8
098
0E3
094
721
7B9
737
03A
75F
7F4
64B
068
028
763
7DE
67E
7C9
7E4
044
061
043
04A
7FA
0A4
78F
76C
74F
06E
03A
6AD
7FB
79B
6EE
7F2
041
023
040
064
147
085
057
731
77D
7EC
02C
092
79F
00E
010
02A
0D0
052
001
73A
683
028
77C
79B
701
7A2
0A2
797
013
7DE
08F
065
062
014
77A
725
01D
6DB
729
756
002
7D5
69D
024
10D
14E
0C9
7B4
714
052
7DF
7D0
0D4
747
07B
738
038
7C5
72D
028
7CA
004
7C3
064
6EC
7EB
6EC
65D
79C
7C8
0CC
073
029
007
7DE
7AE
038
7FB
7B4
7E5
759
760
04F
760
003
7F6
7AE
7DE
072
7A9
025
73C
79F
7D1
67B
7D7
013
040
08F
7B2
7C8
02F
057
00E
6E8
019
7BC
01E
02B
7DC
011
7CD
02A
7A5
061
7E1
00B
0A4
7FF
053
7A7
7DA
7B6
7FD
788
04E
7DB
05F
029
735
7C7
003
78C
055
7D9
74F
7AD
7A9
7BD
7A7
04C
79F
01B
7AD
7B9
028
7E7
7E0
7DB
01C
04C
7EF
798
7AF
7BB
007
02E
013
7E7
794
026
790
031
7CB
6B6
7DC
6F8
752
775
04C
7FA
7F5
021
018
023
05C
7E8
7D3
79C
011
6BD
78E
7B0
7DE
078
7E1
6D8
0FB
033
06D
7AE
763
0EF
795
6A6
70E
78A
003
059
779
036
056
7A2
0DC
701
08F
750
03C
7BD
735
79A
147
7FD
048
72D
02F
1A2
061
74E
703
7FB
0B5
719
7C9
6C8
049
020
101
065
731
0F2
09E
037
7BE
74B
74A
080
7FB
6A6
659
03F
7AB
7D1
0A1
13D
11D
096
7B8
715
043
0DD
7B5
7DA
728
0A2
73B
0AE
02A
7AC
7B8
050
07E
78A
005
093
0AB
7FF
009
0B1
08B
02D
7A6
7F9
055
79C
7D0
0A8
763
788
7D0
7F2
7E8
00D
04E
051
05B
088
036
035
7B7
068
0FA
736
7F4
769
779
04A
03E
799
035
020
741
7DF
7F3
07E
745
76A
6F7
7BC
010
7F0
059
00F
013
04C
01B
03D
071
0A0
754
6E3
070
77A
781
797
016
099
14D
01E
74E
1CA
03E
01F
011
76D
770
764
710
78D
774
7D5
018
747
011
156
158
021
7AB
7BB
0EF
04C
777
787
713
05D
75B
00B
050
007
057
7A7
7DF
77C
02D
7B7
7E9
0A4
768
749
68E
0CC
0B6
7EF
77B
7BB
787
193
143
05C
0C6
17D
10E
012
056
6BB
6CA
7E0
67B
79C
76F
7C4
0CB
7E4
791
110
1A9
018
7FE
0AA
15C
758
7B2
795
6AC
757
77B
055
0C9
06F
7FE
7EA
79D
7D2
035
767
6F0
10C
64E
76C
70C
7BB
78F
016
79A
02D
7EB
187
057
72D
103
215
254
75A
066
6EF
765
7C2
74A
096
617
05C
08D
02F
7CC
02F
1A1
154
029
7A4
133
0A0
669
7C4
722
694
672
05C
063
035
77E
02C
091
782
046
758
78F
7B7
72F
795
751
776
076
761
7E9
73B
787
11D
104
012
7DD
15A
0C9
00B
072
7C1
6F6
7F7
774
753
6BD
78B
77C
7F6
7D1
7F5
0F9
08D
78C
7B2
007
746
7D0
797
789
7F8
011
7BF
0B4
0BE
00C
03B
022
039
03B
02B
7F3
7E9
046
7DB
7B9
002
019
7CE
79C
744
018
00F
042
01E
78A
012
7F4
78A
7CB
016
77A
0D3
78E
7D0
022
7AD
772
020
033
7AE
05A
7FA
7C7
7A6
038
787
03D
053
7B2
78C
0B1
784
7D8
01C
79E
7D2
0D1
792
7D9
73A
7E8
02B
775
7EC
79D
7D4
025
755
7DC
006
05E
10B
051
7E4
7A4
0F1
087
7BF
7AB
74B
748
0B5
748
00D
7AC
043
7E7
7B9
03F
002
16D
071
7FB
7CB
7F5
05F
011
7C3
004
78E
7EE
039
07E
015
793
01C
04B
053
787
07F
003
7C2
7AE
083
005
062
00C
7B7
79C
7AD
7B3
734
0B6
7E9
018
7EB
7D7
77E
7DB
080
03F
7FC
017
02B
7C2
7A3
7D2
7F3
02D
7BB
7AC
7C3
046
768
7E9
7C2
01D
7C1
02F
7BE
015
784
794
7C2
02F
7C1
08D
037
062
762
01F
012
029
64A
03B
011
7D2
7D3
7F9
778
785
013
789
0F7
7FC
6CE
76F
77D
763
7CA
03F
7D7
0F7
08A
0EF
006
059
106
7D2
765
731
7A4
7CC
12E
612
09E
18E
7C1
15A
75C
047
7F1
001
167
7A8
014
0D1
019
795
785
043
0E1
03B
7D6
785
76A
0CC
73E
7FE
696
7B1
02D
0B4
0E2
7C5
7FB
0CE
7CD
043
76C
7F9
0EB
043
787
70A
7DE
7D8
046
059
117
0BD
114
00E
7DE
063
066
7FC
6EF
021
7EC
7E1
09D
098
054
742
7E3
6FE
79D
7B7
777
010
06E
7B7
759
138
05A
0A8
790
031
7C7
04E
6DB
09A
04A
79B
6FC
69D
012
086
7E9
0EB
03C
1F9
772
793
041
717
19C
059
725
72B
7BE
032
6D2
778
0B6
0F9
777
15F
76B
138
741
764
738
775
791
187
007
7D7
0AC
127
172
15F
06E
7BB
6E4
042
7C0
032
70B
7F4
016
07E
0EA
73F
11E
080
033
7C7
00A
7F5
05C
759
65A
7B2
014
0C5
744
02C
196
0B0
7ED
011
709
090
023
7FB
790
7DF
1BF
775
04C
004
7EA
7B0
7F3
7CE
7D7
7FB
02A
00B
7E8
71C
028
780
056
00D
7DA
026
7C3
038
174
035
7CA
0E0
04E
0DB
764
058
726
73F
7DA
73C
083
657
00A
019
06A
7D6
7D9
090
01F
796
069
7D3
6E7
743
033
75B
758
6E2
069
7D1
03D
7F9

