08F
7EA
71E
7F3
08C
04E
75D
7FD
090
742
029
07D
10C
7A6
6F5
7DA
065
7C3
06F
7AD
7E9
6F1
7F3
7DA
0C5
03C
0F3
706
03B
02D
04B
082
00C
0B4
0DE
690
021
03C
01F
6A8
7E0
0BD
06E
0EC
7E7
218
121
7C9
052
15E
09A
01E
7FC
0E6
730
5A9
7DB
064
042
08E
08A
773
11A
0AC
799
791
05B
724
021
0E9
088
7F4
0C4
778
7B8
02B
085
7BF
061
71F
00A
722
705
092
7F0
78A
77A
006
0DD
0BD
7EE
0A7
0AC
08B
79F
08C
0CF
0A6
109
041
6F2
01E
796
08A
736
7C6
74C
768
7FB
07B
086
6EF
798
02E
06B
72B
767
036
7E5
7D8
73A
222
770
7DE
040
7CB
04F
0CD
7E5
601
6E8
0E5
051
08D
5F8
6DA
724
13D
7FB
018
757
149
78B
71B
653
6AC
7AB
7ED
1BA
7A8
095
036
0B9
116
767
7B4
0B7
11C
026
082
7BA
142
086
0A3
7E9
160
062
110
7C8
1E9
0B5
009
7D1
0EB
77E
5DA
035
12B
10A
010
7B4
0CD
02A
09D
7C0
149
07B
12E
57A
722
7DB
655
154
102
4BE
7C1
0AD
028
23C
092
166
77A
7DE
7C9
55C
6EF
097
602
01F
645
02A
12D
7E2
794
7BC
6FC
7EB
714
7A6
0A0
715
0C8
08D
20C
5BD
7FE
041
199
767
204
13A
74B
629
08D
5D8
789
092
69D
18C
7FA
6D8
232
15A
066
03A
197
16A
17E
0D5
0C7
705
151
7DF
14A
60E
7FC
741
7C1
746
052
788
7E0
7AA
6B4
704
771
151
711
18E
76C
0F0
0ED
77A
15F
7AD
5CE
71C
762
718
733
7EC
19C
7F1
7BC
617
00F
268
13E
08F
7FF
035
6F5
7FF
765
0E9
147
1C5
131
738
5FD
6EF
729
783
00E
03E
7FB
719
02A
6E7
015
013
19B
6E8
093
7FF
734
7F3
739
742
76F
00A
018
100
734
7B1
153
705
10A
795
161
27E
03A
019
0A1
776
749
01E
0DC
053
6E6
7F9
0C8
037
109
0A1
24C
038
7B8
7B6
109
76C
034
0B3
79B
7F8
6C3
0A9
145
049
01E
713
769
03D
08C
781
18D
6E5
0E7
05B
159
0EF
7B6
714
086
770
004
798
097
7C4
63D
791
78A
05C
13A
071
081
13B
755
7D2
7CE
7C7
7E2
7C5
020
05F
790
098
053
03C
6E0
705
7A2
79C
7D6
0E2
083
7E4
767
0DA
069
77B
086
06A
0D6
7B4
78C
073
758
0CA
79C
0C1
759
7B3
752
71B
7C1
620
048
7E2
182
0EF
626
724
000
794
757
736
056
1E5
756
7E5
7C0
794
220
6FD
121
74B
65E
12C
770
7F3
787
0C4
035
052
08E
09B
7DA
773
7CB
7FD
0B9
7E6
781
7BF
044
0DB
76A
732
75D
71A
6F7
7EA
10E
00F
713
07A
75D
03D
09D
037
016
790
089
0DC
0E2
6AB
129
755
0A8
07D
137
605
00B
079
7A7
7E4
62F
19D
033
73D
103
07A
087
641
705
745
0F0
242
14A
199
130
7F3
07A
68F
1B4
19A
050
08D
697
011
0B7
07E
068
022
1D8
77E
7BF
02A
7E6
7FC
112
153
00F
732
64C
069
16F
032
064
7B0
7AC
16A
6FE
5EA
166
0BE
033
019
79A
77A
7AF
020
7FA
7BE
048
02A
141
0C0
7DA
1D9
1E6
110
0BB
133
08A
79B
0BE
004
79A
086
731
7A2
0DC
5B7
110
68B
1BF
067
748
7E4
7B1
697
763
096
106
004
176
7E2
7D3
726
05A
7CD
111
0FC
16B
100
7F8
7F2
091
01B
21D
01B
0EC
003
0C9
7E5
152
0D0
046
06D
7E4
014
08E
690
120
77A
7C7
14C
069
7C4
169
7D4
702
7A0
6F4
021
7B3
0CF
126
71E
730
789
0D7
5C8
06C
6BA
765
774
77F
101
005
69E
0E8
74D
0EE
7DF
70A
782
666
03A
21F
12A
7A5
0AA
012
0FF
11B
607
0D4
10C
7D5
7C8
112
70B
00B
6DB
7E6
015
772
7E9
77A
032
706
6CF
08A
092
702
069
07F
024
7AB
7BD
114
0C3
71E
062
747
772
784
6CE
04E
794
717
0E1
76E
036
184
71C
0DF
7AC
097
03F
7F9
095
02A
0EF
7AE
740
042
02D
05D
0F2
79D
68C
065
6EF
034
0EE
7E2
098
110
7DF
206
0C5
4F0
6D9
714
7AD
007
7F4
23B
029
042
0BD
019
16F
02E
0AE
146
7E7
7AD
041
761
0A2
1D5
1E4
041
7EB
675
7C2
155
06F
1C7
057
6D4
7C0
7F1
7FE
08E
08E
1B4
029
1AE
7D3
7B3
24D
084
67F
17F
0DC
695
71B
025
06D
115
168
0DC
7DD
0C6
203
122
172
7C2
776
6CA
0A7
7AD
7C5
6B5
258
7E9
0A3
142
7A5
18C
125
653
098
76D
0B1
710
0D8
754
06E
78B
056
73F
7B7
67F
022
6AD
115
7D5
795
049
005
757
050
635
787
775
113
7BA
15D
044
209
13E
750
0FF
0E0
7AE
0A9
03E
0E2
09C
14E
1B1
767
692
7B1
7DF
048
70F
7F6
0E4
653
0E0
7ED
091
16A
034
720
071
7C8
746
098
5A7
040
7C3
004
028
21C
76B
163
1F7
068
798
0CB
789
108
0F4
03C
636
0D7
145
119
72B
048
080
150
140
039
092
063
6FF
09C
060
788
0E4
1AB
7DC
0E3
043
042
16E
719
07B
1D1
03E
088
077
0BA
73A
08B
758
743
6F7
0AE
788
7F1
0CC
7DE
7D6
0F1
711
72A
7E7
6F6
705
7BE
70C
0D4
013
0C3
034
056
023
7FE
796
068
011
7AD
0AD
7AE
7C3
77E
014
077
18B
7E1
036
765
051
05A
050
178
13D
781
0A4
792
0AE
739
0CF
600
6F2
7AB
7E1
17B
1A2
040
553
7E4
021
78A
010
79A
0C9
15B
03B
02D
708
772
71A
05B
134
1EC
7BC
7C5
068
092
01C
0E5
09A
7B4
093
7D4
1A7
062
0F8
06E
17E
786
0C8
6F7
072
0CD
6B7
030
61F
7D1
6E7
1D2
7ED
73B
7A0
0F5
21A
134
02E
120
7A1
706
7D3
6FC
780
165
0F5
005
047
61C
7D3
112
7F9
6A4
1A7
775
22B
7D3
006
7F1
77A
04D
113
716
05E
7F2
0D9
133
79B
0D8
001
797
004
0B2
084
01B
005
7F0
098
209
0D8
786
098
01A
5B8
6A4
109
024
020
031
086
7D5
098
646
16A
7CF
7D4
08C
099
5B1
1BD
743
722
6CD
5DE
00B
013
094
0A3
05C
78A
7CC
203
693
74C
5AD
0AD
7EB
038
7D0
76B
73F
033
7D4
14D
0B8
787
01B
777
73C
0E1
08B
672
127
083
161
0DE
735
019
111
787
103
7A2
741
07B
0E4
014
7B4
10B
711
7D0
7CC
7CA
7D0
0CA
015
0DA
0F9
7CF
72D
776
0D9
0F1
7F8
72A
707
0C4
7AA
045
0E9
767
0E7
788
136
126
7EC
10C
04C
087
489
08D
6B6
7D5
5F9
0F8
796
79C
7CD
0E9
082
7C2
170
103
0F9
15E
704
7EC
154
088
0D6
144
69B
1BF
689
189
04D
1A6
091
049
764
0E6
693
794
7BD
088
77F
0EF
7EA
078
75D
080
79E
750
683
694
061
080
008
7CC
734
0A9
7DF
0A6
0A9
730
03C
76C
705
012
758
03A
01C
1AC
633
5F5
175
0BD
737
08F
1F4
7B6
7CD
76F
0A9
140
796
1D7
256
052
7E7
049
1AB
531
617
102
04B
7A8
008
0F3
025
006
0D7
764
7FC
7E8
02E
0ED
7D3
7B7
0A8
795
175
13D
155
0CE
19D
098
008
71B
025
12E
09D
0B3
6DA
0CB
6F5
703
7B6
718
1A1
7B9
0CD
179
784
226
7BD
6CD
106
5DE
6EC
160
305
764
220
0D7
772
6FA
69C
6DA
057
5D7
076
04F
73E
029
04D
713
0F8
7AE
7DB
0D2
04B
76F
7DD
0EC
159
183
794
04E
13D
756
7CE
133
147
185
010
107
015
78D
09F
1AA
169
7EF
7F0
05A
136
6E4
61E
03C
764
017
08E
125
620
77F
06F
112
1A1
094
780
0C7
732
7EC
757
77B
0DF
5BA
0EC
5E2
062
152
0BA
088
6C9
07B
058
76A
7F7
777
734
012
12E
674
0F0
07F
7E3
770
0F8
7C8
0C0
065
216
031
1C2
0DA
026
02C
75C
709
73E
0A7
041
627
04A
1B6
07E
226
093
7DE
0D2
734
096
027
047
761
7FB
0C6
75F
026
0E0
754
0B4
121
590
79E
064
7FF
13A
792
1AD
023
020
059
76B
041
793
01F
7D9
04C
04A
004
06F
7C4
08D
1BE
7AF
5BE
18A
7DD
01E
0B8
1A9
151
140
044
7B0
009
002
0D7
6E6
77F
01F
7A3
66E
06E
0D9
07D
74C
041
7C9
096
5B8
7B2
03C
181
71E
660
77C
08C
7A9
14D
01E
013
2CA
7D9
786
0D4
683
7D4
17B
1B3
01D
7E7
151
166
751
7B0
065
1B2
1B0
7C2
024
09B
052
728
02C
767
149
78C
6F1
131
116
764
004
0A5
0DE
669
058
033

