BDC0DC22
BE12CAA5
BCA1C0D5
3D9FFBE4
3DA5658A
3E84DB44
3EA75D8A
BEB18A59
BEA2F490
BDEE376D
3E03F52B
3E6E71C6
3E56F52F
BC3C2172
3D83E317
BE59FA97
3DE8568D
BE6E3D3D
BE3D3FA6
3DA49D12
3D970A94
BC618ACB
3E7B5FBA
3D1E02AE
3D96BB54
3DB912B7
3D0429DE
3DA3BD50
3D1E49FE
BE500CBF
3E4FC284
BCF33CC8
BC141F20
BE3CF9EB
3D842712
3DE92E7A
3E11F696
BE1CE0C8
3D5F3CFF
BC0AF57F
BDC361F2
3E1FCECC
BDDDFF39
BE9A1E64
BE4A7C5F
3DBB999A
3DC4AF72
3DC3E439
BDBAAD8B
3CA767BC
BDC3ADAF
3DE54872
3C291B6D
BE0FC50A
BDAB20ED
3E11039C
3DA4A5DE
3B1D7518
3D94E018
BE5AC3CA
3E1B2844
BDB85B8C
BDB34DDD
BCF0498D
3E34DD86
3E9D9A05
3A828169
3E437492
3E3F4B9A
BE3A3ABA
BE3DCDAF
BE146025
BDBA10C2
BE8F6CE7
3D50A285
BEC7C214
BE281817
3DF90122
3D61ACE8
3E106D88
BD1BD486
BD24BF58
3E944E04
BE6C0324
BDFBBBA9
3D6C57CA
BD52E0F0
3E86AB8C
BD8619EC
3C83E9A7
BCBDC36F
BF09E80D
BEE6D735
BE0FE66C
BE809F38
BD09E381
3D0B3A83
BED796D4
3F0D1FAA
3D9DE021
3E5EF0D8
3E602C65
3E62B52D
BDBD352E
BDC24CB0
3DED51F1
BD4F4CBE
3DE83155
BE5ED1EE
3D456F9B
3EAD866C
BE73F83D
BD717033
BC6DF7ED
3DDFB388
BDB6056C
3CA16AD5
BBE99B01
3E54B091
3E4D35DF
3DFE8A1E
BE86A358
BC9028F9
3C6B0F1A
3D18472F
BC469812
3E4E362E
3CF74702
3E0A2B83
BDDE209F
BE36FC19
3D27AE07
BE487549
3E6A582C
3E35E2C0
BD821D63
3D4AC20A
3BFC668A
BE49FA3F
3D763DD6
3DBD4E11
3D24AC45
3E11395A
BE0DB9A3
BE0CB082
BE219069
BE0F6D1E
3E03D1FB
BE031B9B
3D2E4AAD
3DFC415C
3E650350
3DCB6327
BD83D575
3C7A0D73
3DBC89CB
3CCD75B0
3DD0CCAE
3E53597F
3DF20BC2
BD49B77A
3ECCBC36
BCC6F704
BEAAA427
BEBFF967
BE06AFA0
BF11BAEB
3E89C83A
3EC2D64F
BE865009
3DB4BC09
BD52F54F
3E848F2E
BF1ECF5F
BE271F8B
3E978190
3EA81C72
BE13D870
BEED2A2B
BEADD66A
BDBFF7F7
BF10C93E
BCD62E8D
3D5C17D3
BEA4C4C9
BE089A9D
BEA4C2F2
3E995AEC
BF2FDC57
BF2C08C1
BC4E8E35
BE0C9C48
BE673578
BEEC6733
BD79EFDD
BDED6A28
3E888483
BEBB8CA6
3E027A57
BEB6D8A3
BE907FB2
BC6E892A
BEAF8AE8
3C8B8F4A
BE071375
3E151FE9
BCDC51ED
BDC9BF02
BE28EFDB
BDBF246B
3E2AF239
3E1D18C5
3E9E0480
3D722E03
3D1E3ACD
3DCB2A83
BD570938
3CB0AB65
BDAB5D10
3DFA8475
BE1A6E1A
3E5C2C0D
BECC33ED
3DB91C39
3C6DABA9
BE7D58D7
3EC82B3F
3DD8D941
3DF4FEA7
3E4F18FB
BCA31E0C
3E8B5AD6
BBEEC994
BD844ED1
BE88F641
BCFB651C
3DDFE88B
3E8855A5
BDDECB65
BCEF4C03
3D307048
BD84D7BB
BE424C67
3C870C2C
3C14B842
BCF57551
BDDBE508
3DB06F43
BD4B59B9
3E451F2A
3E06D198
3E435805
BE9F7772
BD354CAF
BEA510E7
3E466490
BD8E95B3
3EB9BFCF
BE21E688
BE85A0A6
BF149E42
3EC0B9D0
BF0E9520
BE8F60AE
3EE707BF
BED13967
3EC48334
3DA8B681
3DDB2D7D
BD3FFBB0
BE804724
3E1A1D2F
3F0D6FB6
3D367782
BE91A671
3D59426E
BF004C1C
BECDA789
BDF8AA2B
3E82C5AC
BCDE31E7
BE8B67DA
BCD6A1A3
3E5E7417
BE454195
BF2267F7
BEA63B96
BE57817A

