BD225D8D
BE291BAA
3C4ED697
3C9B98A8
3E6989FE
BE8413B0
3E9FF22D
3C90A7E1
BE174D64
BD374E76
BEFA8379
BF103AFA
3D94F768
3DE10B21
3E8AB36F
3E180C57
BDE84134
BEE30ECF
BC3C2172
BE500CBF
3DBB999A
BDB85B8C
3DF90122
BE0FE66C
3D456F9B
BC469812
3D24AC45
3DD0CCAE
BF1ECF5F
BF2C08C1
3E151FE9
3E5C2C0D
3E8855A5
BD354CAF
BD3FFBB0
BF2267F7
3C53EDC9
BDD3F02A
BE15CCB9
BDEE58B9
3CFA4A80
BCE73CA4
3C9E2DAC
BD8EEB28
3D764A29
BDF1BD4A
BF085390
BF0D9481
3D052353
3D06CE64
3D598029
3E0737B1
3E3C0EFF
BF026B76

