BDCF7BC3
3DD464BE
3DEB5A22
BDFF17F4
3E7AC596
BEE69312
BDB9A5ED
BD977530
3E814239
BCDA784B
3E373FF9
BD16673A
3E34996C
BC55A301
BBB73599
BDBB65D4
BDE8E18A
3E7D62A8
BEA2F490
3D96BB54
BDC361F2
3DA4A5DE
BDBA10C2
BD8619EC
BDC24CB0
3DFE8A1E
3D4AC20A
3DCB6327
3EC2D64F
BEA4C4C9
BE907FB2
BD570938
BBEEC994
BD4B59B9
3EE707BF
BCDE31E7
BEACA055
BD8E3CD5
BE80784F
BE472DD1
BEC61958
3E1DFB1E
BE66B41E
BDE54318
3DCC8DB5
3D0E8550
3C8CB2F3
3E274083
BE9B3D13
3E08B458
3DC818B3
3E4B8554
3F16CF9C
BE7E034E

