BE20482A
3E7A48A8
3E8A690F
BB6051E0
3EC16010
BE8C840C
BEA0BE59
BD5F9D42
3D31E2A3
BA8582AA
3F0E2A7C
BE5C6526
3E38B569
BDCB81B8
3DF9426B
BE009810
3E0F3480
3CAD2BD2
3E56F52F
3D1E49FE
BE4A7C5F
3E1B2844
BE281817
BEE6D735
BE5ED1EE
3D18472F
3DBD4E11
3CCD75B0
3E848F2E
BF2FDC57
BE071375
BE1A6E1A
3DDFE88B
BE9F7772
3DDB2D7D
BE454195
3F0A14C4
3CECD0C1
BE4395EB
BD442FE3
BE557EF5
BE548385
3EAFFB46
3CE1319C
3E55A158
3D1DB9F8
BE82CA2C
BE921820
3D217F80
BD50CDC3
BDA5C76A
BE945B1D
BD24C88B
BE892BC3

