3E011583
3E4D8D7F
3E0E4AC4
BCFC0A9C
3D626BB7
BD8F6ADC
3C5DA5D4
BD502D8E
3C995F49
BC23CCF3
BDAAB152
3CB58725
BE0317E6
3E19B014
3E441C9C
3B0A3A65
3E7C733C
BED9DA97
BCA1C0D5
BE3D3FA6
3D842712
BDC3ADAF
3A828169
3E944E04
3F0D1FAA
3DDFB388
BE36FC19
BE0F6D1E
BCC6F704
BEED2A2B
BD79EFDD
3E2AF239
3EC82B3F
BE424C67
BE21E688
BE91A671
3E08515B
BC184227
3E3ED452
BD2168D6
3E04055B
BDBE15A6
3DBFE4C3
3E0C9B2B
3C8C1D98
3DD4D8A2
BE0B85F6
3CBF3BA0
3DDF5AC4
BE4C5333
3DB7836B
BD9E5EB1
BE744DB5
BED9CD59

