3D500041
BC89314B
BD86442A
3DCCE77C
3E508BBB
BE3735AD
3C5E409E
3DE723AA
3D29C5BA
BE0D4BE7
3DB54DCA
BC8C9EA3
3EC78339
3D8DCC74
BE3D59D6
BD4E29FE
BC2F2060
BEB5466D
BEB18A59
3D1E02AE
BC0AF57F
3E11039C
BE146025
3E86AB8C
BDBD352E
3E4D35DF
BD821D63
3E650350
3E89C83A
3D5C17D3
BEB6D8A3
3DCB2A83
3E8B5AD6
3DB06F43
BE8F60AE
3E82C5AC
BEFA16C4
BE7484FC
BEB37E43
BEBF7C76
3EA3BD7C
3D0AB836
BE59461F
BDF09564
3D9C8CBC
BDBA8BCC
BC7510F1
3EA43230
BECC00BB
BED490DC
BDA5FC7E
BEAB4C93
BEC941FC
3E7EAA8F

