BD88F62C
BE65E998
BDD49D45
BE7A23C6
BDE2CF70
3EBB1F7C
3DE85903
BEEC0741
BED6D7BC
BEB2A5EC
3DB4A75C
3E85507A
BE548CAD
BEA20ADA
BF0D8148
BE9AD63D
3EDBCF36
3E42710C
3E6E71C6
3DA3BD50
BE9A1E64
BE5AC3CA
BEC7C214
BF09E80D
3DE83155
3C6B0F1A
3D763DD6
3DBC89CB
BD52F54F
3E995AEC
3C8B8F4A
3DFA8475
BCFB651C
3E435805
3DA8B681
3E5E7417
3E3F11D8
BE0BE4C6
BDDF7D8B
BCF13138
BD51CB82
BDB8D53C
BE4D4FC0
3DEAE457
3E212957
3DC0B5CC
3DA2D368
3E93A22E
3C688A15
3E0AAA06
3E25FF3A
BD15C2AD
BE498576
3E79ABE4

