BE90FE9A
BC105BC7
3E229813
3DE490AC
BD9B9E64
BD4D0B7D
BE06462B
3E00B8F2
3D4A5D82
3DC65066
BE25EDB5
BCADF2D4
3DF01EE0
3D501B10
3CD4EB61
3E149057
BE890244
BEC50012
3DA5658A
3D970A94
3E11F696
3C291B6D
3E3F4B9A
BDFBBBA9
3E5EF0D8
3CA16AD5
BE487549
BE031B9B
BEBFF967
BDBFF7F7
3E888483
3E9E0480
3DF4FEA7
3C14B842
BF149E42
BF004C1C
3E47307E
BEBD7E47
BE58D3D0
BE89042A
BF0A39E1
BD8947BE
3C8E26AE
BD18020E
BC9000F3
3D81C864
BF217886
BEF7F217
3E3BFFBC
3E273B55
3C38DF68
3D58DD28
BEC48E5B
BEE5E543

