BCC05916
BDE130BD
BE2FF5F7
BE1BAA50
BD196CBA
3CDC2BF7
BD4C6E5A
3E2145D4
3DB60677
BD81BD92
BCDBF4B9
BE92C42D
BDD82236
3DE341B9
BC80959E
3D6BFED0
3CCD43C4
BF5646C0
3D9FFBE4
3DA49D12
3DE92E7A
3DE54872
3E437492
BE6C0324
3D9DE021
BDB6056C
3D27AE07
3E03D1FB
BEAAA427
BEADD66A
BDED6A28
3E1D18C5
3DD8D941
3C870C2C
BE85A0A6
3D59426E
BEB15E2A
3D8ED8FB
BD5DB35A
3D0EA69D
BE53AEE0
3F06966B
BE3E3CBC
BD0DDFF2
3D2040FF
3D36517C
BF111B52
3E292621
BEE040B4
3D4FE5D5
3E063562
BDF64F06
BF2188EA
BD7994A2

