3E0FA2F0
BCAE2B8C
BE6179C0
BC44156E
3E0C8D5C
3D9C3A43
BE22E1EF
BB0B6523
3E10E38A
BE3D1DCD
3D2594AF
3DFB5B70
3E865C4F
BDB29995
BE8544DD
BD150225
3DCB2AF1
BD71EAFF
3DDE77D5
BDA5742E
BCB2F87B
BE873648
BC40F451
BD155F78
3E45757D
3D7280F1
3E737500
BE79C8C9
3D6DCA08
3D36D224
3D97C350
3E023D0C
3C4B89D7
3E348302
3E5E87D3
BEB7CB0C
3D05681F
3D705964
3CF967CB
BEABA7FC
BCFADF2F
3E3DE69B
3DDC254A
3E6C50CE
BCC6D3FA
3F06238E
3E90BF5D
BD5B6B2B
3DA58DDE
3EAF5E85
3E1A1AD6
3CF151E7
BB49B845
3E66C8B4
BE4F9336
BF15BB38
BD12DCB1
3DC89119
3D84AA54
3E0ED784
3E0A044B
BE0C243E
3E8D7471
3E2C28B3
BDCC4828
BDDD3997
3DB77E1C
BE5B1E5C
3D058256
3E69AE92
3E083233
BC3F2F55
3E442C3D
BE076A72
BD8FFFBD
3D2ED45F
3E05F4A1
BD805144
3DC3E6C5
BE6082CF
3C2400FC
BE5DA2F9
BE7A07B3
3E127393
BC7CDAB2
BDEA3055
BE05F916
3BD0A244
3E5D2D88
3E3DBB5A
BC882279
3E2775FB
3E2C58AC
3E0B62C7
BDC039AC
3E0CEAF2
3E4F60E1
3E2672B9
3E84D2D4
3D83992D
BE86DACB
3CF0FE04
BDD281FE
3E0AB580
BE49D6AE
BD6516DB
BE335FC4
BE174539
BB8BDA94
3DF77F28
3E06BE7B
BE88027E
BDCE8FB0
3D39D0A6
3DD675DE
BE547E8D
BE189B0F
3D5B0CCC
BCD4D1E9
BD1E2691
BE459A74
3F08ABA4
BE0FCC5C
BD0692F7
3D805A2D
BD5107FB
3D9FA1A1
3E4D4131
BCD104D5
BEFF620F
BE8BCEEA
3E650EBB
3DA2B1F7
3E0D4F59
BF01FC1A
BE92B453
BE5B8C76
3E9E974A
BB917508
3CC5803D
BE284274
3EA4F2D0
BDE9B307
BE648E47
BED615EC
BEA9A049
BDA9320E
BC96ACEB
3EDD0B52
BDAE4218
3E15592E
3D5A6A44
3E397A25
3E8B27CC
BE183DBC
BD97824D
3E37164C
3E8E1911
3D1A6E76
3E025FA6
BD8A3A4B
3EA16AAD
3E06FB8F
3E23443D
BCB3F20A
3EB00A5B
3DC43676
3E8815E4
BD5D53CE
3EF4DB16
3E352008
3C1B77C0
BD39181A
3E6BD1AB
BE01908E
BF09525D
3D551F82
3E958666
3E8526D9
3C84F6E0
BD966BE8
3E4DADFB
3D298351
3E1D2ED8
BD7CE421
3EA4A516
3DF67019
3E975E42
BF215193
BE5DF762
BD139863
BED543AF
3EAA671F
3E8166E0
BF505F39
BD79E27A
3E2D5992
3D214AD3
3F0F3E9A
3E129414
3EB36B2B
BE0521DE
BD06F7A1
BD58D478
BF28F627
BE8817DB
3E177964
BEFEDD05
3CFE6927
BEDD5A5C
3D2861E9
3E96DE12
BCEEC5B0
BDD6B442
BD87E62E
BE81C971
BCA28566
BE6B77C0
BDB31A8F
3E205C03
BE6A4617
3E48348F
3E0DFACA
3F0312C2
BF108BDB
BAE38A7E
3D8353F8
3ECC851B
BE18AF3E
3F01186E
3E9D35EB
BE34FACE
BEEB14A9
3E0D67FD
BF09D15F
BDEDF58C
3E12AA9F
BEB12381
3EC634DB
BBA27F1B
BE93DC48
3F0CB60F
3EAD0225
3DCCB74E
3D682624
3ECBB2FF
3EB56606
3EBF28E9
3E55F783
3E47FED2
BE7AA3AD
3EA8882F
BD014C66
3EA50AAA
BEF8D1FA
BB71F57B
BE3EE30D
BD7BB2FF
BE39B952
3DA4217D
BDEE34FC
BCF93BC1
BDAA10E0
BEA5BF6A
BE7BFC22
BE0E820E
3EA8BB4D
BE6EC3DB
3EC771A8
BE13FB7A
3E7009F6
3E6D8384
BE050332
3EAFCFA2
BDA46738
BF0C6013
BE634CA1
BE1DD4C7
BE6748A1
BE4C9214
BC9F72F7
3ECE3CDA
BC62CDC0
BD877143
BEF46089
3C772713
3F1A24AB
3E9F720D
3E0F53C5
BA202B84
3D57F844
BE8562E1
B926B93D
BE1A1D75
3E69014B
3EA3DFD2
3EE2DB40
3E98B60F
BE472FBA
BF00AAB9
BE8837B5
BE560B70
BDF933E3
3C625C81
3D7BF727
BB9D1F60
BE666949
3D2908A2
BE8C7F99
3CACEEE1
3C9B0037
3ECDE8D5
BE8BD2B7
3E130D30
B8F34507
BE4B9496
BC45FBF8
BE4697AF
BE3D8B1E
BE1067CF
3C27C17B
3CC4028E
3E8068FD
BE4BDB1A
BD9DAB5C
3EA9E796
BE7A860E
3E8505F3
BDD4B620
3EB0DF9C
3F1F93AB
3D695960
3CCB8173
3E21CAC1
BE09018E
BE36CDAF
3CF23034
3E5CCD10
3DA64DC2
BE8CB839
BBCF312B
3E48D6D4
3D5CD3E1
3E84A7D6
3E215619
3F133CE6
3D61198B
BD8EC41E
BD931F47
3E84DA2B
BE13BE66
3D526528
3E33DCCF
BDC9F490
BBFEB4A6
BE9E22E6
3E2910C3
3EA2E515
3D92D880
3CF0D62C
BE6C7150
BE16FB09
3D753719
3E0C8473
BDFC4A84
3EC69FF1
BE8D4131
3E67C2CA
3DB632C2
3EAC8649
3E6FE868
BD926BF8
BE6B3919
3E062175
BE0F3344
3B998D04
BDCE8640
3E17403E
BD6D490E
BEE114F5
BDDC5932
BDEAE4B0
3DB9A416
3E9D0269
3DE39DE5
3E0131EC
3E9DDF44
BE2AE579
BD35CD0C
BD44B2B7
BD624FEC
BCEE47DC
BD6B0100
3D0142F6
3DBF47FA
BDDEA140
3E186AD3
3DA72D1B
3D715F89
BE8F8CEB
BE7AD8A1
BDBBE4CD
BDC73B43
BD26DDF0
3E629ED4
3E030F8C
BCDA1017
BE18F084
3E5ACFB7
3DD3732A
BE044630
3E06D480
3DD41D08
3E560781
BD964B66
BDE7179C
3DE65CF6
BE277E1C
3E4A0FD4
BDC6687F
3E411FD6
BE264990
BD98DCDB
BE2DEB96
BE6409E5
BD783DFF
BEEF8EE3
3D912125
BCED97B3
3EC15E18
3E6F7985
BEECF377
BE5B0F6B
39D349BF
BDD77857
BE28DD1E
BE49578A
3DADFCE3
3EF2AF9B
BE295AF3
BCD54541
BD7C408E
BDD64389
3F083DEE
BE814B7B
3E90E5A3
BE34C09C
BED09204
3E9601BD
BE0FEA81
BC4C4695
BDF04BC2
3E44901D
3D54940C
3DA5D313
3E0E0008
3E1B71B9
BD171F36
BE0CAAB9
BD511383
BB25DF22
3E399418
BCC8DE2B
BDFC7E6B
BD80A7C6
3D884C6A
3E5BB342
BE15BD51
BE4DCC21
BE221EA3
BE65A188
BE8475E6
BCAB5808
3E8714FD
3C7D08D5
BE6C5BD1
3DF55CD9
BE2261BF
3D76A50D
3E1DFACA
3D5DD2AF
3CB5EFA6
BDDF8C22
3E09FB1E
3E5C2DF1
3E62E771
BEAA12D7
3E94AB1D
BE2A4ACF
3E2801F7
3DFAA2E4
3E9BAB43
BEFD6239
3C3AF102
3DF3B6CC
BDB143BF
BCDF47FA
BEE85DFB
3ECE9036
3D4E0A85
BE425C81
3E81C8C9
3DF5C8DA
3E07DBF5
BEDF3A15
BE7A836F
BE3A3C21
3E70DCFD
3F10AFD5
3EA53544
3ECCAB1D
3E985B18
BC48B439
3DF52114
BEB83B60
3EDA73F7
3ECD4E09
3DA0431C
3E0DDEBE
BEB46F37
3C8B9991
3E370B4A
3DFD3911
3DD157AC
3D09B952
3EEC58EF
BE014CA9
BD80D456
3D289332
BCCA01AC
BB7C0D2C
3E890FD8
3EA9CE29
3C781A58
BE4DB164
BED9A0CF
3DD3F291
3EB7CDEE
3D49E01E
3DC9E2BD
BD9FFA3C
BDA79CC7
3EB51B0D
BE80D9D7
BF056590
3EB3291C
3E3EC700
3D4C1B97
3CCD8341
BDCAD14A
BE05D6BF
BDA1A155
3D027957
BBB606B8
BD83A8E7
3D91800A
3D2AC96D
3EA08D8F
3E40E27E
BD15B036
3EECD595
3EF35BF7
3E885C89
3E3B78CD
3E99D063
3E0A6F82
BDC92817
3E3EDAA9
3B8E1D65
BDCBB342
3E064F12
BE4E76C9
BDBADF2F
3E5CD39E
BF122963
3E8832DB
BEBA1251
3EDFBAAA
3DCF8E7E
BE37F844
BCDEF848
BD9DBD30
BEB43611
BE1C7D1C
3E16CCE6
3E832BBB
3B8D6D3B
3EBB035C
BCE92D56
BD32C519
BE59552E
3DB52A84
BD4ADEEC
3E88AFC4
3E7C4B4D
3EB5DE16
3E801DE2
BBF28C7A
BC57CF5F
3E117F41
3CDAF07C
3F074FB5
3CDF394B
3E6C35CE
3B7483CB
3E491AFC
BCD5D1C4
3EA933E3
3E5057D1
3D8C1A05
3DDAE4F3
BCDC5F7C
3CA2F8BE
3E0EFBF4
BEB7FB48
3E90027E
BE0552A0
BD63F35A
3EA6616B
3DD3482C
BD6D1D04
3EB4853C
BD2C1D2A
BE7DA33C
BDBF47FA
BE859BA2
3D07820A
BD99FA98
3E4F4CF5
3E9335D2
BE61FEEB
BE4FA6DF
BDED2FE4
3E570974
BF0DE1B1
3DD92EA5
BEA2D5E0
BE1AF102
BE0B4741
BE0032DB
3E80B546
3BBD5561
BEB0FFB9
3E6835DF
BE32BB23
3E6EA9E7
BD03A861
BE75DB77
BDFB9842
BECCF462
3D6AB8A6
3F07C5CE
3E953261
BDB484D7
3E2A8651
3C90BE94
3E7F5C29
3E8DFDAC
BEFC54BD
3E54228A
3E863822
BD2AE297
BD5DB014
3E891B1E
BE74BFD3
3C372C52
BE923E5C
BCC8D3AE
3CAF8594
BE0DC1A4
BCB7CFE6
BE05F245
3D48EFFE
BE79AE0C
BE9849ED
3E0A059A
3E120C07
BE7D9F90
3DD227D0
3DFE18F0
3D12CF10
BDA81CB4
BD85DB77
3E8A28DD
3E439B89
BE61BC12
3DC489D2
BE38FA37
BE0D23D5
BDF607C4
BE988FA8
3D9D0D8D
BDD6EDEE
BE681345
3E61FB83
BE11BF7B
3D5B4BB6
3EC20CF2
BE6318B9
3E5FFD1E
BDA6783A
3E174363
3D7E835E
BBD78C43
3E15C1C6
3D29728A
3E6F340D
BDA3C6C9
BE3FB225
3D85931D
3D35E52A
3DBABA7C
3E72C387
BDC44849
BEB9C8A8
3DCA5BD9
BE881301
3D502470
3E6ED528
BCEB0FAE
3E18FB01
3E886B7B
BD017870
3F01BD40
3E45B1C8
BF43FFBD
BE930F06
BE6B35B1
BDA4B33E
3BE2DA55
BC339192
3F0EC97E
3D25FC7E
3D84C2F8
3E3D4DC6
3CCE0115
3EB7D417
3D3B2FEC
3E2E3609
3EA35F5F
BCC60ED8
BDA5F527
3D83369C
BE1EC52A
3E22F124
3EEAC0E8
3EF27829
3D8310DC
BCA29E90
BEC53826
BD7630A9
3EAA9F7B
3DDE6D59
3EE3AD3A
3DAF8E7E
BE95C183
BD7E32A0
BC6DBB5A
BABB9064
3E0EA78B
3E0E45C3
3EDA13A1
3D244D87
3ED77F06
BD339D1B
BD99146E
3F1345BF
3E04C448
BEC011B2
3EBF9229
3E5C1F00
BEB50FA6
BE6461B7
3D1692B4
3DDA68B2
3E8A83D3
3EB46E09
3E5C115E
BD09BF9C
3E467C28
3F00E23B
3E912EC7
3EB93858
BD774DE0
BE099392
BE9AB735
3E272A7C
BDA58DDE
BD6AE4B0
BEA519DF
3F161BB0
BCB51DEF
3E233765
3EA14A2C
BDB5B036
3EC61E2E
3E92EBA2
BED63F9A
3E1821F3
BE12888B
3E3172EF
BE6F78FF
3E582907
BE2BFE3B
3DDDE508
BDE8CCDE
3DACF6BE
BE40C77E
BD9171E3
BEC034B1
3D08919F
BEA938BD
3E8A8F5C
BD2B4528
BDD5B2D5
3D93E0BD
3BB6177F
BE285879
3DA10E02
BEE550CA
BDF1CC10
BE0A33BE
3E89BE6E
BD8A5269
3EAEC13C
3D896CC6
3F02582E
3E9F79A7
BE2F0564
3E7F4B62
3E60AFA3
BDA2D384
3E296463
3D7A96D5
3E6270B0
3E1C63F1
3EA7685A
3ED8EE8D
BE18201D
BEB6D699
BD9C6DA4
BD015A08
3D91A5CA
BE70F66A
BC1B8024
3E648DC1
BED645C3
3E60114D
BC9715C6
3E112E84
3EB5249E
3D521BC1
BE5F42FF
3DE24D4D
BD5D7BA6
BE393F6C
3E18E4B8
BF163886
3D8038A0
BD70307F
3B8661AE
3D2277C4
3F0712F5
BE140E9D
3EB18506
3EFBCD57
3DD16DB1
BDCEC28B
3E4B1AB1
BDEC5F39
3E8466D3
3E744C7B
3D72EDFE
BEE4B125
3E57E1B9
3EA285CB
3E8CC0DF
BE54CC68
3D919503
3E002A35
3EA805E6
3EA06BDF
3D650721
3E121709
3DC6F47B
BE8035BD
3E1C3DAB
3DC0F12C
BDEF3C2E
3E6476B0
3ED5CA4B
BD0D3AE7
3E639086
3D87A4A5
3D85D639
3EB731B1
BE6611BA
3DF7720D
3EE8EA3A
3D7BD7B2
3E08DC98
3DEEBD4D
3E3A4591
BE4537A0
3E0B8280
BE272086
BE3C2331
BE84430B
3E2E8965
BDEE4A7B
BC68C8AC
3E4C1F86
BD064BA9
BD27913F
3E712E84
BE6E93E2
BE55FD48
BCC23960
BE84A07F
BE7AF3E4
BD82730C
BE73C537
3E544F1A
3C981388
3E435D68
3D530CED
3DAC8366
3D0D716D
BAB34E77
BDD26D05
3DD05D96
3C8D477C
BDA5692B
3E2DEF41
BDA3E964
BD73F317
BE0155D6
3CA55F35
3DEF4278
3EC5972D
BCF39086
3D58E432
BE1A8E71
3DA3D35F
3DB44E51
3DA19546
3EBC2F1F
3E9EF955
BDFD50A9
3E24E593
BDDA49C3
3E2E596D
BE46B980
3E4FF477
BEFFD34E
BE86A2D3
BDA83E42
BCF1D81F
3EBDD5B2
3ED154A8
3D804D98
BF2B2EE0
BCDC486B
3D05CFEE
BDEAA540
3C842D8C
BDCA465A
3E49E775
3EADB09A
3D6CBD98
3D36848C
BE77FE4C
BE0D6BEC
BE659EA5
3DB7DE0D
3E9A50D7
3EF634FC
BD87296F
BD6AA194
3DD0D845
3E1248D8
3CE67F91
3E655D1C
3E1A0A96
BD97B9E0
3E137EB3
BD2ECD08
3ED3BC90
3DC4F2AE
3E7894C4
3DDC9A35
3EBF15A5
BDF28416
3E4895D1
BE843676
3DE4039B
3E4DD2AF
BEA4447C
3D4065B6
BEF05EE5
BD396D09
BE8C6994
3EE94C01
BC93F4AA
BE44FA48
BDBE97D0
3E75C811
3F0690DE
3E9A1D32
3D3A0B5F
3E903A97
BDBD1B2E
BE798A65
BD33604A
BE81F70E
BDFE414E
3EB2A0A9
3E759253
3BAEC8D6
3D8EBEE0
BEF1F666
BD319C5A
3E8967EC
BBDB0DD8
BEADDBFD
3ED3C48F
BE0A148C
3F0ACB75
BD30A4E3
3BD81ADF
BC6DFA44
BE057F30
3D9B1D0D
3E89A06A
BE69057D
3DBDCF03
BC573C92
3E59F905
3E999BB2
BDC91F2E
3E5898F6
3AF4D7AE
BDD1476B
3B85DB77
3E32220C
3E049668
3CD885D3
3BA84381
BC72FDB9
3E186FCE
3F025461
3E580065
BDF3E5FB
3E18FF32
3CD7B203
BF11C033
BEADB6A2
3E84E960
3D106FEF
3D036977
3D47CE96
3E06F113
BD2B0100
3E181F54
BEDC8B22
3EB54E90
BD422899
BD2FDFC2
3E0CB03A
3E1901D2
BF139757
3EDEDA66
BE3C0BDD
BE5D5065
BE9912FD
BF0872D2
3C343D8A
3C9B1FAC
3E149FD8
3E23C9AC
3DB975F3
BDEB6849
BD4DC769
3F00F3CB
BEB6683C
BE337C9A
BF148D19
3E2D0310
BCA1AF7D
3D614F05
BD3F2B24
BE14CD75
BE407AF2
3D4F7985
BD2D02CD
3EA6DEDB
3E38897F
BDF15D70
3CDEF1FE
BE083665
BE432980
3E61059F
3E0B21C4
BEC6E936
3E9384FD
3E03E682
3EB0DF59
3E5E7104
BE4A6D6A
3CCD9C6B
3E88F020
BDF01217
3E81CA5C
BDBB78CD
BE3E2DE8
3DF7AB32
3E644630
3CA3B14B
BD97C6FC
3E85CE18
BE6E00D2
BD3DD54E
BD4E5929
BD57720D
BD3DE1E3
3E4AE643
3CAC625F
3E5AD1D0
3E791FB4
BD40CF9E
BE52A023
BE09285B
3E5954EB
3E7153BD
BBF9A06A
BE55FE11
BE78ADEF
3E448D3B
BDAB54E3
3D8A37AC
3E695AF3
BE189119
3E676A2F
BDEE28ED
3E9B0D52
3E932229
BC9832FD
3E8665BF
3D99181A
3E079BBB
BF5D8A33
3E0D5DC4
BEA4ACF3
BD293294
BF01A76E
3E78854D
BDD26F1E
BDC76534
BD4969A1
3E691F71
3E0244A6
BD752A84
3EB857B0
3E81B131
3E79FC6E
3EAF08CC
BE7BAADE
BC9FE868
3EAA75AB
3E083C6D
3E561805
3EA2730C
BEB2276B
3EDFCD03
BEBB1056
3EC4B8BF
3D9B1855
3ED301EB
3E11BE6E
3D93F7CF
BE1B456B
3E66A982
BEB6043A
BDD77100
BD84A7B5
3E0816AD
BE00281C
3E6F7F4A
BCAF09D9
3DF05293
BE220E1F
3E00B0AF
BDC3137B
BE2F4906
BEBE11DC
BEB5AE60
3DC2DF0D
3E00B2C8
3C0AE74F
BD4F82F5
BE4B2BBB
3E29B025
BD03254E
3E2656EF
3E29F55A
BE4F722E
3D71C001
BE13FEE3
BE7A3162
3C964A5A
BE27BE12
3D6B2D0A
3CE30015
3ED64AE0
BEE63609
BF02B92C
3EBABABF
3E3D19DF
BE48C2A4
3E0FE79F
3EFA541E
BD928C7A
BD4B673C
BE10DAA1
3E295465
3EA032DB
BDD3EDD9
3EEBDC8C
3F15A283
3DA4F872
BCC0639D
3D932379
3ED597F6
BF339AAE
BEF464BB
3E812F0A
3D961134
BDAE99A6
3C00778A
3E738327
3D14C448
3BCF41F2
3E5739B0
BE1B1466
BB767B1C
BCBC1CE7
3D3BE985
3E6D24E1
BD30FADF
BD90BD01
3E287443
BDD5E5B0
3EBAB6F2
3E9EC99F
3EAAA865
3E4EA466
3ECEF805
3E187F88
3C06B9C3
BE640853
3D171E2A
3E975126
3E1DD15F
3E3382E4
BE92DA55
3E4B1290
BE8551F8
BE7CDAF5
BD92E0E3
BE674081
3ED083BA
BD8CC9A7
3E4DF86E
3EBC942D
BDF7EAA3
3F09AB5C
BD85A1CB
BE992147
3E836502
BF086131
BE89F44D
3EB06812
3F41744F
BE1B9C73
3F0801B4
3E5794A7
BE0D8A11
BE82B8E9
BEB1D6D0
BE92A7DF
3DAF355D
BF0A2531
3DED2568
3D9E8CCE
BE412514
3D27DED7
3D9AC4F8
BE6CCC8A
3E780B67
BDA30CAA
BD10B418
3E5217D3
3D975537
BE1079A3
BD0AD03E
3E6CBA73
3EAC87FD
3EC1DF33
BDD6E610
3D9C89F4
3E9EB8D8
BE29FE00
BD46F588
3E99F4B2
3EA38B26
3EC2DC4D
3C83DFF4
3E83B928
3CAD96A7
BDE4D014
3E1F5BE6
3ED50093
3EB4AC08
BC8112BA
BC791601
3DB5158C
3E9B17AD
BE8DE2AC
BEF09FA5
3D71A6D7
BE1BB8C3
3CBD9232
3E0E8E61
3E92F039
BEEFDAC7
BE00DF16
3DDEC893
3E8940FF
3ED0A223
3E14F15E
BDFE81CB
3E4759AB
BE4D4C34
BC986120
BE285AD5
BE0422CD
3E5F59CD
BF1172CD
3E6C63AE
BF0778DD
3DC4D3BF
3EA93598
3E3AC860
3E0814D7
BE9B1876
3DF78573
3DB106EE
BE151BD6
BC02A130
BE084E83
BE4B8E4C
3C95B142
3E973EAB
BEC5F84D
3E70902E
3DFFDBD3
BCE5C4EB
BE0FCBD5
3E78637C
BD5E41D5
3E40DAE4
3DCAA9F8
3F058BF8
3D47AE14
3EE15F24
3E5A82E8
3D1A35D6
3D324207
BE23A2E0
BE7670A0
BE41DD1A
3E279EE0
3D82773E
BEEC2EDC
3D940571
3EDB7E4E
3DFD4A5E
3F0991DE
3E134EFD
BD050481
3E52D98C
BE4B1034
3E16006D
3D1D755C
3D8F1887
BE1EFBB1
BB9CFDD2
3E46F007
BE20B7C3
3D1B5C7D
3E60029F
BE2BD48D
3E349D39
3E90A58B
BF1BE133
BDC3D2D8
3DC8DA7F
BA62C12B
3E9D5D3E
BDDBDAD7
3ED69446
3D0FE47A
3D01A7A0
3DB29670
BE1424E6
3D837260
BDD806F2
3CFFF79D
BD182CB2
3D9903A7
3D94BB5E
3B8FB00C
3DDE18F0
BD6F709B
3E0D9989
3EDF1DC5
BDA08180
BF1046E9
3EC50CC3
BD0B2746
3CF1971C
3E389870
3ED4D270
3EA885B2
3EA067CF
3D893E1D
BD9FE9FB
3C14C016
3B010A57
3E57210C
BE8CE033
BE00B8D0
3CFF4773
BDB948DC
BEC886E0
3DDC6FBD
3E59F7B6
3DFBEB9E
BE33F4ED
3D8237CE
BD5A0CF2
3E16C58F
BF11D7FE
BD9AF640
3D714DB6
3EC0E193
BE61C8A8
BECFDD66
BE035C9E
3E0C9470
BDADCEC0
3EA6E6DA
3CF6C8B4
3C982A99
3F328B3B
BD190C0B
BDF31C22
3E546349
BEBE40C8
BD2C5C14
3EBDDAAD
3ED9F3E9
3CEB56FC
BCC35CE2
3EA8EC96
3EB37E2C
BE2E95B8
BD9FBBD8
3DCBBD38
3ED93576
3ED80C74
BD74C7F3
3D117C5F
3E1BA9D2
3DA5D639
BE57CD03
3D33DC05
BE18B86B
3EA4E63A
BDE73366
BE877FAE
3E989396
3E8B2CE9
BE1BF9C6
3B8E7147
3E252B91
3E5E1F3A
BECB7BAF
3DB02BC7
3D4C8FFC

