7C
04
04
7D
76
7F
06
00
01
7E
6C
7E
7F
02
7B
02
00
7F
06
7E
78
77
06
78
7D
7E
6E
7F
00
77
7A
77
01
0A
7C
7B
76
05
7A
79
03
05
7B
0C
02
03
7E
00
7A
03
7A
0B
7D
7E
73
0D
7B
6E
7D
78
6C
03
7D
79
0B
01
05
0B
06
07
00
72
7A
7D
7B
7B
7A
0D
75
76
7B
10
06
0C
7F
77
00
02
7D
08
73
05
04
19
76
7D
7E
79
79
6B
7B
76
7B
78
76
7B
76
7E
7C
05
06
02
09
06
76
7E
7A
78
02
05
7D
7E
7C
7A
01
7B
7C
7F
0A
75
7C
7F
05
7A
05
02
04
79
7D
04
7F
07
05
02
78
07
76
7E
01
7A
01
71
01
01
01
77
73
6A
00
77
7E
0D
0B
04
03
7D
7D
0B
00
03
09
7F
01
7D
7E
7A
01
7F
78
75
7F
05
7B
7D
0E
74
6E
00
7F
08
6A
7B
05
7D
7B
08
7C
73
7E
7F
00
14
7B
00
10
10
07
11
7C
09
76
0E
06
00
00
03
09
00
78
7D
7E
75
00
07
0E
0A
6A
7E
01
73
01
01
03
02
0C
06
05
01
04
02
73
72
79
7F
06
70
7E
06
00
77
76
00
7E
03
7D
7A
7C
78
02
76
7B
08
7D
79
03
7C
05
7D
6F
04
06
7B
77
7B
05
7E
04
7A
7D
03
7E
04
7A
7A
03
07
02
05
04
05
72
76
05
79
03
73
71
00
05
0A
79
08
79
7D
02
0C
02
03
03
01
79
7F
09
04
7D
04
7C
7C
7C
7C
74
78
00
7E
00
79
76
7D
7B
7C
7A
0B
07
06
79
7E
7E
04
03
08
7B
7D
77
03
04
01
01
02
7A
7D
01
10
05
07
78
15
10
01
72
79
74
12
0B
7C
01
03
02
77
01
0A
79
7C
04
01
77
79
78
05
02
79
7A
13
7D
05
04
7E
05
7F
03
0C
7D
70
01
03
7B
76
78
0A
05
6B
01
7C
7B
00
04
7F
08
7B
7E
7B
00
7F
79
78
04
77
03
7A
7B
03
07
07
00
05
7F
7E
08
7B
01
00
7F
7E
04
01
01
7D
7E
00
09
7C
76
78
09
7C
06
02
7A
06
7D
05
7A
03
01
79
7B
10
78
7A
7F
05
6F
0B
76
04
78
04
71
7F
77
00
7B
72
79
78
7F
06
73
04
00
05
04
09
01
0F
7E
04
75
03
76
0C
79
01
07
03
08
7B
08
78
73
04
7F
7D
79
79
7E
78
03
7C
01
78
03
09
10
05
77
78
05
02
7D
08
0C
00
7A
00
02
7B
04
7D
05
01
7E
00
74
7E
0E
04
04
04
04
03
7A
01
02
7B
0B
08
76
11
77
16
00
0D
7E
00
7B
0D
75
7A
05
01
79
04
7E
02
01
7F
07
04
03
7D
07
79
02
7D
07
7C
75
0A
04
79
02
12
00
7E
76
7E
7F
02
78
0A
7D
7E
7F
0D
79
7B
7D
7C
75
79
02
05
7B
79
7F
7A
77
7A
7F
01
7C
02
0C
06
02
7F
04
03
02
04
02
00
02
04
7D
01
79
05
7D
7A
01
06
05
79
77
04
00
02
7B
04
06
7D
01
75
7A
79
07
7E
7A
00
7D
79
79
03
7A
03
70
7F
00
04
7F
78
0C
03
7A
78
02
7D
03
12
74
0A
02
01
76
05
72
08
01
7B
7E
7C
05
7D
7F
7D
01
7F
00
7E
04
7C
08
7D
72
7F
7B
7E
08
00
03
7B
7F
02
09
77
7B
7A
09
01
00
04
00
79
7B
02
00
7C
71
72
0E
77
03
79
09
07
01
79
07
7C
79
7E
73
79
7D
06
79
79
03
01
7F
76
00
76
04
7C
79
01
7B
04
79
09
7D
7A
07
02
05
7F
05
7B
7F
07
7F
07
08
7F
00
75
70
7B
01
6C
7C
04
01
01
7E
02
7F
03
00
06
03
0B
6A
04
01
7F
04
02
04
79
03
75
05
74
7F
7D
74
0A
74
71
7C
79
78
79
7E
03
77
7B
75
7E
01
7A
01
7A
7D
78
01
79
73
7E
00
7B
7B
79
77
04
78
06
79
77
7F
07
00
02
05
7D
03
6A
0B
00
01
06
04
01
7C
02
78
00
77
09
7A
03
65
08
78
00
78
7A
75
04
05
7C
00
06
03
01
0D
07
7D
08
05
75
7D
79
0C
0B
02
01
06
02
04
00
7E
7C
7E
79
06
7A
08
7D
01
0F
74
75
00
10
01
06
7E
79
05
05
0B
6B
09
73
00
06
03
06
04
77
77
03
79
7C
73
77
05
08
7A
7E
0E
06
05
05
08
7D
7F
74
7B
7E
01
05
04
7A
00
7F
09
01
07
77
01
07
79
7F
7C
01
7E
7B
78
01
06
77
6D
73
07
7A
02
79
7F
01
7E
01
7B
7E
06
7C
09
06
06
7C
7E
7D
7B
74
00
76
00
7B
73
7E
06
0F
00
78
07
03
79
01
02
78
04
78
77
7D
02
07
03
0D
03
05
03
0C
6B
07
78
03
6B
0C
77
7C
73
7A
03
03
07
06
7E
04
04
04
00
03
73
09
6D
05
7C
0B
01
08
08
7F
05
77
01
05
74
75
6A
05
7C
72
7D
01
0A
6A
78
01
7F
04
0B
7E
75
00
0C
0A
7B
15
7C
77
7A
7F
7E
0E
71
05
01
7B
7F
7F
08
0C
7B
75
7C
00
04
02
04
76
01
01
09
7A
05
0B
77
71
75
73
78
7F
79
7F
00
05
78
00
01
79
7D
0A
7A
7F
04
05
02
05
7B
75
01
04
7A
00
7B
7A
7D
77
7D
0A
02
07
73
01
7B
07
79
06
00
03
75
7E
79
7C
00
01
7D
79
79
04
03
7F
78
79
7A
00
7B
0E
02
7C
7A
0D
77
00
78
7B
77
08
02
7E
7C
7C
77
02
00
7F
76
7E
7A
04
79
7C
73
7F
7E
7A
05
06
07
7F
02
7F
05
7B
7A
07
03
05
6D
02
75
77
07
00
01
72
7A
78
7A
7E
03
75
0D
00
06
77
70
05
7E
04
76
7B
7F
17
03
04
16
02
7F
00
7C
7D
04
61
7D
7C
05
6F
69
11
0B
76
78
04
01
7C
6E
01
05
6B
11
02
05
7B
7E
03
7E
7C
7E
78
09
75
79
03
03
06
77
7E
7B
77
05
00
7E
7A
76
7F
78
75
04
79
03
05
7B
00
04
09
06
7B
7D
02
78
02
04
02
76
01
00
77
7A
76
09
04
7A
00
7C
0A
7C
69
06
00
7F
76
77
6F
05
73
71
79
17
01
6E
77
6F
15
1D
10
07
0A
7C
70
67
72
75
74
04
6D
05
75
76
02
24
75
7E
00
05
7B
5E
22
13
75
09
10
75
01
0D
04
00
03
7F
77
74
05
7E
02
78
01
03
0D
02
7E
03
7A
00
00
75
09
02
09
7F
7C
7F
08
0A
7C
04
74
01
04
7E
7B
75
7D
00
02
03
01
7F
76
75
7D
73
77
7F
7D
08
7F
7E
77
78
00
09
74
7C
06
04
0B
0E
00
71
7F
79
06
7E
0B
7A
76
06
7A
78
03
0E
0F
7D
7D
00
7F
05
77
79
77
78
04
00
77
7C
05
7C
7E
78
7C
08
03
78
7D
74
04
7F
0C
7D
02
7F
0A
7F
7C
7E
04
7A
04
77
00
76
7E
79
06
02
78
7B
7E
7A
09
03
7F
08
7F
07
7F
7A
04
04
7D
06
00
7F
06
00
7E
02
05
08
7E
7C
7F
7C
03
01
05
78
78
7B
03
10
67
6F
7F
0E
0D
07
7E
78
02
02
7F
03
7D
61
7F
05
09
06
00
0D
0E
79
78
05
03
7D
74
7C
7B
72
05
0E
04
72
05
08
78
7E
6D
7C
02
6D
73
77
09
7D
07
7F
77
08
04
00
7B
07
05
06
00
74
7A
01
03
7E
02
76
7D
0B
78
77
7C
08
7E
73
76
7B
05
7F
01
78
77
7B
05
7B
7D
7E
0B
72
77
73
7A
0B
7A
00
7D
7B
08
76
03
00
7E
74
0C
7E
0A
7B
7A
05
05
77
79
7A
06
03
79
00
75
7C
00
7A
0D
7D
0A
7D
00
79
05
7B
07
06
7D
01
06
7E
7B
00
7F
06
02
7C
02
78
76
7A
01
7F
02
7A
06
02
7F
76
7E
79
05
6F
02
02
04
7F
78
75
7C
7F
03
7F
7C
76
7B
79
7D
07
01
06
03
75
77
7A
0B
00
7D
01
08
09
78
76
7C
04
7F
7F
04
00
78
7A
03
07
03
7E
7A
04
7A
0B
78
10
71
0E
7D
00
06
7A
7D
70
04
7C
0C
75
79
11
76
78
7F
14
09
04
00
04
79
78
78
77
0B
06
0A
04
00
6E
05
75
7C
02
7B
09
0B
7D
03
7A
09
7B
74
01
00
0E
70
04
70
15
04
7B
7E
02
7C
77
7B
79
04
00
7A
0C
00
7B
7C
07
7D
04
74
0A
78
00
68
6F
05
07
01
05
7A
74
02
7C
7F
08
70
0A
11
00
7B
74
0F
7D
10
7F
7D
7A
0B
6B
0C
6B
03
79
04
05
7D
7F
06
01
75
7C
01
79
7A
05
06
7C
06
75
0B
77
0B
7C
06
7E
79
01
08
04
7A
05
7F
09
7C
01
08
76
78
77
7A
00
79
7F
04
77
7F
7B
0A
04
78
7A
10
7F
05
73
7C
7F
7A
7D
79
7C
05
74
73
79
08
79
7F
70
07
79
79
7B
10
05
02
7C
7D
06
7D
00
0D
08
78
68
06
01
78
7D
73
7D
7B
7A
07
04
79
01
03
7C
03
79
7F
7C
01
75
76
7F
7F
7C
7E
06
02
78
7F
7F
01
02
03
01
0A
78
07
7A
01
09
02
79
7F
7E
7C
7A
7B
7F
01
76
0A
77
7E
03
7B
7E
72
78
04
06
02
77
06
01
7F
74
08
04
09
7A
76
78
02
00
75
7A
03
7E
7A
7D
04
7A
0B
78
0B
7B
72
03
02
09
00
7C
7B
00
7E
7C
01
7E
04
7D
09
00
05
00
79
7E
77
78
6D
7F
7C
7B
78
0A
74
00
73
76
0B
0C
79
71
05
01
14
07
1F
05
0B
7D
77
75
61
0C
71
7C
6D
05
06
79
0C
0A
7C
12
00
7B
19
66
7B
13
6B
03
78
0A
01
7E
09
7C
7D
7B
7A
7D
7C
07
06
7F
07
02
04
6E
7B
76
77
00
03
01
79
00
00
77
09
02
09
7E
00
78
7D
79
00
79
06
77
00
79
78
76
7E
07
7F
75
7A
7F
02
02
7A
7D
7B
7C
72
7A
7C
79
78
13
5A
09
7A
68
08
0E
02
6B
00
77
03
1C
14
08
0B
7F
78
6E
6D
01
7F
7F
62
7E
76
72
0B
23
7C
0C
02
75
02
63
0F
13
7A
09
0E
00
00
0F
08
7D
05
01
04
7E
7E
07
7B
7C
00
03
05
03
05
7F
79
00
06
78
7A
08
03
05
7E
02
02
02
78
03
7F
00
79
7A
7A
70
08
05
7E
7E
7E
09
7C
7C
7D
7E
00
00
05
76
06
7D
7C
03
7E
00
05
7F
75
05
00
76
05
7C
04
00
00
79
7E
02
07
07
04
01
7B
7B
77
7E
75
76
79
01
7D
00
03
10
06
01
01
77
03
76
7E
7B
7B
09
03
00
7D
7A
7C
7E
7A
00
7B
79
7C
7C
74
02
01
78
7B
03
7C
78
02
79
04
0C
7C
01
02
77
77
7E
78
06
7C
01
75
7D
7A
74
01
0A
7E
06
7A
02
79
7A
0F
02
75
01
0D
7E
0E
07
07
00
01
04
03
03
79
03
05
7E
7F
79
7C
77
02
08
7A
00
7D
75
79
7F
7B
7D
02
0A
09
09
7C
04
07
7F
7E
7E
7D
7A
08
7E
7A
02
7A
09
72
7B
78
7B
7A
04
07
7B
7E
7E
07
01
02
0A
06
7E
07
0A
03
7D
07
70
77
06
78
0A
02
73
01
00
7A
7A
08
05
08
73
00
79
0A
7C
05
02
03
75
02
03
02
05
05
77
76
71
7D
7D
7D
7C
77
00
7C
76
0C
7B
7B
7E
05
7D
00
7B
79
00
06
7E
78
09
04
06
76
7B
00
02
04
78
06
7E
00
02
01
7D
0E
7B
03
05
77
01
0A
05
00
0F
77
08
7D
76
01
73
78
01
07
00
79
03
00
79
7B
72
7E
01
00
78
0F
7E
05
03
78
7B
7E
7B
77
7C
7C
7A
7D
02
73
04
0C
7F
00
7E
7E
04
00
7F
77
76
06
0A
77
04
01
04
75
08
02
7E
77
7E
04
79
04
7F
04
04
7A
79
05
7E
72
03
05
69
15
7E
7A
04
78
0E
15
7B
08
0D
05
7D
02
01
79
04
72
77
7D
7C
04
06
0A
7A
08
10
79
7B
0D
5E
71
03
75
7F
75
04
08
00
00
7A
6D
7A
04
09
6A
0C
71
0F
7C
00
6F
09
79
06
7C
7A
05
06
78
0D
7C
00
7C
07
7D
05
71
0F
7A
7F
5D
70
0A
06
7E
02
78
79
7A
78
0A
07
6E
0D
15
09
0B
76
11
7F
05
78
78
7A
02
7A
0A
70
7D
01
7E
7B
05
7B
03
04
78
04
7F
00
08
01
02
02
03
04
7D
7A
7A
06
03
7F
71
07
02
02
02
01
75
04
0B
00
03
76
05
75
02
05
7D
7E
0A
7A
7A
02
06
07
06
75
01
7E
6E
7B
01
03
78
77
6F
06
03
7D
7C
7B
0A
79
07
7B
01
00
05
01
06
77
00
05
7C
7D
7C
78
6F
03
05
00
02
0E
75
77
71
73
05
7A
0E
76
7E
78
02
01
01
7E
79
7B
7F
74
7F
04
7E
7D
7A
78
7C
7A
7E
02
04
03
08
06
0C
01
03
7F
02
7D
7F
00
7D
7C
79
7E
7F
0E
7F
7A
00
7D
79
7C
75
7A
79
7E
01
00
05
79
05
00
06
7B
0B
7F
7F
7F
01
07
7D
7A
04
78
7C
00
7D
7F
01
08
00
08
02
04
00
78
00
02
01
79
78
03
7E
7E
7C
06
7F
7A
08
7A
02
7D
7A
7B
7E
78
02
7D
04
74
00
0A
7C
7D
03
73
08
02
78
05
79
7A
0A
78
0B
7D
78
7C
7B
7A
78
08
7B
74
72
03
07
00
0D
7E
7B
02
7C
7E
05
74
79
01
00
00
79
08
03
7A
02
02
02
79
00
00
7D
7E
7F
7C
01
00
7E
73
03
09
7B
01
7D
7E
7E
00
7E
01
03
06
7F
7E
05
7F
7C
05
09
05
05
7F
7F
00
7B
7E
03
08
78
77
7D
00
00
79
7D
77
77
03
7D
7E
7E
02
7D
7D
74
0E
01
66
07
06
7C
72
77
79
03
08
7D
07
7D
01
78
05
79
01
7D
7B
77
7F
00
6F
10
02
01
03
78
79
0B
6C
7D
01
7C
03
03
7F
03
7F
0A
00
01
7B
05
7F
79
06
06
7E
02
01
7F
7B
79
07
00
03
72
6B
75
05
7F
7B
7E
0A
0A
02
04
09
0F
78
7D
7A
04
6C
04
7A
7A
79
7B
09
77
7F
02
7E
7C
7E
04
7A
7E
77
03
7F
7C
0A
02
01
7C
00
78
6D
08
7E
7F
01
78
7B
0B
09
01
05
01
7C
7F
75
7B
7D
7A
7E
04
7E
02
08
7F
03
05
01
7A
02
02
7C
7E
7F
7F
08
7C
03
00
02
00
79
75
02
78
7F
65
0C
6C
7F
71
77
6C
03
00
03
01
6D
02
09
79
01
01
78
78
7A
72
0C
76
10
74
05
61
70
0E
07
79
07
7E
73
6F
03
1A
0C
00
05
1C
0B
0D
77
15
02
08
01
7F
6F
08
75
7D
71
7B
7B
7E
77
05
0A
7D
07
79
7A
02
7C
03
7F
0A
7E
7D
7A
04
05
79
05
08
0B
01
72
04
00
78
7F
07
7D
77
7D
02
77
6F
00
79
7F
7C
7A
08
02
79
01
7E
03
03
00
7E
02
04
01
77
09
7E
09
05
78
00
7D
7D
03
08
00
07
7B
7D
00
7F
79
0A
02
78
79
7E
01
00
04
02
00
78
7D
07
01
77
02
02
00
77
00
01
7B
04
00
0B
08
07
03
75
76
7F
7B
03
0C
01
01
01
79
06
7C
7C
7A
01
04
01
7F
7D
7C
00
04
04
02
04
78
01
7E
7A
04
7E
03
7C
78
03
06
73
0F
02
7F
01
02
7D
04
7A
77
7D
02
01
7C
7C
0D
76
00
00
77
00
7B
77
7F
7E
77
7D
04
01
05
0D
76
02
06
02
05
79
71
72
04
7E
02
7C
7B
77
12
04
0F
04
7A
00
04
7F
00
7D
7E
16
7A
02
7F
15
76
6C
7C
04
64
1B
7B
04
00
79
11
0F
04
06
7D
02
7D
07
7B
6F
04
77
6F
7F
04
15
0A
7E
00
0D
05
04
7F
10
6A
73
78
7B
76
7A
7C
03
0B
78
7D
75
79
7E
7D
77
03
6F
0C
02
6F
7A
7A
7F
04
7B
6C
09
07
6F
7E
70
02
7F
0A
73
03
77
00
00
03
64
78
08
02
75
00
7E
71
01
7B
0D
7F
7A
05
10
11
76
7D
0B
79
02
05
7B
75
06
06
7E
08
7C
04
73
01
7E
07
02
6E
7D
04
73
79
75
05
09
7A
03
75
04
02
0B
03
6D
72
6E
07
75
6D
04
0D
6E
0D
0B
7F
05
04
0F
7D
0A
00
7B
7D
7D
7E
01
0B
7C
02
01
7E
79
01
75
02
77
02
7E
7B
75
7E
76
7C
79
77
04
08
05
03
79
04
04
7F
7B
75
76
06
03
72
00
04
79
03
0B
08
01
0B
06
7E
7A
7A
08
79
79
7B
7F
7D
7B
7B
00
06
7A
00
77
7F
7C
01
7A
01
04
78
6F
01
01
01
02
00
01
7F
7E
03
07
05
7A
7E
7B
76
7F
77
78
7D
7B
07
03
6E
7B
03
03
02
78
78
78
7F
7C
7E
06
6F
08
7A
05
73
00
0C
7F
0A
7D
02
77
03
7B
06
7A
7A
00
7E
7F
05
09
76
02
7C
7C
03
01
7E
77
79
03
77
7D
05
75
7C
01
00
09
7C
03
7B
7A
05
7A
79
02
79
01
7C
00
01
05
7D
02
7A
05
76
7F
7D
02
77
02
7C
7D
79
7A
7D
01
04
7D
79
7B
7B
74
7B
00
7D
7E
7C
02
7A
7B
78
06
7E
7F
7C
02
7F
7B
00
7E
05
7A
77
01
7D
04
02
00
03
00
7F
03
02
7E
78
04
08
02
04
05
01
7F
01
01
78
07
7E
06
7F
03
7F
7E
7C
06
7F
7F
79
7F
7C
04
00
7C
00
7D
73
06
04
04
7A
7F
7C
7E
76
04
7D
7A
00
01
02
7D
07
0B
6E
02
07
78
78
7C
7D
7B
7F
08
07
7F
03
7C
05
03
01
04
04
04
79
03
00
01
7D
03
08
7F
03
07
75
76
02
7D
07
79
7D
7F
03
03
05
01
7B
02
7E
7D
05
03
02
04
03
79
7C
79
04
04
7D
02
77
79
76
78
78
02
02
02
7F
06
02
7F
05
07
02
75
72
7F
7C
77
7C
01
05
01
79
04
04
01
09
01
7E
7B
01
77
05
01
02
04
7D
7F
01
79
63
7F
0C
78
05
79
00
07
7B
00
74
76
7E
01
74
66
03
79
77
01
79
02
04
7C
01
7A
79
7B
03
01
62
78
7A
7A
7B
7F
07
0A
01
7D
05
52
7D
00
0E
4B
0B
5E
19
7C
0E
67
7C
7D
78
7E
65
1E
0F
65
15
78
05
7C
01
7A
7F
6E
0A
7F
00
5F
6C
0A
04
7B
76
7D
66
01
74
1D
07
6F
02
34
0E
70
6F
7E
7E
09
7B
7C
7A
0A
00
03
6F
04
5B
04
08
7B
0A
7D
01
6E
02
0E
71
76
02
7E
00
78
02
7D
73
7D
7F
09
01
7F
7F
76
04
7E
0D
7C
76
7C
7F
7E
79
77
0B
00
79
00
7A
7C
7F
7A
01
03
04
03
79
77
78
7B
7A
7C
03
7E
04
04
7A
7B
00
7E
01
7E
7C
02
7C
02
7F
00
7D
09
0F
7A
79
7E
74
00
7B
7C
7C
7A
73
06
7B
7D
06
01
01
7C
7E
79
05
05
04
78
05
08
7D
6D
79
7B
7B
02
7A
78
77
78
01
6F
76
78
01
7F
77
76
78
7B
06
05
04
76
7E
7D
75
7C
6D
01
04
7A
74
02
04
09
0B
7E
06
7D
00
08
7F
01
01
06
01
01
76
7B
07
02
7B
02
06
79
09
05
02
03
75
7C
7F
7A
7A
7E
7B
03
02
7F
77
02
7B
7E
77
7A
74
08
74
77
04
01
7A
74
76
7A
7E
71
04
00
02
7E
78
7E
7C
04
7D
7C
76
03
05
7B
0E
70
7C
01
76
00
79
06
7D
72
78
7B
7B
7C
01
06
00
07
02
04
7A
79
00
00
7E
7D
7E
7B
05
76
07
08
01
06
7B
10
7A
02
03
02
7A
09
78
00
07
02
79
09
74
7D
00
7B
03
04
7E
7A
07
7A
0A
79
76
79
7B
7A
7D
07
7A
78
0A
0F
7E
79
7B
7B
7B
01
74
78
01
6F
09
03
05
04
7D
7B
05
77
08
00
7A
04
00
01
04
05
06
04
00
01
6D
03
7D
7A
7D
7A
7B
79
0A
79
7B
7E
05
02
05
7C
7C
7D
6B
76
00
02
7C
03
79
7B
7B
7D
7A
01
7E
71
7B
7D
7F
74
7E
00
7C
01
02
08
77
78
01
0B
7B
0B
04
78
64
06
03
7C
72
79
7C
05
7D
01
7D
00
7F
04
7F
00
73
01
73
03
7D
07
7B
02
07
07
04
01
04
03
7D
6A
7E
7E
00
6E
6C
02
02
7A
76
77
7D
06
02
03
7E
06
06
6F
79
07
00
7A
07
00
7D
7D
00
7F
02
78
7F
08
7C
7D
75
00
75
08
03
79
03
7F
7D
7D
71
05
05
05
7F
76
79
75
01
74
04
0D
0A
05
7F
0A
02
01
06
09
79
7F
02
02
6E
09
09
06
02
02
76
73
6F
03
79
76
79
0C
06
07
72
7F
6E
09
79
06
7D
77
72
72
76
79
00
02
7C
78
75
7D
06
7C
75
72
76
0C
7A
02
77
7D
0C
79
00
7F
03
08
0B
7B
05
7B
01
7C
04
00
74
01
0C
7D
7B
02
0B
0B
7D
7A
7C
76
05
7C
78
7D
05
02
04
06
7D
7A
78
7E
06
7A
05
78
77
00
70
05
05
03
7B
7F
04
7D
79
03
08
75
7B
04
75
7B
7F
7B
01
7B
73
75
01
78
05
03
08
03
76
79
78
11
02
7B
78
76
7C
7F
7C
7D
11
03
05
6F
0A
79
12
7F
7A
7E
7F
7C
78
05
05
7F
73
0C
07
71
69
7B
78
0F
02
02
7B
02
06
74
0A
10
7E
08
03
7C
76
7A
05
00
12
6B
05
01
14
0D
02
0A
05
05
00
00
7D
00
16
09
6C
03
01
05
7C
7D
79
05
7D
01
0B
06
76
02
05
7D
0A
7B
08
05
7D
7E
7E
7E
77
76
7C
7C
04
06
03
07
78
76
7F
0F
7E
7C
76
70
7E
7E
7E
77
02
7C
07
79
78
01
05
76
06
7C
00
78
01
76
7F
7A
00
78
79
05
07
7E
04
77
01
79
01
78
00
7D
7C
78
00
77
77
03
03
06
77
7E
06
09
7D
75
7C
06
7B
01
7C
01
04
03
04
08
7E
7A
09
03
7D
02
06
03
7A
00
78
7D
7B
7F
04
7D
03
79
00
79
7E
03
7D
00
02
02
0C
04
7E
04
02
7E
7D
7B
6E
01
05
7A
7A
03
01
01
05
04
7D
02
7F
01
01
08
07
03
7B
06
01
05
0A
7A
7E
7B
7C
7C
16
74
77
7C
14
7A
7D
69
79
00
03
77
76
03
05
63
7E
71
78
07
04
04
04
74
03
0E
03
6D
6D
75
7A
75
67
7A
05
7A
7B
03
77
74
0D
01
7B
7E
00
0B
01
79
7F
05
11
05
7B
0C
0A
00
70
0B
01
7A
7C
04
07
06
6B
73
09
7B
7F
04
03
07
72
6D
75
7F
04
0D
75
77
7E
02
75
7F
15
0A
7A
68
02
71
09
6A
77
01
0C
7C
7B
6F
04
05
73
7E
08
7A
7E
7B
77
75
71
7C
00
7A
75
7F
0D
72
76
78
78
7C
71
74
75
0D
00
14
77
70
7F
7E
7C
74
76
04
08
6E
7D
0A
7C
0C
7F
09
7D
03
02
79
7E
7E
02
7D
7E
7C
04
7E
05
04
01
0B
7F
7C
7A
7E
7F
02
77
04
02
06
03
7E
0A
03
02
77
05
7B
00
7D
79
79
02
04
0A
7C
7D
03
02
02
06
73
06
7F
00
05
79
0A
7A
6D
78
7B
05
79
03
7D
06
7A
06
71
79
7F
00
7C
7F
7F
00
6F
00
02
79
7C
7E
7F
7B
7F
7E
09
7B
6D
7E
77
75
77
75
7E
05
76
03
06
7A
01
05
0E
7D
7C
01
04
7A
0C
06
04
7C
07
7F
0B
7B
75
06
7E
02
05
01
7F
03
74
05
76
79
04
7B
7E
00
04
04
01
03
07
01
06
7E
03
7E
09
77
03
09
7A
06
03
08
7F
02
08
01
04
7F
77
00
0A
00
05
7F
03
7F
7B
7F
00
7B
7F
7D
7B
00
03
03
72
00
03
06
03
7A
7D
01
01
7A
79
0A
7F
7E
7F
7A
08
00
01
00
7E
07
00
7D
06
02
7C
01
76
04
79
79
01
01
0E
7F
01
08
04
6B
03
07
7F
6E
05
01
01
76
02
03
7B
74
0B
04
06
7D
05
02
7D
73
78
6D
7F
7C
07
7C
7E
11
09
7C
7B
09
0D
6B
6B
72
7B
05
6A
6E
71
02
7F
78
03
02
7D
7D
01
7A
03
7C
7D
79
7D
05
77
03
01
01
7D
7F
05
02
7E
7C
02
00
00
76
79
7E
7B
7A
07
79
01
07
03
04
05
06
07
7A
7B
7D
7A
7C
71
0B
7C
01
00
7C
05
7B
7F
08
01
71
02
06
7E
7F
7F
7B
05
7D
77
05
75
71
08
08
02
78
0F
0D
03
7B
72
03
05
01
0A
7B
7B
02
03
7B
78
01
7F
7D
73
01
6B
7F
7D
72
7E
77
08
7A
67
7E
04
0E
6E
01
70
13
10
76
74
02
7C
74
7E
03
06
74
07
15
0E
78
79
0A
09
0F
6D
7A
7D
06
7F
6B
7F
07
05
0C
03
01
09
6F
78
11
6C
0B
0D
7A
0C
7C
08
01
74
03
78
0B
01
7C
07
11
74
7D
7E
7B
01
77
7D
05
01
78
70
03
7C
03
01
08
00
7C
7B
7D
0A
7C
79
79
7B
7C
02
72
78
0F
05
03
74
00
79
06
7D
7A
7D
7E
09
01
79
79
03
77
7D
05
7E
02
79
79
77
04
7E
79
7E
00
76
12
7C
7D
04
79
00
6F
76
72
7B
06
7D
7E
7E
75
03
0A
77
71
79
0A
07
03
08
06
7A
07
0D
0D
00
05
05
76
78
00
00
13
7C
75
01
07
7C
10
73
01
7A
05
02
07
7D
75
04
08
05
78
05
08
04
75
63
09
7E
00
7F
6B
66
78
03
02
03
0C
06
00
7E
04
6D
0A
02
7D
7C
78
0C
03
75
02
01
0C
7F
7B
05
07
7D
06
75
6F
7A
7D
04
00
7A
77
6E
07
7F
03
7E
03
06
7A
79
7E
0B
7B
7B
6C
78
7E
7A
73
7D
0A
7A
09
01
75
77
07
01
02
7C
7A
0A
03
79
00
79
7C
7E
05
7E
08
7B
09
74
06
01
7F
7A
04
77
09
7A
01
04
7B
04
7A
06
79
01
03
05
03
04
01
02
00
7C
7D
79
78
02
06
0A
01
7D
06
7D
08
72
7E
04
01
7F
04
7E
00
7C
7F
0F
7B
70
11
72
77
03
72
7A
7A
01
05
60
7B
78
7E
04
78
7E
71
01
08
0E
78
6D
04
73
72
78
6A
7C
07
6F
09
13
78
7D
7E
08
7F
06
0D
01
74
7D
7E
01
10
7E
70
0E
08
7E
7C
00
01
7F
04
79
06
06
77
77
07
01
00
08
04
7F
72
79
00
07
00
07
7E
7B
00
0B
79
01
0B
7F
03
76
74
74
03
7C
00
7D
06
02
76
79
7A
02
76
7F
76
78
73
7A
00
76
7B
7E
08
7D
03
01
05
7C
71
02
7C
07
79
7A
76
0A
7A
11
7C
7D
0B
76
7D
6E
71
7B
07
74
07
01
77
08
76
7A
04
01
0A
79
74
7F
79
79
00
06
04
7D
7A
07
77
02
7B
00
00
77
7D
7B
78
10
00
75
7D
7D
06
00
7F
00
77
73
04
02
04
0A
01
05
09
7C
76
01
78
7A
05
7D
02
7D
7D
75
7A
01
7D
04
04
7C
7E
04
01
03
7E
79
7C
01
70
04
7E
02
01
7F
00
70
7F
78
7A
78
04
7D
0E
07
75
13
00
7B
08
7A
6A
03
7C
77
0A
7A
0A
02
76
06
7A
03
7E
04
01
00
05
79
7E
7A
03
7F
7E
08
08
70
05
6C
03
02
7F
03
02
70
08
76
7F
06
78
00
72
7E
78
79
0F
05
7D
7D
74
77
00
77
7B
79
06
75
0C
0C
7F
7F
7F
08
04
78
05
01
7B
0E
00
00
01
08
78
05
03
00
7D
7E
7E
03
01
00
7E
71
7F
01
78
07
04
04
07
09
76
00
04
0F
7B
04
77
74
76
09
7E
78
7F
7B
09
79
7C
7E
03
78
78
7D
7D
03
01
05
7E
00
0D
7D
75
01
09
05
03
05
71
01
7E
7B
06
01
6E
00
0D
7F
79
07
06
03
71
74
7E
78
7C
02
79
00
03
09
0B
05
77
08
7F
6B
79
75
03
78
72
74
7A
00
75
05
01
7A
09
09
01
08
01
08
7C
06
03
7D
7F
01
07
73
7A
05
7A
7D
7E
04
0D
03
02
02
7A
00
01
0A
00
7A
7B
09
7C
7D
01
79
04
7A
09
00
02
74
7B
7E
73
7F
7D
0F
7B
03
7C
03
75
01
05
7E
0B
7F
74
7A
06
02
00
7B
74
78
01
7A
01
04
0A
0E
73
00
7E
0D
7C
02
7B
72
7D
01
7F
03
08
7D
07
77
76
05
00
7C
75
7F
77
07
05
6D
03
7A
09
65
0C
77
03
0F
0D
7D
0E
79
05
04
05
00
6F
11
10
01
7A
7A
09
7E
10
74
0C
72
7B
01
7B
0D
04
09
14
7B
6A
16
7B
71
04
71
01
0A
0D
75
6F
14
01
7C
03
78
0B
00
7C
73
09
72
04
7C
00
04
02
7E
00
01
0A
75
03
76
7A
7B
7E
7C
76
7A
7B
0E
79
7B
7D
7C
03
05
71
7A
08
01
04
7D
73
01
0A
01
0A
7C
7E
7C
02
72
7E
7B
14
74
00
7A
0C
79
02
79
08
77
01
02
08
7D
00
02
07
03
7B
05
7C
01
7B
75
0A
03
04
7B
6E
7E
03
0C
01
05
08
7C
7C
0C
00
74
06
11
7E
07
00
0A
03
7C
78
04
00
7E
79
7F
04
03
0A
7C
08
03
04
7F
04
02
6F
79
7F
7D
01
03
06
7D
0A
76
06
7E
79
7F
73
02
7C
08
7E
00
7B
79
02
78
09
76
05
7A
7D
78
70
04
04
09
7D
77
79
06
02
04
7B
7A
08
01
74
7C
7E
7D
02
01
09
71
7B
79
06
7F
73
78
7B
01
7D
0C
79
03
7E
78
77
00
75
03
0B
76
06
03
77
06
00
78
0F
00
05
78
76
00
7C
01
07
04
02
05
06
05
7B
7B
05
02
7C
7F
7E
75
78
05
7E
06
78
01
03
00
07
7D
03
7D
7F
06
75
7F
7E
07
08
00
7D
04
7D
7E
0B
7C
08
00
7C
79
74
0C
7A
01
03
01
77
7F
01
00
76
78
07
03
74
7F
7D
7D
03
08
79
6B
06
7A
02
7C
7A
7C
03
02
7B
0C
7D
79
03
7E
73
02
78
7B
02
7B
03
01
03
7C
00
04
79
04
7C
02
03
7C
7B
7D
0F
04
75
7E
07
02
01
01
77
7E
76
01
03
7F
7E
70
7D
78
7C
02
04
05
77
7E
00
09
7D
7E
03
77
7E
00
7F
02
09
00
7F
7F
77
7F
7E
7F
7B
7E
7B
77
7E
7D
79
04
78
06
7A
07
78
0A
71
0C
7A
03
76
04
79
01
7E
78
75
78
75
07
7A
7F
7F
04
7C
7F
04
7A
09
0A
03
6F
7B
04
09
05
7E
7C
7E
08
75
7B
78
03
02
76
76
08
7D
7E
7C
16
07
0E
7F
0B
6E
7F
78
7B
77
03
77
79
03
06
7D
67
7B
75
08
05
7E
0D
6D
05
7E
0D
00
0E
77
7A
78
04
7D
7F
03
74
7C
0C
06
7B
7F
7E
7B
74
7F
09
7E
01
09
05
7A
7E
06
74
74
7F
01
79
08
7E
0C
03
75
79
03
02
02
06
7F
7E
7A
74
7C
0C
79
0B
7D
00
04
09
7B
77
0C
08
7C
78
70
7A
7E
75
02
7D
7F
01
05
72
7E
7F
79
5F
0B
69
7C
79
7F
7E
00
7B
7D
7E
79
10
01
79
05
7F
7D
74
7F
71
00
6C
02
6B
04
70
79
05
0A
02
05
79
73
04
70
10
07
75
0C
16
03
7B
73
04
7F
02
7E
02
78
04
02
01
79
7C
07
7A
7C
04
72
79
78
7C
08
74
79
01
7B
7A
01
09
7D
0B
05
00
7F
76
03
01
7A
01
7E
04
7F
6D
0D
09
04
06
00
0D
7C
7E
00
74
05
7A
01
7D
06
6C
7D
03
7F
03
11
6B
7C
77
7B
7C
03
77
6F
75
07
07
03
7F
0A
0A
72
7F
0E
7D
04
76
68
6E
05
0B
00
04
73
73
09
0C
05
78
0B
04
04
76
74
07
78
04
7F
77
7C
77
74
05
76
03
0D
78
0B
7E
7A
77
7C
67
76
09
00
06
01
02
13
09
0F
7F
15
7E
05
00
77
74
75
0A
0E
78
04
78
02
7F
15
7C
7D
06
69
05
79
0D
01
7C
7E
78
06
01
7F
07
08
05
0A
03
7E
05
78
04
02
02
7F
75
00
7F
76
7E
04
09
7A
03
06
07
78
7B
04
7E
79
7B
79
79
7F
7C
01
7E
79
00
03
7E
02
7F
7C
7F
02
0C
79
01
79
0E
0F
01
76
01
73
02
01
7B
06
78
0C
7D
72
11
03
04
00
02
7D
7B
02
7A
77
6A
04
16
01
11
02
0B
04
02
7B
08
03
62
7C
7A
7D
73
03
01
78
79
79
06
7A
78
02
7A
7D
7F
7F
7A
78
7B
7E
7B
05
7A
0A
05
02
72
79
74
7D
09
00
09
7D
05
78
10
78
7B
03
78
77
7B
75
05
03
7E
01
7B
72
04
04
7E
7B
00
02
02
75
76
7D
02
09
77
06
76
07
00
7E
7C
03
05
7D
7F
78
79
7F
08
06
01
7D
78
02
02
01
7E
7D
79
01
7C
7E
01
03
7F
03
01
7B
06
78
7E
02
78
7D
01
02
01
7F
03
7C
79
7C
02
7C
73
06
7A
02
04
7D
7E
03
7A
0B
04
7A
6F
71
78
02
6B
7F
7D
7E
7C
0E
02
7D
79
79
04
6F
07
6F
02
7D
78
73
00
75
75
0B
7E
0A
79
03
6C
69
01
01
7D
7E
7A
7C
04
00
7F
08
73
7B
7C
05
7E
06
00
0B
04
7F
7E
05
7A
7D
0A
76
77
6D
73
7C
02
05
01
08
7D
01
00
00
03
06
7B
7D
01
72
76
7A
77
08
06
00
00
03
03
05
00
07
03
03
79
03
7E
6F
0A
05
01
77
7F
79
09
03
03
0B
7F
7E
03
7F
7E
0B
78
64
6C
7E
04
00
09
7E
07
0D
7C
76
0C
75
03
06
7A
0A
04
04
79
7B
01
79
77
7C
7C
74
02
7B
7E
7F
7F
07
06
7B
01
00
06
7C
07
7B
7B
02
71
7D
00
79
7C
7C
7A
78
7F
06
01
05
06
7A
77
7E
7F
7B
05
7A
78
77
00
7E
73
05
07
7C
7B
7D
00
7C
02
7D
7F
7D
07
72
02
0D
03
78
7E
78
7F
01
7F
03
79
76
7E
78
01
7F
03
7A
05
01
05
79
06
0A
78
02
7F
04
03
08
7E
07
00
02
08
7A
04
7A
04
02
7D
03
08
05
00
7B
0A
04
7D
71
76
72
0D
7D
01
0A
7A
7C
0F
02
79
7D
6A
78
75
76
78
77
07
6F
07
05
07
0D
7E
7A
01
72
01
02
7A
6F
77
7A
0B
74
72
7E
0E
06
74
7A
0D
03
7E
01
13
7B
7D
05
09
71
09
75
7C
7C
78
77
06
05
7D
7E
70
78
76
7F
7F
09
05
75
07
78
02
7B
0B
72
79
73
05
02
0A
73
7C
73
04
01
7F
7F
02
7A
73
7A
08
78
7A
71
06
71
01
79
67
66
7F
01
7F
0F
05
0D
02
7E
04
77
7B
76
06
73
6E
7E
7A
03
03
03
13
02
7C
7A
7A
73
7B
1B
7B
76
79
74
7A
74
71
10
11
7C
7D
05
6E
7B
78
0F
63
0E
6B
0E
73
01
7A
7F
04
74
00
74
13
0A
6A
03
78
7C
6E
00
78
7C
6A
75
77
05
68
79
04
0B
77
79
7B
66
14
6B
0B
02
78
07
18
0F
6D
72
0B
77
77
05
7A
7D
75
07
7C
00
05
0B
7D
7F
7A
79
7D
78
0A
0C
63
7E
79
7C
7E
75
7D
78
00
02
03
7C
6D
00
73
72
71
7D
78
7C
77
03
1C
7A
02
02
0E
04
7D
07
71
78
79
03
7E
7A
75
7E
7F
77
04
06
65
09
77
05
7C
6C
6C
78
02
6D
14
03
7E
0E
08
72
02
11
7E
7E
69
69
59
7E
73
08
7C
77
64
0C
18
0A
78
7F
0F
74
7B
0C
09
04
7C
02
7E
0B
70
6F
7F
7F
02
07
01
7D
04
75
7F
77
7B
03
7E
03
0E
7F
7E
0B
0B
74
02
08
02
06
74
71
72
01
01
04
7C
00
7B
04
06
0F
7C
7C
13
6E
79
0C
0D
76
7C
7F
79
78
7A
7D
7B
03
7E
0E
03
72
7E
01
01
01
7C
7E
77
7C
01
7B
02
7C
7D
7D
03
02
08
02
00
0B
74
77
7B
7B
05
06
00
00
06
77
09
7A
09
00
7B
7C
7D
78
04
7F
7A
03
06
02
01
7E
7B
71
7F
78
7C
0C
7D
08
7D
02
00
7F
76
7A
00
78
7D
7B
06
79
03
7B
0B
05
03
79
7B
7D
04
7B
07
02
79
70
00
01
6E
08
03
79
79
75
7E
78
00
7E
04
7A
05
7C
09
7F
7B
7D
7B
06
00
7B
7C
02
05
75
04
7B
00
78
00
75
08
01
00
7C
04
0C
7A
7E
7C
7B
77
07
7C
08
05
75
07
02
7F
01
03
05
79
75
03
79
02
7F
08
7F
7D
01
78
79
06
77
04
03
04
01
7C
02
7F
07
79
00
01
7A
79
05
7D
71
7F
7C
03
03
0A
02
01
7B
7C
7C
01
7B
78
77
7E
08
73
7D
72
79
05
7C
78
03
79
04
03
77
05
00
03
73
77
0B
79
07
00
02
7D
7C
00
7E
07
7B
0C
02
02
76
77
0A
01
02
03
01
77
01
07
78
7F
08
03
0B
03
7C
77
03
7E
7E
7F
7B
7B
78
01
02
78
75
08
06
7F
79
6A
69
01
04
7D
11
7D
03
7C
0A
07
77
7A
00
0F
6C
64
6F
7E
77
03
7C
07
7E
7B
79
7E
6E
03
13
7A
77
78
78
03
03
77
11
10
7B
05
04
7E
7F
7A
0E
7B
77
6D
12
6D
73
0B
76
79
7F
7D
0B
15
09
7A
0F
71
03
7E
6C
5E
08
6C
7B
04
78
79
16
07
6D
7D
73
06
02
13
63
71
6F
72
7A
00
7E
08
06
7C
79
7C
04
7A
7B
06
7E
7F
7D
02
71
7D
14
01
0A
7B
7E
77
02
05
73
7B
7C
03
7B
7E
77
7D
03
03
00
01
03
02
06
71
7F
7A
07
7D
77
76
7D
7F
02
76
02
05
73
07
7F
7C
78
00
7B
7F
07
06
75
7B
04
72
08
7A
7D
03
7E
78
05
02
74
0C
03
04
7F
07
79
03
09
7D
01
7D
7E
7A
12
7B
04
77
00
74
07
12
06
7E
7D
7E
04
05
0E
7A
01
7D
7F
7F
72
7B
0B
79
77
6F
7A
7D
7B
78
7D
7F
00
01
14
74
76
76
7E
77
78
7B
7C
7A
79
03
03
72
0A
7F
0A
77
72
7B
0B
72
06
06
0E
0A
02
7F
08
0D
0D
03
03
76
7A
7C
0B
73
7C
7F
0D
70
0C
77
06
79
0A
04
07
00
02
72
0B
77
7F
7A
7B
04
7C
6E
7D
03
7D
77
03
7C
00
05
72
04
00
06
7E
09
7A
77
00
03
04
78
77
07
03
7C
76
01
7E
79
03
7F
7E
74
09
76
06
04
7E
02
7A
79
08
77
78
7D
05
06
7B
7A
08
7F
08
0C
01
00
7B
04
00
79
7C
04
7D
6B
04
0F
00
02
05
03
04
7E
01
7D
01
7B
06
04
77
77
08
04
7C
6A
78
74
08
02
15
02
00
72
01
0D
73
7A
00
04
6E
70
79
7B
7D
0C
05
01
7C
7E
07
6F
72
7F
0E
6A
7A
76
08
7D
04
7B
0E
04
76
0D
77
7B
76
76
06
7B
03
05
01
01
00
05
73
7E
7B
78
04
0A
7F
7A
7E
04
01
02
7A
76
00
00
7B
04
04
74
08
02
78
06
7D
00
7F
7A
7D
79
6F
04
05
02
00
7F
09
79
7C
07
02
00
7E
08
70
79
01
00
00
10
6A
00
66
00
02
03
03
03
06
0C
79
7F
04
78
78
00
7C
76
00
7D
06
7F
6F
0F
13
7A
79
08
7C
7C
73
01
7D
01
73
7E
05
76
7A
77
78
01
06
7E
00
7D
06
71
00
07
7A
7F
00
7E
07
13
03
7F
12
7F
7E
06
79
78
02
6A
76
7A
7F
7B
00
7A
00
06
7E
7B
7F
0F
78
79
03
73
05
7B
05
03
0F
7F
00
02
7C
02
01
74
7F
78
7D
73
0E
77
76
78
06
7C
04
05
7C
6F
06
7D
02
7C
76
05
7B
77
7E
01
7E
78
79
76
00
02
77
79
02
00
01
7F
7C
01
7D
05
00
7B
79
7D
77
04
76
00
05
7E
7E
08
7E
78
04
00
7E
7C
79
07
7D
71
6E
0C
02
7A
78
7A
7A
7C
7C
0A
05
7E
7F
04
02
0A
76
76
7A
05
09
77
00
7B
02
08
09
7A
73
03
6F
0C
02
08
7B
7A
08
7F
00
01
05
7C
02
01
7C
00
02
00
00
05
70
04
0C
02
78
76
79
04
00
7A
04
78
05
04
05
79
7A
02
08
06
7F
0C
76
01
01
71
79
75
76
03
7E
0B
04
0A
04
7C
7D
01
7F
74
66
7E
70
0A
04
02
08
79
7C
7B
72
0E
71
07
7F
06
79
7A
07
05
7F
7A
03
0D
04
7A
00
7C
7D
77
7D
07
77
6B
0C
03
02
5F
73
77
79
06
7A
7C
7B
02
08
75
05
78
07
79
7B
74
03
01
01
00
77
02
06
04
7B
00
03
04
76
7A
76
72
08
05
7A
76
7B
02
0C
6F
72
78
7F
78
02
07
7C
01
0C
08
01
04
7E
02
03
74
00
78
74
78
7A
7D
7C
72
04
76
02
7D
7E
01
05
03
06
73
79
77
02
7D
7B
7B
0A
06
0B
09
7C
77
0A
7F
79
7F
7F
77
0B
71
07
00
7A
0D
7A
0A
7E
01
06
07
7C
7D
79
78
7B
75
00
7D
79
79
03
7C
09
00
08
78
04
00
03
02
03
7E
01
01
7E
7E
02
7F
0A
02
05
7F
7F
03
04
76
7D
04
07
7C
7A
00
7F
79
03
08
01
02
02
7F
7E
76
7D
7A
74
01
05
03
78
7E
79
6F
0B
04
05
04
74
01
08
71
6E
77
79
7E
78
6F
7C
0D
7D
0F
00
73
08
04
7F
68
76
7E
06
67
04
04
04
0A
76
02
03
7D
7B
7D
77
12
7F
7E
03
04
65
76
01
0E
08
15
74
7E
7D
7C
04
12
78
0C
0A
02
7D
04
05
08
05
7F
76
79
05
07
17
72
78
09
0F
05
79
09
00
7B
72
7D
79
04
69
7C
06
79
02
03
00
7C
78
03
7D
0D
7A
72
01
02
77
02
02
7D
01
7D
03
70
7B
74
04
02
6E
7D
76
04
7D
0A
7F
7D
0A
7D
78
7E
71
7D
06
6D
07
05
7A
12
00
05
01
00
06
7A
00
75
7A
77
0C
75
7B
7E
05
7A
09
02
02
7A
01
7F
06
01
03
6F
03
02
7C
01
02
7E
7C
7B
05
06
78
70
02
78
7F
76
74
00
04
05
7B
00
7D
70
7E
0C
78
0B
0D
0C
00
7F
06
7F
78
7E
01
00
79
76
7F
76
7B
7E
77
7A
76
01
10
71
7B
79
02
73
72
01
01
08
7E
0A
01
72
7B
7E
01
69
74
77
02
6E
0D
0D
7D
0A
02
0F
05
03
03
01
01
7B
7A
01
02
7A
04
04
00
7E
7E
6F
0D
77
03
02
78
7B
05
0A
7A
7D
7E
7F
75
7D
00
7F
09
08
7F
7E
74
02
7E
6A
7C
01
08
79
03
0F
03
7F
7F
77
08
05
7A
09
7E
77
01
78
08
00
01
00
06
7D
08
7A
71
7F
79
04
06
7D
00
00
04
01
7C
06
78
02
78
07
02
07
03
7F
05
01
70
02
78
05
7F
00
07
03
67
05
05
75
08
7A
7C
77
03
06
02
7E
03
0A
7C
03
06
7C
03
7D
6B
78
62
79
03
7E
02
7C
09
7E
7E
07
75
00
7C
03
77
03
7D
05
01
7E
76
04
7E
77
7C
05
04
7B
6F
08
7F
74
7D
71
01
6A
7E
01
7D
78
0B
06
71
7F
0D
03
06
11
07
7E
7E
00
11
07
6E
17
06
0E
74
09
09
09
07
70
07
77
02
0F
7E
6D
06
13
05
02
09
0B
73
6F
02
70
7D
71
77
06
05
05
7F
73
77
7B
04
7B
06
7D
7E
7D
02
73
6C
7E
79
04
79
7D
0D
6E
00
7B
7B
04
75
7B
79
79
07
05
7B
78
78
7E
0A
00
75
01
78
00
00
03
78
00
00
7F
08
76
03
79
01
0B
7A
7E
13
79
06
0C
09
14
74
6A
00
7C
01
7C
7A
76
7B
07
72
6D
77
7E
19
04
06
70
7F
0C
79
08
79
7D
7D
78
03
02
03
6B
79
7A
07
79
0E
01
7C
7F
6C
0A
01
7A
7C
7E
7B
06
00
01
74
7B
04
04
7A
7C
78
77
04
02
0B
75
77
03
7A
73
7E
03
00
05
00
06
7D
00
7A
72
78
02
03
7D
7D
7E
00
7F
0A
7E
78
07
00
02
06
7A
7A
05
7C
79
08
04
79
02
09
7C
72
79
0D
06
0B
78
7D
71
7D
09
7A
6F
79
06
11
7D
02
7A
7E
05
7A
07
78
01
07
7A
7A
79
7D
79
74
7A
04
77
0D
75
7E
7A
74
0D
7F
77
00
06
7F
71
04
02
7E
7E
01
72
03
03
7E
05
77
7D
79
04
03
0C
02
05
75
76
7B
7B
05
00
7D
7D
79
79
05
79
05
77
7F
7E
7A
00
09
75
08
7B
7D
07
77
07
03
7F
7A
02
7C
05
01
7C
7C
7E
01
7D
7E
79
7E
03
72
7A
09
76
71
7B
7E
75
7B
7D
77
12
06
0B
05
02
05
01
01
71
6E
78
09
6E
7F
7F
79
09
7A
01
07
02
09
77
7B
79
01
7B
0D
7B
7F
7C
00
01
04
7C
08
04
7E
05
03
01
7D
02
02
7A
7A
02
03
00
79
05
06
01
03
06
07
06
08
7D
02
03
79
01
00
79
7D
79
00
05
7D
01
78
00
7E
74
05
06
71
78
0A
78
74
73
00
72
01
00
7D
7E
74
7E
13
6D
73
7E
05
7B
6D
70
73
0B
7F
08
7B
73
02
02
03
66
71
01
03
67
05
15
7F
0A
02
0E
09
07
06
01
7D
04
01
7B
00
7F
02
02
03
00
0B
07
01
01
79
7C
00
7F
79
01
09
05
7F
06
7C
00
7A
7E
7E
7D
01
03
7F
76
08
0A
04
7B
76
7F
7E
04
76
7D
7E
74
04
7B
79
74
78
01
7C
79
7B
03
79
78
04
72
76
7F
79
7B
78
00
7D
08
07
7D
02
04
7D
7D
77
73
73
01
77
02
00
76
06
76
07
7C
74
77
0C
03
7B
08
77
03
01
06
05
00
0B
7A
74
02
7B
79
7F
11
7E
06
77
06
02
0E
71
04
76
02
73
02
08
01
74
7B
7D
7D
7F
07
7D
0E
74
00
7C
05
06
02
05
74
76
05
7B
7B
7F
03
05
0A
7B
04
7F
03
0B
77
7F
02
7B
7A
7D
06
03
7F
72
04
7C
05
79
7F
79
01
77
09
0C
6D
73
6C
77
7A
7D
76
05
08
78
00
78
72
06
07
73
7A
71
7A
07
78
76
01
7A
09
7B
09
7D
06
04
77
78
70
7E
7F
01
71
06
01
79
7B
7F
75
01
06
09
7E
01
6B
7A
0D
02
05
76
01
02
0A
06
78
0F
05
03
00
7B
07
05
7D
02
03
7F
73
0A
03
07
7C
04
7E
07
7E
77
11
7C
77
7F
7D
77
00
0C
04
75
08
03
76
74
7C
7D
01
76
71
05
06
71
03
77
7D
02
05
78
0B
03
79
00
02
04
05
73
74
04
01
7C
7D
06
7D
03
07
79
7E
02
7A
01
75
77
00
7B
7E
0A
7D
02
03
06
01
06
77
7E
7A
7B
03
7E
77
6F
79
7B
01
77
05
77
09
71
7F
7E
05
03
03
00
7B
7B
00
02
7B
73
04
0B
7A
01
79
04
70
7B
7A
79
03
02
07
04
7E
7F
07
09
01
6F
09
7B
08
01
77
70
79
7E
7B
75
17
04
11
05
7A
12
04
79
7D
7E
69
7C
0E
79
0C
0E
05
1F
78
69
0B
7C
77
0C
7E
7A
7D
78
03
05
7B
79
7C
7B
03
7D
01
0A
04
04
04
01
7C
77
7E
6D
7F
7C
00
0E
02
77
06
7C
73
7C
78
01
02
78
7D
02
01
7B
05
05
72
7F
00
75
00
03
10
7B
00
07
07
0B
7C
00
75
04
75
06
7F
10
74
7F
07
02
14
0B
74
04
00
0B
7E
12
72
6A
0A
73
6D
7E
0D
16
0C
0F
76
0B
12
7B
0C
0B
78
6C
00
04
7B
08
7A
7C
71
73
7C
02
6E
7F
7B
6C
00
05
02
02
01
01
05
08
02
08
6E
7D
79
73
7C
78
04
7C
06
13
6F
00
02
77
7D
6B
74
6D
7D
79
08
7C
75
00
00
05
7A
72
7F
08
05
79
0F
77
7F
05
7E
17
09
0B
76
79
72
02
7E
17
70
69
7E
11
02
0A
66
0E
7E
0C
7B
02
71
69
0E
7A
6D
77
0A
14
0C
7A
7B
0A
11
00
04
07
78
7B
75
7D
79
0E
73
7D
72
7C
75
7E
77
7C
74
73
0A
7C
05
06
7E
03
06
00
0A
05
7A
08
0B
7D
04
7F
7A
7C
03
03
00
01
04
78
7D
05
05
03
02
7C
7D
79
03
08
7D
7E
02
7F
04
75
03
7C
7F
7E
02
03
09
79
79
07
75
7B
02
79
7A
7A
08
74
7E
6F
05
02
07
7B
04
78
01
6D
07
7F
72
79
73
7D
72
07
7D
07
0D
75
03
7C
6D
04
79
71
00
7E
7A
79
7C
77
03
01
0F
74
0C
70
07
02
77
76
14
7E
7A
04
0B
02
06
7E
09
7A
0A
7E
7F
78
7B
76
78
75
7A
09
01
01
06
13
0F
07
7C
7A
7D
7E
7F
72
7F
01
05
05
7F
7F
01
02
76
08
7F
03
01
70
01
79
0B
7F
78
06
05
77
00
09
73
7B
01
01
03
05
7F
02
78
7A
06
7F
02
79
7A
00
76
7B
01
09
02
7C
01
78
76
06
0B
09
7C
7D
7B
7C
03
7A
05
03
7F
7F
7E
01
7E
7D
7F
7C
03
00
7E
77
07
04
7A
7D
07
05
07
7D
79
73
03
7E
04
08
03
04
0E
03
0B
7C
77
6F
03
7E
7B
79
7A
02
7A
0C
07
05
03
7C
08
7B
0A
7B
7B
7A
06
7E
0A
08
74
03
7F
7D
7C
7E
02
72
74
08
06
77
7A
05
03
79
02
00
08
06
06
7B
7C
02
7B
7C
00
7A
7D
00
7D
78
7D
7B
7B
07
7D
7E
00
00
0A
75
02
7E
7E
78
01
7C
01
02
7B
01
06
04
79
02
05
02
02
7F
7A
76
02
73
7A
79
7B
02
09
7F
7A
7B
73
76
7D
77
01
03
7C
6F
01
7C
00
0A
07
7B
7E
7A
05
7C
7C
7F
02
00
02
03
7D
01
7A
7E
79
03
76
04
00
03
7D
0B
7D
7F
76
0B
75
79
7A
05
01
01
02
00
76
03
7E
02
08
7F
03
01
7A
7F
00
04
7F
7B
04
7A
78
77
02
00
7A
05
7E
7B
76
05
71
08
7B
6E
04
77
04
79
03
13
72
04
79
09
00
79
0A
7F
78
7C
77
09
0C
7D
02
0E
08
02
09
08
01
0B
78
79
05
7D
7C
7E
7F
01
04
00
7B
05
05
7F
7D
0C
78
7D
06
7A
09
09
16
7C
05
7D
03
01
07
78
79
7F
0D
05
0D
00
05
78
77
72
0E
03
05
76
7B
78
7F
06
08
05
06
7B
00
7F
7C
07
7D
72
75
02
77
75
7E
78
06
05
0B
7B
17
6F
78
07
7D
7C
6F
7C
7A
7E
72
04
7E
02
06
0F
75
0E
05
02
7D
79
7A
6D
7F
79
01
78
01
02
01
75
05
0B
7D
02
7B
78
7B
7F
7A
08
7B
00
78
0C
7F
08
7E
02
09
7A
7A
09
07
78
02
00
7B
77
05
07
02
6B
04
78
01
04
03
5F
00
6F
7E
10
07
02
07
7E
7D
7C
7C
76
7C
77
74
7C
7C
75
00
08
02
12
00
7D
01
7D
03
10
79
06
01
7A
06
09
06
76
05
02
7B
0D
09
7F
05
07
03
08
06
7D
02
71
7C
72
7D
00
01
00
01
79
7A
03
03
78
09
7E
05
7E
79
77
7D
05
04
04
78
77
06
01
7E
00
02
03
07
6F
71
7F
7B
7F
00
79
7F
7B
79
7E
08
73
09
08
7C
05
78
77
05
7C
72
6C
7A
00
13
7B
78
0A
0F
0E
06
10
76
79
04
7B
7D
74
0E
0E
7F
6C
79
15
74
12
79
02
7D
75
02
75
7E
03
76
05
7E
0C
7C
7C
7B
0E
7A
7B
09
04
02
06
7A
03
08
01
02
0C
07
01
7B
74
72
70
76
03
03
7D
78
7B
00
06
01
79
7D
0B
06
72
06
7E
74
7E
01
7E
01
07
03
7C
05
06
00
7D
7F
03
7E
7A
04
02
00
75
7E
01
02
02
06
7C
77
7A
7C
04
02
04
05
09
03
72
07
07
01
00
01
7A
03
7F
00
7D
02
07
7A
7D
04
04
7B
06
07
79
7C
7A
7E
00
02
08
7C
13
00
00
78
00
78
7A
04
04
78
7A
7E
0B
7F
02
78
7E
7F
79
7E
04
02
7B
7D
7F
06
7F
01
12
02
72
05
75
7F
0F
0B
7A
7F
0F
00
0C
76
7B
78
03
73
7D
7B
06
6B
7E
73
06
03
0D
7C
05
00
0C
02
08
79
7A
79
08
01
78
77
01
7D
70
7C
04
7E
78
76
7C
79
79
7B
7A
03
07
04
7D
02
7A
77
7F
7E
7A
7D
71
08
78
0D
7A
7E
09
7C
7B
7B
07
64
7F
7B
7D
06
7D
7E
0D
08
7F
02
0B
7D
7C
0A
7A
79
7D
70
7E
0B
7E
07
06
00
7F
11
74
7F
11
01
02
69
74
79
03
70
00
09
7F
04
00
09
7A
7E
05
0E
02
7F
0D
02
77
05
75
78
78
79
74
05
77
7B
7B
72
04
71
06
02
09
06
7A
01
7B
7D
7D
09
74
02
75
03
78
08
71
75
7E
03
7B
01
02
7F
75
79
7E
7E
00
04
7F
7C
00
76
01
06
07
01
7D
7A
71
76
04
03
08
0A
7E
15
04
01
02
03
71
7A
04
00
7D
7B
05
6E
00
7F
06
77
0B
09
7D
07
00
7E
7A
06
78
00
0B
02
7A
7A
7E
7D
02
7F
79
7D
09
72
7F
01
05
7D
7D
00
7D
03
7C
00
05
7C
7C
7D
76
74
05
77
00
79
04
7E
7C
00
00
7D
78
7B
09
01
6C
7D
03
79
05
0E
79
04
7E
09
03
0D
7D
02
77
04
02
01
00
72
70
08
02
7E
7C
01
00
04
00
01
7A
79
00
77
77
79
79
78
7D
7E
7D
01
00
02
01
77
76
05
0D
76
00
7B
05
04
00
7F
01
09
06
78
7D
6D
01
05
02
77
03
04
02
74
02
7C
0C
02
08
02
03
70
04
09
7E
7B
7C
07
7C
76
01
74
08
01
02
00
04
7D
7F
79
77
02
06
7F
7D
78
00
77
0F
7A
06
0A
73
19
7D
6D
7E
03
0E
75
10
03
12
70
7B
74
7E
04
7F
03
0A
7B
7E
7D
0C
03
00
0F
75
79
74
7E
73
7D
7C
0D
0B
04
0D
09
79
00
03
0A
07
73
75
6B
15
7E
01
7F
7E
7C
77
79
01
03
02
7E
0B
75
09
01
00
05
7A
04
7C
01
7D
0A
07
7C
03
6B
01
7E
7F
78
08
07
7E
06
79
76
0B
06
78
79
71
02
00
7C
76
04
71
7E
01
09
78
03
06
79
04
69
02
78
01
73
7C
7B
70
13
0F
6A
00
78
03
04
12
72
74
00
6A
10
7D
05
06
0D
00
12
13
02
7B
77
01
5F
75
7C
09
7B
79
6E
13
13
7F
00
7E
0B
76
7A
06
75
7C
7E
7D
02
02
7C
75
01
7C
7F
08
79
0B
04
73
7C
77
7D
05
11
7E
0D
02
73
7B
7F
70
79
05
7B
7F
78
0C
79
0A
07
07
7E
0E
04
7C
07
04
7D
05
03
72
06
0E
7F
00
76
7A
00
7F
7C
7F
06
06
07
09
72
7B
79
09
7A
77
76
7D
0A
7B
07
04
01
04
7E
7A
7D
05
02
7B
04
01
7D
02
7A
7B
02
05
08
06
08
07
7B
00
79
03
79
00
06
78
78
00
01
7E
7A
07
04
7C
7D
78
79
07
7D
7D
05
7C
7B
7D
0B
7A
09
7A
02
7A
03
76
02
08
7E
02
7F
7D
7C
0C
78
05
05
01
7B
03
09
06
02
7D
76
06
7D
7E
7C
7A
76
7E
05
7F
7C
76
78
04
06
04
7F
00
01
00
7F
75
03
7F
02
7D
04
7A
7B
7D
00
77
7D
02
79
02
02
00
01
02
78
7C
7B
7A
04
7B
04
06
01
02
7E
79
7C
05
7C
03
07
7F
02
77
03
03
05
7B
7F
76
03
79
75
02
7C
05
7B
02
07
01
00
77
79
79
03
04
06
78
7D
7A
7E
06
06
06
7E
7B
7C
01
05
00
77
78
01
7E
70
7D
01
7E
7E
7D
73
04
7F
09
79
05
74
04
7D
08
77
7C
7F
08
02
04
05
02
79
04
02
77
08
01
7E
76
75
04
03
7E
78
7E
7B
7C
0C
07
7D
7D
0B
02
04
06
72
04
7E
01
72
7B
7F
7D
66
00
02
7D
6C
05
7C
02
7F
06
7E
09
7A
06
00
08
7B
78
0E
01
08
79
00
00
05
00
7C
07
74
7B
7D
7E
7F
03
06
07
7E
7D
07
02
03
0C
79
09
04
75
08
7C
08
00
77
04
7C
7D
76
77
00
01
5E
07
76
00
7C
0D
00
1C
04
78
06
02
7D
02
0D
63
66
06
56
0D
0C
7F
18
06
7E
79
09
71
7C
30
7F
6D
6D
71
65
72
74
12
18
7F
15
78
70
06
7F
78
7F
7C
06
06
03
06
7B
07
7E
05
00
78
79
7E
08
05
73
06
04
05
7E
75
7F
06
03
03
7A
7D
77
09
7C
7C
79
03
77
05
00
06
02
01
04
7F
7C
02
08
01
74
7B
7A
7B
7D
72
06
01
08
02
7A
07
7F
6D
7C
70
7B
02
0E
77
04
03
7D
05
0C
6E
0A
04
76
00
7D
03
71
03
6E
0A
7A
76
01
7C
07
04
0B
7F
0A
68
79
0A
74
7A
07
7C
7D
7D
05
04
02
7B
75
79
7A
7E
7F
06
7C
7D
09
05
00
7E
05
7E
78
75
7E
7C
77
03
08
00
7C
08
03
12
04
74
78
00
71
04
79
03
04
03
03
0A
79
03
7F
7E
77
7E
7E
7C
79
05
03
09
74
02
72
04
79
0A
03
02
03
07
02
04
7D
77
0A
73
6C
7B
7C
0C
0A
7B
7C
04
7E
05
74
74
7C
7E
00
06
09
79
01
7D
7F
0E
7A
01
7F
7E
7A
01
04
7F
01
06
04
7D
7C
7F
00
08
06
07
7E
00
79
01
08
76
7D
7F
7E
7F
00
76
7E
00
7C
00
03
06
7E
00
76
7B
7B
7E
02
7D
7A
7A
0A
03
7F
05
01
7C
00
00
7B
7E
04
7C
7B
03
01
02
64
7D
09
0D
00
0B
04
0E
03
06
03
7E
08
03
06
65
6B
73
70
03
04
77
0B
09
70
06
7F
72
02
0E
7B
74
76
7D
71
02
7C
07
0C
0D
05
7C
79
01
7C
7D
7F
00
7D
7D
00
03
73
7E
77
7A
7C
7E
04
0C
75
01
7C
04
01
7F
7B
7F
0C
7D
05
05
6A
78
03
7C
78
79
7E
75
7D
09
0C
7C
04
04
0A
04
76
73
7B
77
7B
01
00
7B
01
7B
7C
01
0D
7D
7A
74
78
76
7C
7C
06
7E
75
01
7A
7A
7C
7F
03
7E
07
7E
02
7D
76
78
06
70
74
7B
77
74
7E
05
05
76
7E
7F
0C
01
78
02
04
79
0E
7C
7E
7B
7D
75
74
79
07
07
09
76
04
72
7B
7E
0B
02
7A
08
07
7A
76
09
08
00
04
7C
7C
7E
77
04
7A
7E
02
07
02
7B
00
7C
7C
75
07
79
07
6C
0A
10
6C
00
01
78
78
03
7D
0C
7C
06
79
09
7C
08
05
00
03
00
08
08
7A
0B
79
79
72
73
73
7D
7C
07
7F
03
79
01
0D
03
7D
79
05
7B
7A
0D
03
7B
04
01
03
0F
7F
02
06
7D
02
03
02
7B
07
74
04
79
10
00
08
09
7F
03
03
76
6D
7A
1A
76
79
03
79
7F
7E
7A
00
05
78
01
0D
03
05
7A
73
03
04
02
0A
72
72
01
00
02
75
7D
02
6B
0F
7A
09
7A
7C
78
0B
02
7E
6F
06
02
0B
01
7C
7C
02
05
08
79
12
7F
02
7F
02
7F
02
79
03
01
6B
7C
08
06
7A
0E
07
14
7D
7A
0D
6C
78
7C
73
7C
05
76
01
04
74
03
7F
78
7E
0C
7C
75
09
09
01
05
04
03
00
0C
7F
0C
7E
7A
78
03
08
03
7F
7E
00
05
70
78
09
78
0E
06
76
7E
0E
7B
7B
1D
09
7E
6F
77
71
06
72
7C
08
13
09
06
7B
79
79
77
7C
01
79
7E
74
7D
01
04
00
01
05
0B
01
7F
02
01
08
7F
0B
6C
75
79
7B
0A
7A
02
7E
11
76
06
7D
05
02
04
7F
76
7D
07
7E
7B
7A
04
02
04
0B
06
04
05
78
74
00
00
7B
74
0F
7D
05
01
04
7E
02
7E
01
02
06
79
07
79
7A
05
06
79
07
00
7D
79
7E
7E
00
07
7F
09
7D
7D
00
7C
06
7C
7F
7A
04
6F
01
07
74
7D
7D
7E
7C
74
7E
04
77
74
74
7E
04
7D
03
79
7F
05
04
0A
05
02
02
78
03
77
73
03
74
00
02
01
79
7C
78
7F
03
00
01
04
79
7A
7E
05
77
77
7E
07
06
03
79
78
73
79
7F
6D
05
03
01
79
04
7C
00
02
7C
06
04
05
7A
7E
0A
00
7C
7D
7B
77
71
6B
7D
05
02
05
05
05
03
0A
7D
7B
7F
0F
7E
75
7C
7B
7D
7C
7A
06
7E
09
7D
04
7C
01
7E
7E
7D
7B
70
00
0B
7F
07
74
7E
74
7E
7D
01
7E
06
04
06
7C
7C
12
07
78
08
7B
73
7C
7E
06
0A
71
03
10
79
75
02
03
7A
64
02
7A
02
73
6F
76
7C
75
7D
78
01
78
00
7B
77
71
77
06
01
00
7B
7F
76
02
01
07
00
01
7F
7E
7E
70
75
7F
7F
03
7B
04
7E
02
7C
00
7E
7C
7A
02
79
07
0B
00
01
72
0F
03
7F
07
73
00
03
7A
04
76
7E
00
76
7A
6D
02
01
79
7E
7B
00
7D
04
07
77
01
02
00
07
6D
6B
08
7A
7B
00
00
78
01
7F
7D
04
06
01
02
05
73
7B
03
7A
74
03
77
0A
0A
7A
78
7C
02
04
7B
01
7D
7C
76
7D
01
00
7F
02
00
77
01
7B
01
01
79
01
03
7C
74
79
77
7E
7B
74
7D
04
7D
7C
0C
01
03
05
7E
7E
79
06
01
04
7D
06
02
03
06
7C
7B
03
7B
05
73
03
7D
03
73
65
6D
02
0A
01
02
03
09
0A
08
76
01
00
03
0B
67
6E
06
7A
78
05
79
00
04
77
0F
00
70
00
14
6B
72
7C
01
7B
7A
01
10
0F
0C
01
01
03
7B
00
04
0B
08
0B
7A
03
01
00
74
01
79
7B
7B
00
04
74
01
00
7D
7D
7F
09
76
0A
75
01
03
02
7F
01
00
7D
78
7E
72
03
03
7C
6D
0B
01
74
06
6C
7B
6E
7A
7D
76
01
07
7E
05
7C
7F
11
07
75
6E
00
5C
02
73
7C
05
7C
00
6F
05
7F
08
07
00
09
03
7E
7F
04
07
0F
7E
7D
04
05
6F
00
06
06
6A
0A
02
7E
04
6A
6E
78
7C
12
7B
03
0E
0C
7A
08
0A
06
02
01
70
7F
7E
7E
09
04
7F
7A
06
00
04
7E
7D
02
74
7C
7B
7F
7B
7E
03
7C
7C
05
00
01
7D
7F
04
01
75
01
00
01
7D
7E
05
71
79
7F
00
04
05
03
0A
04
7F
01
04
01
76
7B
06
05
00
7B
0A
75
7D
73
79
75
77
7E
7E
06
7A
05
78
7B
00
09
09
00
76
7D
7D
7D
05
0D
75
09
01
7C
10
72
7A
70
7F
6D
7B
04
0C
7D
7F
02
09
14
01
74
02
02
7E
78
72
6C
75
03
6B
79
04
7F
13
0E
10
00
7B
04
7B
05
7C
13
03
63
04
7C
74
06
7E
79
75
01
14
7E
00
69
6A
07
01
74
7A
78
71
79
7E
7B
7B
03
79
76
09
02
7C
7E
7A
73
05
02
78
01
79
01
7C
77
71
7C
06
78
7F
7C
02
01
06
76
02
7A
7A
7C
7C
06
7F
04
01
7F
06
74
00
73
7E
7D
7F
02
1A
7B
70
11
10
66
02
02
0B
00
7B
03
08
09
7D
72
03
73
7E
08
7F
7B
00
66
04
0D
78
7E
04
5E
09
01
69
7B
14
72
68
7D
03
6C
11
00
7B
0F
0A
07
7D
75
02
7B
75
7B
05
73
7C
05
7D
07
01
05
7F
04
05
02
03
04
02
0C
02
7B
7D
6F
03
7B
01
7B
7F
72
7B
7C
04
00
09
04
04
02
71
7C
02
7A
7E
01
05
06
09
7F
7D
7B
76
05
6F
09
78
01
79
05
78
78
01
04
04
7C
7D
05
0D
06
77
7F
75
02
01
76
71
04
7B
7B
7D
01
7D
7A
07
7A
7E
7D
77
03
79
07
06
05
77
06
7D
01
03
7A
7A
06
79
7A
7A
00
02
76
7B
74
7D
0A
04
7A
7D
7C
04
0F
07
7B
01
7D
79
7A
76
6F
03
01
77
03
79
77
09
77
7C
09
76
7B
0D
07
78
06
7A
07
77
0C
03
09
14
73
00
74
04
05
75
01
0A
7E
7B
7B
7A
7C
00
7E
7B
78
7B
08
03
01
76
79
02
06
78
71
7D
72
00
7B
05
75
77
0D
06
7C
7B
01
7B
01
06
06
01
7E
00
7F
0A
7D
02
01
7D
78
01
02
7B
78
0C
7C
7E
10
0E
72
7F
7B
02
7B
7D
75
7A
79
7E
7A
7D
72
0C
09
73
0C
7E
7A
7F
7A
06
0B
7A
03
08
7F
68
03
10
04
75
07
7F
7F
04
6A
6C
01
01
7F
7F
7B
78
7E
01
00
7A
7B
7E
7F
7F
79
7F
03
06
7D
0D
01
00
05
7B
01
7A
79
7D
01
7D
03
00
01
03
7E
04
7A
76
7E
09
00
7D
09
7E
7C
7C
01
7D
03
05
00
76
06
05
79
78
05
02
7A
78
7F
07
03
01
7E
04
7D
7E
0D
04
02
01
02
00
01
7D
74
00
7F
7C
7F
00
04
01
7D
06
00
04
7B
7F
07
76
02
08
00
79
7B
76
05
00
7B
03
7B
78
01
7B
78
03
7E
7B
7B
00
01
00
01
03
7D
76
02
02
7D
01
03
00
7D
04
78
0B
77
01
77
7E
6F
7B
00
03
00
09
7C
77
00
7A
7D
0A
7B
02
07
7C
09
7F
0D
01
01
7B
02
02
76
7A
79
7B
69
06
7D
05
06
03
00
06
06
07
7C
0E
0F
05
7D
7E
78
03
76
03
7E
78
74
02
75
04
7E
06
7F
06
70
7B
05
05
74
01
07
62
05
0B
08
00
01
7E
7F
00
7D
0B
7B
7C
7D
7D
00
00
03
6E
7D
03
01
03
03
05
7E
02
75
00
7A
71
7D
78
73
03
05
02
0A
09
04
06
02
77
0C
00
7C
7E
7C
00
79
0C
73
01
79
7B
75
02
7E
71
7C
0B
73
79
04
08
00
7C
04
72
7F
6F
7E
01
09
7E
7E
7D
75
0C
00
67
07
00
72
79
04
7F
1B
08
71
0E
79
66
08
00
04
7F
7E
7A
73
0F
70
6E
02
02
08
04
00
03
00
7C
03
04
03
08
12
7B
7D
79
02
03
05
77
02
07
07
75
01
01
7F
78
7B
02
7A
78
7C
72
79
7E
11
04
02
7E
07
02
79
01
76
04
00
7F
00
02
75
03
7B
7D
7A
7B
07
0D
01
02
79
01
04
7F
7D
7A
7C
7B
07
0A
73
05
79
03
76
72
7A
77
7F
7A
00
05
76
00
08
08
79
00
79
71
04
00
06
03
02
02
01
0B
78
04
78
7A
76
77
79
09
6E
77
7A
0F
7F
08
7F
0C
7A
09
03
0B
0A
74
06
7C
7B
7B
03
15
04
18
7D
08
7D
7F
11
0E
04
7A
0C
0C
7F
73
0B
7B
6E
00
71
01
77
0A
7E
77
06
02
70
7B
7E
7F
7A
7D
03
05
00
7B
72
0B
00
04
03
7B
79
07
79
7B
77
00
7C
78
06
73
7C
7A
7E
7D
7E
00
04
0B
79
71
01
01
7F
07
0D
77
00
7F
7E
06
7A
7F
02
02
04
7E
05
77
7F
7D
7C
76
68
05
09
7E
7E
7F
00
01
04
7C
75
03
79
01
79
7C
77
08
6F
77
02
03
7F
7C
7D
76
09
01
01
07
77
75
77
00
76
7B
07
75
06
7D
79
7E
76
7E
7C
7F
71
7A
00
7A
7F
00
7B
7E
7F
01
7A
01
79
7B
06
7E
09
7C
7C
00
7C
04
7D
08
7F
7B
79
74
00
7A
7E
01
05
7D
7D
77
79
05
76
75
01
02
08
00
06
04
79
03
7D
7B
78
7E
75
76
03
05
03
03
7A
00
04
77
03
75
7B
04
7F
02
7D
06
7E
0C
7C
7F
6E
78
71
7F
05
7B
7F
15
7A
7D
7D
77
7A
0E
77
7B
07
78
02
7A
09
78
07
02
79
7E
7A
04
00
00
7C
7C
04
79
01
73
05
7E
00
08
7C
03
07
00
7D
7C
7E
00
71
02
7D
7E
78
78
7A
03
09
09
7A
03
78
03
04
0C
78
07
07
04
02
03
05
02
7F
00
01
75
02
79
71
72
7B
7B
07
07
7C
01
79
02
7A
07
10
77
0A
77
76
02
77
7F
05
04
73
03
7F
08
7F
0B
7A
03
77
03
02
6F
7F
04
00
71
0C
7C
01
09
7A
7F
7B
03
7C
76
7D
02
02
79
0E
0B
7B
7B
03
7E
79
7A
74
7B
7C
02
7B
77
7A
7F
0B
7B
01
7D
76
79
04
74
07
7A
7B
06
7F
6A
08
0E
7F
00
7C
7C
7F
06
6A
6A
01
00
01
7D
7D
04
02
74
7A
04
04
7C
7F
01
7B
05
7E
06
06
05
08
7D
04
77
77
00
7C
7B
03
03
7C
03
79
7B
76
7C
7B
04
7C
0E
07
76
06
7F
05
7B
04
7A
08
03
7A
75
01
00
03
7D
04
7B
09
03
03
00
7D
05
01
7F
04
06
7A
79
02
02
00
00
02
7F
00
7D
7A
7B
03
79
7E
06
79
04
04
05
7D
02
7B
04
76
7C
00
03
7C
01
7C
7E
06
78
7C
7B
7F
77
00
09
7C
7E
02
78
00
7C
7C
7E
03
7A
03
02
03
7C
79
00
7C
01
7E
7D
09
7E
04
7C
7C
7C
0B
09
7C
00
02
79
01
00
07
7B
09
7B
00
08
79
7B
00
00
01
7F
7D
04
7A
79
07
06
7A
01
74
00
77
06
03
08
72
7C
75
02
05
7D
02
7F
7E
05
75
04
7D
05
03
78
6F
76
05
01
7A
06
05
08
78
7E
76
01
74
76
7F
74
04
77
77
7B
01
0B
7C
7A
7F
04
7A
7F
7E
7A
77
7A
7B
75
04
7D
7D
79
7C
7F
79
06
01
74
71
7D
04
7E
78
04
7E
79
7A
7B
78
09
02
6F
78
7A
70
7D
04
7A
05
7E
7C
75
03
76
7B
01
01
6F
7C
7E
07
7A
01
7F
04
03
78
7A
0B
7A
7D
74
75
7A
7E
11
09
7F
7C
7C
0C
78
79
0B
7E
7C
71
01
7D
00
7C
7F
7F
7B
00
78
05
71
02
05
73
7D
7A
75
03
00
7B
03
05
04
7B
03
79
00
79
03
02
03
7A
7E
01
09
01
79
7C
7B
7B
70
74
78
05
7B
06
7D
07
7E
05
7C
7B
0D
09
7C
03
7B
76
03
73
0A
7E
00
79
76
03
7F
04
0F
79
01
01
0B
7E
01
05
05
7F
73
7F
7C
01
0A
02
7F
78
79
00
7C
7E
7C
79
7D
7C
00
7C
02
7B
02
7B
79
7A
7B
08
78
07
79
77
07
06
06
7D
7E
7C
02
7D
77
7F
75
7B
78
77
70
05
00
02
7A
05
79
02
75
03
7F
01
72
7D
7F
00
04
04
03
0D
0B
7B
02
79
03
01
7F
02
07
07
00
76
08
01
03
08
78
02
75
00
03
00
79
71
7C
00
76
77
7A
6D
00
08
08
04
7E
02
03
7E
7F
7F
7C
03
02
05
7B
7A
7E
7E
7C
7D
05
75
7A
7B
04
7D
7D
00
07
78
7C
0B
77
7B
03
7D
79
79
00
01
03
78
00
7F
79
79
7A
05
07
01
02
76
7C
04
01
04
04
7D
01
08
04
7C
04
01
7F
02
76
73
05
7B
79
7F
01
09
00
01
04
7D
79
7D
03
02
7D
7D
79
7C
04
7D
0A
07
00
7E
7A
7C
03
7E
7B
7B
0D
04
04
05
04
01
0F
7B
7A
02
7A
05
00
7B
06
7D
78
04
02
03
08
7A
04
03
7C
79
77
04
00
09
02
05
7E
02
03
7F
7F
7A
02
7F
02
00
7D
05
7A
7A
7E
04
75
7A
70
7A
77
0B
0A
74
05
01
11
7D
01
75
00
0B
73
07
79
7D
07
01
73
02
0A
7F
7A
7F
05
73
7D
6D
7E
77
06
78
7B
0A
7E
09
6F
02
77
0C
03
08
78
00
7E
79
04
7F
06
0D
00
7D
79
01
02
01
7F
02
03
7B
6F
7F
00
75
00
7D
05
00
73
77
01
05
00
05
7B
06
75
05
00
7E
04
06
7E
79
02
02
0C
75
06
7B
70
00
79
04
05
02
7A
06
03
7B
08
06
78
0A
75
7F
75
03
78
0A
04
08
06
79
7C
7C
7F
7C
0D
05
7B
0A
7A
77
04
7B
03
79
7C
7A
06
7E
00
06
02
03
06
0A
03
05
08
03
7E
02
7F
7C
6F
04
6E
63
03
0B
04
05
7C
79
7C
01
73
7F
7F
0A
77
7B
7E
75
04
09
7A
0A
7E
7B
7B
7A
04
03
7D
76
03
79
01
7E
73
03
03
08
69
0A
70
02
7D
7F
79
03
02
78
02
7E
77
79
04
05
72
0A
03
79
03
7D
07
7F
78
7F
7F
7F
7F
01
7D
76
04
00
03
7C
7F
7A
04
7E
7B
09
05
7C
00
7D
7A
02
05
7F
79
7A
78
00
05
0A
03
02
7B
7C
7D
06
7C
04
7C
7C
72
05
07
06
01
03
7B
7B
7E
05
78
00
7C
7C
7A
02
79
05
04
79
79
7C
06
7F
7E
79
06
78
08
00
77
7C
10
00
00
7E
7F
01
02
05
05
75
7B
7C
73
74
7B
7B
02
0A
7B
7D
7E
03
03
7F
7E
03
01
78
79
7D
03
7E
04
01
7A
0C
00
0A
05
7C
06
04
03
73
7B
03
03
7C
05
09
75
13
77
04
09
7D
01
7D
02
7A
7F
02
0A
77
7E
0C
09
7A
0D
75
07
7D
74
02
08
76
71
02
0F
0F
7F
13
7D
08
08
73
7A
7D
7A
02
79
00
05
03
7F
7C
7F
08
01
6A
01
6C
10
68
09
7A
74
7C
78
7A
7D
78
11
7F
01
7D
04
6A
06
04
7A
01
7A
7E
0A
0E
7E
7B
17
03
77
08
73
73
79
6B
7D
7C
79
7B
7C
7E
02
0B
7A
00
07
18
6F
7D
7B
70
07
78
01
7E
05
07
7B
7A
02
79
10
78
7F
78
08
76
09
7B
6D
7A
7E
79
06
0C
7F
7B
1F
05
78
7E
73
7E
7C
72
77
00
7B
73
04
7C
7C
0F
7A
00
7B
0A
7B
70
68
7E
7D
77
00
7E
01
7A
02
09
7B
79
7A
79
7A
7A
00
74
02
03
71
02
77
7C
10
10
77
73
1D
05
02
0D
6E
76
01
73
75
77
06
0A
76
02
05
0D
00
02
0A
12
7A
79
69
73
74
6A
0B
7E
0B
70
7E
7C
05
7B
0A
7A
79
02
10
7E
04
7A
01
05
01
02
02
01
7E
7F
09
05
77
7F
06
01
76
7D
7F
03
00
7B
7F
7E
7F
01
7E
01
7D
07
70
76
7C
74
0A
75
06
00
7A
06
7D
7C
7B
01
7D
08
73
7D
00
02
05
7D
02
7A
7C
7E
74
74
06
03
75
7E
03
02
01
07
7B
06
01
08
7E
02
02
7C
04
7C
78
04
08
7C
00
06
7F
07
79
07
7A
02
04
01
7C
01
78
77
7C
7D
6E
74
7C
07
7E
09
7E
78
74
01
03
0C
01
7E
08
05
79
78
02
7C
03
7A
7C
76
77
74
00
78
06
00
0C
02
00
03
70
7B
7D
7B
74
07
76
07
0E
7D
78
7F
77
04
09
00
02
06
7B
7D
76
00
03
79
06
7F
02
7D
7C
07
7F
03
7D
00
79
05
7D
04
7A
00
02
05
7D
03
06
7F
77
7A
09
02
02
02
7D
08
02
7C
00
7D
7D
09
01
08
79
7F
72
74
7A
79
7C
00
00
7A
0C
7C
75
7B
07
02
7E
08
10
7A
08
09
08
09
02
79
06
7F
06
02
7E
7F
0D
00
7B
7C
7C
03
02
7D
79
72
02
78
07
7D
02
06
03
78
00
79
74
02
6F
74
72
08
78
07
03
7E
78
04
7D
7F
00
07
7B
7D
05
7E
04
08
7D
0A
07
7C
00
7A
01
09
7D
6F
08
00
7E
75
07
01
09
04
6F
08
6D
08
04
08
00
72
02
78
00
7F
7A
03
0C
07
7A
78
06
7B
09
78
7B
7B
7B
07
77
76
7B
0A
7F
0B
06
08
09
10
03
7E
01
00
7F
79
7B
02
07
03
03
78
79
07
0E
77
14
7F
75
11
7A
00
01
7A
7B
7C
06
03
75
02
79
7E
7E
05
79
02
7D
00
7F
00
10
02
7A
7C
79
7E
74
05
79
7E
02
02
7B
7F
0D
7E
7A
03
76
7E
05
7D
78
00
05
75
01
7C
7B
78
03
02
03
02
7F
76
59
5B
05
07
08
09
77
01
76
00
00
09
7A
00
05
00
01
01
0C
06
77
7F
02
79
7F
01
0B
70
7B
02
08
7B
0B
7F
78
00
7D
07
72
07
6F
15
0C
7D
79
7B
77
00
77
7B
7C
7A
68
03
79
01
07
78
02
00
04
00
00
7C
01
08
76
7D
03
77
00
07
02
79
05
7E
08
7A
78
07
04
7C
05
06
01
01
7B
02
7A
0D
7B
7F
07
76
7F
04
7D
79
0D
7E
7F
0E
75
77
7E
7C
7B
7A
7F
7A
0C
7C
7A
05
7E
01
7C
01
7C
7E
74
7B
04
08
78
0B
78
6F
09
01
7C
7F
0E
00
75
00
08
00
0D
7B
05
05
04
77
01
7C
01
05
77
01
7D
7E
78
07
7C
7C
06
7E
7F
7E
7E
78
7D
04
75
7D
77
7F
01
02
01
04
7E
01
7F
03
0E
7B
04
7B
7E
7A
04
06
78
03
07
07
77
02
7C
05
05
7C
7D
7F
06
7C
05
7B
6E
7D
7E
6C
79
7F
04
04
10
00
0D
01
02
05
06
13
7D
7F
05
01
00
77
04
03
01
78
08
7D
7B
09
7B
02
16
04
7F
05
7D
77
7C
7A
03
10
0A
06
03
05
7B
7F
73
7B
00
78
79
7D
01
02
7E
78
7A
78
7C
07
79
76
03
04
02
7D
04
79
77
7E
79
01
79
79
05
7E
7B
08
03
00
7E
02
00
7D
74
7E
02
06
7E
02
7B
02
7B
78
7D
7E
02
78
01
79
01
05
09
7C
7E
79
72
79
75
01
7E
78
7F
00
05
7F
07
08
02
06
00
7C
04
00
7A
09
03
7B
09
79
6C
05
0A
7C
7D
00
02
0B
7E
6B
7E
04
77
05
02
7E
08
7F
7E
08
02
7C
7E
04
6D
05
6A
78
72
7C
04
00
00
04
7C
7D
06
7C
7C
7F
7D
77
7D
05
70
0E
77
77
08
01
72
01
77
78
00
7F
06
7B
7C
7F
79
0A
7D
00
7B
79
75
00
72
00
69
7F
7D
02
75
01
05
78
7A
79
7E
0B
79
79
02
7C
7F
78
7B
03
00
75
7E
02
04
03
7D
00
00
7A
01
79
77
76
7E
0C
7A
7E
08
06
7F
7C
77
06
00
7A
76
78
7F
7B
7D
7F
7F
7C
08
78
10
05
0E
78
7D
0E
03
7B
7E
7C
76
75
7D
7B
09
75
00
0F
7E
09
7E
05
06
78
06
03
7D
7D
0A
7D
75
70
7E
07
7E
08
06
04
79
79
7D
01
07
09
01
01
6E
7D
75
06
7D
00
7A
76
72
0E
7F
05
7E
7C
00
74
74
74
03
6A
00
7D
00
06
73
05
0C
05
7D
0E
70
73
02
02
08
6D
7E
02
02
05
00
7D
07
78
7B
6D
7A
67
7C
72
0C
05
03
7B
02
7A
1D
15
0B
76
0B
06
02
76
7A
7B
0E
7A
0F
7E
06
73
08
02
0A
0C
00
79
78
00
78
09
7A
01
7E
7E
02
02
12
01
7E
7C
7F
01
0C
0E
07
0A
03
72
70
78
75
02
7F
02
06
77
7E
7F
03
7F
79
06
03
79
01
6A
74
77
7E
05
7B
01
68
07
7F
7F
08
07
6A
7E
0A
75
7C
6A
78
06
7C
7D
06
00
7B
78
02
04
7A
78
76
7D
01
00
08
79
01
7D
7C
78
7A
00
76
01
7C
7B
0B
02
77
05
7F
79
01
05
7F
05
0C
01
06
7D
7B
7F
04
04
7E
7E
7F
7B
7B
7F
7F
7E
03
01
79
7E
03
7A
7C
7E
79
05
77
06
7D
7F
01
06
08
01
7F
03
7F
04
01
7D
08
78
7C
7D
7F
01
00
7F
00
78
7C
06
04
03
0B
7D
02
7E
7F
00
05
79
7B
01
01
7E
02
06
04
7D
7E
05
6A
6C
72
01
72
0C
7B
04
07
79
7A
0A
0B
03
71
02
7A
02
7A
7F
74
09
02
06
7F
03
14
74
7E
78
78
7A
10
7B
76
02
75
0B
71
04
06
04
00
09
02
00
03
04
7A
0A
07
7C
78
0B
77
0A
08
05
00
79
78
04
04
0F
79
6F
78
70
12
00
78
0A
04
77
06
03
7C
10
03
6D
09
7E
68
09
6B
7F
7C
0B
09
77
06
63
74
01
00
7C
01
02
71
02
77
78
73
7B
73
02
00
7D
06
78
7A
00
10
08
75
08
78
7F
79
7D
02
7F
00
00
7B
05
04
7E
0C
00
07
7E
07
7F
7A
02
00
7F
75
0C
7E
09
0B
7E
79
77
7E
7C
01
7D
00
79
7E
10
02
71
03
78
06
03
06
7A
73
06
02
03
77
05
7D
04
72
04
04
74
7A
0C
01
7A
7E
7D
0B
7D
7E
08
05
03
7E
77
02
7A
03
03
7B
7F
03
75
03
01
79
7B
7A
6C
76
07
7D
06
08
7F
06
05
04
7B
04
11
7D
0E
7D
05
00
7D
7D
79
0C
7D
02
00
02
74
05
03
0D
78
0C
7F
78
7D
7E
79
78
7E
7C
04
02
7D
7B
03
7A
7A
05
7E
0A
07
06
6C
6A
04
7A
02
06
00
03
04
09
77
0E
76
03
7E
08
7C
04
7B
6D
05
04
75
7D
06
6C
0A
79
79
06
7D
7C
7E
08
78
0E
0E
7C
08
04
07
00
7D
02
7D
6D
03
03
7D
73
7D
04
7A
04
7A
07
7A
7C
7E
04
01
7F
06
00
00
02
06
7B
03
04
7F
03
00
02
7F
02
7F
06
7C
7D
7D
0D
7F
06
08
77
75
7E
75
7F
78
78
00
03
7A
77
01
00
7F
78
09
08
76
03
03
09
00
79
73
7E
04
75
04
01
7A
08
04
79
0E
0A
75
7B
03
07
7F
00
00
04
01
77
00
05
03
7C
0A
7B
7F
7D
76
7A
7F
7E
71
00
7A
76
77
01
7A
7B
03
07
77
7D
7C
7A
78
76
6B
72
05
01
01
01
76
0C
0A
09
04
02
76
7A
01
75
15
6C
76
0D
05
6F
7B
12
77
7D
02
75
74
00
70
64
08
7C
02
78
7E
6B
7C
75
6C
6D
03
04
7C
7F
7E
05
7C
77
04
02
06
7B
05
03
03
06
01
06
0C
03
03
7A
7D
0A
7F
7B
03
0C
7C
7D
01
05
02
7E
0D
6C
0B
00
01
7E
79
77
7F
79
79
03
7F
03
7A
7F
7E
05
07
00
7D
00
7E
7C
00
7A
7C
7F
05
78
03
7A
06
0D
7D
77
78
7A
79
7B
08
7C
0A
06
7C
0A
02
72
7F
09
70
06
0F
02
0E
79
0E
01
79
7D
7D
78
7E
75
71
75
77
7E
07
01
00
01
78
76
02
05
05
6F
7D
76
79
7A
73
73
0A
02
06
07
7D
04
02
7E
7C
01
7A
01
05
77
7C
78
0A
5F
7B
04
0C
07
00
78
08
7D
7A
13
7E
0E
10
0A
6C
01
7C
72
79
7F
7C
04
0C
77
6E
16
09
01
73
04
07
13
70
70
7F
7F
7E
74
06
7C
18
02
77
7A
7B
09
77
06
75
10
03
78
02
7F
7E
79
7D
04
7A
08
02
76
01
03
0A
7F
75
7C
05
00
02
09
7F
75
09
03
04
7E
7D
0B
0C
7A
7D
0A
71
78
05
78
0F
7C
0D
07
7E
70
03
01
74
00
7A
7A
7A
05
7B
76
00
04
7C
7A
02
79
00
79
77
6C
02
05
08
08
7D
01
02
09
02
78
08
7D
05
7C
7A
7E
7C
77
03
03
7B
01
06
09
78
7C
7E
7F
7B
02
09
7C
00
02
79
73
00
06
09
01
04
00
04
00
7A
00
07
7D
05
04
73
77
02
04
00
7F
77
7E
04
05
79
06
7B
01
02
00
7B
7B
7F
73
05
7A
00
7A
7F
7A
02
7D
01
02
7E
00
7D
01
0A
01
04
00
08
7C
7B
7F
06
78
04
6F
7F
75
6D
72
01
77
0B
03
7E
03
78
03
06
03
7E
7B
7A
77
00
7B
78
0B
04
7D
06
00
73
0A
76
71
7D
77
7C
0B
78
78
07
03
06
6F
0E
74
16
10
09
78
04
7F
79
7A
03
06
79
78
7E
06
02
79
00
7A
03
74
00
04
09
77
7D
78
78
04
7E
08
0C
77
73
02
7D
0B
02
7C
73
7B
7A
6F
05
07
7F
75
13
79
00
02
75
79
69
7C
06
7B
77
77
0A
78
6D
7E
06
7E
0F
05
7D
7B
7A
7B
0B
05
06
72
03
7B
72
75
7B
7E
09
00
02
04
7F
0D
76
7C
72
7A
7C
0B
04
70
03
79
0C
76
01
75
0F
0D
76
77
7B
77
02
73
7B
76
71
75
13
7E
00
06
03
00
79
7F
7C
7B
0E
7E
06
78
79
05
08
7D
10
0C
76
02
05
09
7F
7F
73
0F
03
75
06
7C
7D
7A
0E
72
7B
7C
7D
7D
7C
04
06
7B
01
06
7F
02
04
04
72
72
03
08
79
07
00
05
7E
04
06
04
77
00
03
7A
7A
7D
78
00
05
78
07
7C
7F
7E
7D
76
7C
06
02
7C
78
09
7A
06
7E
7F
06
7B
09
7C
08
04
7D
7F
01
05
05
7F
74
71
7E
79
7F
6C
03
0D
03
06
76
06
00
00
04
79
7A
07
7D
70
06
7E
05
79
05
10
05
7D
00
08
7A
02
7F
0A
77
06
77
01
7D
01
08
00
05
00
7C
66
04
03
7E
77
05
79
7E
0B
79
7F
78
04
73
06
7F
78
00
01
7D
7F
7C
7E
04
03
78
77
08
03
06
06
7E
00
03
08
78
7F
09
05
7F
77
00
79
0B
04
7C
00
78
7D
77
6E
78
7F
79
70
08
01
04
0D
79
0D
01
00
78
78
17
7B
06
7E
7A
06
01
7A
7F
09
6F
01
0B
0B
7D
00
00
0A
02
7E
08
7E
76
07
7F
7A
79
7E
04
01
05
7C
7E
77
79
6F
7E
70
68
67
05
04
05
74
00
7F
7A
7E
7C
72
75
03
05
7A
00
0F
09
02
07
07
79
7A
7B
01
0D
6C
0B
10
7C
73
04
0D
75
7C
05
63
7D
7F
01
7B
00
77
02
78
7C
67
05
73
6F
73
00
7C
06
08
79
05
7D
04
01
7B
0A
7C
0D
01
7F
79
7B
7C
04
08
02
03
01
0B
78
7B
79
04
77
05
76
79
7E
03
00
76
7F
7A
0D
08
03
7F
03
01
05
05
7B
0A
15
15
77
00
6F
71
7A
74
01
61
02
76
61
05
60
7A
77
13
04
10
77
76
7C
04
70
66
17
70
07
7B
06
69
7B
07
7A
0F
74
1B
08
7C
77
5B
0F
7A
7D
01
02
6E
01
65
5B
6B
7E
0A
03
07
7A
00
7C
7B
08
07
00
7A
7C
00
01
75
75
74
0C
05
05
03
79
0A
7F
74
7C
77
7B
0C
76
7C
08
77
0D
4F
09
0C
0C
14
00
7B
00
78
04
02
0B
0C
0B
07
74
79
78
7A
7E
00
7D
7B
7C
7F
69
06
6C
02
06
04
08
02
02
7B
07
7A
7E
70
05
7F
00
79
06
7A
77
10
00
7D
7C
11
00
0A
7E
7B
09
7E
7C
7B
7F
72
00
7B
71
71
10
10
00
7B
7E
0B
78
0D
7F
78
11
75
79
77
7C
76
7A
0F
0C
0E
00
79
00
14
79
6D
7B
02
78
08
7C
7B
04
73
0E
63
7B
0C
7E
78
07
02
05
7E
7C
79
7B
7E
01
7B
02
78
09
7B
01
04
7C
7D
7F
7B
01
78
7E
7E
78
02
7B
7B
7C
7B
7E
7B
7F
01
7D
02
01
01
03
7F
75
7B
06
09
7F
7F
01
05
0E
04
7F
02
02
01
02
7F
01
0B
0C
03
03
02
00
78
04
6A
79
72
7D
01
6B
07
73
7A
7F
08
07
09
05
79
03
79
00
71
08
07
0C
7F
7E
70
06
02
7B
06
7F
11
7C
7F
73
73
05
7F
0F
7B
7D
77
03
02
78
7A
6F
70
0A
07
06
7C
7B
7F
0A
09
06
06
02
77
7D
78
79
04
70
79
7C
05
76
78
6F
7B
0A
11
04
06
7F
70
7E
08
6F
7F
0E
76
0E
09
04
7F
01
05
03
72
00
78
7D
7C
09
0B
01
78
00
7F
7F
7B
00
08
05
7D
07
04
7B
7E
04
01
07
03
01
7D
02
7F
09
06
79
01
7C
7E
05
06
07
72
07
69
00
06
00
0F
78
79
00
01
7D
7B
0F
78
78
09
7E
7D
04
7F
02
7B
7F
02
03
01
09
00
05
7B
7B
0A
01
7C
7F
7C
01
05
7C
06
79
05
03
7E
04
7E
02
77
76
7C
00
7A
03
78
7F
06
70
74
77
05
02
6B
00
77
74
7A
04
0B
05
07
7C
7A
7B
74
7F
00
0A
73
79
03
79
7D
7F
00
10
08
79
7D
7A
0C
74
77
6F
00
7E
7B
07
7A
7E
7F
0E
67
0A
76
7C
01
7D
00
05
04
77
02
7D
10
0C
0E
7B
76
03
74
79
59
7C
76
02
02
76
0C
01
00
05
01
07
03
79
69
7E
79
04
72
02
09
02
78
79
71
05
7F
76
04
73
14
7C
04
71
77
7C
07
7E
7C
02
06
7A
77
7D
79
79
76
78
7E
05
7E
02
11
75
01
0A
05
0E
7B
12
04
01
7C
00
04
78
06
08
7A
7F
06
08
07
7E
07
77
02
00
0A
7B
7D
6E
79
78
76
01
7F
0A
7A
00
7C
7C
75
73
06
78
73
01
00
7C
7E
7B
09
05
01
04
0B
03
7C
01
79
75
00
73
05
7B
06
05
7A
7B
07
0A
06
7E
02
7B
6A
7D
04
71
7F
05
7E
0B
04
0B
00
03
77
04
6F
78
74
77
72
77
03
0A
07
77
07
7A
0C
00
7F
0C
02
0B
79
03
78
77
6C
7F
0C
00
03
0E
09
72
02
07
0F
7E
11
7A
70
7C
06
05
7C
7F
72
07
01
04
7D
7A
79
7B
67
76
71
60
6F
7A
04
7F
04
03
04
7D
0B
0B
7C
7C
16
09
03
00
7E
05
03
70
03
79
7E
7C
00
06
7C
10
06
03
7D
01
08
79
05
74
65
73
03
05
76
09
7B
05
00
04
67
77
7C
71
6D
79
79
02
03
7F
02
7F
7E
02
09
03
01
0C
01
01
7B
73
03
7A
01
78
00
7D
7C
7B
7B
03
00
79
08
7B
7B
07
07
74
77
03
7C
07
06
0A
05
0B
01
01
0F
09
0D
08
0A
7C
01
01
76
05
6A
01
6B
03
04
69
06
68
02
7F
07
08
01
76
75
05
03
78
7B
06
00
7E
77
7D
76
02
00
7F
7B
02
10
06
7C
73
03
7A
03
08
7E
00
7B
04
6E
6B
6C
00
7A
04
75
7F
7E
01
03
0F
7E
7F
7E
7A
04
7A
7C
75
06
7D
7E
79
7B
74
03
76
6D
04
7F
7C
0B
76
7D
08
03
7E
67
00
7B
0A
0B
74
7C
04
03
03
08
09
00
0C
0D
02
7B
7F
7D
77
7B
01
72
7F
00
00
79
6E
7F
06
06
0A
77
7E
04
09
79
02
02
02
08
77
74
7F
02
02
7A
0C
02
06
0C
08
03
75
02
7B
78
7F
00
79
78
7A
70
70
6B
02
05
7F
0C
78
08
06
16
06
04
0E
77
01
04
7E
76
77
04
00
0C
04
7F
05
0D
6B
69
06
08
7C
09
7C
7E
7F
02
05
5C
03
7B
0B
07
04
7A
03
7A
04
77
06
07
01
77
7C
6E
06
7A
04
74
7A
03
04
0B
12
7A
7E
7C
7F
76
77
05
03
74
7C
05
07
12
00
08
7B
7B
7A
7F
7F
06
00
78
05
7F
03
02
05
0F
7B
7E
02
05
7A
0C
7F
0A
09
0E
09
72
7B
73
03
75
7F
64
06
02
76
7D
67
7C
7E
04
06
04
04
7F
0A
78
76
74
06
03
6A
7F
79
6E
7F
04
02
04
06
14
08
05
73
77
7E
02
09
79
00
01
02
0D
05
00
73
68
02
77
79
70
7A
0A
79
01
7D
08
06
06
01
77
72
01
6D
72
75
00
7D
69
02
10
14
0C
7B
71
05
7D
7D
0D
74
07
73
03
7C
72
02
7C
00
7C
06
6E
7E
6E
65
79
7C
0C
07
02
00
7D
7A
03
7F
7B
7E
75
76
04
76
00
7F
7A
7D
07
7A
02
73
79
7D
67
7D
01
04
08
7B
7C
02
05
00
6E
01
7B
01
02
7D
01
7C
02
7A
06
7E
00
0A
7F
05
7A
7D
7B
7F
78
04
7D
05
02
73
7C
00
78
05
7D
74
7A
7A
7B
7A
04
79
01
7A
7B
02
7E
7E
7D
01
04
7E
79
7A
7B
00
02
01
7E
79
02
79
03
7C
6B
7D
6F
75
77
04
7F
7F
02
01
02
05
7E
7D
79
01
6B
78
7B
7D
07
7E
6D
0F
03
06
7A
76
0E
79
6A
70
78
00
05
77
03
05
7A
0D
70
08
75
03
7B
73
79
14
7F
04
72
02
1A
06
74
70
7F
0B
71
7C
6C
04
02
10
06
73
0F
09
03
7B
74
74
08
7F
6A
65
03
7A
7D
0A
13
11
09
7B
71
04
0D
7B
7D
72
0A
73
0A
02
7A
7B
05
07
78
00
09
0A
7F
00
0B
08
02
7A
7F
05
79
7D
0A
76
78
7D
7F
7E
00
04
05
05
08
03
03
7B
06
0F
73
7F
76
77
04
03
79
03
02
74
7D
7F
07
74
76
6F
7B
01
7F
05
00
01
04
01
03
07
0A
75
6E
07
77
78
79
01
09
14
01
74
1C
03
01
01
76
77
76
71
78
77
7D
01
74
01
15
15
02
7A
7B
0E
04
77
78
71
05
75
00
05
00
05
7A
7D
77
02
7B
7E
0A
76
74
68
0C
0B
7E
77
7B
78
19
14
05
0C
17
10
01
05
6B
6C
7E
67
79
76
7C
0C
7E
79
11
1A
01
7F
0A
15
75
7B
79
6A
75
77
05
0C
06
7F
7E
79
7D
03
76
6F
10
64
76
70
7B
78
01
79
02
7E
18
05
72
10
21
25
75
06
6E
76
7C
74
09
61
05
08
02
7C
02
1A
15
02
7A
13
0A
66
7C
72
69
67
05
06
03
77
02
09
78
04
75
78
7B
72
79
75
77
07
76
7E
73
78
11
10
01
7D
15
0C
00
07
7C
6F
7F
77
75
6B
78
77
7F
7D
7F
0F
08
78
7B
00
74
7D
79
78
7F
01
7B
0B
0B
00
03
02
03
03
02
7F
7E
04
7D
7B
00
01
7C
79
74
01
00
04
01
78
01
7F
78
7C
01
77
0D
78
7D
02
7A
77
02
03
7A
05
7F
7C
7A
03
78
03
05
7B
78
0B
78
7D
01
79
7D
0D
79
7D
73
7E
02
77
7E
79
7D
02
75
7D
00
05
10
05
7E
7A
0F
08
7B
7A
74
74
0B
74
00
7A
04
7E
7B
03
00
16
07
7F
7C
7F
05
01
7C
00
78
7E
03
07
01
79
01
04
05
78
07
00
7C
7A
08
00
06
00
7B
79
7A
7B
73
0B
7E
01
7E
7D
77
7D
08
03
7F
01
02
7C
7A
7D
7F
02
7B
7A
7C
04
76
7E
7C
01
7C
02
7B
01
78
79
7C
02
7C
08
03
06
76
01
01
02
64
03
01
7D
7D
7F
77
78
01
78
0F
7F
6C
76
77
76
7C
03
7D
0F
08
0E
00
05
10
7D
76
73
7A
7C
12
61
09
18
7C
15
75
04
7F
00
16
7A
01
0D
01
79
78
04
0E
03
7D
78
76
0C
73
7F
69
7B
02
0B
0E
7C
7F
0C
7C
04
76
7F
0E
04
78
70
7D
7D
04
05
11
0B
11
00
7D
06
06
7F
6E
02
7E
7E
09
09
05
74
7E
6F
79
7B
77
01
06
7B
75
13
05
0A
79
03
7C
04
6D
09
04
79
6F
69
01
08
7E
0E
03
1F
77
79
04
71
19
05
72
72
7B
03
6D
77
0B
0F
77
15
76
13
74
76
73
77
79
18
00
7D
0A
12
17
15
06
7B
6E
04
7C
03
70
7F
01
07
0E
73
11
08
03
7C
00
7F
05
75
65
7B
01
0C
74
02
19
0B
7E
01
70
09
02
7F
79
7D
1B
77
04
00
7E
7B
7F
7C
7D
7F
02
00
7E
71
02
78
05
00
7D
02
7C
03
17
03
7C
0E
04
0D
76
05
72
73
7D
73
08
65
00
01
06
7D
7D
09
01
79
06
7D
6E
74
03
75
75
6E
06
7D
03
7F

