3E37EC08
3E615C94
BE8504C1
3EA32B74
3E78A41C
3EA68536
3DEE96C8
BE49AB01
BEA81C5A
BDD75160
3E6F20E0
3E094662
BE000ADE
BE15221C
3EB70B26
3CA2BDD0
BDFA0B84
3E306810
3E76DEDC
BEA91F9C
3DCF278C
BDF4E43C
BEADDDDD
BCF74B10
BE503D78
3E870E8E
BE92C033
3E443EB0
3EA6D054
3CFA86CF
3EBA2314
BE4BA407
BEB2F335
BDE167B8
3E4AE890
BD0BACAF
3E9AB23C
3E81FB5A
BE7C412C
3EAD4EA2
3D45AE78
BD36F7F9
BD2349A1
3E5C9714
BE1F86FE
BDB7A18F
BD4B8821
3E3AE340
BE24587C
3E852084
BDF4226D
BE90719E
BEB7FFC9
BE543CC7

